#version: 0.2 - Trained by `huggingface/tokenizers`
Ø §
Ġ Ø
Û Į
Ø ±
Ġ Ù
Ù Ĩ
Ù ĩ
Ø ¯
Ù Ī
Ø ª
Ù ħ
Ø§ Ø
Ú ©
Ù Ħ
ĠØ ¨
ĠÙ ħ
Ø§ ÙĨ
Ø§ ÛĮ
ĠØ ¯
Ø ³
ĠÙ Ī
Ø ´
Ġ Ø§Ø
Ġ Ú©
Ø§ Ø±
Ú ¯
Ø ¨
ĠØ ª
Ù ģ
Ø ²
ĠØ ±
ĠÙ Ĩ
ĠÙ ĩ
Ø§ Ùħ
ĠØ¯ Ø±
â Ģ
ĠØ ³
ĠØ ´
ĠØ ¢
Ù Ĥ
ÙĨ Ø¯
âĢ Į
Ø ¹
Ø§ ÙĦ
ĠØ¨ Ùĩ
ÙĪ Ø¯
Ø§ Ø¯
Ø± ÛĮ
Ø Į
ĠÙ ¾
ĠØ ®
Ø ¬
ĠØ§Ø ²
ĠÙħ ÛĮ
ĠØ§Ø ³
Ġ Ø§ÛĮ
ÙĪ Ø±
Ù Ĭ
ÛĮ Ø¯
Ø³ Øª
Ø ®
ĠÙ ģ
ĠØ¨ Ø±
Ø§ Ùĩ
ĠØ ¹
Ø§ Øª
Ø Ń
Ú Ĩ
ĠØ§Ø³ Øª
Ġ Ú¯
ĠØ ¬
ÛĮ ÙĨ
Ø± Ø¯
Ø§Ø ²
ĠÚ© Ùĩ
Ø µ
Ø§Ø ¨
ĠØ¨ Ø§
Ġ ÛĮ
ĠØ§ÛĮ ÙĨ
Ø ·
Ø§Ø ³
Ø± ÙĪ
ĠØ Ń
Ø§Ø ´
ĠØ± Ø§
Ġ Ø§
ĠÙ Ĥ
ÙĦ ÛĮ
ĠØ ²
ÙĪ ÙĨ
Ù ¾
Ùĩ Ø§ÛĮ
ÛĮ Ø±
Ġ ÚĨ
ÛĮ Ùħ
ĠÙĩ Ø§ÛĮ
Ġ Ø§ÙĨ
. .
Ø¯ Ùĩ
ÙĪ ÙĦ
Ùģ Øª
ĠØ¯ Ø§ÙĨ
ÙĪ ÛĮ
ĠÙĩ Ùħ
Ùĩ Ø§
Ø ¶
ÙĪ Ø§ÙĨ
ĠØ¢ ÙĨ
Ø§Ø± ÛĮ
ÙĪ Ø²
ÙĨ Ú¯
Ùħ Ø§ÙĨ
Ø³ ÛĮ
Øª Ø±
Ø´ ÙĨ
Ø± Ø§ÙĨ
Øª ÛĮ
ĠØ¨Ø± Ø§ÛĮ
ĠÙ Ħ
Ġ -
Ġ Ø§Ùħ
ĠØ µ
ĠÚ© ÙĨ
Ú© ÛĮ
Ùħ ÛĮ
Ø °
ĠØ ·
ĠÙħ ÙĪ
Ø§ÙĨ Ùĩ
Ø¯ ÛĮ
ĠÚ© Ø§Ø±
Ġ (
ĠÚ© Ø±Ø¯
Ø§Ø¯ Ùĩ
Ø§Ø ¹
Ú ĺ
ĠØ¯ Ø§Ø±
ĠÙħ ÙĨ
Ø§Ùħ Ùĩ
Ú¯ Ø±
ĠÙħ ØŃ
Ø ¸
Øª Ùĩ
ĠÙĨ ÛĮ
ÛĮ Øª
ÙĦ ÙĪØ¯
Ú¯ Ø§Ùĩ
ĠÛĮ Ú©
ĠÙĩ Ø§
ĠØ® ÙĪØ¯
Ú¯ ÛĮ
ĠØ¢ Ùħ
ĠØ Į
Ġ Ø§Ø±
ÙĦ Ø§
ĠÙĪ ÛĮ
ĠØ¨ Ø§Ø²
ĠØª ÙĪ
Ġ Ø§ÙĦ
ÙĪ Ø´
ĠØ¨ ÛĮ
Ø§ÙĨ ÛĮ
ÙĪ Ùħ
ĠØ¨ Ø§Ø´
Ø§Ø Ń
Ø º
Ø§Ø ®
ÙĨ ÛĮ
Ġ Û
Ø§ÛĮ ÛĮ
ĠÙģ Ø±
ĠÙħ Ø±
ĠØ¯Ø§ÙĨ ÙĦÙĪØ¯
Ø¨ ÛĮ
ĠÙħ Ø¹
ĠØ´ Ø¯Ùĩ
ĠØ´ Ùħ
ĠÙĨ Ùħ
Ø «
ÙĦ Ùĩ
ĠÙ¾ ÛĮ
ĠÙħ Ø¯
ĠÙħ Ø´
Ø±ÛĮ ÙĨ
Ùĩ ÙĨÚ¯
Ú© ÙĨ
ĠÛĮ Ø§
ĠØª Ø§
Ø¯ ÛĮØ¯
Ø§ÛĮ Øª
ĠØ§ Ùģ
ĠÙħ Øª
Ø§ Ùģ
Ø¨ Ø±
ĠØª Ø±
Ġ ,
Ùĩ Ø±
ĠØ¯ Ø³Øª
ĠØ¨ ÙĪØ¯
Ø§Ø± Ùĩ
ÙĪØ± Ø¯
ĠØ´ Ø¯
Ø ¢
ĠØ³ Ø±
ÙĨØ¯ Ùĩ
ÙĤ ÛĮ
ĠØ± ÙĪ
ĠØ® ÙĪ
Ø² ÛĮ
ĠØ¯ ÛĮ
Ø± Ùģ
Ø¨ Ùĩ
Ø§ÛĮ Ø¯
Ú© Øª
ÙĪ Ø±ÛĮ
ĠØ´ ÙĪØ¯
Ø² Ø§Ø±
ÙĦ Ùħ
ĠØ º
Ø¯ Ø±
ĠØ³ Ø§ÙĦ
ÙĪØ² Ø´
ÙĦ Ø§Ùħ
ĠØ¢ Ø²
ĠØ¨Ø§Ø´ Ø¯
ÙĪ Ø¹
ĠÙħ Ø¬
Ø§Ø³ Øª
ĠÚ© Ø´
ĠØ§ÛĮ Ø±Ø§ÙĨ
ĠÙĤ Ø±
Ú© Ø³
ĠØ¯ ÙĪ
ĠÙħ ÙĤ
Ø§ÛĮ Ø´
ĠØ¢ ÙĩÙĨÚ¯
.. .
Ø ¦
Ø¬ Ùĩ
ĠÙħ Ø³
Ø§ ÙĤ
ĠØ¬ Ø¯ÛĮØ¯
ĠØ³ Ø§Ø²
ĠØ¯ Ùĩ
ĠØ¢Ùħ ÙĪØ²Ø´
Ø§Ø± Ø¯
Ú© Ùĩ
Ùģ Ø§Ø¯Ùĩ
ĠØ´ Ø±
Ø§Ø¯ ÛĮ
Ġ |
Ø§ Ú©
Ġ 1
ĠØª ØŃ
ĠÙĨ Ø¸
ĠÙ ĥ
ĠØ´Ùħ Ø§
Øª Ùħ
Ġ Â
Ġ .
ĠØ§Ø³Øª ÙģØ§Ø¯Ùĩ
Ø§Ø ·
Ø§Ø³ ÛĮ
ĠÙĩ Ø±
Ø¨ Øª
Ù ī
Ġ 2
ĠØ¹ Ùħ
ÙĪÙĨ Ùĩ
ĠÚ¯ Ø±
ĠÙħ Ùĩ
Ø±ÛĮ Ø¯
ÙĪØ± Øª
ĠØ² ÛĮ
ĠØ¨Ø§Ø² ÛĮ
ĠØ¯Ø§ÙĨ Ø´
Ù ĥ
Ø§Ø ¬
Ø¹ Ùĩ
ĠÚ© Ùħ
Ø® Øµ
Ø±ÙĪ Ø´
Û °
ĠØ¯Ø§Ø± Ø¯
Ø§Ø ¦
Ø³Øª Ø§ÙĨ
ĠØ³ ÛĮ
Ø§ÙĦ ÛĮ
Ø§Ø® Øª
ĠÚ¯ ÙĦ
Ø§Ø µ
ÙĪ Ùĩ
Ùħ ÙĨ
ĠØ¯ Ø§Ø´
ÙģØª Ùĩ
ĠØ¨ Ø¯
Ø§ ÙĬ
ĠÚ©ÙĨ ÛĮØ¯
ĠÙĩ Ø³Øª
ĠØ¬ Ùħ
Ø¯ Ùħ
Ø® Øª
ĠØ§Ø µ
ÙĨ Ø§ÙħÙĩ
ĠØ³ ÙĪ
Ø± Ø³
Ø± Ùħ
Ø² Ø´
ĠØª ÙĪØ§ÙĨ
ĠÚ© ÙĨØ¯
Øª Ø±ÛĮÙĨ
ĠØ¯ ÙĪØ±
Ø± Ùĩ
ĠØª Ø¹
ĠØ± Ø³
ĠØ¢Ø² Ø§Ø¯
ĠÙģ ÛĮ
Øª ÙĪØ§ÙĨ
ĠÙħ Ø·
ĠØ· Ø±
Â »
ÙĦ ÙĪ
Ø´ ÙĪØ¯
ĠØ§Ø ¹
Ø§ÙĨ Ø¯
Ù Ķ
Ø§Ùħ ÙĦ
ÙĬ ÙĨ
ĠØ± ÙĪÛĮ
ĠØ§Ø ¬
ĠØª Ùħ
ĠÙħ Ø±Ø¯
ĠÂ «
ÛĮ Ùĩ
ĠÙĨ ÙĤ
ĠÙĨÛĮ Ø²
Ø§Ø¨ ÛĮ
Ú© ÙĦ
Ø§ÛĮ ÙĦ
Ù Ģ
Ø§Ùĩ Ø¯
Ú¯ Ø§ÙĨ
ĠØ§Ø ¨
Ø¨ Ø§ÙĨ
ĠØ± ÙĪØ²
ÙĪ Øª
Ø§ÛĮ ÙĨ
ĠØ§ÙĨ Øª
Øª Ø§Ø¨
ĠÙĨ Ø§Ùħ
Ġ Ø§Ø¯
ĠØ³ Ø§ÛĮØª
ĠÙģ Ø±ÙĪØ´
ĠØ§ ÙĪ
Ġ :
ĠÙħ ÙĪØ±Ø¯
ĠØ¨ Ø§ÛĮØ¯
Ø¨ Ø§Ø±
ĠÛ ±
ĠØ¬ Ùĩ
ĠØ§ÙĨ Ø¬
Ø¬ ÙĪØ¯
ĠÙħ Ø§
Ú© Ø§ÙĨ
ĠÚ© ÙĦ
ĠÙĤØ± Ø§Ø±
ĠØ¨ Ø³ÛĮ
ĠØª Ùĩ
Ġ âĢ
Ùħ ÛĮÙĨ
ĠØ¨ÛĮ Ø´
ĠØª Øµ
ĠØ§ÙĨ Ø¯
Úĺ Ùĩ
Ø® Ø´
ĠØ® Ø±ÛĮØ¯
ĠØ¹ ÙĦ
ÛĮ Ú©
ĠÚ©Ø´ ÙĪØ±
ÙĤ Ùĩ
ÙĪ Ø¨
ÛĮ Ùģ
ĠÙĨ Ø´
ÙĨ Ø¬
ĠÙħ Ø§Ùĩ
ĠÙ¾ Ø§ÛĮ
ĠØ§Ø ®
ĠØµ ÙĪØ±Øª
ÙĪ Ø³
ÙĪ ÙĨØ¯
ĠØ§Ø ·
ĠØ§Ø ´
ĠØ ¶
Ù¾ Ø¯ÛĮ
ĠÙĪÛĮ Ú©ÛĮ
ĠÙ¾ Ø±ÙĪ
Ø´ Ùĩ
Ø´ÙĨ Ø§ÙħÙĩ
ÙĨ Ø§
ĠÚ¯ ÙģØª
ĠØ§ ÙĤ
Ø± Ø¨
Ġ ...
ĠÚ© ØªØ§Ø¨
ĠÚĨ Øª
ĠØ´ ÙĩØ±
ÙĨØ¯ ÛĮ
ĠÙ¾ÛĮ Ø´
Ùħ Øª
ĠØ¨ Ø§ÙĦ
ĠØª ÙĦ
ÙĦ Ø¨
ĠØ¯Ø§ÙĨ Ø´ÙĨØ§ÙħÙĩ
ĠØ´ Ùĩ
Ø§Ø² ÛĮ
ĠÚ©ÙĨ ÙĨØ¯
Ù¾Ø¯ÛĮ Ø§
ĠÚ©Ø±Ø¯ Ùĩ
Ø§ØŃ ÛĮ
Ùģ Ø±
Ø§Ùħ ÛĮ
ĠÚĨ Ùĩ
Ġ 9
Ø§Ø± Øª
Ø§ ÙĪØ±
.. ..
ĠÙ¾ Ø³
Ùħ Ø¯
Ø® ÛĮ
ĠØ³Ø§Ø² ÙħØ§ÙĨ
ĠÙģÛĮ ÙĦÙħ
ĠØªÙĪ Ø³
Ø¯ Ø§ÙĨ
ĠØ± Ø§Ùĩ
ÙĦ Ø§Ø¹
ĠÚ¯ÙĦ Ø´ÙĨ
Ø¯ Ø§
Ø Ł
Ùħ Ùĩ
ĠØ¢ÙĨ ÙĩØ§
Ú© Ø§Ø±
ĠØ¨ Ø¹
Ùģ ÛĮ
ĠÙĨ ÙħÛĮ
ĠØ³ Ø§Ø®Øª
ĠÚ¯ ÛĮ
ĠÚ¯ Ø°
ĠØŃ Ø§ÙĦ
Ø¹ ÛĮ
Ø² Ø±
ĠØ¨Ø± ÙĨØ§ÙħÙĩ
Ø´ Øª
ÚĨ Ùĩ
ĠØ´ ÛĮ
ĠØ² ÙħØ§ÙĨ
ĠÙĨØ¸ Ø±
ĠÛ± Û
ĠØª ÙĨ
ĠÚ¯ Ø±Ø¯
Ø® ÙĪ
ÛĮÙĨ Ú©
Ú© Ø±
ĠØ¯ Ø§Ø¯
Ø³ Ø¨
ĠØ§ÙĨØ¬ Ø§Ùħ
ĠØ¹ Ú©Ø³
ĠØ§Ø· ÙĦØ§Ø¹
Ø§Øª ÛĮ
ĠØ§Ùģ Ø²
ĠØ¨ ÛĮÙĨ
ĠØ± ÛĮ
ĠØ§Ø Ń
ĠÙ¾ Ø±
Ø¯ Ø§Ø±
ĠØ¹ ÙĨ
ĠØ¹ Ø§Ø´
Ġ2 0
ĠÚ©Ø±Ø¯ ÙĨ
Ø¨ Ø±ÛĮ
ĠÙĪ Ø¬ÙĪØ¯
ĠØ¨ Ø§Ø±
Ġ- -
ĠØŃ Ø³
ÙĪ Ø³Øª
ĠØ§Ùħ Ø§
Ø±ÙĪ Ùĩ
ÙĪ ÙĤ
Ú© Ø±Ø¯
Ø¨ ÛĮÙĨ
ĠÙĩØ³Øª ÙĨØ¯
Ø¨ Ø§
Ø± Ø§
ĠØ «
ÙĩØ§ÛĮ ÛĮ
Øª Ø¨
ĠØ§ Ú¯Ø±
Ġ Ø§Øª
Ø§Ø ¶
ĠÛĮ Ú©ÛĮ
ÙĨ ÛĮÙĨ
ĠØ¯ÛĮ Ú¯Ø±
ĠÙħ ÙĬ
ĠÙħ Ø§ÙĨ
ĠØª ÙĪÙĦ
ĠÙĪ Ø±
ĠØ¢ Ø¨
ĠØ§ ÙĪÙĦ
ÛĮØ¯ Ùĩ
a n
Ø´ ØªÙĩ
ĠÚ© ÙĪØ¯
ĠØ´ Ø¨
Ø³ Ùĩ
Ø¯ Ø§Ùħ
ĠØ² ÛĮØ±
ĠØ¨Ø³ÛĮ Ø§Ø±
Ø± Ø§Ùĩ
Ù¾ ÛĮ
ÙĦÛĮ Ùĩ
ĠØª Ø¬
ĠÙĩ ÛĮ
ĠØ¯Ø§Ø´ ØªÙĩ
ĠÙĨ Ø³
ĠØ¨ ÛĮÙħ
ĠØ¨ Ø²Ø±
e r
Ùħ ÙĦ
ÙĨ Øª
ĠÙħ Øµ
Ø§Ø² Ùħ
Ø´ Ùħ
ÙĨØ¯ Ú¯ÛĮ
ÛĮ Ø§
ĠØ®ÙĪ Ø§ÙĩØ¯
ĠØ³ÙĪ Ø§ÙĦ
Ø§ÙĦ Ø¨
ĠØ´ ÙĨ
ĠØ¯Ø§ÙĨØ´ Ú¯Ø§Ùĩ
ÙĪ Øµ
ĠØŃ Ø¶
ĠØ¨ ÙĦ
ĠÚĨ ÙĨØ¯
Ø Ľ
Ø³Øª Ùħ
ĠÙĪÛĮ ÙĦØ§
ĠÙģ Ø¹
Ù ĭ
ĠØ¹ÙĨ ÙĪØ§ÙĨ
Ø³Øª Ùĩ
ĠØ¨ Ø®Ø´
ĠØ´Ø± Ú©Øª
ĠØ¨ ÙĨ
Ù Ĳ
Ø§Ø¨ ÙĦ
Ù İ
Ú¯ ÙĦ
ĠØª Øº
ĠÙĨ ÙĪ
Ø§Ø º
ĠØ¹Ø§Ø´ ÙĤ
Ġ )
Ø¨ Ø±Ø¯
ĠØª Ø´
ÙĤÛĮ ÙĤ
Ú© ÙĨØ¯
Ø± Øª
ÚĨ Øª
ÛĮÙħ Øª
ĠØ§Ùģ Ø±
ÙĪÙĨ ÛĮ
0 0
ĠØ± Ø§ÛĮ
ĠÙĨÛĮ Ø³Øª
ĠØ® Ø¯Ùħ
ĠØ³ Ø±ÛĮ
ÛĮÙĨ Ùĩ
Ø±ÙĪ Ø²
Ø¹ Øª
ĠØ§Ø³ ÙĦØ§Ùħ
ĠØ¯ Ø§Ø¯Ùĩ
Ġ 3
ĠÙĨ Ùĩ
ĠÙģ Ø§Ø±
ĠÙĨÙħ Ø§ÛĮ
ĠÙĨÙħ ÙĪÙĨÙĩ
o n
ĠØ °
Ø´ Ø¯
Ø§Ø¹ ÛĮ
ĠØ¨Ø²Ø± Ú¯
ĠØ¢ Ø±
Ú¯ÛĮ Ø±ÛĮ
a r
Ø¨ Ø§ÙĦ
ĠÙħÙĪ Ø¶
Ø±ÛĮ Ú©
ĠÚ¯ Ø±ÙĪÙĩ
ĠÙĩÙħ Ùĩ
Ø¨ ÙĦ
ĠÙħØ±Ø¯ Ùħ
Øª Øµ
ÛĮÙħ ÛĮ
Ø¨ Ø§Ø±Ùĩ
Ø® Ø§Ø¨
ĠØªÙĪ Ø¬Ùĩ
ĠØ¯Ø§Ø´ Øª
ÙĨ Ùħ
ĠÙħ Ø®Øª
ÙĬ Ø¯
ĠÚ© ÛĮÙģ
ÙĨØ¯ Ø§ÙĨ
Øª ÙĪ
ĠØ± ÙĪØ´
ĠÙģØ± ÙĩÙĨÚ¯
ĠØª ÙĤ
ĠØ¯Ø§Ø± ÙĨØ¯
Ġ S
ĠÙħ Ø«
ĠÙĨÛĮ Ø§Ø²
Ú¯ Ùĩ
Ø¬ ÛĮ
Ø§ ÙĪ
ĠØ§ÛĮÙĨ Ú©Ùĩ
ĠÙĩÙħ ÚĨ
Ø±ÙĪ Ùħ
Ġ20 1
ĠØ² ÙħÛĮÙĨ
ĠØ¨ÛĮØ´ ØªØ±
ĠØ¹Ø§Ø´ÙĤ Ø§ÙĨÙĩ
ÙĦ Ùģ
Ø´ ÛĮ
Ø· Ùĩ
ĠÙħØ´ Ú©ÙĦ
ĠØªÙĪÙĦ ÛĮØ¯
i n
Ø§ Ù¾
ÛĮ Ø³
ĠÙģØ¹ Ø§ÙĦ
ĠØ® Ø§ÙĨ
ĠØ² Ø¨Ø§ÙĨ
ĠØ·Ø± ØŃ
ĠØ¹ Ø±
ĠØªÙĩ Ø±Ø§ÙĨ
ĠÙħÙĪØ¶ ÙĪØ¹
ĠÙ¾ Ø§Ø³
ĠØ§ÙĨØª Ø®Ø§Ø¨
Øª Ø±ÛĮ
ĠÙĨ Ø¯
ĠÙĥ Ùĩ
Ø¬ Ø§Ø¯
ĠØ´Ø¯ ÙĨ
³ Û
Ø¯ÛĮ Ø±ÛĮ
ĠØ¨ Ø§ÙĨ
ĠØ³ Ø¨
ĠÙĩ ÙĨ
ĠØ¹Ùħ ÙĦ
Ø´ Ø§ÙĨ
ÙĦ Ø§Øª
ĠØ§ÛĮÙĨ ØªØ±
ĠØŃ Ø¯
Ġ A
ĠØµ ÙĨ
ĠØªÙĪØ³ Ø·
Ø§Ø² Ùĩ
Ø³Øª ÛĮ
Øµ ÙĪÙĦ
Ø± Ø³ÛĮ
ĠØŃ ÙĤ
ĠØ¯ ÙĦ
ĠÚ© ÙĪ
Ø³ Ø§ÙĦ
Ú¯ Ø²
ĠÙĤ ÛĮÙħØª
ĠØ® ÛĮ
ÙĦÛĮ ÙĦ
ĠØº Ø°
ĠØ¢Ø² Ùħ
ĠØ·Ø± Ø§ØŃÛĮ
ÙĨ Ùĩ
Ú¯ ÙĪ
ĠØª Ø§Ø±ÛĮ
ĠÛ ²
ĠÙ¾ Ø±Ø¯
Ġ "
ĠØ® Ø·
ĠÙħ Ø®
ÙĪ ÙħÛĮ
ĠÙħ Ø¯ÛĮØ±ÛĮ
ĠØ³ Ùĩ
ĠÙħ Ø³Øª
Ø¶ Ø§
ĠØª Ø¨
ĠØ¨Ùĩ ØªØ±ÛĮÙĨ
ĠØ§Ø³Øª Ø§ÙĨ
Ø§Ø¯ Ø±
ĠØªØº ÛĮ
ĠÙĩÙħ Ø±Ø§Ùĩ
Ø³ Ø§ÙĨ
ĠØ¯Ø± ÙħØ§ÙĨ
ĠØº ÛĮØ±
Øµ Ø¯
ĠØ² ÙĨ
ĠÚ©Ùħ Ú©
ĠÙħØ¯ ÛĮØ±
Øµ ÛĮ
Ġ P
Ø§Ø³ Ø¨
ĠÙħØª ÙĨ
ĠØ¯Ø³Øª Ú¯Ø§Ùĩ
ĠÙĪ Ø¨
ĠÚ© Ø§Ùħ
ĠØ§ ÙĬÙĨ
ĠÙħØŃ ØµÙĪÙĦ
Ø¨ Ø§Ø´
ĠÙ¾ ÙĪØ³Øª
ĠØ§Ø·ÙĦØ§Ø¹ Ø§Øª
ĠÙħØ¯ ÙĦ
ĠØ¬ Ø§Ùħ
ĠØ® Ø¨Ø±
Ø§Ø¨ Ø±
ĠØ¯Ø± Ø¨Ø§Ø±Ùĩ
Ø§ÛĮ Ùĩ
ĠØª Ú©
ĠØ¨ÙĪØ¯ Ùĩ
Ø²Ø§Ø± Ø´
ĠÚ©ÛĮÙģ ÛĮØª
Ú¯ Ø°
ĠØ¯ ÛĮØ¯
ĠØ³ÛĮ Ø³ØªÙħ
ĠÙĪ Ø§ÙĤ
ĠØ§ÙģØ± Ø§Ø¯
ĠØªØºÛĮ ÛĮØ±
ÙĢ ÙĢ
ØŃ Ùĩ
ĠØ¬ ÙĨ
ĠÚĨ ÛĮ
Ø¯ ÙĨ
ĠØ± Ùħ
ĠØ¹ ÛĮÙĨÚ©
ĠØ¢ÙħÙĪØ²Ø´ ÛĮ
Ù ĳ
ĠØ ¸
Ø¯ Ø§Ø¯
ĠØ§Ùħ Ø§Ùħ
ÙĬ Ø±
Ø¶ ÛĮ
ĠØª Ø±ÛĮÙĨ
ĠÙħØ¹ Ùħ
Ø§Ø¦ Ùĩ
ĠØ¯ÙĪØ± Ø¨ÛĮÙĨ
ĠÙħØ§ÙĨ ÙĨØ¯
ĠÙĨ ÙĪØ¹
ĠÙĪÛĮ ÚĺÙĩ
Ø¨ ÙĪ
ÙĪØ¯ ÛĮ
ĠØ§ÛĮ Ø¬Ø§Ø¯
ÙĩØ§ ÙĬ
ĠØ¨Ø¹ Ø¯
Ø £
Ú¯ Ø±ÛĮ
ĠÚ¯ Ø²Ø§Ø±Ø´
ĠÙĨ Ø±Ùħ
ĠØ§Ø± Ø§Ø¦Ùĩ
Ġ Ø§Ùĩ
ĠØ± ÙĨÚ¯
ĠØ¯Ùĩ Ø¯
ĠØ§Ø³ÙĦØ§Ùħ ÛĮ
ĠØ¯ ÙĪÙĦ
ĠÙģ Ø±Ø¯
ĠØ§Ø¬ ØªÙħ
ĠÙ¾ Ø²Ø´
ÙĨ ØªÛĮ
¹ Û
ĠØ® Ø§Ø±
ĠØ³ Ù¾
ĠÚ¯Ø± ÙģØªÙĩ
ĠÙħÙĩ Ùħ
Ú¯ÙĦ Ø´ÙĨ
ÙĪ Ø§Ø±
ÙĪÛĮ ÛĮ
ĠØ´Ùħ Ø§ÙĦ
Ø³ ÙħØª
ĠÙĪ ÙĤ
ĠÚ© ÙĦÛĮ
Ø² Ø§ÙĨ
Ø§Ø´ Øª
ĠØ¨Ø¯ ÙĪÙĨ
Ø¯Ø§ÙĨ ÙĦÙĪØ¯
ĠÙĪ Ø§Ø±Ø¯
ĠØ¬ ÙĪ
ĠÙ¾Ø§Ø³ Ø®
Ġ M
ĠØ± ÙģØª
ĠÙģØ§Ø± Ø³ÛĮ
ĠØ² ÙĨØ¯Ú¯ÛĮ
Ø§Ø± Ú©
Ùģ Ø§
ÙĦ Ø§ØŃ
ĠÙħØ®Øª ÙĦÙģ
Ø§ÙĦ Ùĩ
Ø² Ùĩ
ĠÙ Ĭ
Ø§ÛĮ Ø·
ĠØŃ Ùħ
ĠØ®Ø¯Ùħ Ø§Øª
ĠÚ© Ø§ÙĨ
Ùģ Ùĩ
ĠÙĨ ÙĪØ±
ĠÙħØ¯ÛĮØ±ÛĮ Øª
Ġ D
ÙĦ Ø§ÙĨ
ĠØ®ÙĪ Ø§Ùĩ
Ø± Ú©
ÙĤ ÙĦ
ĠØ´Ø± Ø§ÛĮØ·
ĠØ¯Ø§Ø± Ø§ÛĮ
ÙĪ Ø§Ø¹
ĠØ« Ø¨Øª
Ú¯ Ø±Ø§ÙĨ
ĠÙĨ ÙĪØ´
ĠØ§Ùħ Ú©Ø§ÙĨ
Ø±Ùģ ÛĮ
ĠØ¢Ùħ Ø±ÛĮÚ©
ĠØ¯ÙĪØ± Ùĩ
Ġ C
Ø¯ ÙĪ
Ú©ÙĨ ÙĨØ¯
Ø´ Ø§Ø±
ĠÙĦ Ø¨
Øª Ø§ÙĨ
ĠØ¢ ÛĮ
Û ±
ĠÙħ Ùħ
ĠØµ Ùģ
ĠØ§Ø¯ Ø§ÙħÙĩ
ĠØªÙħ Ø§Ùħ
ĠÙĪ ÙĦÛĮ
ĠØ³ ÙĦ
ĠÙĤ Ø·
Úĺ ÙĪÙĩ
ĠØ¨ Ø§Ø¹
ĠÙ¾ÛĮ Ø§Ùħ
ĠØ§ÙģØ² Ø§ÛĮØ´
ĠØ´ ÙĪÙĨØ¯
Ø§Ùĩ ÛĮ
ÛĮÙĨ ÛĮ
ĠØ§ÙĨ Ú¯
ÙĪØ¯ Ùĩ
Ø§Ùģ ÛĮ
ĠÙħØ³ Ø¦
ÙĨ Ø²
Ú¯ Ø±Ø¯
ĠØ§Ø¬ØªÙħ Ø§Ø¹ÛĮ
Ø¹ ÛĮØª
ĠÙĤ Ø³ÙħØª
ĠÚ¯Ø± ÙģØª
Ú¯ ÙĪÙĨÙĩ
ĠØ¨Ø§Ø¹ Ø«
a l
o r
ĠÙĩ Ø¯
Ú¯ ÛĮØ±
ĠÙħ ÙĦÛĮ
ĠØ® Øµ
ĠØ¬ Ø§ÛĮ
ĠØ¬Ùĩ Øª
ĠÙĩÛĮ ÚĨ
ĠÛĮ Ø§Ø¯
ĠØªØŃ ÙĤÛĮÙĤ
ĠØ§ÙĤ ØªØµ
Úĺ ÛĮ
ĠÛ±Û ³Û
ĠÙħ ÙĪØ²
ĠÙĩ ÙĪ
Ø§Ø¹ Øª
ĠØ¬Ùĩ Ø§ÙĨ
ĠâĢ ĵ
Ġ9 4
ĠÙ¾ ÚĺÙĪÙĩ
ĠÙħØ¬ Ùħ
a d
Øµ ÙĦ
ĠÙħØ± Ú©
ĠØ±Ø§ÛĮ Ú¯Ø§ÙĨ
ĠÙĩÙħÚĨ ÙĨÛĮÙĨ
ĠÚ© Ø§ÙħÙĦ
Ú¯Ø± Ø§Ùħ
ĠÚ©ÙĪØ¯ Ú©
Ø±ÛĮ ÙĤ
ĠØ§Øµ ÙĦÛĮ
Â Ń
ĠØ®Øµ ÙĪØµ
ĠØ¯Ø± Ø³
ĠØ§Ø± ØªØ¨
ĠØ§Ø±ØªØ¨ Ø§Ø·
ĠÙĨ Ø§ÙħÙĩ
ĠØ¨Ø§Ø´ ÙĨØ¯
ÙĪØ¹ Ùĩ
ÙĪ ÙĦÛĮ
ĠØ¹ÙĦ ÙĪÙħ
Ø± Ø§Øª
ĠØ§Ø³Øª Ø®
ĠÚ©ÙĨ ÛĮÙħ
ĠÙħÙħ Ú©ÙĨ
e s
ĠÙħØ¬ ÙĦ
ĠÙĨØ³ Ø¨Øª
ĠÙĩØ§ÛĮ ÛĮ
ĠÙħÙĨ Ø§Ø³Ø¨
ĠÙģØ¹Ø§ÙĦ ÛĮØª
e n
âĢ ¦
Ø±ÛĮ Ùħ
ĠØ§ÛĮØ±Ø§ÙĨ ÛĮ
ĠÚ©ÙĨ ÙĨØ¯Ùĩ
Ø¯ Ø§Ø±ÛĮ
ĠÙĤ Ø§Ø¨ÙĦ
ĠØ§ÙĨ ÙĪØ§Ø¹
ĠØ¹ ÙĦÛĮ
ĠØ· Ø¨
ĠØ¬ ÙĨÚ¯
ĠØ§Ùģ Ø²Ø§Ø±
ĠØ³Ø§Ø² ÛĮ
ĠØ³ÙĪØ§ÙĦ Ø§Øª
ĠØ® Ø§ÙĨÙĩ
ĠØ¨Ø± Ø®ÛĮ
ĠÚĨ Ø´Ùħ
ØªÙĪØ§ÙĨ Ø¯
Ø§Ø «
ĠØ§Ùħ Ø±ÙĪØ²
ĠÙĦ ÛĮ
ĠØ²ÛĮ Ø¨
ĠØ¨Ø§ÙĨ Ú©
ĠÙģ ÙĦ
ĠÙģ Ø§ÛĮÙĦ
ĠØ¯ÙĪÙĦ Øª
ĠØ³ Ø·
ĠÙħÛĮ ÙĦÛĮ
ĠÙħ ÙĦ
ĠØ§Ø «
Ø² ÛĮÙĨÙĩ
ĠÙĩÙħ Ø§ÙĨ
ĠØ¯ Ø§Ø®
Ø§Ø® ØªÙĩ
ĠØ§Ø¨ Øª
ĠØ® Ø§Øµ
Û° Û°
ĠØªÙĨ ÙĩØ§
Ġ 5
ĠØ¯ Ø®
ĠØªØ± Ú©ÛĮ
ĠØ§Ø´ Ø§Ø±Ùĩ
ĠØ¨ÛĮÙħ Ø§Ø±ÛĮ
Ġ B
Ġ Úĺ
ĠØ¢ ÙģØª
Ø® Ø§ÙĨÙĩ
Ø±Ø¯ Ùĩ
ĠÙĩÙħ ÛĮÙĨ
ĠÙ¾ Ø±Ø³
ĠÙħØ´ Ø®Øµ
ĠØ´ Ø®Øµ
ĠØ±Ùħ Ø¶
Ø´ÙĨ Ø§Ø³ÛĮ
Ø§ÛĮØ´ Ú¯Ø§Ùĩ
ĠÚ© ÛĮ
ĠØ³ Ø§ÛĮ
ĠØ³ ÙĨÚ¯
ĠÙĨØ´ Ø§ÙĨ
Ø¬ Ø§
Ø´ Ø±
ĠØŃØ¶ Ø±Øª
Ø¨Ø§Ø´ Ø¯
Ø¨ ÙĪØ¯
ĠØ¯Ø± ÛĮØ§
ĠÙģ ÙĤ
ĠØ¯ ÙĪÙħ
Ø« Ø±
a t
Ġ 4
ĠÙħÙĪ Ø§Ø¯
ĠØ¨Ø§ÙĦ Ø§
ĠÚĨÙĩ Ø§Ø±
ĠÚ¯ ÙĪØ´
i r
Ġ T
Ú© Ø§Ø±ÛĮ
ĠØª ÛĮ
ĠÙĪØ± Ø²Ø´
ĠØ±ÙħØ¶ Ø§ÙĨ
ĠÙħØµ Ø±Ùģ
ĠØ¬ ÙĦ
Ø¶ Ø§ÛĮ
ĠØ²ÛĮ Ø§Ø¯ÛĮ
ĠØ§ÙĤ Ø¯Ø§Ùħ
ĠØ²ÙħÛĮÙĨ Ùĩ
ĠØ¨ ÙĨØ¯
ĠÙħÙĨ Øª
ĠÙħØ· Ø§ÙĦ
ÙĬ Ùĩ
ĠØªØ¬ Ø±
ĠÚ© Ø³Ø¨
ĠØ¢ Ø®
ĠØ¨Ø± Ø±Ø³ÛĮ
ĠØ¬Ùħ Ùĩ
Ùģ ÙĤ
ĠØ§Ø³ Ø§Ø³
ÙĬ Ùħ
ĠÙħ Ú©
ĠÙĦ ÙĪ
ĠÚ¯Ø° Ø´ØªÙĩ
ÛĮ Ø·
ĠØ´ Ø§Ø¯
ÙħØ§ÙĨ ÛĮ
ĠØ¨ÛĮ Ø§ÙĨ
Ø¢ ÙĨ
ĠØ¯Ø® ØªØ±
ÚĨ Ø³Ø¨
ĠØ¨Ø§Ø´ ÛĮØ¯
Ø§Ø¶ ÛĮ
ĠØŃ Ø±Ùģ
ĠØµÙģ ØŃÙĩ
a m
Ġ /
ĠØ¨ ÙĨØ¯ÛĮ
ĠØ¨Ø§Ø² Ø§Ø±
ĠÚ© Ø§ÙĦ
ĠØ· Ø¨ÛĮ
ĠØ²ÛĮ Ø¨Ø§
ĠÙ¾ Ø°
Ù ı
ĠÙħ Ùģ
ĠÙĪ Ø§
ĠØ´ Ø§ÙħÙĦ
ĠØŃ ÙĦ
ĠØ¯ ÙĨÛĮ
ĠØ³ Ùģ
ÛĮØ¯ ÛĮ
ĠØ¨ ÙĪ
Ø§Ùĩ Ø§ÛĮ
ĠØ¬ Ø²
Ġ1 3
2 0
Û ²
Ø§ÙĨ Øª
ĠØ§ÛĮ Ùħ
ĠØ¯ Ú©
ĠØª Ùģ
ĠÙĨ Øµ
ĠØªÙĪØ§ÙĨ Ø¯
ĠØ¢ÙħØ±ÛĮÚ© Ø§
ĠØ¯Ø± ØµØ¯
ĠØ³ ÙĦØ§Ùħ
ĠÙħÙĨ Ø·
ĠÙħØ´ Ø§ÙĪØ±
ĠÙħ ÙĩØ±
ĠÙħØ´Ú©ÙĦ Ø§Øª
Ġ I
ĠÙħÛĮ Ø§ÙĨ
ÙĨ Ø§ÙĨ
ĠØ¹ ÙĦØ§
ĠØ¯Ø§ÙĨØ´ Ø¬
ĠÙĨØ¯ Ø§Ø±Ø¯
Ø± Ø®
ĠØ· Ø±ÛĮÙĤ
ĠØ¯ ÙĦÛĮÙĦ
ĠØ³ Ø§Ø¹Øª
Ø² Ø¯
ĠØ´ Ú©
ĠØµ ØŃ
ĠØªÙĪØ³ Ø¹Ùĩ
Øª ÙĦ
ĠÙħ Ø§Ø´
Ø¨ Ø±Ø§ÙĨ
ĠØ´ ÙĪØ±
ĠØ¨Ø± Ú¯
ĠÙĤ Ø¯
ÙĪÛĮ Ø³
Ø§Ø³Øª Ø§ÙĨ
Ø¬ ÙħÙĩ
Ø· Ø±
ĠØ§ Ú©
ĠØªÙĩ ÛĮÙĩ
ĠØ§ ÙģØª
ĠØ´ÛĮ Ø´Ùĩ
ĠØŃØ¶ ÙĪØ±
ĠÙĪ Ø§ØŃ
ÛĮØ¯ ÙĨ
ĠÙĦ Ø§Ø²Ùħ
ĠØ®ÙĪØ¯ Ø±ÙĪ
ĠØ³Ø±ÛĮ Ø§ÙĦ
ĠØªØ§Ø±ÛĮ Ø®
ĠÙħØ¬Ùħ ÙĪØ¹Ùĩ
ÙĦ Ø§ÛĮÙĨ
ĠØª Ø®
ĠØ´ ÙĪ
ĠØ¹ Ú©
Ø§Ø´ ÛĮ
ĠØµ Ø¯
ĠØ³Ø· ØŃ
ĠÙħØŃ ÛĮØ·
ĠÙĦØ¨ Ø§Ø³
Ø³ Ø§ÙĨÛĮ
ĠØ¬ ÙĪØ§ÙĨ
Ø· ÙĪØ±
ĠÙĤ Ø¨ÙĦ
ĠØ¹ÙĦ ÙħÛĮ
ĠÙĪ Ø²
ĠØ´Ø¨ Ú©Ùĩ
ĠÙħ Ø¨
ĠÙģ ÙĨØ§
Ø§Ø¨ Øª
ĠÙħØŃ ØªÙĪ
ĠØ¹ÙħÙĦ Ú©Ø±Ø¯
s t
ĠÙħØ± Ø¨ÙĪ
ĠØ¬Ùħ ÙĦÙĩ
ĠØ¢ÙģØª Ø§Ø¨ÛĮ
ĠÙģÙĤ Ø·
ĠØ¬ Ø§ÙĨ
ĠÙħØ· Ø§ÙĦØ¨
ĠØ§Ø¹ ÙĦØ§Ùħ
ÙĪÙĨ Øª
ĠØ· ÙĪØ±
ĠÙĩØ¯ Ùģ
ĠØ¢ Ø°
ĠØ¹ ÙĦÛĮÙĩ
ĠÙĦ ÛĮÙĨÚ©
ĠÙģØ± Ùħ
ĠÙĪØ§ÙĤ Ø¹
Ø§Ø ¡
ĠØ± Ø´ØªÙĩ
ĠØ¹ Ø´
Ø¬ Ø§ÙĨ
ĠØŃ Ø±
l e
Ø³ ÙĨ
ĠÙ¾Ø±ÙĪ Ø§ÙĨÙĩ
ĠÙĪ Ø³
ĠÙĩ ÙĨÚ¯
ĠØ¹ Ø¨
ĠØ§Ø¬ Ø±
Ø§Ø± Ø§ÙĨ
ĠÙĨ Ø®
Ø§Ùĩ Ø´
ĠØ¬ Ø°
ĠÙħÙĨ Ø¸
ĠÙĩØ§ ÙĬ
ĠØ¯ Ùģ
ĠÙ¾Ø§ÛĮ Ùĩ
ĠÙģØ±ÙĩÙĨÚ¯ ÛĮ
ÙĤ Ø§ÛĮ
ĠÙħØ¹ Ø±ÙģÛĮ
Øª ÙĨ
Ø³ Ø±
ĠØŃ Ø¬
ÙĪ Ú©
ĠØ¯Ùĩ ÙĨØ¯
ĠØ§ÛĮÙĨØªØ± ÙĨØªÛĮ
ĠØ® ÙĪØ§ÙĨ
ĠÙĤ Ø§ÙĨ
Ùĩ Ùħ
Ø¨ Ø¹
ĠØ® ÙĪØ±
Øµ Ø±
ÙĪÛĮ Øª
ĠÙĦ ÙĨØ²
ĠÚ©ÙĪØ¯ Ú©Ø§ÙĨ
ĠÙħØŃØµÙĪÙĦ Ø§Øª
ĠÚ© Ø±
ĠØ¢ Ø³ÛĮ
ĠØ¨Ø³ÛĮ Ø§Ø±ÛĮ
Û µ
ÙĪ ØªØ±
ĠÙħÙĪ ÙģÙĤ
ØªÙĪØ§ÙĨ ÛĮØ¯
o o
ĠØ³ Ø§Ùħ
ĠÙħÛĮ ÙĦ
ĠØ¨Ø± Ø®
Ø¦ ÛĮØ³
ĠØ¯Ø±ÛĮØ§ ÙģØª
Ġ G
Ùħ ÛĮØ±
ĠØ¨ Ø®
ĠØª Ø£
ÙĪÙĦ Ø§
ĠØ¨Ø¯ ÙĨ
ĠØ§ÙĦ Ú©Øª
ĠÙģØ±ÙĪØ´ Ú¯Ø§Ùĩ
.... ....
ĠØ³Ø§Ø®Øª ÙħØ§ÙĨ
Ø¯Ùĩ Ø¯
ĠÙħØ§Ø´ ÛĮÙĨ
ÙĪ Ø§Ø±Ùĩ
Ø³ ÙĦØ§Ùħ
ĠØª Ø§Ø¨
ĠÙĨ ÙģØ±
ĠØ¨Ùĩ ØªØ±
ĠÙħØ¯ Ø±Ø³
ĠØ¯Ø³Øª Ùĩ
ĠØ§ÙĨØ¬ ÙħÙĨ
ĠâĢ ¢
ĠÙĪØ§ØŃ Ø¯
ĠØª Ø®Øµ
ĠØ± Ùĩ
ÙĤ Øª
ĠÚ©Ø§Ø± Ø¨Ø±Ø¯
Ø§Ø ¸
ĠØ§ÙĨ Ø³Ø§ÙĨ
Ú©ÛĮ ÙĦ
Ġ +
ÙĪÙĦ ÙĪ
ĠÙħÙĪ Ø¬ÙĪØ¯
ĠÚ¯ÛĮ Ø±ÛĮ
ĠØŃÙĤ ÙĪÙĤ
Ø´ ÙĪØ±
ĠØ± ÙĪØ§ÙĨ
Ø§ÙĦ Ø§Øª
ĠÙ¾ ÙĨØ¬
ĠÙħÙĪ Ø¨
ĠØ¨ÙĪØ¯ ÙĨ
Ø®Øµ ÙĪØµ
ĠÙ¾Ø±ÙĪ ÚĺÙĩ
ĠØ®Ø§ÙĨ ÙĪ
ĠØ®ÛĮ ÙĦÛĮ
Ùħ ÛĮÙħ
Ø´ ÙĪÙĨØ¯
ĠÚ© Ø§ÙĩØ´
ĠÙ¾Ø§ÛĮ Ø§ÙĨ
ĠØªÙĦ Ø§Ø´
ĠØªÙĦ Ú¯Ø±Ø§Ùħ
Ø®ÙĪ Ø§Ùĩ
Ú¯Ø² Ø§Ø±ÛĮ
ĠÙģ ØµÙĦ
ĠØ· Ø±Ùģ
ÙģØ§ ÙĪØª
a c
i c
Ġ F
ĠÚ©ÙĪ ÚĨ
ĠØ§ÙĨÚ¯ ÙĦÛĮ
Ø¬ Ø±
ĠØŃ ØªÛĮ
ĠØ¢ÙĨ ÙĦØ§ÛĮÙĨ
ĠØ¹Ùħ ÙĪÙħÛĮ
ĠØªÙĪØ§ÙĨ ÛĮØ¯
ÚĨØª Ø±ÙĪÙħ
ĠÙģÙĨØ§ ÙĪØ±ÛĮ
Øª ØŃ
ĠÙĤ Ø¯Ø±
ĠÙĨÛĮ Ø±ÙĪ
Ø¢ Ùħ
ĠØ¬Ø§Ùħ Ø¹Ùĩ
Û Ģ
Ø´ Ú©
- -
a g
ĠÙĨ Ùģ
ĠÚ¯ ÙĪ
ĠØ· ÙĪÙĦ
ÙĦØ§ Ú¯
ĠØ§ÙĦ Ø¨
ĠÙħØ¯ÛĮØ± Ø§ÙĨ
ÙĪ ÛĮØ±
Ùħ Ø§
ĠÚ© ÙħÛĮ
ĠÙĩ Ø²Ø§Ø±
ĠØ¯ÙĪ Ø³Øª
ĠØ¢ ÙĦ
Ø´ÙĨ Ø§Ø³
ĠÙħÙĨØ· ÙĤÙĩ
ĠØ± Ø´Ø¯
ĠØ´ Ú©ÙĦ
Ø§Ø¯ Øª
ĠÙ¾ ÙĪØ´
Ġ1 0
ĠÙħØ³Øª ÙĤ
Ġ m
ĠØ³ ÛĮÙĨ
Ø¹ Ø§Øª
ÙĬ Øª
ØŃ ÙĦÙĩ
Ù¾ ÙĦ
ÙĪØ² ÛĮ
ĠÚ©Ø§Ùħ Ù¾ÛĮ
Ùħ ÙĨØ¯
ĠÚ© Ø§Ø±ÛĮ
ĠØ³ ÙĨ
Ø´ÙĨ Ùĩ
ÙħÛĮ ÙĦ
Ú¯ÛĮ Ø±Ø¯
ĠØ§ÙĦ ÙĦÙĩ
Ø¨Ø± ÚĨØ³Ø¨
ĠØªØ± ÙĦØ§ÙĨ
ĠØ¹Ø± Ø¶
ĠØ¢Ø²Ùħ ÙĪÙĨ
Ġ 7
Ùħ Ø³
Ø§Ø´ ØªÙĩ
ĠØ§ÙĨØª ÙĤ
Ø±ÙĪ Ø³
ĠØ§Ø± Ø³Ø§ÙĦ
ĠØ´Ùĩ Ø±ÛĮ
ĠÙ¾Ø±Ø¯ Ø§Ø®Øª
ĠØ¹Ú© Ø§Ø³ÛĮ
r o
ĠØ¯ ÙĨ
ĠÙ¾ ÛĮØ¯
ĠÚ©Ø±Ø¯ ÙĨØ¯
ĠØ§ÙĤØªØµ Ø§Ø¯ÛĮ
ĠØ§Ø ¶
ĠÙ¾Ø° ÛĮØ±
Ġ [
Ø§Ø¨ Ùĩ
Ø§Ùģ Ùĩ
ĠØ§ÛĮÙĨØªØ± ÙĨØª
ĠØ¬ÙħÙĩ ÙĪØ±ÛĮ
ĠÙĨØµ Ø¨
a s
ÙĦÛĮ Øª
Ù¾ Ø±
ĠØªØ¹ Ø¯Ø§Ø¯
ĠØ¹Ø´ ÙĤ
Ġ R
ĠØ¨ ØŃ
ĠØ¨ Ø³ØªÙĩ
Ġ H
Ø¯ Ø§Ø´Øª
ĠØ³ ÙģØ±
ĠØ® Ø§Ø·
Ø±ÙĪ ÛĮØ¯
ĠØ±Ø³ Ø§ÙĨÙĩ
ĠÙ¾Ø²Ø´ Ú©ÛĮ
Ġ s
ĠÙħ Ø¨Ø§Ø±
ØªØ± ÙĦ
ĠÙħØ±Ú© Ø²
ÙĪ ÛĮÙĨ
ĠØ¢ ÙĦØ¨
Ø±ÙĪ ÙĨ
ĠÙħØ¯ Øª
ĠÚ¯Ø±Ø¯ Ø¯
ĠØª ÙĪØ±
ĠÙĨ Ú©
ĠÙĤ Ø§Ø¨
ĠÙħØŃ ÙħØ¯
ĠÂ »
ĠÙħÙĪØ¨ Ø§ÛĮÙĦ
Øª ÙĪÙĨ
ĠØ´ Ø¹
Ø±ÛĮ Ùģ
ĠØ§ÙĨ ÙĤÙĦ
Ùħ Ø¹
Ú¯ Ø§Ø±
ĠØ³ Ø®
ĠÚ¯ Ø³Øª
Ø§Ø² ÙĨØ¯
ĠÙħÙĪ Ø§Ø±Ø¯
ĠÙĨÙħØ§ÛĮ ÛĮØ¯
ĠÙ¾ Ø§Ø±
ĠØ§Ø® Ø¨Ø§Ø±
ĠØªØ¬Ø± Ø¨Ùĩ
Ġ 6
ĠØŃØ±Ùģ Ùĩ
ĠÙħØ±Ø¨ÙĪ Ø·
ĠØ®Ø§ÙĨÙĪ Ø§Ø¯Ùĩ
l o
ĠØ® ÙĪØ´
ĠØ§ ÙĬ
ÙĦØ§ ÙĤ
ĠØ±ÙĪ Ø´ÙĨ
ĠØªØµ ÙĪÛĮØ±
ĠØ§ÙĨÚ¯ÙĦÛĮ Ø³ÛĮ
Øª Ø§
ĠÙħ Ùī
ĠÚ© ÙĪØª
ĠÙĨ Ú¯Ùĩ
ĠÚĨ Ø±Ø§
ĠØ´Ùħ Ø§Ø±Ùĩ
ĠØ³Ø± Ø¹Øª
Ġ t
Ùħ Ø±
Ø§Ø¨ Ø¹
Ø±ÙĪ Ø¹
ĠØŃ Ø§Ø¬
ĠØªØ± Ø¬ÙħÙĩ
ĠØªÙħ Ø§ÙħÛĮ
ĠØ¨Ø±Ú¯ Ø²Ø§Ø±
ĠØ¢ÙĦØ¨ ÙĪÙħ
Ùħ ØŃ
ĠÙĩ Ø²ÛĮÙĨÙĩ
Ø¹ Ú©Ø³
ĠØ¬ Ø´ÙĨ
ĠÚĨ Ú©
ĠÙħØ´ Ø§Ùĩ
ĠØ¯Ùĩ ÛĮØ¯
Ø¯ÙĪ Ø§Ø¬
Û ´
ĠÙ¾ ÙĬ
ĠÚ¯ ÙĪÙĨÙĩ
ĠÙħØ± ØŃÙĦÙĩ
ĠØŃØ§ÙĦ Øª
ÛĮ Ø²
Ùħ ÙĨØ¯ÛĮ
ĠØ§Ø± Ø²Ø´
ĠÙĨÙĤ Ø´
ĠÙ¾ÚĺÙĪÙĩ Ø´
ĠØ§ÙĦØ¨ ØªÙĩ
Ù Ĵ
ĠÚ© Ùģ
ĠØ¨Ø± Ø§ÙĬ
ĠØŃ Ùģ
ĠÙħØŃ ÙĦ
ĠÙ¾ÛĮØ¯ Ø§
i t
ĠÙĪ Ø²Ø§Ø±
ÙĦØ§ Ú©
Ø¨ Ø§Øª
ĠØ¨Ùĩ Ø±Ùĩ
ĠÙģ ÙĪÙĦ
ĠØ§ØŃ Ø³
0 9
Ø± ÙĨ
Ú¯ ÙĪÛĮ
Ø§Ùħ ÛĮÙĨ
Ø±ÙĪ Ùģ
Ø¨Ø± Ø§ÛĮ
ĠØ§ÙģØ² ÙĪØ¯
ĠÙĪØ²Ø§Ø± Øª
ÙĦ ÙĬ
ĠØ¨ Ø±ÛĮ
ĠØ¯ ÙĨØ¯Ø§ÙĨ
ĠØ´ Ø§Ùĩ
ĠØ¢ Øº
Ø¹ ÙĨÛĮ
ĠÙħØª Ø¹
Ø§ÙĪ ÛĮØ±
ĠÙħØ³ØªÙĤ ÛĮÙħ
ĠÙħØ´Ø§Ùĩ Ø¯Ùĩ
ĠØ§Ø« Ø±
Ø¯ Ø¯
ĠØª Ø§Ø«
ĠÙ¾ Ø§Ø´
ĠÙĤ Ø¨
ĠÚĨ ÙĨÛĮÙĨ
ĠÙħÙĪ Ø³
ÙĨÛĮ Ú©
Ø§Øµ ÙĦÙĩ
ĠÙħØ±Ø¯ Ø§ÙĨÙĩ
ĠØ³Ø§ÛĮ Ø±
Ø ¤
ĠÙ¾ Ø§
ĠÚĨ ÙĪÙĨ
ĠÙħØŃ Ø¯
ĠÙħØŃ Ùħ
ĠÙ¾ÛĮ Ø´ÙĨÙĩ
Ø² Ø¯ÛĮ
Ø¹ ØªÛĮ
ĠØ§Ø³Øª Ø§ÙĨØ¯
ĠÛĮ Ùĩ
ĠØ§ÙĦ Ø³ÙĦØ§Ùħ
ĠØ²ÙħØ§ÙĨ ÛĮ
ĠØ¯ÙĨ Ø¨Ø§ÙĦ
Ġ p
Øª ÙĤ
Ø³ Ø§Ø²ÛĮ
ĠØ´ Ø±ÙĪØ¹
ÙĦØ§ Ùģ
ĠÙĤØ± Ø¢ÙĨ
Ø§Ø¦ ÙĦ
ĠØ§ÙĨØ¯ Ø±ÙĪÛĮØ¯
Ø± ÙģØª
ĠÙħ Ø°
Ø® Ùĩ
ĠØ¹ Ø§ÙĦÛĮ
Ø¯ÛĮ ÙĦ
ĠÛ µ
ĠÙĨÙĩ Ùħ
ĠÙħØ« ÙĦ
Ġ N
ÙĪ Ù¾
Ø§Ø± ÙĬ
ĠÙĨ ØªÛĮ
ĠØ® Ø¯Ø§
ĠØ¹ ÙĦÙħ
ĠØŃ Ú©
ĠÙĦ ØŃ
ĠØ¯ÛĮ Ú¯Ø±ÛĮ
Ġ 8
ĠØ± Ùģ
ĠØ´ ÛĮØ±
ĠØªØ´ Ú©ÛĮÙĦ
ĠÙĨ Ø¨
ĠÙħÛĮ Ø²Ø§ÙĨ
Ø§Øª Ø±
Ú¯Ø§Ùĩ ÛĮ
ĠÙħÙĤ Ø§ÙĦÙĩ
ĠØªØŃ Øª
ĠØ¢ Ø´
ĠØ¢ Ù¾
ÙĨØ¯ Ú¯Ø§ÙĨ
ĠÙħÙĩ Ø§Ø±Øª
ĠØ§ÙĪÙĦ ÛĮÙĨ
ĠÙħØ¯Ø±Ø³ Ùĩ
ĠÚ©Ø§ÙħÙ¾ÛĮ ÙĪØªØ±
d e
h e
ĠØ¨ Øµ
ĠØ¯ Ø§Ø³ØªØ§ÙĨ
ĠÚ©ÙĨ ØªØ±ÙĦ
ĠÙĩÙĨÚ¯ Ø§Ùħ
ĠÙģ Ø´Ø§Ø±
Ø§Ùĩ Ùħ
ĠÙĨÙħ Ø§ÛĮØ´
ĠØ¬Ùĩ Ø§ÙĨÛĮ
ĠØ´ÙĩØ± Ø³ØªØ§ÙĨ
ĠÙĪÙĤ ØªÛĮ
ĠÙĨØªÛĮ Ø¬Ùĩ
ĠØ¢ ÙĤØ§ÛĮ
ĠÙģ ÙĪÙĤ
Ø¸ Ùĩ
ĠÙħØ¹ ÙĨ
ĠÙħØ´ ØªØ±ÛĮ
ÛĮ ÛĮÙĨ
ĠØ¯ Ø§Ùħ
Ø³ Ø§Ø²
ĠØ± Ø¦ÛĮØ³
ĠÙĨ Ø¯Ø§Ø±
ĠØ® Ø±
ĠØ¨Ø± Ø§Ø¨Ø±
ĠØ§Ø± Ø²ÛĮ
ĠØªØŃ ØµÛĮ
ĠÙĨØ¸ Ø§Ùħ
ĠÚ©ÙĪØª Ø§Ùĩ
o t
ÙĤ Ø±
Ø· Ø§ÙĨ
ĠØ¨ÙĨ Ø§Ø¨Ø±
Ø³ ÛĮÙħ
ĠØ¬ ÙĦÙĪ
ĠÙħÙĨ Ø§Ø¨Ø¹
ĠÙħÙĩ ÙĨØ¯
ĠØ±Ø§Ùĩ ÙĨÙħ
ĠØ®Ø§Ø± Ø¬ÛĮ
o s
u s
Ġ #
ĠÙħ Ø§Ø±Ú©
ĠÙħ Ø®ØµÙĪØµ
ĠÚ¯ ÙģØªÙĩ
ĠÛĮ Ø¹ÙĨÛĮ
Ø±Ø§ÙĨ ÛĮ
ĠÙĨÙħ ÙĪØ¯
ĠÚ©Ø´ Ø§ÙĪØ±
Ø¶ÛĮ ØŃ
ĠØªØ®Øµ ØµÛĮ
Ø¯ Ø±ÛĮ
ĠÙħ Øº
Ùģ ÙĨØ¯
ĠØ± Ø§Ø¨
ĠØ³ Ø±ÙĪ
ĠØ³Ø± Ùħ
ØªÙĪØ§ÙĨ ÙĨØ¯
ĠØ¯Ø§Ø¯ ÙĨ
ĠØŃØ³ ÛĮÙĨ
ĠØµÙĨ Ø¹Øª
ĠÛ±Û³Û ¹Û
ĠØ¢ Ø´ÙĨ
Ø§Ø³ Ùħ
ĠØªØµ ÙħÛĮÙħ
ĠÙħÙĪØ² ÛĮÚ©
ĠÙħØ¬ÙĦ Ø³
ĠØ¨Ø±Ø® ÙĪØ±Ø¯
ĠØ¢Øº Ø§Ø²
ĠØ§Ø² Ø¯ÙĪØ§Ø¬
ĠØ²ÛĮ Ø§Ø¯
ĠÚ¯ÛĮ Ø±Ø¯
ĠÙĪØ± ÙĪØ¯
ĠØªØ¨ Ø¯ÛĮÙĦ
ĠØ²ÛĮØ¨ Ø§ÛĮÛĮ
ÙĦ ÙĤ
a y
Ø§Ø¯ ÙĦ
ĠØ¯Ø§Ø± ÛĮØ¯
ĠØ®ÙĪ Ø¨
ĠØ®ÙĪ Ø§Ø¨
ĠÙĨ Ø§
ØŃ Ø´ÙĪØ±
ÙĦÛĮ Øº
ÙĪØ² Ùĩ
ÙħÛĮ Øª
ĠÙħÙĪ Ø¬
ĠÙģØ± Ø§
ĠØ³ÛĮ Ø§Ø³ÛĮ
ĠØªØµ Ø§ÙĪÛĮØ±
ĠÙĨØ³ Ø®Ùĩ
ĠÙĩÙĨ Ø±
ĠÙħØ¹Ùħ ÙĪÙĦØ§
ĠÚ©ÙĪÚĨ Ú©
Ø¨ ÛĮØ±
ĠØª ÛĮÙħ
Ø² ÙĨØ¯
ĠÙĨ ÙĬ
ĠÙĩ ÙģØª
ĠØ§Ùħ ÙĨ
ĠÙħÙĩ Ø¯ÛĮ
ĠÙ¾Ø§ÛĮ Ú¯Ø§Ùĩ
ÙħØ¯ ÙĦ
ĠØ·Ø¨ÛĮ Ø¹ÛĮ
Ø³ Ùħ
ĠØ¨Ø± Ø¯
ĠØ¨ÙĦ Ú©Ùĩ
ĠØµÙĨ Ø¹ØªÛĮ
ĠØ§ØŃØ³ Ø§Ø³
Ø³ Ø§ÛĮØª
Ø¨ Ø§ÙĨÛĮ
ÛĮÙĨ Ú¯
ĠØªØ¹ ÛĮÛĮÙĨ
ĠØ§ØŃ ØªÙħ
ĠØºØ° Ø§ÛĮÛĮ
ĠØªØ§Ø±ÛĮ Ø®ÛĮ
ĠØ´ÙĪØ± Ø§ÛĮ
ĠØªØ§Ø« ÛĮØ±
Ø± ØŃ
Ùĩ ÛĮ
ĠØ³ ÙħØª
Ø¨ÛĮ ÙĦ
ĠØ³Ù¾ Ø³
) ØĮ
Ùĩ Ø¯
ĠØ¨ Ø³Øª
ĠÙĤ ÙĦ
ÙĪÙĦ Ùĩ
ĠØ¬Ùħ Ø¹
ĠØ¬Ùħ ÙĦØ§Øª
ĠÙħØ· ÙĦØ¨
ĠØ±ÙģØª Ø§Ø±
ĠØ§Ø±Ø²ÛĮ Ø§Ø¨ÛĮ
r e
Ú© ÛĮØ¯
ĠØ¨ Ø§ÛĮ
ĠÚ© Ø³ÛĮ
ĠØ± Ø¶
ĠØ¹ ÙĪ
ĠØªÙĪ Øµ
ĠÙħØ± Ø§Ø¬
ĠØ§ÙĨØ¯ Ø§Ø²Ùĩ
an d
ĠØ§ÙĦÚ©Øª Ø±ÙĪ
o w
Ø§ ÙģØª
ĠØª ÛĮØ±
Ø±ÛĮ Ø§ÙĨ
Ø±ÛĮ ØŃ
ĠØ¹ Ø¶
ĠÚ©ÙĨ Ø§Ø±
ĠÚ©Ø§Ø± Ø¨Ø±Ø§ÙĨ
ĠâĢ ¦
Ø®ÙĪ Ø§ÙĩØ¯
ĠØ¢ÛĮ ÙĨØ¯Ùĩ
ĠÙ¾ÛĮØ´ÙĨÙĩ Ø§Ø¯
i s
ĠÙĨ ÛĮÙħ
Ø±ÛĮ Ùĩ
ĠØ¹ Ø§ÙħÙĦ
ĠÙĦ Ø°
ĠØ¢Ùħ Ø¯Ùĩ
ÛĮÙħÛĮ Ø´ÙĨ
ĠØ¯ÙĨÛĮ Ø§
ĠØ¨ØŃ Ø«
Û ¸
Ġ L
Ġ c
Ø§Ø± Ø³
Ú¯ ÙĪÙĨ
ĠØ± ÙĪÙħ
âĢ İ
ĠÚĨ Ú¯ÙĪÙĨÙĩ
ĠØ§ÙĦ Ø¹
ĠÚ¯Ø±Ø¯ Ø´
ĠØ¨ÙĨØ¯ Ø±
ĠØ¢Ø³ÛĮ Ø¨
Û ³
ĠÙĪ Ø¶
ĠÙĨ Øª
ĠÙĨ ØŃ
ĠÙĨ ÙģØª
ÙĤ ÙĤ
ĠÙ¾ ÙĦ
ĠÙģ ÙĪØª
ÚĨ ÛĮ
ÙĨÚ¯ ÛĮ
ĠØ· ÙĦ
ĠÚ©Ø§Ùħ ÙĦØ§
Ú¯Ø° Ø§Ø±
ĠØ³ÙĦ ØŃØ´ÙĪØ±
ĠØ¯Ø§Ø® ÙĦÛĮ
ĠÙħØ·Ø§ÙĦ Ø¹Ùĩ
ĠÚ© Ø±ÛĮ
ĠØ± ÙĤ
Ø¬ ÙĪ
Ø· ÙĦØ§ØŃ
ĠØ§Ùħ ÛĮØ¯
ĠÙĪÛĮ Úĺ
Ú©ÙĨ Ø§ÙĨ
ĠØ§Ø¯ Ø§Ø±Ùĩ
ĠØ³ÙĦØ§Ùħ Øª
ĠØŃØ± Ú©Øª
ĠØ§ÙĨÙĤÙĦ Ø§Ø¨
Ø² ÙĦ
ĠÙĩ ÙģØªÙĩ
ĠÚĨ ÙħÙĨ
ĠØ³Ø±ÛĮ Ø¹
ĠØŃØ¯ ÙĪØ¯
Ø±Ú© Ø²
ĠÙħ Ø²
ĠØ³ Ø§Ø¯Ùĩ
ĠØ¢ ÛĮØ§
ĠØ¬ Ø³Øª
Ø§Ø¨ ÙĤ
ĠÚĨ Ø±
ĠØ¢Ùħ Ø§Ø¯Ùĩ
ĠÙħØ³Ø¦ ÙĪÙĦ
ĠÙħØ¬ÙĦ Ø³ÛĮ
ĠØ¯Ú© ØªØ±
Ø§Ø± Ø§Øª
Ùģ ÙĦ
ĠØ± Ø§ØŃ
ĠØ¬ Ø±
ĠÛ ³
Ø« Ø§Ø±
ĠØ¶ Ø¯
ĠÙĦÙĪ Ø§Ø²Ùħ
Ùĩ ÙĨ
ĠØ¯Ø± Ø³Øª
ĠØ¹ Ø²ÛĮ
ĠØŃ Ø§ÙĦÛĮ
Ù¾ Ø±Ø¯
ĠØªÙĪ ÙħØ§ÙĨ
ĠØªÙĪ Ø¶ÛĮØŃ
ĠØŃÙħ Ø§ÛĮØª
Ġ E
Ġ h
ĠÙ¾ ÛĮØ±
Ú©ÙĨ ÙĪÙĨ
Ø§Ø¦ ÛĮ
ĠØ¨ÛĮØ´ ØªØ±ÛĮ
ĠÙĤØ¯ ÛĮÙħÛĮ
ĠØ¨ÙĨØ§Ø¨Ø± Ø§ÛĮÙĨ
ĠØ¨ ÚĨÙĩ
ĠØ³ Øª
ĠÙ¾ ÙĦÛĮ
Ø¯Ùĩ ÙĨØ¯
ĠÚ©ÙĨ Ùħ
ĠØ®ÙĪ Ø¨ÛĮ
ĠØªÙĦ Ùģ
ĠØ§Ø¬Ø± Ø§ÛĮ
ĠÙĤØ§ÙĨ ÙĪÙĨ
ĠÚĨÚ© Ø§ÙħÙĩ
Ġ b
Ø§ Úĺ
Ú© ÙĪØ±
Ø§ÛĮ Ùħ
ĠÙĪ Ø³ÛĮ
ĠØ± Ø²
Ø§Ø¨ Ø·
ĠÙĩÙħ ÛĮ
Úĺ ÛĮÚ©
Ø§Øµ ÙĦ
ĠÚ©Ø§ÙĨ Ø§ÙĦ
ĠÙĨÙĪØ´ ØªÙĩ
Ø ©
ĠÙħ ØªØ±
Ø§Ùħ Ø´
Ø§Ùħ Ù¾
ĠÙ¾ Ø´Øª
ĠØ¹ Ø¨Ø§Ø±
in g
ĠÙħÙĨØ¸ ÙĪØ±
Ú© ÙĪ
ĠØ¨ ÙĬ
âĢ Ŀ
ĠØ¢ ÙĪØ±Ø¯
ĠØ® Ø§Ùħ
ÙĪÙħ Øª
ĠÙħØ¯ Ø§ØŃÛĮ
Ø§ÙĬ ÙĬ
ĠØŃØ³ Ø§Ø¨
ĠØ´ÙĨ Ø§Ø³
ĠÙ¾Ø±Ø³ Ø´
ĠÙĤØ§Ø¨ ÙĦÛĮØª
Ø§ Ú¯Ø±
Ø¯ ÛĮÙĨ
Øª Ø´
ĠØ¨ Ø³
ĠØ¢ÙĨ Ø§ÙĨ
Øº Ø§ÙĨ
ĠÙĨÙħ Ø§ÛĮØ¯
ĠØ¹Ùħ ÙĦÛĮ
ĠÚ©ÙĦÛĮ Ú©
ĠÚ© Ø¯
ĠØ³ Ø¹
Ø§ÙĦ Øª
ĠØ¹ Ø¯Ùħ
ĠÙĦ Ø·
ĠÚ©Ø§Ø± ÙħÙĨØ¯ÛĮ
ĠØªØ¨ ÙĦÛĮØº
ĠÙ¾Ø²Ø´ Ú©
ĠØ¹ÙĦØ§ ÙĪÙĩ
ĠØ§Ø¶ Ø§ÙģÙĩ
ĠÙħ Ø§ÙĦÛĮ
ĠØ¯ Ø¹
Ú¯ Ø±ÙĪÙĩ
ĠØŃ ÙĪØ²Ùĩ
ĠØ§Ùħ ÙĪØ±
Ø¨Ø±Ø¯ Ø§Ø±ÛĮ
ĠØ²ÙĨ Ø§ÙĨ
ĠØ¯Ø§Ø® ÙĦ
ĠÙĪÛĮÚĺ Ú¯ÛĮ
o m
ĠÙĪ ÙĦ
Ø¬ Ø§Ùħ
ÚĨ Ø§Ø±
.. ...
Ø¢ ÛĮ
ĠÙħØ¬ Ø§Ø²ÛĮ
ĠÙħØ³ Ø§Ø¦ÙĦ
ĠÚ©ÙĦ ÛĮØ¯
ĠØ³Ø¨ Ú©
ĠØ® ÙĪÙĨ
ĠÙģ Ø§ØµÙĦÙĩ
ĠÙħÙĤ Ø§Ø¨ÙĦ
ĠÙĨÙĤ ÙĦ
Ø®ÛĮ Øµ
ĠØ®Ø§Ø± Ø¬
ĠØ¢Ø® Ø±ÛĮÙĨ
Ġ13 9
ÙĪØ± Ø´
Ø§Ø¨ ÙĤÙĩ
ĠÛ ´
ĠÙĨÙĤ Ø·Ùĩ
ĠØ¶ ÙħÙĨ
ĠÚ© ÙĦÛĮÙĩ
ĠÚ© Ø§ÙģÛĮ
ĠØ³ ÙĪÙħ
ĠÙĦ Ø±
Ø®Øµ Øµ
Ø±Ø¨ Ø§ÛĮ
ĠØ±ÛĮ Ø§Ø¶ÛĮ
ĠØ¬ÙĪ Ø§Ø¨
ĠÙħÙĨØª Ø´Ø±
ĠØ¨ Ø§Ø¯
ĠØ± Ø¶Ø§
ĠØ¯Ø± Ø¯
ĠØ¢ Ø³
ÙĬ Ø§Øª
ĠØ´Ùĩ ÛĮØ¯
ĠØ¯Ø±ÙħØ§ÙĨ ÛĮ
Ġ V
ĠØ¯ Ø´
Ø¹ Ùģ
ĠÚ¯ ÛĮØ±
Øµ Ùĩ
ĠÙħÙĪ Ø³ÛĮ
ĠØªÙħ Ø§Ø³
ĠØ®Ø¯Ùħ Øª
Ġ201 7
Û ¶
ĠØ¨ ÙĦÙĪ
ĠÙħ Ø§Ø³
Ø§ÛĮ ÛĮØ¯
Ø§ÙĦ ÙĦÙĩ
Ø±Ø§ÙĨ Ùĩ
ĠØ· ÛĮ
Ø¦ ÙĪ
ĠØ§Ø¨ Ø²Ø§Ø±
Ø§ ÙĪÛĮ
ĠØ³ Ø§Ø®ØªÙĩ
ĠÙ¾ Ø³Øª
ĠØ§Ø³ Ù¾
ĠÙģ Ú©Ø±
Ø§Ø¨ Ø¯
Ø§ÙĨÛĮ Ùĩ
ĠØ¨ÙĦ Ú©
ĠØ±Ø§Ø¨ Ø·Ùĩ
Û ·
ĠÙħ Ú¯
ĠØ¯ ÙĤÛĮ
Ùģ Ø±ÙĪØ´
e l
Ø¦ ÛĮ
ĠØ¹Ø±Ø¶ Ùĩ
? ?
ÛĮ Ø±ÛĮ
ĠÙħ Ø§Ø²ÙĨØ¯
ĠØ¨Ùĩ Ø¨ÙĪØ¯
Ø§Ø¯ Ú¯ÛĮ
ĠÙĩÙħ Ú©Ø§Ø±ÛĮ
ĠÚ©Ø§Ø± Øª
ĠØ§Ø± Ø´Ø¯
Ú©ÙĨ ÛĮØ¯
ĠÚ©ÙĦ Ø§Ø³
ĠØ¨Ø¹ Ø¶ÛĮ
ĠØªØ´ Ø®ÛĮØµ
ĠØ¯Ø§Ø´Øª ÙĨ
ĠØ§ÙĤØªØµ Ø§Ø¯
ÙĪÚ© ÙĪØ³
Ù¾ÙĦ ÙĨØª
Ø² ÙĨ
ĠÙĩ ÙĪØ´
ĠØ³ Ø¹ÛĮ
ĠØŃ Ø§Ø¶
ĠØ³Ø§Ø²ÙħØ§ÙĨ ÛĮ
ĠÚ©Ø± ÙħØ§ÙĨ
ĠØ§ÙĨØªÙĤ Ø§ÙĦ
ĠØ³Ø±Ùħ Ø§ÛĮÙĩ
ĠØ§ØŃØªÙħ Ø§ÙĦ
Ġ on
Ùħ ÙĪ
Ùħ Ø§ÙĦ
ĠØ¨ Ø§Ø¨
ÙĪØ± ØªÛĮ
ĠÙģ ÙĨ
ĠØ¬ Ø¯
Ø¸ ÛĮÙħ
ĠØ¨Ø§Ø² Ø¯ÛĮØ¯
ĠÙħØ± Øº
ĠØ²ÛĮ Ø³Øª
ĠØ° Ú©Ø±
ĠÙħØ¹Ùħ Ø§Ø±ÛĮ
ĠÙĪÙĤ Øª
ĠÚ¯ÙĪØ´ ÛĮ
ĠÙĤØ¯Ø± Øª
! !
ĠØ³ ÙĪÛĮ
Ø§Øª ÙĪØ±
Ø§Ø² Ø¯Ùĩ
ÙĨØ¬ ÛĮ
ĠÙ¾Ø§ÛĮ ÛĮÙĨ
ĠÙħØ±Ø§Ø¬ Ø¹Ùĩ
1 2
Øª ÙĪØ±
ĠÙħ Ø¨ÙĦ
Ø§ÛĮ Ø¹
âĢ ı
ĠØ´ Ø§Ø±
ĠÙģ ÙĪÚ©ÙĪØ³
ÙĪØ§ÙĨ ÛĮ
Ø¨ÛĮ Ø§Øª
Ú©Øª Ø§Ø¨
Ġ1 2
ĠØ¨ÙĦ ÙĨØ¯
Ġ201 8
ĠØ¬Ø§Ùħ Ø¹
ÙĢÙĢ ÙĢÙĢ
ĠØ§ÛĮÙħ Ù¾ÙĦÙĨØª
Ġ Ø§ÙĩØ¯
ĠÙĪ ØŃ
ĠØª Ø¨Ø±ÛĮ
ĠØ± ÙĪØ¯
ĠØ± Ø§Ø³Øª
Ù¾ Ø±Ø³
ĠØ§Ùħ Ø±
Ø§Ø¦ Ùħ
ÙĪÙĦÙĪ ÚĺÛĮ
ÙĨ Ø¸
Ùħ Ø§ÛĮÛĮ
Ø´ ØªÛĮ
Ú¯ ÙģØª
ĠØ± ÙħØ§ÙĨ
ĠÙĨ Ø²Ø¯ÛĮ
ĠÙħÛĮ Ø´ÙĪØ¯
Ø±ÙĪ Ø±ÛĮ
ĠÙħØª Ø®ØµØµ
ĠØ§Øµ ÙģÙĩ
ĠÙĨÙĤ Ø¯
ĠÙģØ±ÙĪØ´ ÛĮ
ĠâĢ ľ
ĠØ¸ Ø±Ùģ
ĠÙħÛĮÙĦÛĮ ÙĪÙĨ
ĠØ¢Ø° Ø±Ø¨Ø§ÛĮ
ĠÙħØ¨Ø§Ø± Ú©
ĠÙħÙĪØ³ÛĮ ÙĤÛĮ
e d
e t
Ø± ÚĺÛĮ
ĠØ¯ ÙĬ
Ø³ Ø§Øª
ĠØ§ÛĮ Ø¯
ĠØµ Ø±Ùģ
ĠØ¢Ùħ ÙĪØ²
ĠØ¨Ø§Ø² Ø§Ø±ÛĮ
ĠÙħØ¹ Ø§
ĠÙħØª ÙģØ§ÙĪØª
ĠØ±ÙĪ ØŃ
ĠØ¶ Ø±
ĠØ¨ÛĮÙħ Ùĩ
ĠÙħØ´Ø§ÙĪØ± Ùĩ
ĠÙħØŃØªÙĪ Ø§
ĠÙĩÙħÛĮ Ø´Ùĩ
ĠØŃØ§Ø¶ Ø±
Ġ d
ÙĪ Ø·
ĠØ¯ ÚĨØ§Ø±
ĠÙĪ Ø¸
ĠØ§Ø ¸
ĠØ¢ ÙĪØ±
ĠØ¢ Ø«Ø§Ø±
ĠØŃ ÛĮ
ÙĪÛĮ Ø§ÙĨ
ĠØ¯Ø§Ø± Ùħ
ĠÙħØ± ØªØ¨
ĠÙĨÙħ ÙĪØ¯Ùĩ
ĠØ§Øµ ÙĦØ§ØŃ
ĠØ¨Ø§Ø± Ø¨Ø±ÛĮ
ĠØ¹Ø¨Ø§Ø± Øª
e w
Ġ W
Ú© Ø´
ĠÚ© Ø¯Ø§Ùħ
ĠÙģ ÙĨÛĮ
ĠÙģ Ø¶Ø§ÛĮ
ĠÙĤ Ø§ÙĦØ¨
ÛĮØ± Ùĩ
Ø¯ÛĮ Ú¯Ø±
ĠÙģØ± Ø§ÙĩÙħ
ĠÙħØª ÙĪØ³
ĠØ¯Ø³Øª ÙĪØ±
ĠØªØ¹ ÙħÛĮØ±
ĠØ±Ø³ ÛĮØ¯
ĠØ§Ø¨Øª Ø¯Ø§
ĠØ³Ø±ÙĪ ÛĮØ³
c h
i v
Ġ 0
ĠØ¯ ÛĮØ¯Ùĩ
Ùģ Ø§ÙĤ
ĠÙĩ Ø´
ĠÙħÙĪ ÙĤ
ĠØ¯Ø§Ø± ÙĪ
ĠØ§Ø¸ Ùĩ
ĠØ¢ Ø¨Ø§ÙĨ
ĠØ® ÙĪØ±Ø¯
ÙĪØ± Ø§ÙĨ
ĠØ§Ø® ØªÛĮ
ĠÙħØ® ÙħÙĦ
ĠØ´Ø®Øµ ÛĮ
ĠÙĨØ® Ø³Øª
ĠØ§Ø³ØªØ§ÙĨØ¯ Ø§Ø±Ø¯
ĠÚ©Ø´Ø§ÙĪØ± Ø²ÛĮ
Ø¨ÛĮ Ùĩ
ĠØ¯Ø³Øª ÛĮ
Ø¢ ÙħØ¯
ĠÚ¯Ø± Ùħ
ĠÙħØ· Ø±ØŃ
ĠÙħØ« Ø§ÙĦ
ĠÙĪØ§ ÚĺÙĩ
ĠØ¯ÙĤÛĮ ÙĤÙĩ
Ġ f
ĠØ¨ ÙĨÛĮ
ĠØ³ Ø®Øª
ĠØ¢ ÛĮØª
ÙĪØ± Ùĩ
ĠÙģ Ø§ÙĨØª
ĠØ¹ ÙĤ
ĠØ¬ Ø§Ú©
ÙĪÙĨ Ø§
ĠØ§Ùģ ØºØ§ÙĨ
ĠÙħÙĤ Ø§
ĠØªØµ ÙĪÛĮ
ĠØ¨ÛĮÙħ Ø§Ø±
ÙħÙĦ ÙĦÛĮ
ĠØ®Ø§ÙĨ Ùħ
ĠØ®ÛĮ Ø§Ø¨
ĠØ¢Ø²Ùħ Ø§ÛĮØ´Ú¯Ø§Ùĩ
ĠØ§Ø¨Øª Ø¯
ĠØ¬Ø° Ø§Ø¨
Ø± Ø´
Ø± ÙĪØ¯
ĠØ¯ ÙĤÛĮÙĤ
Ø¨ Ø§Ø¨
ĠÙ¾ Ø®Ø´
ĠØ¨Ø§ ÙģØª
ĠÚĨ ÛĮÙĨ
ĠØµ ÙĪØ±ØªÛĮ
ĠÚ©Ø§Ø± Ø´ÙĨØ§Ø³ÛĮ
ĠØ§Ø¹ Ø¶Ø§ÛĮ
ĠÙĨØ´ Ø¯Ùĩ
Ø®ÙĪ Ø§Ø³Øª
ĠÚĨÛĮ Ø³Øª
ĠÚĨÛĮ Ø²ÛĮ
ĠØ®ØµÙĪØµ ÛĮ
ĠÚ©Ø±ÛĮ ÙħÛĮ
ÙĪ Ø§ÙĦ
Ú¯ ÙĬ
ÙĬ ÙĦ
Ø±ÙĪ ÛĮ
ĠÙħÙĤ Ø§Ùħ
ĠÚ©Ùħ ØªØ±
ĠØ´ÙĪ ÛĮØ¯
lo ad
ĠØŃÙģ Ø¸
i on
Ùħ Ø´
ĠØ¨ ÛĮØª
Ú¯ Ø§ÙĨÛĮ
ĠØ± Ø§ÙĨ
ĠÙ¾ ÙĨ
ĠØ¨Ø± ÙĪØ²
ĠØ§Ø³Øª Ø§Ø¯
ĠÚ¯ Ø§Ùħ
ĠØ§ÙĨ Ø³Ø§ÙĨÛĮ
ĠØ§Ùħ ÛĮØ±
ĠØ±Ø³ Ø§ÙĨÛĮ
ĠØ³Ø¨ Ø²
Ú¯Ø° Ø§Ø±ÛĮ
ĠÙħÙĪÙģÙĤ ÛĮØª
ĠØ¬Ø§Ú© ÙĪØ¨
i l
ÛĮ ÙĦ
ĠØ§ÙĨ Ø±ÚĺÛĮ
ÙĪÛĮ Ø³ÛĮ
ĠÛ ·
ĠÙħØª ÙĤ
ĠØªÙĪØ§ÙĨ ÙĨØ¯
ĠØ§Ùĩ ÙĨÚ¯
ĠÚ¯Ø±ÙģØª ÙĨ
ĠØ§ÙħÙĨ ÛĮØª
ĠÙħ Ø§Ø¯Ùĩ
Ø´ ÙĪ
ĠÚ© ÙĦÙħ
Ùģ Ø§ÛĮÙĦ
Ø±ÛĮ Ø¨
ĠÙ¾ ÙĪÙĦ
ĠÙ¾ Ø§Ø±Ú©
ĠØ® ÙĦ
Ø§Ø³ ØªÛĮ
ĠØ² Ø¯ÙĨ
ĠÙ¾ÛĮ ÚĨ
ĠØ¨ÙĪØ¯ ÙĨØ¯
Ø§ÙĤ ÙĦ
ĠØªØŃ ÙĦÛĮÙĦ
ĠØ§Øª ÙģØ§ÙĤ
ĠÙħØ® Ø§Ø·
ĠØ²ÙĨ Ø§ÙĨÙĩ
ĠØµØ¯ Ø§ÛĮ
ĠÙĪØ² ÛĮØ±
ĠÙħØŃØ¯ ÙĪØ¯
ĠÙħ Ø§Ø¯Ø±
ĠØ§Ø º
ĠØ¨Ø± ÙĨØ¯
Ø§Ùĩ Ø§
ĠØ§ ÙĪÙĨ
ĠØ§ Ù¾
Ø´ÙĨ Ø¨Ùĩ
ĠÚ©Ø§Ø± Ø¨Ø±
ĠÙħØ´ ÙĩØ¯
Ø§Ú© Ø±ÙĪÙħ
ĠØ§Øµ Ø·ÙĦØ§ØŃ
ĠØ§Ø¹ Øª
ĠØ¹ÙĦ Øª
ĠÙĩÙĨ Ø±ÛĮ
ĠØ§Ùĩ ÙħÛĮØª
ĠÙħÛĮÙĦ Ø§Ø¯
ĠÚ©Ùģ Ø´
1 0
Ø§ÙĨ Ø³
Ø³ ÙĨØ§
Ø´ Ø§Ùĩ
ĠØ® Ø¨Ø±ÛĮ
ĠØ¨Ø± Ø³
ĠÙħØŃ Ø³ÙĨ
Ø§ØŃ ÙĦ
Ø¬Ùĩ ÛĮØ²
ĠØ´ÛĮ ÙĪÙĩ
ĠØ§ÙħÚ©Ø§ÙĨ Ø§Øª
ĠÙĨÚ© ØªÙĩ
1 8
ĠØ¨ Ø¯Ùĩ
ĠÙĨ ÙĪÛĮØ³
Øº ÙĨ
ĠØ±Ø³ ÙħÛĮ
ĠØ®ÙĪØ§Ùĩ ÛĮØ¯
ĠØ¨Øµ ÙĪØ±Øª
r am
ÙĪ Ø§
ÙĦ Ø²
Ø¨ Ø§Ø²ÛĮ
Ø² ÙħØ§ÙĨ
ĠÙħØ´ ØªØ±
ĠØ³Ø± Ø§Ø³
ĠØ´Ùĩ Ø±ÙĪ
ĠÛ² Û°
ĠÙħØ³Ø¦ ÙĦÙĩ
ĠØ¬Ø´ÙĨ ÙĪØ§Ø±Ùĩ
ĠÙĪØ¶ Ø¹ÛĮØª
ĠÙĨØŃ ÙĪÙĩ
ĠØ¢Ø°Ø±Ø¨Ø§ÛĮ Ø¬Ø§ÙĨ
ÙĨ ÙĪÛĮØ³
Ø§ÛĮ Ø¬
Ø§Ø± Ø´
ĠÙĨ ÙĩØ§ÛĮ
ĠØ§ÙĨ ÛĮÙħÛĮØ´ÙĨ
ĠØµ Ø§Ø¯
ĠØ¬Ø¯ÛĮØ¯ ØªØ±ÛĮÙĨ
ÙĦÙĪ Ø§ÛĮ
ĠØ§Ø® ÛĮØ±
Ø§ÙĪØ± Ù¾
ĠØªÙĪÙĦ Ø¯
ĠØ²ÛĮØ± Ø§
ĠÙ¾ÛĮØ§Ùħ Ú©
ĠØªØŃÙĤÛĮÙĤ Ø§Øª
ĠØ§Ø³ØªØ® ÙĪØ§ÙĨ
ĠØ¬ÙĦ Ø³Ùĩ
ĠÙĪØ² ÙĨ
ĠÙħÙĪØ¬ Ø¨
ĠÙħØ§Ø²ÙĨØ¯ Ø±Ø§ÙĨ
ĠØ¬Ø§Ú©ÙĪØ¨ Ø²
ÙĨ ÙĪØ´
Ø¬ Ø¯
ĠØ¬ Ø±ÛĮØ§ÙĨ
ĠØ§ÙĨ Ø¯ÛĮ
ĠØ®ÙĪØ¯ Ø´
ĠØ±ÙĪ Ø§Ø¨Ø·
ÙģÛĮ ÙĦÙħ
ĠØ§Øª ÙĪÙħ
ĠØ¬Ø° Ø¨
ĠØ¯Ùģ Ø§Ø¹
ĠØ¬ÙĦÙĪ Ú¯ÛĮØ±ÛĮ
ow n
Ø¢ÛĮ ÙĨØ¯
ĠØ§ÙĩØ¯ Ø§Ùģ
Øª Ø¹
Ø´ Ø§
ĠÚ© Ø±Ø¨
Ø¬ Ùħ
ĠØ¬ Ø§ÙĦØ¨
ĠÚĨ Ø§Ù¾
Ø§Ùģ Ø¸
Ùĥ Ùĩ
ĠØ¢Ø¨ Ø§Ø¯
ĠÙĩÙĨ ÙĪØ²
ĠØ¸ Ø§Ùĩ
ĠØŃØ¬ Ùħ
ĠØ³Ø§Ùħ Ø§ÙĨÙĩ
ĠØ®Ø§Ø· Ø±
ĠÙħØ´ØªØ±ÛĮ Ø§ÙĨ
ĠÙħÙĩÙĨØ¯ Ø³ÛĮ
a b
ĠÙħ Ø¨Øª
Ú¯ ÛĮÙĨ
ĠØ± Úĺ
ÙĪØ± Ø§
ĠÛ ¶
ĠÙħØ± Ø§Ø³Ùħ
Ø¯Ø± Ø³
ĠØºØ° Ø§
ĠÙģØ±Ø¯ ÛĮ
ĠØªÙĪØµ ÛĮÙĩ
ÙĨ ÙĪ
ĠÙħ Ø¤
Ú¯ Ø§ÙĨÙĩ
ĠØ³ ÛĮØ¯
ĠÙħÛĮ Ø¯Ø§ÙĨ
Ø³Øª Ø§
ĠØ¹ Ø±Ø¨
ĠØ¬ Ø¯Ø§
Ù¾ Ø³
ĠØ¯Ø§ÙĨ Ø³Øª
ĠØµ Ø¯Ø§
Ø° ÛĮÙĩ
ĠØ¨ÙĪØ¯ Ø¬Ùĩ
ĠØ±ÙĪ ÙĨØ¯
ĠÙħÙĤ Ø§ÙĦØ§Øª
ĠÙħØ³ ÛĮØ±
ĠØ³ÛĮ Ø§Ø³Øª
ĠÙĨØ´ Ø³Øª
ĠÚ¯ÛĮ Ø§Ùĩ
ĠÙ¾Ø± ÙĪØ±Ø´
ĠØ¢Ø± Ø§ÛĮØ´
ĠÚĨÛĮ Ø²
ĠÙģÙĪØª Ø¨Ø§ÙĦ
ĠØ§Ø®ØªÛĮ Ø§Ø±
9 2
ÙĨ Ø´
Ø³ ÙĦ
Ø´ ÛĮØ¯
ĠØ´ Ø§ÛĮØ¯
ĠÛĮØ§ ÙģØª
ĠÙħØ¬ ÙĦÙĩ
Ø§Ø³ÛĮ ÙĪÙĨ
ĠØ§ÙĨØª Ø¸
o f
Â «
Ú© Ø§Ùħ
ĠØ¨ Ø¨
ĠØª Ø§ÙħÛĮÙĨ
ĠÙĨ Ø§Ø±
ĠÙĨ Ø®ÙĪØ§ÙĩØ¯
ĠÙħÙĨ Ø§Ø³
ĠÙģØ± ÙħØ§ÙĨ
ĠÙĨÙħ Ø§ÛĮØ´Ú¯Ø§Ùĩ
ĠØ³Ø± Ø·Ø§ÙĨ
ĠØ®ÙĪ Ø§Ø³Øª
ĠÙħØ¬ Ø§Ø²
ĠØ¨Ø¯ Ø§ÙĨ
ĠØ´Ùĩ Ø±Ø¯
ĠØªÙĨ Ø¸ÛĮÙħ
ĠØ¹Ø± Ø§ÙĤ
Ø± Ø§Ùģ
ÙĦ Ø§ÛĮ
ĠØª Ø§Ø²Ùĩ
Ø§Ùħ Ø§
ĠÙħØ¯ Ø§Ø±Ø³
ĠØªØŃ Ø±ÛĮÙħ
ĠÙĨÙĤ Ø§Ø´ÛĮ
ĠØ¨Ø§ÙĦ Ø§ÛĮ
ĠØ³Ø® ÙĨ
ĠÙĨØ²Ø¯ÛĮ Ú©
ĠØ§Ø¹Øª Ø¨Ø§Ø±
o b
ĠØ± ÙģØªÙĩ
ĠØ® Ø±ÙĪ
ĠÙħÛĮ Ú©
ĠØ§ÛĮ ÙħÛĮÙĦ
ĠØ¨Ø± ØªØ±
Ø§Øª ÙĪ
ĠÚ¯ Ø§ÙĩÛĮ
ĠÙĤ ÙģÙĦ
ĠØ² ÙĨØ¬
ĠÚ©Ø§Ø± Ú©ÙĨØ§ÙĨ
ĠØ§Øµ ÙĪÙĦ
.... .....
ĠØŃØ³ ÙĨ
ĠÙĬ Ø§
ĠÙĬ Ùĥ
ĠÙħÙĦ Øª
ĠÙĪØ±Ø²Ø´ ÛĮ
ĠÚ©Ø§Ø±Ø¨Ø±Ø¯ ÛĮ
ĠÙĨØª Ø§ÛĮØ¬
Ø¬ÙĩÛĮØ² Ø§Øª
i m
Ø§Ø °
ĠØ³ Ø±Ø¯
ĠØ¢ ÙĪØ±ÛĮ
ĠØ§Ø³ Ø§Ø³ÛĮ
ĠÚ¯ Ø²ÛĮÙĨÙĩ
ĠØŃ ÙħÙĦ
ĠØ§Ø± ÙĪÙ¾
ĠØ³Ø± ÚĺÛĮÚ©
ĠØ´Ø± ÙĤÛĮ
ĠØ§Ø¹ ØªÙħ
ĠÙ¾Ø±ÙĪ ÙģØ§ÛĮÙĦ
ĠØ§ÙģØºØ§ÙĨ Ø³ØªØ§ÙĨ
Ø± Ø¶Ø§
Ø§ÛĮ ÙĨØ¯
ĠØ¯ ÛĮÙĨ
ĠØ± Ø¹
ĠÙĨ Ú¯Ø§Ùĩ
ĠÙĩ ÙĨØ¯
ĠÙ¾ ÙĪØ±
ĠØ® Ø±Ø¯
ÙĬ Ø³
Ø¶ Ø§ÛĮÛĮ
ĠÚ©Ø±Ø¯ Ùħ
ĠÙħÙĨ Ø¨Ø¹
ĠØ¨Ø§Ø´ ÛĮÙħ
ĠÛĮØ§ ÙģØªÙĩ
ĠØ±ÙĪ ØºÙĨ
ĠØ³Ø§ÙĦ Ùĩ
ĠØ¯Ùĩ Ùħ
ĠÙĨØ¸ Ø§Ø±Øª
ØªÙħ Ø§
ĠØªØ¹ Ø±ÛĮÙģ
ĠØ« Ø§Ø¨Øª
ĠØ§ÙģØ± Ø§Ø¯ÛĮ
ĠØ®ÙĪØ§Ùĩ ÙĨØ¯
ĠÙħØ±Ú© Ø²ÛĮ
ĠÙħØŃØªÙĪ Ø§ÛĮ
Ú© Ø±ÛĮ
ĠØª Ø¯Ø±ÛĮ
Ø§Ùħ Øª
ĠÙ¾ Ø¯Ø±
ĠØ® Ø§Ú©
ĠÙĤ ÛĮ
Ø¯Ùĩ Ø§
ĠØ¯ÛĮ Ú¯Ø±Ø§ÙĨ
Ú©Øª Ø±ÛĮ
ĠÙħÙĤ Ø§ÛĮ
ĠØ¨Ø¹ Ø¯ÛĮ
ĠØ¨ÙĨ Ø§Ùħ
ĠÙħÙģ ÛĮØ¯
ÙĪÛĮÙĨ Øª
ĠÙħØŃÙħ ÙĪØ¯
ĠØ®ÛĮØ§Ø¨ Ø§ÙĨ
h t
p s
ĠÙħ ÙĪÙĦ
ĠÚ© Ø³Ø§ÙĨÛĮ
Ø² Ø§Ø¯
Ø³Øª Ø§ÙĨÛĮ
ĠØ² ÙĨØ¯
ĠØ§ÙĨ Ú¯ÛĮ
Ġ1 5
ĠÙģÛĮ Ø²ÛĮ
ĠØ¯ÙĦ Ø§Ø±
ĠÙĤØ· Ø¹
Ø¢Ùħ ÙĪØ²Ø´
ĠØ¢Ø´ÙĨ Ø§
ĠØ§ØµÙģÙĩ Ø§ÙĨ
ĠØ¨Ø§Ø²Ø§Ø±ÛĮ Ø§Ø¨ÛĮ
ĠØ§Ø¸Ùĩ Ø§Ø±
Ø§ÙĪØ±Ù¾ ÙĪÛĮÙĨØª
ĠÙħÙĤØ§ÛĮ Ø³Ùĩ
ĠØª Ø±Ø§ÙĨÙĩ
ĠØ´ Ø§Ø®
ÙĤ Ø¯Ø±
ĠÙĩÙħ Ø§Ùĩ
Ú¯ÛĮ Ø±ÛĮØ¯
Ø« Ùĩ
ĠÙħÙĤ Ø¯Ùħ
ĠØ§Ø¬ Ø±Ø§
ĠØ§Ø¯ Ø¨ÛĮØ§Øª
ĠÛ± Û°
ĠØ´Ùĩ Ø§Ø¯Øª
ĠÙģØ±Ùħ ÙĪØ¯
ĠÙĪØ³ Ø§ÛĮÙĦ
ĠØ±Ùģ Ø¹
ĠØ¹ÙĪ Ø§ÙħÙĦ
o l
Ø ¡
ĠÙĪ ÛĮØ¯ÛĮ
ĠÙĩ ØªÙĦ
ĠÙĤ ÙĪØ§ÙĨ
Ù¾ ÙĪØ±
ÙģØª Ø±
ĠÙħÙĪ ØªÙĪØ±
ĠÛ ¹Û
ÙĩØ± Ø³Øª
ĠØ¯Ø³Øª Ø±Ø³ÛĮ
ĠØªØ¬ Ø§Ø±ÛĮ
ĠØ¨Ø®Ø´ ÛĮ
ĠÙĨÙħØ§ÛĮ ÙĨØ¯
ĠÙĨÛĮØ§Ø² ÙĩØ§ÛĮ
ĠÙģÙĦ Ø§Ø´
ĠØ´Ø®Øµ ÛĮØª
ĠØ¢Ø´ Ù¾
Ùħ ÙĪÙĨ
ĠÙĨ Ú©Ø±Ø¯
ĠÙĩ ÙĨØ¯ÛĮ
ĠØ³ Ú©
Ø§Ø³ Ø§ÙĨ
ĠÙħØ± Ú¯
ĠØ§ÙĨØª Ø´Ø§Ø±
00 0
ĠÙĪØ¨ ÙĦØ§Ú¯
ĠØªØ±Ú©ÛĮ Ùĩ
ĠÙħØ·Ø§ÙĦ Ø¹Ø§Øª
ĠØ¯Ø®ØªØ± Ø§ÙĨÙĩ
........ .........
ĠÚ¯Ø±Ø¯Ø´ Ú¯Ø±ÛĮ
ĠÙĪØ³ÛĮ ÙĦÙĩ
ĠØ±Úĺ ÛĮÙħ
Ø¯ Ø§Ø´
ĠØ¯Ø± ÙĪÙĨ
Ø® ØªÙĩ
ĠØŃ Ø§ØµÙĦ
ĠØ§Ùħ ØªØŃ
ĠØ¯Ø§Ø± ÛĮÙħ
ĠØ§Ø± Ø²
ĠÙħØ¹ ÙĨÛĮ
ĠÙħØ¯ Ø±ÙĨ
ĠÚ©Ø´ ÙĪØ±ÛĮ
ĠÙħØ³ Ø§Ùģ
Ø§ÙĨØ¯ ÙĨ
ÙĪØ¨ ÙĦØ§Ú¯
ĠØ§Øª Ø§ÙĤ
ĠØ±ÙģØª ÙĨ
ĠÚ©Ø§ÙĦ Ø§
ĠØ¹ÙĦØ§ ÙĤÙĩ
ĠÙĨÙĩØ§ÛĮ Øª
own load
ĠØ¨ Ø´
ĠÙĪ Ø§Ø¨
ĠØ¯Ø± Ú©
ĠØ¯Ø± Ø¨
ĠØ³ ÙĪØ¯
Ø¬ ÙĪØ§ÙĨ
ÙĪØ± ÙĪØ¯
ĠÛĮ Ø²Ø¯
ĠØ¢ÙĨ ÚĨÙĩ
ĠÙħØ± Ø§ÙĤ
ĠØº Ø±
Ø§Øµ Ùĩ
ĠØ§ÙĬ Ø±Ø§ÙĨ
ĠØ¬Ø± Ø§ØŃÛĮ
ĠØ¯Ø´ ÙħÙĨ
ĠÙħØ´ØªØ± Ú©
Ġ w
ÙĪ ØªÛĮ
ĠÙħ Ø§Ùħ
ĠØ³ ÛĮÙħ
ĠØ¢ Ùģ
ĠØ¢ ÙĬØ§Øª
ĠÙģ Ø§Ø·
ĠÙħÙĪ Ø«Ø±
ĠÚ©Ø§Ø± Ø´ÙĨØ§Ø³
ÙĨÛĮ Ú©ÛĮ
ĠÙħØ± Ø¬
ÙĪØ±ÛĮ Ùĩ
ĠØ¯ÙĪ Ø³ØªØ§ÙĨ
ĠÙĥ Ø§Ø±
ĠÚ¯Ø° Ø§Ø±ÛĮ
ĠØªØ¬ Ø§Ø±Øª
ĠÙģØ§Ø± Ø³
ĠØŃØ¯ Ø§ÙĤÙĦ
ĠØ¢Ø²Ùħ Ø§ÛĮØ´
Ú¯ÙĪ ÛĮØ¯
ĠØ®Ø¨Ø± ÙĨÚ¯
ĠÙħØ³Ø¦ ÙĪÙĦÛĮ
ĠØ§Ø³ØªØ® Ø¯Ø§Ùħ
i de
Ġ J
Ġ and
ĠÙħ Ø§ÙĦ
Ø¨ Ø§Ø²
ĠØª ÙģØ§ÙĪØª
âĢĮ âĢĮ
ĠÙħÛĮ ØªÙĪØ§ÙĨÛĮØ¯
ÙĬ Ø¨
ĠØ¨Ø± Ø¬
ĠÚ¯ ÙĪÛĮ
ĠØ² Ø§Ø¯Ùĩ
ĠÚ©ÙĨ Ú©ÙĪØ±
ĠÛĮÚ© Ø¯ÛĮÚ¯Ø±
ĠØªØ§ Ú©ÛĮØ¯
Ø¢ ÙĪØ±ÛĮ
ĠÙĩØ³Øª ÛĮÙħ
ĠØ§Ø® ØªØµ
ĠÙ¾ÛĮØ´ Ø±ÙģØª
Ú©Ø§Ø± Ø§ÙĨ
âĢ¦ ]
ĠØ·Ø¨ ÙĤ
Ġ[ âĢ¦]
ĠÙĨØ¯Ø§Ø± ÙĨØ¯
ĠÙĦØ° Øª
ĠØ§Ø¹ØªÙħ Ø§Ø¯
) .
Û ¹
Ġ U
Ùĩ ÙĪØ±
ÙĦ ÙĪÙħ
ĠÙĨ Ú¯Ø§Ø±
Ø±ÛĮ ÙĨÛĮ
ĠØ® Ø´Ú©
ĠØ¹ Ø±ÙĪØ³
ĠØŃ Ø°
ĠØŃ ØªÙħØ§
Ø§Ø´ ÙĨ
ĠÙħØŃ Ø³
Ø§Ø¬ Ùĩ
ĠØ§Ø¬ Ø§Ø²Ùĩ
ĠØ±ÙĪØ² Ø§ÙĨÙĩ
ÙħÛĮÙĨ ÛĮ
ĠØªÙĦ ÙĪÛĮ
ĠØ±Ùħ Ø²
ĠØ¬Ø§ÛĮ Ú¯Ø²
ĠÛ±Û³Û ¸
ĠØ¨ÙĪ Ø³ØªØ§ÙĨ
ĠØ¬Ø§ÙĨ Ø¨ÛĮ
o u
Ú© Ùħ
ĠÙħ ÙħÙĨ
Ø§ÛĮ Ø±
ĠÙĨ Ø¨ÙĪØ¯
ĠØ¨Ùĩ Ø¯Ø§Ø´Øª
ĠØ¹ Øµ
ĠØ¬ Ø§
ĠÙĦ Ø§Øº
ĠØ§ÙĦ Ú¯
ĠÙħØ± Ø§ØŃÙĦ
ÙĤÛĮ Ø§Ø³
ĠÙĥ ÙĨ
ĠÙģÛĮ ÙĦ
ĠØ§Øª ØŃ
ĠÙĨÙĪØ´ Øª
ĠØ²ÛĮØ¨ Ø§ÛĮ
ĠØ±Ùĩ Ø¨Ø±ÛĮ
ÙĪØ²ÛĮ Ø¹
ĠØ´Ø¹ Ø±
ĠØµØ§Ø¯ ÙĤ
1 3
Ùĩ ÙĨÛĮ
ĠÙħ Ú©Ø§ÙĨ
ĠÙĪ Ø§ÙĦ
ĠØª Ø¶
ĠØª Ú©Ø±
ĠÙĨ Ø±Ø®
ĠØ¯Ø± ÛĮ
ĠØ® ÙĦØ§ÙĤ
ĠÙħÛĮ Ø¨Ø§Ø´Ø¯
ĠÙĤ ØµØ¯
ØªØ± Ùħ
ĠÙħÙĨ Ø²ÙĦ
ĠØ´Ø¯ ÙĨØ¯
Ø¦ ÛĮÙĨ
ĠØ¯ÙĪØ± Ø§ÙĨ
ĠØ³Ø§Ø®Øª Ø§Ø±
ĠØªØº Ø°ÛĮÙĩ
ĠØ·Ø¨ ÙĤÙĩ
ĠØ±Ø¹ Ø§ÛĮØª
ĠØªÙĦÙĪÛĮ Ø²ÛĮ
Ġ O
Ø§ Ù¾ÛĮ
ÙĨ Ø§Ùħ
Ùħ ÙĨØ¯Ø§ÙĨ
ĠØ¨ Ú¯ÛĮØ±ÛĮØ¯
ĠØ¯ Ø§Ø¹
ĠØª ÙĪØ²ÛĮØ¹
ĠØ³ ÙĨØªÛĮ
Ø§ÙĦ Ùħ
ĠØ§ÛĮ Ø³ÙĨØ§
ÙĬ ÙĤ
ĠØŃ ÙĦÙĪØ§ÛĮ
Ù¾ Ø°
Ø« ÛĮØ±
Ú©ÙĨ ÙĨØ¯Ùĩ
ĠØ¯ÛĮ ÙĪ
ĠØ³ÙĪ Ø®Øª
ĠØ´ÙĨ Ø§Ø³ÛĮ
ĠÙ¾Ø±Ø¯ Ø§Ø²
ĠØ§Ø³ØªØ® Ø±
ĠÙħØ´Ø®Øµ Ø§Øª
ĠØ¯Ø§ÙĨØ´Ø¬ ÙĪ
Ù¾Ø±Ø¯ Ø§Ø²
Ø¯Ø§Ø´ ØªÛĮ
ĠØ§Ø®ØªØµ Ø§Øµ
Ġ v
ÙĦ ØŃ
ĠØª Ø¬ÙĩÛĮØ²Ø§Øª
ĠÙĨ Ø±ÙĪ
ĠØŃ ÙĪ
ĠØ§ Ú©ÙĨÙĪÙĨ
ĠÙĤ ÙĦØ¨
ĠÙĦ Ø²
Ø§ØŃ Øª
ĠÙħØª ØŃ
ĠØªÙĪØ§ÙĨ Ø§ÛĮÛĮ
ĠÚ©Ø´ÙĪØ± ÙĩØ§ÛĮ
ĠÚ¯Ø±Ø¯ ÛĮØ¯
ĠÙħÚ© Ø§ÙĨÛĮ
ĠÙĩØ´ ØªÙħ
ĠØ§Øº ÙĦØ¨
ĠÙĤÙĪØ§ÙĨ ÛĮÙĨ
e c
Ùħ Ø±Ú©Ø²
ĠØ¨ Ø§Øº
ĠÙħ Ø§Ø¯
Ùģ ÛĮÙģ
ÙĤ ÛĮÙħØª
ĠØ§ÛĮ Ø´Ø§ÙĨ
Ø³Øª Ú¯ÛĮ
ØŃ Ø³
ĠØ¬ ÛĮ
ĠØ§ÙĨ Ø´Ø§
ĠØ§Ø± Ø²Ø§ÙĨ
Ø§Ùģ ÛĮÚ©
Ø§ÙĬ Ø´
ĠØ§Øµ ÙĦ
ĠØªÙĩ Ø¯ÛĮØ¯
ĠÙĨØ¨ Ø§ÛĮØ¯
ĠÙħØ±ØªØ¨ Ø·
ĠØ³Ø±Ø§Ø³ Ø±
ï º
ï »
ĠØ¯ ÙĤØª
ĠØ¯ Ø¨ÛĮØ±
âĢ Ĭ
ĠØ¢ Ø¬Ø±
ĠØ§Ø³ Ùħ
ĠÙģ ÙĩØ±Ø³Øª
Ø· ÛĮ
ĠÙĨÛĮ Ø§Ø²Ùħ
ĠØ§ÙĦ Ùħ
ĠØªØŃ ÙĪÙĦ
ĠØ¬Ùħ Ø¹Ùĩ
ĠÚ©ØªØ§Ø¨ Ø®Ø§ÙĨÙĩ
ĠÙĨÙĪ Ø¬ÙĪØ§ÙĨ
ĠØªÙĤ ÙĪÛĮØª
ĠØ¯ÛĮØ¯ Ú¯Ø§Ùĩ
ĠØªØºÛĮÛĮØ± Ø§Øª
ĠØªØ±Ú©ÛĮ Ø¨
ĠÙĤØ§ÙĨ ÙĪÙĨÛĮ
ĠØ§ÙĦØ¹ Ø§Ø¯Ùĩ
ĠÙģØ§ÙĨØª Ø§Ú©Ø±ÙĪÙħ
Ø¯ Ø³
Øª Ø¨Ùĩ
Ø¨ ÙĪØ¨
ĠØ± Ø®
ĠØ¯Ø± Ø¢ÙħØ¯
ĠØ¯Ø± Ø®ÙĪØ§Ø³Øª
ĠØ¢ ÛĮØ¯
ĠÙ¾ Ø§ÙĪØ±Ù¾ÙĪÛĮÙĨØª
ĠØ¬ Ø¯ÛĮ
ĠÙĪÛĮ ÙĨØ¯
Ø¢ ÙĪØ±
ĠØ´Ø± ØŃ
ĠØ¹Ùħ ÙĪÙħ
ĠØªÙħ Ø±ÛĮÙĨ
ĠÙĦÛĮ Ø³Øª
ĠÙĦØŃ Ø¸Ùĩ
ĠØ±Ø¶ Ø§ÛĮØª
ĠØ¹Ø²ÛĮ Ø²
ÙĨ Ú©
Ùħ Ø²
Ú© Ø¯Ùĩ
ÙĦ ÙħØ§ÙĨ
ĠØ¯ Ø§Ø±ÛĮ
Ø³ Ú©
Ø¨ Ø¯
ĠÙĨ Ø§Ø¨
ĠØ³ ÙĤ
ĠÙ¾ Ø´ØªÛĮ
ÙħÛĮ Ø²
Úĺ ÙĨ
ĠØ§Ø± Øª
ĠØ¨ÛĮ Ø±ÙĪÙĨ
ĠÙģØ± Ø¢ÛĮÙĨØ¯
ĠÙħØ± Ø§Ú©
ĠØ´Ø¯ Øª
ĠÙĤØ± ÙĨ
ĠÙĤØ± Øµ
ĠÙħÙĤ Ø±
ĠÙĨØ¸ ÛĮØ±
Ø§Øµ Ø±
ĠÙĩØ³Øª ÛĮØ¯
ĠØ±Ø§ÛĮ Ø§ÙĨÙĩ
ĠØªÙĤ Ø³ÛĮÙħ
ĠØºØ° Ø§ÙĩØ§ÛĮ
ĠÙĪØ§ÙĤ Ø¹ÛĮ
ĠØ¢ÙħØ±ÛĮÚ© Ø§ÛĮÛĮ
ĠØ§Ø±ØªØ¨Ø§Ø· Ø§Øª
ĠÙħÛĮÙĦÛĮ Ø§Ø±Ø¯
ĠØ¢Ø® Ø±
ĠØªÙĦÙģ ÙĨ
5 0
7 6
ÙĪ Ùģ
ĠØ¯ ÙģØªØ±
Ø´ ØªØ±
Ø¨ ÙĨØ¯ÛĮ
ĠÙĨ Ø¬
ĠÙĨ ÙĪØ²
ĠØ³ ÙĨØ¬
ĠØ¢ Ú¯Ùĩ
Ø§ÙĦ Ø¹
ĠØ¨Ùĩ Ø¯Ø§Ø´ØªÛĮ
ÙĪØ¯ Ø±
ĠÙ¾ Ø§Ú©
Øµ Øª
ĠØ§ÛĮÙĨ Ø¬Ø§
ĠØ² ÙĪØ¯
ĠØ§Ùħ ÙĦØ§Ú©
ĠØµ Ø§Ø¯Ø±
ĠÙģØ± Ø´
Ú©ÙĨ ÛĮÙħ
Ø§Ùģ ÙĤ
ĠÚ©Ùħ Ù¾
ĠÙĩØ³Øª Ùĩ
Â» ØĮ
ĠØ¹Ø§Ø´ ÙĪØ±Ø§
ĠØ« Ø§ÙĨÛĮÙĩ
ĠÙħØ« ÙĦØ§
en t
ĠØ®Ø§Øµ ÛĮ
ĠØ¯ÙĨÛĮ Ø§ÛĮ
ĠI n
ĠÙĨÛĮØ±ÙĪ ÛĮ
ĠØ¨ÙĨØ¯Ø± Ú¯Ø§Ùĩ
ĠØªØµÙĪÛĮ Ø±ÛĮ
ĠØŃØ° Ùģ
ĠÙĪÛĮÙĨØ¯ ÙĪØ²
. Â»
e m
Ø± ÙģØªÙĩ
ÙĨ ÙĤ
ĠÙħ ÙĪØ±
ĠØ¯Ø± Ø¬Ùĩ
ĠØ³ ÙĬ
ĠØ§Ø³ ÙħØ³
ÙĪÛĮ Ùĩ
ĠØ¢ÙĨ ØªÛĮ
ĠÙħÙĪ ÙĩØ§ÛĮ
ĠÙħØŃ ÙĤÙĤ
ĠØ¢Ùħ Ø¯
ĠØ³Ø± Ú¯Ø±
ĠÙĥ Ø±Ø¯Ùĩ
ĠÚ¯Ø° Ø§Ø´ØªÙĩ
ĠÙĨØ¸Ø± Ø§Øª
ĠØ¨ÛĮÙĨ ÛĮ
ĠÙĪØ± ÙĪØ¯ÛĮ
ĠØ³Ùģ ÛĮØ¯
ĠØ¹Ø¨ ÙĪØ±
ĠØ³ÛĮÙĨ ÙħØ§ÛĮÛĮ
ĠÙ¾Ø°ÛĮØ± Ø´
ĠØ¯Ø§Ø¹ Ø´
Ġ j
ÙĨ Ø³
Ø¯ Ø³Øª
Ú© Ø§ÙĦ
ĠÙħ ÙĤÛĮØ§Ø³
ĠØª Ú©ÙĨ
ĠØª Ø³Ùĩ
Ùģ Ø±Ùħ
ĠÙĨ Ú¯Ø±
ĠÙ¾ Ùĩ
ØªÛĮ Ø¨
ĠÙħØŃ ØªØ±Ùħ
ĠÛ ¸
ĠÙħØ¹ ÙĦÙħ
ĠØ±Ø³ ÛĮØ¯ÙĨ
ĠÙĨÙħØ§ÛĮ ÙĨØ¯Ùĩ
ĠÙħØ®Øª ÙĦ
ĠÙĨØ¯ Ø§Ø´ØªÙĩ
ĠØ®Ø· Ø±
ĠØ¯ÛĮØ¯ ÙĨ
ĠØ§ÙħØ±ÙĪØ² Ùĩ
ĠØªØ® Ùħ
ĠÙħØ° Ùĩ
ĠØªØ¨ÙĦÛĮØº Ø§Øª
ĠØ§ÙĦÚ¯ ÙĪØ±ÛĮ
Ġ K
Ø¯ Ú©
ĠØ¨ Ø¨ÛĮÙĨ
ĠÙħ Ø§Ú©
ĠÙĪ ÛĮØ±
Ùģ Ø§ÙĨÙĩ
ĠÙĨ ÙĩØ§ÛĮÛĮ
ĠØ¯Ø± Ø³ÛĮ
ĠØ¢ Ø³Ø§ÙĨ
Ø±ÙĪ Ø²ÛĮ
ĠØ² Ø®
ĠØ² ÙĨØ¯Ùĩ
ĠØ² ÙĦØ²
ĠÙħÙĪ Ø§Ø¬Ùĩ
ĠÙĪÛĮ ÙĦØ§ÛĮ
ĠÙģØ± Ø²ÙĨØ¯
ĠØ§Ø® Øª
ĠØªÙģ Ú©Ø±
ĠØ¹ÙħÙĦÛĮ Ø§Øª
ĠÙĪÛĮØ¯ÛĮ ÙĪ
4 2
Ø´ ÙĩØ±
Ø§Ø± Ú©Øª
ĠØ¢ ØªØ´
Ø§Ø¯ ÙĩØ§ÛĮ
ĠØ§ÛĮ Ø±
ĠÛĮ Ø§Ø¨Ø¯
Ù¾ Ø²Ø´
ĠÙħØ¹ ÛĮ
Ú©ÙĨ Ùħ
ĠØ±ÙĪ ÛĮØ¯
Ùĥ ÙĨ
ĠØ§Ø´ ØªØ¨
ĠØ¯ÙĪÙĦ ØªÛĮ
Ú¯Ø±Ø¯ Ø¯
Ú¯ÛĮØ± ÙĨØ¯
Ú¯ÛĮØ± ÙĨØ¯Ùĩ
ĠØ¯Ø§ÙĨØ´Ø¬ ÙĪÛĮØ§ÙĨ
ĠÙ¾ÙĪØ´ Ø´
ĠØªØŃØµÛĮ ÙĦ
ĠØ±Ø§ØŃ ØªÛĮ
ĠØ¸Ø±Ùģ ÛĮØª
ĠÚ©ÙĦÙħ Ùĩ
ĠØ¬Ø§ÛĮÚ¯Ø² ÛĮÙĨ
1 5
6 0
ÙĪ Ø³ÛĮ
ĠØ¨ Ú¯Ø°Ø§Ø±
ĠÙħ Ø¶
Ø³ ÙĪ
Ø´ Ø¯Ùĩ
ĠØ± ÙĪÙĨ
ĠØ´ Ø§ÙĨ
ĠØ´ Ø¯ÛĮØ¯
ĠÙħÛĮ Ø´Ùĩ
ĠÛĮ ÙĪ
ĠÙĤ Ø²
ĠÙĤ ÙĪÛĮ
ĠÙĦ Ø§ÛĮÙĩ
ĠÚ©Ø§Ø± Ø¯
ĠÙħØ¹ Øª
ĠÙĨØ¸ Ø§ÙħÛĮ
ĠÙħØ±Ø¯ Ø§ÙĨ
Ġ9 3
ĠØ´ÙĨ Ø§Ø®ØªÙĩ
ĠÚ¯Ø±ÙĪÙĩ ÛĮ
ĠÛĮØ§Ø¯ Ú¯ÛĮØ±ÛĮ
ĠØ´Ú© Ø³Øª
ĠØªØ® ÙģÛĮÙģ
oo g
ĠÙħÙĪØ³ Ø³Ùĩ
ĠN ew
ĠØ¨Ø±Ø®ÙĪØ±Ø¯ Ø§Ø±
ĠÙħÙĤØ§ ÙĪÙħØª
ĠØ¢Ø²ÙħØ§ÛĮØ´Ú¯Ø§Ùĩ ÛĮ
ĠØ²ÙĦØ² ÙĦÙĩ
Ġ g
ÙĦ Øª
ĠØ¨ ÙĪØ±
ĠØ¨ Ú¯ÛĮØ±Ø¯
ĠÙĪ Ùģ
Ø¨ Ø®Ø´
Ø² Ø§
ĠØ´ Ø¨ÛĮÙĩ
ĠÙ¾ Ø§Ø¯
ĠØ® Ø¯
ĠÙħÛĮ Ø±
ĠØ¹ Ø¯
ĠØ¹ Ø¯Ø¯
ĠØ§ ÙĪØ±
ĠÙĤ Ø¯Ùħ
ĠØªØ± ØªÛĮØ¨
ĠØ±ÙĪ Ø§ÛĮØª
ĠØ¯Ùĩ Ùĩ
Ġ1 00
ĠÙĥ Ø±Ø¯
ĠØ§ÙĪ ÙĦÛĮÙĩ
ĠØªÚ© ÙĨÛĮÚ©
ĠØµØŃ Ø¨Øª
ĠÙħØªØ¹ ÙĦÙĤ
ĠØ¹Ø¶ ÙĪ
ĠØ¨Ø¨ Ø±ÛĮØ¯
ĠÙħØŃØ³ ÙĪØ¨
ĠØ¢Ú¯Ùĩ ÛĮ
h ot
ÙĨ ÙĪØ§ÙĨ
Ø³ ÙĪØ±
ĠØ± ØŃ
ĠØ´ Øº
ĠØ§ÛĮ Ø¯Ùĩ
ĠÙģ Ø±Ø§ÙĨ
ĠØ¨Ø± ÙĪ
ĠÙĤ ÙĩØ±
ĠØµ ÙĨØ¯
ĠÙħØŃ Ø¨ÙĪØ¨
ĠØ¨Ø§Ø² ÙĬ
ĠÙħÙĤ Ø·
Ø§Ø¯ÛĮ Ùĩ
Ġ1 8
ĠØ±ÙĪØ² ÙĨØ§ÙħÙĩ
ĠØ´ÙĨ Ø§Ø®Øª
ĠØ¬ÙħÙĩ ÙĪØ±
ĠØµØŃ ÙĨÙĩ
Ø®ÙĪØ§Ùĩ ÛĮØ¯
ĠÙĩÙģØª Ùħ
ĠØ¬Ø³Øª Ø¬ÙĪ
Ø§Ø²Ø¯Ùĩ Ùħ
ĠØªØ¯Ø±ÛĮ Ø³
ĠÙħØ±Ø¬ Ø¹
ĠÙħØ®ØªÙĦ ÙģÛĮ
oog le
e h
Ġ of
ĠØ Ł
ÛĮ ØŃ
Ø¯ Ø§Ø¯ÛĮ
ĠØ¯ Ø§ÙĪ
Ø§Ø± Ø¯ÛĮ
Ø¨ ÙĨ
Ø² Ø§Ø¯Ùĩ
ĠØ¨Ø± Ø¯Ø§Ø±ÛĮ
ĠØ¨Ø± Ú¯Ø²Ø§Ø±ÛĮ
ĠØ¨Ø§ ÙĤÛĮ
Ø· Ø±Ùģ
ĠÙĪÛĮ Ø±ÙĪØ³
ÙĩØ± Ø§
ĠØº Ø±Ø¨
Ġ1 9
ÙĦÙĪ Ø¨
ĠØ§Ø¹ ÙħØ§ÙĦ
ĠØ±ÛĮ Ø²ÛĮ
ĠØŃØ³ Ø§Ø³
ĠÚĨÙĩØ§Ø± Ùħ
ĠØ³Ùģ Ø§Ø±Ø´
ĠØ±Ø§ÙĩÙĨÙħ Ø§ÛĮ
ĠØ§ÙĦÚ©ØªØ±ÙĪ ÙĨÛĮÚ©ÛĮ
ĠØ´Ø§Ø± Úĺ
u p
Ø§ÙĨ ÙĬ
ĠÚ© Ù¾ÛĮ
Ø¬ ÛĮØª
Ø® Ø±ÛĮØ¯
Ø® Ø¯Ùħ
ĠÚ¯ Ø±Ø§ÙĨ
ĠØ¬ Ø§ÛĮÛĮ
Ø§Ø³ ØªÙĩ
Ø§Ø´ ÙĤ
Ø¯Ùĩ ÛĮ
Ø³ÛĮ ÙĪÙĨ
ĠÙĦ Øº
ĠÙħØ¹ Ø±ÙĪÙģ
ĠØ¯ÛĮ Ø¬ÛĮ
ĠØ¯ÛĮ Ø¬ÛĮØª
ĠØ³Ø§ÙĦ Ùħ
ĠØ¯Ùĩ ÙĨØ¯Ùĩ
Ø§Ø¬ Ø±
ĠÚ¯ÛĮ Ø§ÙĩÛĮ
Ġ20 0
Ġ-- --
ĠÙħØ§ÙĨ ØªÙĪ
ĠØ²ÛĮØ± ÙĨÙĪÛĮØ³
ĠÙĨÙĪ Ø¨Øª
ĠÙĩÙĨ Ø±Ùħ
ĠÙĨÛĮØ±ÙĪ ÙĩØ§ÛĮ
ĠÚ¯Ø³Øª Ø±Ø´
ĠÙĨÚ¯Ùĩ Ø¯Ø§Ø±ÛĮ
ĠÙĦØŃ Ø§Ø¸
ĠØºØ± Ø¨ÛĮ
ĠÙħØ±Ø§Ú© Ø²
a v
Ø± Ø¶
ÙĪ Ø¨ÛĮ
Øª Øº
Ú© ÙĦÛĮ
ĠØ¨ Ø·ÙĪØ±
ĠØ¯ Ú©ØªØ±ÛĮ
ĠÙĪ ÙĬ
Ø¨ ÛĮØª
ĠØ¹ Ø±ÙĪ
Ø§Øª Ø±ÛĮÙĨ
ĠØ¬ ÙĪØ´
ĠÙĤ Ø§Ø¯Ø±
ĠØ² ÙĬ
ÙĪÙĨ Ùħ
ÙħØ§ÙĨ Ø¯
ĠÚ©Ø§Ø± ÙĩØ§ÛĮ
ĠØº Ùħ
Ø¬Ùĩ Øª
Ġ2 4
ĠØ§Ø¨ Ø±Ø§Ùĩ
ĠØ¨Ø³ÛĮ Ø¬
ĠØ§ÙĨØ¯ Ø§Ø²ÛĮ
ÛĮÙģ Ùĩ
ÙĨÙħ Ø§ÛĮ
Ø¬ÛĮ Ø¨
ĠÚ©ÙĦÛĮ Ù¾
ĠÙĬ Ú©
ac k
ĠÚ¯ÙĪ Ú¯ÙĦ
ĠÙħØº Ø²
ĠØ§ÙĦÚ©ØªØ±ÙĪ ÙĨÛĮÚ©
ĠØ·ÙĦ Ø§ÛĮÛĮ
ĠØ§ÙħÛĮØ¯ ÙĪØ§Ø±
ĠØ¯ÙĬ Ú¯Ø±
ĠØ§ØªØŃ Ø§Ø¯ÛĮÙĩ
g e
i d
l ay
Ġ Z
ÙĪ Ø¬Ùĩ
Ø§ÛĮ Ùģ
ĠØ¯ Ùħ
ĠØ¯ Ø¨
Ø¨ ØŃ
ĠØª Ø³Øª
Ùģ ÙĪ
ĠØ³ Ø§ÛĮÙĩ
ĠÛĮ Ø§Ø±
Ø§Ø´ Ø§
ĠØ§ÙĦ ÙħÙĦÙĦÛĮ
ÙĪØ´ ÛĮ
Ø¨Ø± Ú¯Ø²Ø§Ø±ÛĮ
ĠØ±ÙĪ Ø³Øª
ĠØ±ÙĪØ§ÙĨ Ø´ÙĨØ§Ø³ÛĮ
09 12
us ic
ĠÙĪØ§Ø¨ Ø³ØªÙĩ
ĠÙĨÚ¯Ø§Ø± Ø´
ĠÙĨÙĪØ² Ø§Ø¯
ĠØ¨ Ú©Ø§Ø±
ĠÙħ Ø§ÙĨØ¯
ĠÙħ ÙģÙĩ
ĠØ± Ø§ÙħØ´
ĠØ¯Ø± Ø®Øª
ĠØ³ Ú¯
ĠÙ¾ Ø¯ÛĮØ¯
ĠØ¹ ØµØ±
Ø±ÙĪ Ø§ÙĨ
ĠØ² Ùħ
ĠÚĨ Ø±Ø®
ĠØµ ÙĪØªÛĮ
ÙħÛĮ ÙĦÛĮ
Ú©ÙĨ Ø´
ĠÙĩØ± Ú¯ÙĪÙĨÙĩ
ĠØ³ÛĮ Ø§Ùĩ
ĠØ¨Ø¯ Ø³Øª
Ġ9 7
er s
ĠÙĩÙħÚĨ ÙĨØ§ÙĨ
ĠØ®Ø¨Ø± Ú¯Ø²Ø§Ø±ÛĮ
ĠØ§Ùĩ ÙĦ
ĠØŃÙħ ÙĦÙĩ
ĠØ§ÙĨÚ¯ Ø´Øª
ĠÙ¾ÚĺÙĪÙĩ Ø´ÛĮ
ĠØ¯Ø§ÙĨØ´Ø¬ ÙĪÛĮÛĮ
st ag
ĠG oogle
ĠÙĤÙĦ Ø¹Ùĩ
ĠÙĦØ· ÙģØ§
ĠÙħØ¹Ø§ ÙĪÙĨØª
i g
u n
Øª Ø§ÙĦÛĮ
Ùħ ÙĤ
ĠÙĪ ÛĮØ¯
ĠÙĨ Ø§Ø®
ĠÙħÛĮ Ú©ÙĨØ¯
ØŃ Ø§Øª
ĠÚ¯ Ø§Ø²
ĠÚ¯ ÙĪÙĨØ§
ĠÙĨÛĮ ÙĪØ²
ĠØ§ÙĦ Øª
Ø§Ø® ØªÛĮ
ĠØªØ± Ú©
ÙĩØ± Ùĩ
ĠÙħÙĤ Ø¯Ø§Ø±
Ġ3 0
ĠØµÙĨ Ø§ÛĮØ¹
ĠÙĪØ§ÙĤ Ø¹ÛĮØª
ÙĬØ± ÙĬ
ĠØ§ÙĤØ¯Ø§Ùħ Ø§Øª
ĠØ§Ø¬Ø± Ø§ÛĮÛĮ
ĠÙħØ³Ø¦ÙĪÙĦ Ø§ÙĨ
ĠØ§ÙĨØªØ¸ Ø§Ø±
ĠÙħØ³Ø¦ÙĪÙĦÛĮ Øª
ĠØ§ÙĦÚ¯ÙĪØ±ÛĮ ØªÙħ
r a
Ø§ ÙĪÙĨ
Ø§ Ú©Øª
ĠÙħ Ø§ÛĮ
Ø§Ø± ÙĩØ§ÛĮ
ĠÙĨ Ø§Ø²
Ø§Ùħ Ø¨Ø±
ĠØ³ ÙĪØ±ÛĮÙĩ
Ø§ÙĦ Ùģ
ĠÙħÛĮ Ø²
ĠØ§ÛĮ Ø³Øª
ÙĬ Ú©
ÙĬ Ø§ÙĨ
ĠØ¹ Ø¬ÛĮØ¨
Ø§Øª ÛĮÚ©
ĠØ¢ÙĨ Ø¬Ø§
ĠØ§Ùħ ÙĨÛĮ
ĠÙħÙĨ Ø§Ø·
ĠÙħÙĨ ÙģÛĮ
ĠÙħØŃ Ø§ÙģØ¸
Ø§ØŃ Ø¨Ùĩ
ĠÙģØ± ØµØª
ĠÚ©Ø´ ÛĮ
ĠØ¨Ø§Ø²ÛĮ Ú¯Ø±Ø§ÙĨ
Ø§ÙĬ Øª
ĠØ±Ø³ Ø¯
ĠØ§Ø¯ Ø±
ĠØ¨Ø§ÙĦ Ø§ØªØ±
ĠÚ©ÙĨÙĨØ¯ Ú¯Ø§ÙĨ
ĠØ±ÛĮ Ø§Ø³Øª
Ġ201 3
ĠÙħÙĪØ¶ÙĪØ¹ Ø§Øª
ĠØ®ÙĪØ§Ùĩ ÛĮÙħ
ĠØ¢ÛĮ ÛĮÙĨ
ĠØ³ÙĦ ÙĪÙĦ
ĠØ¢ÙĤØ§ÛĮ Ø§ÙĨ
ĠØ¨Ø§ÛĮ Ø³ØªÛĮ
ĠÙĩÙĪØ´ ÙħÙĨØ¯
ĠØ±Ø§ÙĨ ÙĨØ¯Ú¯ÛĮ
ĠÙħØªÙĤ Ø§Ø¶ÛĮ
ĠØ§Ø±ÙĪÙ¾ Ø§
ĠÙģÛĮÙĦ ØªØ±
Ø± ØªÛĮ
Ø§Ø± ÙĪ
Ú¯ Ùħ
ĠØ± ØªØ¨Ùĩ
ĠÙĨ Ø´ÙĪØ¯
ĠØ´ Ùģ
ĠØ¢ ÙĬÙĩ
ĠÙ¾ Ø¯
Ù¾ ÙĪØ´
ĠÙħØ± Ø²
ĠÙ¾ÛĮ Ø§Ø¯Ùĩ
ÙĤÛĮ Ùĩ
ĠÙħØ³ Ø¬Ø¯
ĠØ¯Ùĩ ÛĮÙħ
ĠÙħÙĩ ÙħÛĮ
ĠØ¨Ø¯ ÛĮÙĨ
ĠÙĨÙĤ Ø´Ùĩ
ĠÙ¾ÛĮØ´ Ø±ÙģØªÙĩ
Ø§Ø±Øª ÙħØ§ÙĨ
ĠØ° ÙĩÙĨÛĮ
ĠØ¹Ø± Ø¨ÛĮ
ĠÙĤØ· Ø¹Ø§Øª
ĠØ¹Ø¨ Ø¯
ĠØªØ£ Ø«ÛĮØ±
ĠØªØ¨Ø±ÛĮ Ø²
ĠØ¢ÙĪØ± Ø¯Ùĩ
ĠÙĦØ§Øº Ø±ÛĮ
ĠÙ¾Ø´ØªÛĮ Ø¨Ø§ÙĨÛĮ
Ø®Ø¯Ùħ Ø§Øª
â Ļ
ĠØ¨ ØªÙĪØ§ÙĨØ¯
ĠÙĪ Ø§Ùħ
ĠÙĪ Ø±Ø¯
ĠÚ© Ø§Ø´
Ø§Ø± Ùģ
ĠØª Ø³
ĠØª Ø²
ĠÙĨ ÙĪÛĮØ³ÛĮ
ĠØ¢ Ø¯Ø±Ø³
ĠØ¨Ø± ÙĤØ±
ÚĨ Ø±Ø®
ĠÚ¯ Ø±ÛĮ
ĠØ¬ Ø¹
ĠØŃ Ø±Ùħ
ĠØ² Ø¯
ĠÙħØŃ ÙĦÛĮ
ĠÙĨÛĮ Ú©
Ø§ØŃ ÙĦÛĮ
ĠÙģØ± Ø§Ùħ
Ø¢ ÛĮØ¯
ĠØ§Ø¯ Ø§Ø±ÛĮ
ĠÙ¾Ø±ÙĪ Øª
ĠÚĨÙĨØ¯ ÛĮÙĨ
ĠØ¬ÙĨ Ø³ÛĮ
es t
ĠØ¬ÙĪØ§ÙĨ Ø§ÙĨ
ĠØ¢Ø³ ÙħØ§ÙĨ
ĠØ§Ø¨ØªØ¯ Ø§ÛĮÛĮ
ĠØªÚ©ÙĨ ÙĪÙĦÙĪÚĺÛĮ
ĠØ§Ø´ØªØ¨ Ø§Ùĩ
ĠÙħØ¹Øª Ø¨Ø±
ĠØ§ÙħÙĨÛĮ ØªÛĮ
A T
Ġ i
Ø§ÙĨ ÙĪ
Ø¨ ÙĨØ¯
ĠØ¯Ø± ÙĪ
ÙĪØ± ÙĬ
ĠÚ¯ ÙĨØ¯
ĠØ² ÛĮÙĨ
ĠÙĩÙħ Øª
ØªØ± Ø§Ú©
ĠØ§Ùħ Ø³Ø§ÙĦ
ĠØµ Ø§ØŃ
ĠÙĤØ± Ø§Ø±Ø¯
ÙĦÙĪ Ø§Ø²Ùħ
Ø¨Ø§Ø± Ø¨Ø±ÛĮ
ĠÙ¾ÛĮØ´ Ú¯ÛĮØ±ÛĮ
ĠØŃØ§ÙĦ Ø§
Ø§Øº ÙĦ
ĠÙħØ« Ø¨Øª
ĠØ¹Ø± ØµÙĩ
ĠÙĨÙĬ Ø²
ĠØ±Ø§ØŃ Øª
ĠØ®ÙĪØ±Ø¯ ÙĨ
h an
ÛĮ Ú©ÛĮ
ĠÚ© ÙĦØ§Ùħ
ĠØª Ø¯
ĠØ± Ø³Øª
ĠØ¯Ø± Ø¬
Ø§ÙĦ Ø±ÛĮ
ĠÙ¾ ÙĪØ¯Ø±
Ø¬ Ø§ÛĮÛĮ
ĠÙħÛĮ ÙĪÙĩ
ĠØ¹ ÙĪØ§Ø±
ĠØ§Ø³Øª Ø±
ĠÚ¯ Ø§Ùĩ
ĠØ®ÙĪØ¯ ØªØ§ÙĨ
Ø¢ Ø¨
ĠÚ©ÙĦ Ø´
ĠÙĨØ´ Ø±
Ø¯Ø§Ø± Ø§ÙĨ
ĠÙ¾Ø±Ø¯ Ùĩ
ĠØ¯ÛĮØ¯ Ø§Ø±
ĠØ¬Ø² Ø¦ÛĮ
ĠØ§Ú© Ø«Ø±
ĠÙħØ° Ø§Ú©
ĠØ¢Ù¾ Ø§Ø±ØªÙħØ§ÙĨ
ĠØªØŃØµÛĮ ÙĦÛĮ
ĠÙĦØ± Ø²Ùĩ
ĠÙħØªÙĪØ³ Ø·
stag ram
u l
Ġ Y
Ġ Ð
ÙĪ ØŃ
ÙĪ Ø°
Ú© Ø´ÙĨ
Ø³ ÙĪÙĨ
Ø§Ø± ÚĨ
Ø² Ø¯Ùĩ
ĠØ± Ø§Ø¯ÛĮ
ĠÙĨ Ú¯Ø±Ø§ÙĨ
ĠØ³ ÙĨØ¯
ÙĨØ¯ Ø±
Ø® Ø±
ĠØ¨Ø± ÙĤ
ĠØ¨Ø§ ÙĬØ¯
Ø· ÙĦ
Ù¾ Ø§Øª
ĠÙħÙĨ ØŃ
ĠØ§ÙĦ ÛĮ
ĠÙħØ´ Ø§Ø¨Ùĩ
Ú©ÙĨ Ùĩ
Ø¹Ùĩ Ø¯
ĠØ³ÙĪ ÚĺÙĩ
ĠÙĨÙĤ ÙĦÛĮÙĩ
ĠØ§Ø· Ø±Ø§Ùģ
ĠÛ±Û ¹Û
ĠØ³Ø¨ Ø¨
ĠÙĪØ§Ø±Ø¯ Ø§Øª
ĠØ®ÙĪØ± Ø§Ú©
ĠÙĨÙģ Ø³
Ø±ÛĮØŃ ÛĮ
ĠÙ¾ÙĦÛĮ Ø³
ÙĨØ¸ Ø±
Ø³ØªØ§ Ú¯Ø±Ø§Ùħ
ĠØ²ÙĨØ¬ Ø§ÙĨ
ĠÙħØ°Ùĩ Ø¨ÛĮ
ĠÙħÙĤØ· Ø¹
ĠÙħÙĨØ§Ø· ÙĤ
r y
Ġ X
Ġ a
Ùĩ Ø§Ùħ
Ùĩ Ø¯Ùĩ
ÙĦ Ø§ÙĦ
ĠÙħ ÙĪÛĮ
ĠÚ© Øª
Ø¨ ÙĪØ±
Ø¨ Ø·
ĠØ³ Ø§ÙĨ
ĠØ³ Ø§Ø¨ÙĤÙĩ
ĠØ³ Ø¦ÙĪ
ĠØ¨Ø± Ø¯Ùĩ
ĠØ¹ ÙĩØ¯Ùĩ
ØŃ Ø¶
ĠÚ¯ ÙĨ
ĠØ¨Ø§ ÙĪØ±
ĠÙĩÙħ ÙĪØ§Ø±Ùĩ
ĠØªØ± ÙģÙĨØ¯
ÙĪØ¹ ÛĮ
Ø¦ ÙĨ
ĠÙĨÙĤ Ø§Ø·
ĠS t
ĠÙħØ¯ÛĮØ±ÛĮ ØªÛĮ
ĠØ®ÙĦ Ø§ØµÙĩ
ĠÙĨÛĮØ§Ø²Ùħ ÙĨØ¯
ĠØ§Ø®Øª ÙĦØ§Ùģ
u r
Ø§ Ùī
Ø¯ ÛĮÙħ
ĠÙĪ Ø§Ø³
ĠÙĪ ÛĮØª
ĠÙĪ Ø¬Ùĩ
Ø´ Ø¨
Ø´ Ø§Ø¯
ĠÚ© ÙĪÙĨ
Ú¯ ÙĨ
Ø§Ùħ Ø§Ùħ
ĠØ³ ÛĮÙĨÙĩ
Ø¬ ÙĦ
Ø® ÙĪØ§ÙĨ
ÚĨ ÛĮÙĨ
ĠØŃ Ø§Ú©
ĠÙĤ ØªÙĦ
ÙĩØ§ Ùī
Ø¶ Ùĩ
ØªÛĮ Ø§Ø²
ĠÙħÙĪ Ø§Ø±Ø¯ÛĮ
ĠÙħØ³ Ø§Ø¨ÙĤÙĩ
ĠØ¬Ùħ Ø¹ÛĮØª
ĠÙħØ§Ùĩ ÛĮ
ĠØ¨Ø§ÙĦ Ø§ÛĮÛĮ
ĠØ®Ø§ÙĨ Ú¯ÛĮ
ĠØ³Ù¾ Ø±Ø¯Ùĩ
ĠÚ©Ø§ÙĨ ÙĨ
ĠÙĩÙĪ Ø§ÛĮÛĮ
ĠØ·Ø¨ÛĮ Ø¹Øª
ĠØ§ÛĮÙħ ÙĨÛĮ
ĠØ¯Ùģ Ø§Ø¹ÛĮ
ĠØ®Ø¯Ø§ ÙĪÙĨØ¯
ĠÙħÙĩÙĨØ¯ Ø³
ĠÚ©Ø±ÙħØ§ÙĨ Ø´Ø§Ùĩ
ĠØ¨ÙĨÛĮ Ø§Ø¯
ĠÙĨÙĪÛĮØ³ ÙĨØ¯Ùĩ
ĠØ³ÙĨØ¬ Ø´
ĠØ²Ø® Ùħ
ÛĮ ÙĦØ§Øª
ĠÚ© Ø¬Ø§
Ø² Ùħ
Ø² Ø§ÛĮ
ĠÙĨ Ø§Ø´ÛĮ
ĠÙĨ Ú©ÙĨÛĮØ¯
ĠØ¢ ÙĤ
Ø¹ Ø¨
Ø¹ Ø§ÙħÙĦ
ÙĬ Ø§Ø±
ÙĬ Ø²
ĠÙģ Ø¶
ĠÚ¯ ÙĨØ¯Ùĩ
ĠÚĨ ÙĩØ±Ùĩ
ĠØ§ÙĨ Ø³
ĠØ¯Ø§ÙĨ Ùĩ
ĠÙħÙĨ Ø§Ùģ
Ø¨Ùĩ Ø´Øª
ĠÛ±Û ²
ĠÛ±Û µ
ĠÙħØµ Ø§ØŃØ¨Ùĩ
ĠØ¯Ø§ÙĨØ´Ú¯Ø§Ùĩ ÛĮ
ĠÛĮØ§Ø¯ Ú¯ÛĮØ±ÙĨØ¯Ùĩ
ĠØªØ¬Ø± Ø¨ÛĮ
ĠØ®ÙĪØ± Ø´ÛĮØ¯
ĠÙĨÙģ ÙĪØ°
ĠØ¢ÙĦ Øª
ĠÚ¯Ø³Øª Ø±Ø¯Ùĩ
ĠÙĤØ¨ ÙĪÙĦ
ĠØ¢Ø´ÙĨ Ø§ÛĮÛĮ
ĠÙĦØ° Ø§
ĠÚĨØ± Ø¨ÛĮ
ĠV ide
ĠØ¢ÙħÙĪØ² Ø§ÙĨ
ĠØ´ÙĩØ±Ø¯ Ø§Ø±ÛĮ
ĠÙħÙĤØ¯Ùħ Ø§ØªÛĮ
ĠØªÙĦÙĪÛĮØ²ÛĮ ÙĪÙĨ
ĠÙĨØ±ÙĪ Úĺ
ĠÚ©Ø§Ø±Ø¯ Ø³ØªÛĮ
ĠØ¯ÛĮØ¬ÛĮØª Ø§ÙĦ
1 1
Ġ l
Ġ ....
Ùĩ ÙħØ§ÙĨ
ĠÙħ Ø±ÛĮ
ĠØª Ø§ÙĨ
ĠØª Ø§ÛĮÛĮØ¯
ĠÙĨ ÙĪØ±ÛĮ
ĠØ¢ Ú¯Ø§ÙĩÛĮ
ÙĤ Ø§Øª
ĠØ§Ø³ Ùģ
ĠØ§ Ú©Ø³
ĠØ² ÙĩØ±Ø§
ĠÚĨ Ø§ÛĮ
ĠÚĨ Ø§ÙĦ
ĠÙĩÙħ Ø³
ĠÙĦ ÙĪÙĦÙĩ
ĠØ· ÙĦØ§
ĠØ®ÙĪØ¯ Ú©Ø§Ø±
ĠØ¨Ø§Ø² Ú¯
ĠØ§ÙĦ Ú¯ÙĪ
Øº Ø±
ĠÛ ¹
ĠÛ ³Û
ĠØ´Ùħ Ø§Ø±
Ø§Ùģ Ø²
Ø§Ø³Øª ÙģØ§Ø¯Ùĩ
ĠØ±Ø³ ÛĮØ¯Ùĩ
Ġ9 6
ĠØ§ØŃ ÙħØ¯
ĠØ³ÛĮÙĨ ÙħØ§
ĠØ´ÙĨØ§Ø³ Ø§ÛĮÛĮ
ĠØ¯Ø¹ ÙĪØª
ĠÙħÙĪÙĤ Ø¹ÛĮØª
92 8
ĠØ¢Ø´Ù¾ Ø²ÛĮ
ĠÙħØ±Ø§ÙĤ Ø¨Øª
ĠØªÚ©Ø± Ø§Ø±
ĠØ§Ø¨Ø±Ø§Ùĩ ÛĮÙħ
ĠÚ¯ÙĪÙĨØ§ Ú¯ÙĪÙĨ
ÙĦ Ø·
ĠØ¨ ØªÙĪØ§ÙĨ
ĠØª Ø±Ø¯
ĠØ³ ÙĪØ±
ĠØ³ Ø§ØŃÙĦÛĮ
ĠØ´ Ø´Ùħ
Ø§Ø¯ Ø§Øª
ÙĬ Ùĥ
Ø§Øª Ø±ÛĮ
ĠØ§Ø³Øª Ø¹
ĠØŃ Ø§Ø¯
ĠØ² Ø¯Ùĩ
ÙĪÙĦ ÛĮÙĨ
ĠØµ Ø¨ØŃ
ĠØ§Ø± Ø¯
ĠØ¨Ø§Ø² Ø±
ĠØªÙĪ Ø¬
ĠÙħØ± ÙĪØ±
ĠÙħÙĤ Ø¯Ø³
ĠÙħÙĩ Ø¯
ĠØ¶ Ø±ÙĪØ±ÛĮ
Ġ9 2
Ø´Ùħ Ø§
ÙĨÙħ Ø§ÛĮØ´
ĠØªÙĤ Ø±ÛĮ
ĠØ¨Ø§ÙĨ Ú©ÛĮ
ĠÙĨÙĪØ¹ ÛĮ
ĠÙĩØ¯ Ø§ÛĮØª
ĠÙĨÚ© Ø§Øª
ĠØ´ÛĮØ± Ø§Ø²
ĠØ®Ø± Ø§Ø³Ø§ÙĨ
ĠÙĨÛĮÙħ Ùĩ
76 928
ĠØªØ³Ùĩ ÛĮÙĦØ§Øª
0912 76928
091276928 42
i a
u t
Ð °
Ùħ ØªØ±
Ú© Ø³ÛĮ
Ø¨ ÙĦÙĩ
Ùģ ÛĮÙĩ
Ø² ÛĮÙĨ
Ø§Ø¯ ÙĨ
ĠÙ¾ Ø§ÛĮØª
ĠÙ¾ Ø§ÛĮØ¯
ĠØ® Ø´
ĠØ¹ Ùģ
ØŃ Ø§ÙĦ
ÚĨ ÙĨÛĮÙĨ
Ø§Ø¨ ÙĦÙĩ
ĠÙĦ Ø§ÛĮ
ĠØ§Ùħ ØªÛĮØ§Ø²
Ø¯ÛĮ Ø¨ÙĩØ´Øª
Ú¯Ø± Ø§ÙģÛĮ
ĠØ§Ø± Ø¯ÛĮØ¨ÙĩØ´Øª
ĠÙ¾ÛĮ ÙĪØ³Øª
ĠÙħØª ÙĪØ¬Ùĩ
Ø¢ Ùģ
Ø±Ø³ Ø¯
ÙĬÙĨ Ùĩ
ÛĮÙģ ÙĪÙĨ
ĠØ§Ø® ØªÙĦ
ĠØ±ÛĮ Ø²Ø´
ar c
ĠÙĩÙħÚĨ ÙĪÙĨ
ĠA p
ĠÙĨÙĪØ´ ØªÙĨ
ĠÙħÙĪØ² Ùĩ
ĠÙĩÙĪ Ø§
ĠÙģÙĦ Ø´
ĠØ®ÙĪØ§ÙĨ ÙĨØ¯Ùĩ
ĠØªØ£ Ú©ÛĮØ¯
ĠØ·ÙĪÙĦ Ø§ÙĨÛĮ
ĠØ±ÙĤ Ø§Ø¨Øª
ĠÙĪØ¸ Ø§ÛĮÙģ
ĠÙħØªÙĪØ³ Ø·Ùĩ
ĠØ´ÙĩØ±ÙĪ ÙĨØ¯Ø§ÙĨ
ÙĨÙĪØ´ Øª
ob s
ĠØ´Ø§Ø® Øµ
ĠÙĨÚ¯Ø± Ø´
ĠÙĪÛĮØ± Ø§ÛĮØ´
ĠØ¹ÙĪØ§Ø± Ø¶
w w
Û ³Û
Ø± Ø¦ÛĮØ³
Ø¯ ÙĪØ¯
Ø§ÛĮ ØªÛĮ
ĠØ¯ Ø§Ø¦
Ø§Ø± Ùħ
Ø¨ Ø´
ĠØª Ø®Øª
ĠÙĨ Ø§ØŃ
ĠØ¢ Ø¯Ùħ
Ø¹ ÙĪØ¯
ĠØ¨Ùĩ ÛĮÙĨÙĩ
ĠÙģ Ø±ÙĪ
ĠÙģ Ø±ÛĮÙħ
ĠØ§Ø³Øª Ø±Ø§Øª
ĠÛĮ ÙĪÙĨ
ĠÚ©Ø§Ø± Ø¨Ø±ÛĮ
ĠÚ©Ø§Ø± ØªÙĪÙĨ
ĠØ¯Ø§Ø± Ùĩ
ĠÙħÙĨ Ø¬Ø±
Ú©Ø³ ÙĦ
Ø¦ Øª
ĠØªØŃ ÙĤÙĤ
ĠÚ¯Ø° Ø§Ø´Øª
ĠÙĨØ³ ÙĦ
ĠØ¢Ø± Ø§Ùħ
ĠØ§ÙĨØªØ®Ø§Ø¨ Ø§Øª
ĠP lay
ĠØªÚ© ÙħÛĮÙĦ
ĠØ¸ ÙĩÙĪØ±
ĠÚĺ ÙĨ
ĠØ¯Ú© ÙħÙĩ
ĠØ¢Ø° Ø±ÛĮ
ĠØŃÙģ Ø§Ø¸
ĠÚ¯ÛĮØ± ÙĨØ¯
ĠÙħÚ¯ ÙĨØ§
ĠØ§ØªÙĪÙħ Ø¨ÛĮÙĦ
ĠØ®Ø¨Ø±ÙĨÚ¯ Ø§Ø±
ĠIn stagram
hot os
1 7
3 0
o p
Ġ âĢĮ
ĠØ¨ ÙĪÛĮ
ĠØ¯ ÙĦÙħ
Ø³ Ø§Ø®Øª
ĠÙĪ Ø¹
ĠÚ© Ø³
ĠÚ© Ø±Ùħ
Ú¯ Ø§Ø±ÛĮ
ĠØª Ø§Ø¬
âĢ į
ĠØ³ Ø§Ø±ÛĮ
ĠØ´ Ø³Øª
ĠØ´ Ø§ÙĩØ¯
ĠØ´ ÛĮÙħÛĮ
ĠØ¢ ÙĦÙĪØ¯
Øµ Ø§ÙĦ
ĠØ§ Ù¾ÙĦ
ĠØ· Ø§Ùĩ
ĠÚ©Ø±Ø¯ ÛĮÙħ
ĠØ¢Ùħ Ø§Ø±
ĠØ¢Ùħ Ø§Ø¯Ú¯ÛĮ
ĠØªÙĪ Ø§ÙģÙĤ
ĠÙħØ¹ Ø±ÙģØª
ĠØªØ§ Ù¾
ĠØªØ± Ø§ÙħÙ¾
ĠØ¯ÛĮ ÙĪØ§Ø±
ĠÙħÙĤ Ø§Ø¨ÙĦÙĩ
ĠÚ¯Ø± Ú¯
ĠØ¯Ø§ÙĨØ´ Ú©Ø¯Ùĩ
ĠÙħØ· Ùħ
Ø§ÛĮÙĦ ÙĨØ¯
Ġ: :
ĠØ§Ø·ÙĦØ§Ø¹ Ø§ØªÛĮ
ĠØ±ÙĨÚ¯ ÛĮ
ĠØµØŃ ÛĮØŃ
ac obs
Ø§Ø¨ÙĤ Ø§Øª
ĠÚĨØ± Ø§Øº
ĠÙħØ¹Ø§ ÙĪÙĨ
ĠØ®Ø±Ø¯ Ø§Ø¯
c e
Ð µ
ĠØ £
Øª Ú©
Ø³ ÙĨØ¬
ĠØª Ø§ÛĮ
ĠØª Ø§Ø®
ĠÙĨ Ø¨Ø§Ø´Ø¯
ĠØ´ ÛĮÚ©
ĠØ¢ Ú¯Ø§Ùĩ
ÙĤ Ø¨
ĠØ® ÙĨØ¯Ùĩ
Ø¬ Ø¯ÛĮØ¯
ĠØ§ÛĮ Ú©Ø³
Ø§Ùĩ ÙĨ
ĠØ¨Ø§ ÙĤØ±
ĠØŃ Ø±Ú©
ĠÙĤ ÙĦÙħ
ĠØ² ÙĨÚ¯
Ú©ÛĮ Ùģ
ĠØ§Ø± ØªÙĤ
ĠÙħØ³ Ú©ÙĨ
ĠØ¯Ùĩ Ø§ÙĨ
ØªÙħ Ø§Ùħ
Ø§Ø· ÛĮ
ĠØ§Ø¨ Ø¹
ĠâĢ ı
ĠÙĨØ´ Ø§ÙĨÛĮ
ĠØ¶ Ø±Ø¨
ĠØ¢Ø± Ø§ÙħØ´
Ø´ÛĮ Ø´Ùĩ
ĠØ³Ø¨ Ø²ÛĮ
ĠÙħÙĩÙħ ØªØ±ÛĮÙĨ
ĠÙħØ±Ø¨ÙĪ Ø·Ùĩ
ĠÙĩÙĨÚ¯ Ø§ÙħÛĮ
ĠØ±Ùĩ Ø¨Ø±
ĠÙĤØ¨ ÙĦÛĮ
ĠÙĨØ®Ø³Øª ÛĮÙĨ
ĠØ¹ÙĤ Ø¨
ĠØ¨Ø±Ø³ Ø¯
ĠÙħØ¨Øª ÙĦØ§
ĠØ¹Ø±Ø¨ Ø³ØªØ§ÙĨ
ĠØŃØ§Ø¯ Ø«Ùĩ
ĠÙ¾Ø§ÛĮØª Ø®Øª
O S
r an
t er
Ø¯ ÛĮØ±
ÙĪ ÙĤÛĮ
Ùħ Ø§Ùĩ
ĠØ¨ ÙĨØ§
Ø§ÛĮ ÙĦÛĮ
ĠØ¯ Ø²
ĠØª Ø§Ø³ÛĮ
ĠØ¯Ø± ÙĪØ³
Ø§ÙĦ ÙĪ
ĠÙ¾ Ø±Ùĩ
ĠØ¹ ÛĮÙĨ
ÚĨ Ø±
ĠØ§Ø³Øª ÙĤ
ĠØ¨Ø§ ÙģÛĮ
Ø· Ø¨
ĠØµ ÙģØ±
ØªÙĩ Ùħ
ĠÙģØ± ÙĪØ±Ø¯
ĠØ´Ùħ Ø§Ø³Øª
ĠÙħØ´ Ø§Ø±Ú©Øª
Ø§Ùģ Ø¸Ùĩ
ĠØ¯ÙĪ Ø¨Ø§Ø±Ùĩ
ĠØ¹Ùħ Ø§Ø±Øª
ĠÙĨØ´ Ø§ÙĨÙĩ
Ø¯Ø§ÙĨ Ø´
Ú©Ø±Ø¯ Ù¾Ø§Øª
Ø§Øº Ø°
ĠØ° ÙĩÙĨ
ĠÛ² Û°Û°
ĠØ´Ø±Ø§ÛĮØ· ÛĮ
or t
ĠÚĺ Ø§Ù¾
ĠØ¹ÙĦÙħ ÙĬ
ĠÛ±Û³Û¹Û ·
ĠÙĪØ¸ ÛĮÙģÙĩ
ØªØ¹ ÙħÛĮØ±
ĠÙĩÙħØ§Ùĩ ÙĨÚ¯
ĠÙĤØ² ÙĪÛĮÙĨ
ĠÙħÙģÙĩ ÙĪÙħ
ĠÙĪØ±Ø¯ Ù¾Ø±Ø³
ĠAp ps
Ú©Ø±Ø¯Ù¾Ø§Øª ÙĪÙĤ
1 4
Ġ in
ĠØ¨ ØªÙĪØ§ÙĨÙĨØ¯
Ø§ÛĮ Ø§ÙĨ
ĠØª Ø±ÛĮ
ĠÙĩ Ø´Øª
ĠØ¢ ÙĪ
ĠÙ¾ ÙĪÙĨ
Ø³Øª Ø§ÙĨÙĩ
Ø® Ø¨Ø±Ú¯Ø²Ø§Ø±ÛĮ
ĠØ¨Ø± Ùĩ
ĠØ¨Ø± ÚĨØ³Ø¨
ĠÚ¯ Ø§ÙĦØ±ÛĮ
ÙĦÛĮ Ùħ
Ù¾ ÙĪØ±Øª
ĠÙĦ ÙĨØ¯
ĠØ§Ùħ ÙĪØ²Ø´
ĠØ· ÙĨØ²
ĠÙħØŃ ÙĪØ±
ĠØ®ÙĪØ¯ Ùħ
ĠÙħØ¹ ØªÙĤ
Ø¢ ÙĪØ±Ø¯
ĠÚ©Ø´ Øª
ĠÙħØ³ Ø§Ø¨ÙĤØ§Øª
ĠØ¹Ùħ Ø¯Ùĩ
ĠØ¬Ùħ Ø¹ÛĮ
ĠØªØ¹ Ø¯Ø§Ø¯ÛĮ
ĠØ§ÙĪ ÙĤØ§Øª
ĠØ§Ø· ÙħÛĮÙĨ
ĠØ´ÙĩØ± Ú©
ĠÙ¾Ø³ Ø±
ĠØ´ÛĮ Ø±ÛĮÙĨ
ĠÙħØ§ÙĨ Ø¯Ùĩ
ĠØ° Ø®
ĠØ¬ÙĪ Ø¬Ùĩ
ĠØ¹ÙĦÛĮ Ø±Ø¶Ø§
ĠÚ¯ÙĪØ´ Øª
ĠÙĪØ§ÙĤØ¹ Ø§
ÙħØ´ Ø§ÙĪØ±
ĠÛ²Û° Û±
ĠÙħÙĨØ§Ø³ Ø¨Øª
ĠÙħØªÙĤØ§Ø¶ÛĮ Ø§ÙĨ
ĠØªÙĤØ±ÛĮ Ø¨Ø§
ĠØ§Ø¨Ø¹ Ø§Ø¯
u m
Ġ â
ĠØ Ľ
ÛĮ Ø¨
ĠÙ Ģ
ÙĪ Ú¯Ø±Ø§ÙģÛĮ
ĠØ¨ Ø§Ø±Ø¯
Ø¨ Ø§ÛĮ
ĠØª Ø±ÙĪØ±ÛĮ
ĠØ´ Ø´
ĠØ´ ÙĨØ§
ĠØ¢ Ú©
ĠØ¢ ÛĮÙģÙĪÙĨ
ÛĮØ¯ Ø±ÙĪ
ĠÙģ Ø§Ø²
ĠØ¨Ø± Ø¯ÙĨ
ĠØ§ÛĮÙĨ Ø³ØªØ§Ú¯Ø±Ø§Ùħ
Ø§Ø³ ÙģØ§ÙĨÙĩ
ÙĦÛĮ Ú©
ÙĦÛĮ Ú©ÛĮ
ÙĪÛĮ Ø´
ĠÙĩÙħ Ø²ÙħØ§ÙĨ
ÙĪØ´ Ú©
ĠÙģØ± Ø³Øª
Ø¨Ø± ÙĨØ§ÙħÙĩ
ĠØ³Ø± Ø®
ĠÙħØ¬ ÙĪØ²
ĠÙħØ³ Ø§ÙĦÙĩ
ĠØ´Ø± ÙĤ
Ø§Ú© Ø«Ø±
ĠÂ ·
ĠØ±Ø³ Ø§ÙĨ
ĠØªÙħ Ø±Ú©Ø²
ĠØ±ÙĪØ² ÛĮ
ĠÛ± Û°Û°
ĠØ§Ø´ ØªØ±Ø§Ú©
ĠÙ¾Ø±ÙĪ Ø§Ø²
ĠØ¢Ø± Ø§ÛĮØ´Ú¯Ø§Ùĩ
ĠB l
ĠT he
ĠØªØ§Ø¨ Ø³ØªØ§ÙĨ
Ø´Ú© Ø¯Ùĩ
ĠÚ©ÙħÛĮ Ø³ÛĮÙĪÙĨ
ĠØ±Ø§ÙĩÙĨÙħ Ø§ÛĮÛĮ
ĠØªÙĪØ¶ÛĮØŃ Ø§Øª
ĠØ®Ø±ÙĪ Ø¬
ĠØ¨ÙĪØ± Ø³
ĠÙħØŃØ§ÙģØ¸ Øª
ĠÙģØ±ÙĪØ±Ø¯ ÛĮÙĨ
ĠØ§Ø·ÙħÛĮÙĨ Ø§ÙĨ
i f
Ùħ Ùħ
Ø´ ÛĮÙĨ
ĠØª Ú©ÛĮ
ĠØ± Ø¯
ĠØ± Ú©
Ø§Ùħ ÙĦÛĮ
ĠØ¢ ÙĦØ§Øª
ĠÙ¾ Ø§ÙĬ
ĠØ® ÛĮØ±
ĠØ§Ø³ ÙĦ
Ø§Ø³ Ø§Ø³
Ø§Ø³ ÙĦØ§Ùħ
ĠØ§ Ú¯Ùĩ
ĠÚĨ Ø´
ĠÚĨ ÙĨØ§ÙĨ
ÛĮÙħ Ø§
ĠÙĩÙħ Ø§ÛĮØ´
Úĺ Ø§Ø¯
ĠÙħÙĨ Øµ
Ø¸ Ùħ
ÙĦØ§ ÙĤÛĮ
ĠØ¨Ø§Ø´ Ùĩ
ĠØ¨Ø§Ø´ Ú¯Ø§Ùĩ
ĠØ´Ø¯ Ùħ
ĠØ¶ Ø¨Ø·
ĠÚ¯ÙģØª Ú¯ÙĪ
Ø§Ø¶ ÙĦ
ĠÙĩÛĮ Ø§Øª
ĠØ§Ø³ÙĦØ§Ùħ ÙĬ
ĠØ¬ÙĨ ÙĪØ¨
Ġ5 0
ĠÙĦÙĪ Ú©Ø³
Ġt he
ĠÙħØŃØ¯ ÙĪØ¯Ùĩ
ĠØ¸Ø§Ùĩ Ø±
ĠÙħØ³Ø§Ùģ Ø±ØªÛĮ
Ø§Ø´ÙĨ Ø§Ø³ÛĮ
Ù¾Ø° ÛĮØ±
ĠØ¹Ø±ÙĪ Ø³ÛĮ
ĠØ´Ùģ Ø§Ùģ
ĠÙħØ°Ø§Ú© Ø±Ùĩ
a k
Ġ !
Ø§ ÙĪØ±Ø¯
ÙĨ Ø§ÛĮ
Ø§ÛĮ Ø§
ĠØ¯ ÙĪØ¯ÛĮ
ĠÚ© Ø§ØºØ°
ĠØª Ø¦
ĠØ± Ø¯ÛĮ
ĠØ¢ Ø¨ÛĮ
ĠÙ¾ Øª
Ø¬ ÙĨ
ÙĬ Ø¯Ùĩ
ĠÙģ Ø´
Øµ Ùģ
ĠÙĤ ÛĮÙħ
ĠØ² ÙĪØ´Ú©
Ù¾ Ø§
ÙħØ§ÙĨ ÙĨØ¯
ÙħÛĮ Ùĩ
Ø§ÙĨÛĮ Ø§
Ø§ÙĨÛĮ Ø§ÙĨ
ĠÙģØ± ÙħØª
ĠØªØ§ Ú©ÙĨÙĪÙĨ
ĠØ³Ø§Ø² Ùĩ
ĠØªÙĨ Ø§Ø³
ĠØ¨ÛĮÙħ Ø§Ø±Ø§ÙĨ
ĠØ¯Ø§Ø´Øª ÙĨØ¯
ĠÙĨØ¯ Ø§Ø´Øª
ĠØŃÙĤ ÙĪÙĤÛĮ
ÙĪÙħÛĮ Ùĩ
ĠØ¬ÙĨ Ø¨Ùĩ
ĠÙĩÙĪ Ø§Ø´ÙĨØ§Ø³ÛĮ
ĠØ¨ÛĮÙħØ§Ø±ÛĮ ÙĩØ§ÛĮ
ÙĪÙĦÙĪ Ø´ÙĨ
ĠØ¢ÙĦ ÙħØ§ÙĨ
Ú¯ÙĪÛĮ ÙĨØ¯
ĠØ¨Øµ ÛĮØ±
ĠØ±Ø¶ ÙĪÛĮ
ĠØ±Ø² ÙĪÙĦÙĪØ´ÙĨ
ĠØ³Ø¹ ÛĮØ¯
ĠÙ¾ÛĮÚĨ ÛĮØ¯Ùĩ
ĠÙħØ®Ø§Ø· Ø¨
ĠÙħÙĨØ§Ø³ Ø¨ÛĮ
ĠÙħÙħÙĨ ÙĪØ¹
ÚĨØ±Ø® Ùĩ
ĠØ±Ø³Øª ÙĪØ±Ø§ÙĨ
1 9
C H
Ú© ÙĪÙĦ
ĠØ¨ Ø§Ùħ
ĠØ¨ ÛĮØ¯
ĠØ¨ ÙĪÙħÛĮ
ĠÙħ Ø³ÛĮ
ĠØª Ø§ÛĮÙĦÙĨØ¯
Ùģ Ø¹
ĠØ± Ø¨Ø§Øª
Ø§Ùħ Ø¯
Ø§ÙĦ ÙħÙĦÙĦÛĮ
ĠÙħÛĮ Ú©ÙĨÙĨØ¯
ĠØ§Ø³ Ø¨Ø§Ø¨
ĠÙģ Ø§Ø¶ÙĦ
ĠØŃ Ø§ÙĪÛĮ
ĠÚ©Ø§Ø± Ú¯Ø§Ùĩ
ĠÙħØŃ Ø±Ùħ
ĠØ§Ø± ÙĪÙħÛĮÙĩ
ĠÙģØ± Ø²
ĠÙģØ± ÙĪØ¯
ĠÙħØ¹ Ø¯ÙĨ
ĠÙħØ¹ Ø±Ø¶
ĠÙħØ¯ Ø±Ú©
ĠØ§Ùģ Ø·
ĠØ¯ÙĪ Ø¨ÙĦÙĩ
ĠØ¨Ø§Ø²ÛĮ Ú¯Ø±
ĠØ¶ Ø¹Ùģ
ĠÙ¾Ø±ÙĪ ÙĨØ¯Ùĩ
ĠØ±Ø§Ùĩ ÛĮ
ĠÚ¯Ø±Ø¯ ÛĮØ¯Ùĩ
ĠM usic
ĠØµÙģ ØŃØ§Øª
ĠÙģÙĦ Ø³
ĠØ¢ÙģØª Ø§Ø¨
Ø´Ø± Ú©Øª
ĠÙħØ¨ Ø§ÙĨÛĮ
oo m
ĠÙħØ¨Ø§Ø± Ø²Ùĩ
ĠØ§ÙħØªØŃ Ø§ÙĨ
ĠÚ©Ø§Ø±Ø´ÙĨØ§Ø³ Ø§ÙĨ
ÙģÙĪ Ø¸
ĠÚ¯ÙĨØ¯ Ùħ
ĠÙĨØ§ØŃ ÛĮÙĩ
Ú©ÛĮÙģ ÛĮØª
ĠÙ¾ÙĪÙĨ Ú©
ÙĦÛĮÚ©ÛĮ Ø´ÙĨ
* *
Ùħ Ø¯ÛĮ
ĠØ¨ Ø²ÙĨ
ĠÙħ Ø§Ø³Øª
Ø§ÙĨ ÛĮÙħÛĮØ´ÙĨ
ĠÚ© ÛĮÚ©
Ø² ÙħÛĮÙĨ
ĠÙĩ ÛĮØ¯Ø±ÙĪ
ĠØ³ ÙĪØ²
Ø¹ Ø¶
ĠØ¨Ùĩ ÙħÙĨ
ĠÙ¾ Ø§ÙĨ
ĠØ® Ø§Øª
ĠØ® ÙĦØ§Ùģ
ÚĨ ÙĨØ¯
Øµ Ø¯ÛĮ
ĠÙĤ Ø¶Ø§ÛĮÛĮ
ĠÙĤ Ø§Ø´ÙĤ
ÙĦÛĮ ÙĦÛĮ
ĠÚĨ Ú¯ÙĪÙĨ
Ø§Ø¹ Ø§Øª
ĠÙħØŃ ÙģÙĪØ¸
ĠØ§Ø± Ø´Ø§Ø¯
ĠØ§ÙĦ Ùĩ
ĠØ§ÙĦ ÙĩÛĮ
ĠÙ¾ÛĮ ÙĪÙĨØ¯
ĠØªØ± Ùħ
ĠØ³Ø± ÙĨÙĪØ´Øª
Ø¯Ø± Ø¶Ø§
ĠØ¬Ø¯ÛĮØ¯ ÛĮ
ĠØªØµ ÙģÛĮÙĩ
ĠØ¯Ø§Ø¯ ÙĨØ¯
ĠÙĨÛĮØ³Øª ÙĨØ¯
ĠÙĨÙħØ§ÛĮ ÙĨØ¯Ú¯Ø§ÙĨ
Ø¨Ø§Ø´ ÙĨØ¯
ĠÙ¾ÚĺÙĪÙĩ ÛĮ
ĠØ¬ÙĨÚ¯ ÙĦÛĮ
ĠØ¬Ø² ÙĪ
ĠÙħØ¨ Ø§ØŃ
ĠÚ©ÙħÛĮ ØªÙĩ
ĠØ§ÙĨÙĤÙĦ Ø§Ø¨ÛĮ
ĠÙħØ¹ÙĨ Ø§ÛĮ
ĠØ®Ø§Ùħ ÙĨÙĩ
ĠÙĪÙĦ Ø§ÛĮØª
ĠÙħØ§Ø³ Ø§Úĺ
ĠÚ¯ÛĮØ§Ùĩ Ø§ÙĨ
ĠÙħØ§Ú© Ø³ÛĮ
ĠØ¨Ú¯Ø°Ø§Ø± ÛĮØ¯
ĠØµØ§ØŃ Ø¨
ĠØªÙĪØ¬ ÛĮÙĩ
8 0
l in
Ð ¾
Ġ n
Ø§ÛĮ Ø§ÛĮ
ĠÚ© Ø±Ùĩ
Ú¯ ÙĪÛĮÛĮ
Ùģ ÙĪÙĦ
ĠÙĨ Ø²Ø¯
Ø§Ùħ ÙĪÙĨ
ĠØ¯Ø± Ø®Ø´
ĠØ´ Ú©ÙĨ
ĠØ¨Ùĩ Ø§Ø±
Ø§Ø¯ Ø§
ĠÙģ ÙĪ
ĠØ¹ Ø§Ø¯ÛĮ
ĠÙĤ Ø§Ø¦Ùħ
ĠØ² Ø¹Ùģ
Ù¾ Ø§Ø±
ĠÙĩÙħ Ú©Ø§Ø±Ø§ÙĨ
ĠÙĦ Ù¾
ĠØªÙĪ Ù¾
ĠÙĨÙħ Ø§Ø²
ĠÙ¾ÛĮ Ú¯ÛĮØ±ÛĮ
ĠØªØ± Ø¨ÛĮØª
Ø§Ø³Øª Ø§ÙĨÛĮ
Ø§ÙĤ Ø¹
ĠÙĩØ± Ú¯Ø²
ĠØ±ÙĪÛĮ Ú©Ø±Ø¯
ĠÚ©ÙĦ Ø§ÙĨ
ĠØªØµ ÙĪØ±
ĠØ§Ø® ØªØ±
ĠÚĨØª Ú¯ÙĦØ´ÙĨ
ĠØ±ÛĮ Ø´Ùĩ
Ġ201 4
Ø´ÛĮ ÙĪ
ĠÙħØ³Øª ÙĤÙĦ
Ú¯Ø° Ø§Ø±Ø¯
ĠØ³Ù¾ Ø§Ùĩ
ĠØ§ÙģØ²Ø§Ø± ÙĩØ§ÛĮ
ĠØ³Ø§ÛĮ Ø²
Ġ4 0
ĠØªÛĮ ØªØ±
ĠÙĪØ§ Ú©ÙĨØ´
ĠØ¯Ú© ÙĪØ±
ĠÙħÛĮÙĦ Ø§Ø¯ÛĮ
Ġm arc
ĠØŃÚ© ÙĪÙħØª
ĠØªÙĪØµ ÛĮÙģ
ĠÙħØ§Ø³ Ùĩ
ĠÙħØ¨ÙĦ Øº
ĠØ¯ÛĮÙĪ Ø§Ø±ÛĮ
ĠÙĤÙĩØ± ÙħØ§ÙĨ
ØªØ§ÙĦÛĮ Ø§
âĻ «
ĠØ§Ø³ØªÙĤ Ø¨Ø§ÙĦ
ĠØªÙĨØ§Ø³ ÙĦÛĮ
CH AT
n d
Ġ ]
Ġ r
Ø§ Ú©ÛĮ
Ùħ Ø§ÛĮ
Ùħ Ø§ÛĮØ´
Ú© ÙĪØ¨
ÙĦ Ø§Øº
ĠØ¨ ÙĬÙĨ
ĠÚ© ÙĪÙĩ
Ø¨ ÛĮÙħ
ĠØª ÙħÛĮØ²
Ø² ÙĪ
Ø§Ùħ ÙĨ
ĠÙ¾ ÙĪØ±Øª
Ø¬ Ø¨
Ø® Ø¯Ø§Ùħ
ĠÙģ ÙĬ
ĠØ¬ Ø§Ø°
Øµ ÙĪØ±Øª
ĠÛĮ Ø§Ø²Ø¯ÙĩÙħ
ĠØŃ Ø§Ø´
ĠÙĤ Øµ
ĠÙĤ Ø¨ÛĮÙĦ
ĠÙģØ± Ø¶
Ø« ÛĮ
ĠÙħØª ÙħØ±Ú©Ø²
ĠÙħØª Ø§Ø³ÙģØ§ÙĨÙĩ
ĠØ³Ø§ÙĦ ÙĨ
Ø§Ø³Øª Ø®Ø¯Ø§Ùħ
ĠØ¯ÙĪ ÚĨØ±Ø®Ùĩ
ØªÙħ Ø¹
Ø§Ø· ÙĦØ§Ø¹
ĠØ§Øµ ÙĦØ§
ĠÙħØ±Ø¯ Ø§Ø¯
ĠØ§ÙģØ² Ø§Ø±ÛĮ
ĠÙĨÙĪ ÛĮÙĨ
ĠS p
ĠØµÙĨ ÙģÛĮ
ĠÙĩÙĪ Ø§ÛĮ
ĠÙħØ¬Ùħ Ø¹
ĠØ§Ø¨Øª ÙĦØ§
ĠØªÙģ Ø³
ĠØ®ÙĪØ§ÙĨ Ø¯ÙĨ
ĠÙ¾ÙĨØ¬ Ùħ
ĠÛ³ Û°
ĠØ³Øª Ø§Ø¯
ĠØ¨ÙĦÙĪ ÚĨ
ĠÙħØ®Ø§Ø· Ø¨Ø§ÙĨ
ĠØ§Ù¾ ÙĦÛĮÚ©ÛĮØ´ÙĨ
ĠØ§ÙħØªØŃ Ø§ÙĨÛĮ
Ġj acobs
ĠØºÙħ Ú¯ÛĮÙĨ
ĠÙģØ±Ø² ÙĨØ¯Ø§ÙĨ
/ /
c om
i p
Ø± ÙĨÚ¯
Ø§ÛĮ ÙĤ
ĠÚ© Ø¬
ĠÚ© Ø§ÙģÙĩ
Ú¯ ÙĬØ±ÙĬ
ĠØª ÙĪÛĮ
ĠØª Ø¨ÙĦ
ĠØª Ø¯ÙĪ
ĠØ± Ø¦
ĠØ± Ø³ØªÙħ
ĠØ³ ÙĨØª
Ø¬ Øª
ĠÙħÛĮ Ø¯
ĠØ¹ Ø·Ø±
ĠÛĮ Ø§Ø³
ĠÚ©Ø§Ø± Ú©Ø±Ø¯
ĠØ§ÙĦ ØŃ
Øº Ùħ
ĠÙģØ± Ø§ÛĮÙĨØ¯
ĠÙħØ± Ø§
ĠØ±ÙĪ Ø¨
ÙĪØ±ÛĮ Øª
ĠØ³Ø§Ø² Ø¯
ØªÙħ ÙĨØ¯
ĠØ¹Ùħ Ø±
ĠØ¹Ùħ Ø±Ø§ÙĨ
ĠØ·Ø± Ø§ØŃ
ĠØ±ÙĪØ² Ùĩ
ĠÚ©ÙĦ Ø³ÛĮÙħ
ĠØ¨Ø§ÙĦ Ø§ØªØ±ÛĮÙĨ
Ø¨ÛĮÙĨ ÛĮ
ĠÚĨÙĨØ¯ Ø§ÙĨ
ÙĤÛĮÙĤ Øª
on t
ĠØ¢Ø± Ø´
ĠØ±ÙĪØ´ ÙĩØ§ÛĮ
ĠØªØ¨ Ø§Ø¯ÙĦ
ĠÙ¾ÙĪØ³Øª ÛĮ
Ø¨ÙĪ ÙĦÛĮ
ĠÙħÙĨØª ÙĤÙĦ
ĠÙħÙĨØ¸ Ø±Ùĩ
ĠØ®Ø§Ø· Ø±ÙĨ
Ġs h
ÙħØŃ ÙħØ¯
Ġh as
ĠØªØ¨Ø±ÛĮ Ú©
ĠÙĨÚ©Ø±Ø¯ Ùĩ
ĠÚ¯ÙĪÛĮ ÙĨØ¯
ĠØ³ÙĤ Ùģ
ĠÙĩÙĨØ±Ùħ ÙĨØ¯Ø§ÙĨ
ĠÙħÙĨØŃ ØµØ±
ĠÙĪÛĮØª Ø§ÙħÛĮÙĨ
ĠØ¨Ø§Ø²Ú¯ Ø´Øª
ĠÚĨÚ¯ÙĪÙĨ Ú¯ÛĮ
ĠØ®Ø§Ø·Ø±ÙĨ Ø´Ø§ÙĨ
ÙĪ ÚĨ
Ùħ Ø±Ø¯
ĠØ¯ ÙħÙĪ
ĠÙĪ Ø§ÙĨ
Ø´ ÙĪÛĮÛĮ
ĠØª ÙĪÙĨ
ĠÙĩ Ø§Ø´
Ø§Ùħ ÙĦÙĩ
ĠØ´ Ú¯ÙģØª
Ø¹ ÛĮÙģ
ĠØ§Ø³ ÙĨ
ĠÙģ Øª
ĠØ¬ ÙĦØ¨
Øµ ÙĨ
ĠÙĤ Ø¶Ø§
ĠÚĨ ÛĮØª
ÛĮÙħ Ø§ÙĨ
ÙĪÛĮ ÙĦ
ĠØ¨ÛĮ Ø³Øª
ĠÙĨÙħ Ø§Ø´Ø§
ĠÙ¾ÛĮ Ø±ÙĪØ²ÛĮ
ĠØ§Ùģ Ø³
Ø²ÛĮ Ø³ØªÛĮ
ĠØ¢Ø² Ø§Ø¯ÛĮ
ĠÙĥ ØªØ§Ø¨
ĠØ§Ø¬ Ø§Ø±Ùĩ
Ú©ÙĦ ÙĨ
ĠØ±ÙĪØ² ÙĩØ§ÛĮ
ÙĪØ³ Ø§ÛĮÙĦ
ĠØ±Ø§Ùĩ Ú©Ø§Ø±
ĠÚ¯Ø° Ø´Øª
ĠÙħØµ ÙĨ
ĠØ¬ÙĨ Ø¨Ø´
Ø±Ø§Øª ÙĪØ±
ÙĩÙħ ÚĨÙĨÛĮÙĨ
ĠØ³Ø§Ùħ Ø§ÙĨ
ĠØ³ÙĨ Ø³ÙĪØ±
?? ??
ĠØ§ØµØ·ÙĦØ§ØŃ Ø§Øª
ĠÚ©Ø±Ø¨ ÙĦØ§
ĠØ®Ø±ÙĪ Ø¬ÛĮ
ĠÙĩÙħØ§Ùĩ ÙĨÚ¯ÛĮ
ĠØ§Ø³ØªØ®Ø± Ø§Ø¬
ĠÙ¾Ùĩ ÙĦ
ĠØµÙĨØ¯ ÙĪÙĤ
ĠØ¯Ø¨ Ø³ØªØ§ÙĨ
ĠÙĪÛĮØ¯ Ø¦ÙĪ
ĠÚĨØ§ÙĦ Ø´
ĠØ²Ø¹Ùģ Ø±Ø§ÙĨÛĮ
ĠØ¬Ø§Ø° Ø¨Ùĩ
1 6
Ú© Ùģ
Ø´ Ú©ÙĦ
Ø¨ Ø¨
Ùģ Ø³
Ùģ ÙĪÙĨ
Ø§Ùħ Ø±ÙĪØ²
Ø§Ùħ ÙĦØ§Ú©
Ø¹ ÙĦÛĮ
ĠØ¨Ùĩ Ùħ
Ø§Ø¯ ÙĩØ§
Ø§Ø¯ ÙħÛĮ
ÙĬ Ø§
Ø³Øª Ø±
ĠÙģ Ú©
ĠÙģ Ø±ÛĮ
ĠÙģ Ø¶Ø§
ĠÚ¯ ÙĨØ¬
ĠØ¬ Ø§Ø±ÛĮ
ĠØŃ Ø§ÙģØ¸Ùĩ
ĠØ§ Ú©Ø§ÙĨ
ĠÙĩÙħ Ø³Ø±
ĠØµ ÙĦÛĮ
Ú¯Ø± Ø§ÙģÛĮÚ©
ĠÙĩØ§ Ùī
ÙĪÙħ ØªØ±
ĠØªØ± Ø´
Ø¢ Ø±
ĠØ³Ø± Ù¾Ø±
ĠÙħØ¬ ØªÙħØ¹
Ġ1 4
ĠØªØŃ Ø±ÛĮÚ©
Ø§Ø· Ø¹
ĠÙħÙĩ Ø±Ø§ÙĨ
ĠØ¨Ø§Ø²ÛĮ Ú©ÙĨ
ĠÚ©Ùħ Ø¨ÙĪØ¯
ĠØ§Ø¨ Ú©Ø§Ø±ÛĮ
ĠØªØµ Ø§Ø¯
ĠØªØµ Ø±ÛĮØŃ
Ø±Ø¨ ÙĨØ¯
ĠÚ¯Ø° Ø§Ø±
ĠØŃØ³ ÛĮÙĨÛĮ
ĠÙģØ¹ ÙĦÛĮ
ĠÙĨÙĪ Ø¢ÙĪØ±ÛĮ
ar t
ĠA l
ĠÙħØ³Øª ÙĨØ¯
ĠP hotos
ĠØ®Ø§Ø± Ø¬Ùĩ
ĠÚ©ÛĮ ÙĦÙĪ
ĠÚ©ÛĮ ÙĦÙĪÙħ
ĠØ§ÙģØª Ø®
ĠØ¨Ø® ÙĪØ§ÙĨ
ĠÙ¾Ø§Ø± ÚĨÙĩ
ĠØªØ¨ÙĦÛĮØº Ø§ØªÛĮ
ĠØ¬Ø¯ ÙĪÙĦ
ĠØ±ÙĪØŃ Ø§ÙĨÛĮ
ĠØ§Ø¨ØªØ¯ Ø§ÛĮ
ĠØ¨Ø¯Ø§ÙĨ ÛĮØ¯
ĠØ³Ø±Ú¯Ø± ÙħÛĮ
ĠÙģØ±Ø§ÙĨ Ø³Ùĩ
Ø§Ú©Øª ÙĪØ±
ĠØ¬Ø²Ø¦ÛĮ Ø§Øª
ØŃØ¶ Ø±Øª
ĠÙħØ¹ØªÙĤ Ø¯
ĠÙģØ§Ø¶ÙĦ Ø§Ø¨
âĻ« âĻ«
ĠÙĤØ¶Ø§ ÙĪØª
ĠØ§Ú©Ø§ÙĨ Øª
' '
) )
2 2
3 6
a h
Ñ Ģ
Û ¹Û
ĠØ¯ ÛĮÙĨÛĮ
Ø³ ÙĦÙĩ
ĠÙĪ Ø§Ø±
ĠÙĪ Ø§Ø±ÛĮ
ĠÚ© ÙĪÙĦ
ĠØª Ø§ÙĦ
Ø² Ø§Ùħ
ĠØ± Ø§Ø¶ÛĮ
ĠÙĨ Ø§ÙĨ
ĠÙĩ Ø§Ø¯ÛĮ
ĠØ³ ÙĪÙĨ
Ø¹ Ùħ
ĠÙ¾ Ø±ÛĮ
ĠÙħÛĮ ØªÙĪØ§ÙĨ
ĠØ¨Ø± Ú¯Ø²
ĠØ¨Ø± Ø§Ø³Ø§Ø³
ĠÚ¯ Ùħ
ĠÚ¯ Ø´Øª
Ø§Ø³ Ùĩ
ÙĦÛĮ Ø³
Ù¾ Ø§ÛĮ
ĠØ§ÙĨ Ø¹
ĠØ¢ÙĨ Ú©Ùĩ
ĠÙĦ Ø§ÙħÙ¾
ĠØ¯Ø§Ø± ÙĪÛĮ
ĠØ¨ÛĮ Ø§ÙĨÛĮÙĩ
Øº Ùĩ
Øº ÙĪÙĦ
ĠÙħØ± Ø¨Ø¹
ĠØ§Ùģ Ú©Ø§Ø±
ĠØªØ± Ø³
ĠØ¨ÙĪØ¯ Ùħ
ĠØ¯ÛĮ Ú¯Ùĩ
ĠÙħØ¬ Ø¨ÙĪØ±
Ø§Øµ Ø¯Ú©
ĠØ·Ø± Ø²
ĠØ±ÙĪÛĮ Ø§ÙĦ
ĠØ§Ø¨ ÙĦØ§Øº
ĠØ¨ÛĮØ´ ØªØ±ÛĮÙĨ
ĠÚ¯Ø±Ø¯ ÙĨ
Ø®ÙĪ Ø§Ø¨
ĠØ¹Ú©Ø³ ÙĩØ§ÛĮ
ĠØ§ØŃ ØªØ±
ĠØ¨Ø§Ø± Ø§ÙĨ
ĠØ´ÙĨ Ø¨Ùĩ
ĠØªÙĤ ÙĪ
ĠØ³Ø¨ Ø¯
ĠØŃØ¯ Ø§Ú©Ø«Ø±
ĠØ¯ÙĦ Ø§ÛĮÙĦ
ÙĪÙħÛĮ Øª
Ú¯Ø±Ø¯ Ø§ÙĨ
ĠÙĩÙĪ Ø§Ù¾
ĠÙħÙĦ Ú©
ĠÙħÙĩØ± Ùĩ
ĠI I
Ø®ÙĪØ§Ùĩ ÛĮÙħ
Ø¢Ùħ ÙĪØ²
ĠØ¯Ø§Ùħ ÙĨÙĩ
Ø³Ø§Ø² ÙħØ§ÙĨ
ĠÙ¾ÙĦ Ø§Ø³ØªÛĮ
ĠØ¢ÙĪØ±Ø¯ ÙĨ
ĠØ±Ø§Ø³Øª Ø§ÛĮ
iv e
ĠØ¨Ø¯Ùĩ ÛĮØ¯
Ø¬Ùħ ÙĪØ¹Ùĩ
ht ag
ĠÙģØ§Ø· ÙħÙĩ
ĠÙĨÙĪØ´Øª Ø§Ø±ÛĮ
Ø§ÙĦØ¹ ÙħÙĦ
ĠØ¯ÛĮØ¬ÛĮ Ø§ØªÙĪ
ĠVide os
Ġhas htag
0 2
a z
e le
i z
m e
o d
t p
Ñ ģ
Ġ =
Ùĩ Ø§Ø³Øª
Ø¯ Ø§ÙħÛĮ
ÙĦ Ø±
ÙĦ ÙĨØ¯
ĠØ¨ ÙĪÙħ
ĠØ¨ ØªÙĪØ§ÙĨÛĮØ¯
Ø§ÛĮ Ø§Øª
ĠÙĪ Ø§ÛĮ
ĠØª Ø¹ÙĩØ¯
Ùģ Ø±Ø§ÙĨ
ĠØ¯Ø± Ø³ØªÛĮ
ĠØ³ Ø§Ø¨ÙĤ
ĠØ´ Ø§ÛĮ
Ø¹ ÙĨÙĪØ§ÙĨ
Ø±ÛĮ Ø²ÛĮ
ĠØ§Ø³ Ø±
ĠØ¨Ø± ÙĤÛĮ
ĠØ¨Ø± Ø¯Ø§Ø±
ĠØ¨Ø± Ø¯Ø§Ø´Øª
ĠÙĤ Ùĩ
Ù¾ Ø±ÙĪ
ĠÚĨ Ø§
ĠÚĨ ÙĪØ¨
ĠÚĨ ÛĮÙĨÛĮ
ĠØ§ÙĨ Ú¯ÙĦ
ÙĪÛĮ Ø²
ÙĪÛĮ Ø¶
ĠÙħÙĪ ÙĩØ§
ĠÙħÙĪ ÙĤØª
ĠÚ©Ø§Ø± Ø¢Ùģ
ĠØ®ÙĪØ¯ Ø´Ø§ÙĨ
ÙĪÙħ Ùĩ
ĠØ´Ùħ Ø§ÙĦÛĮ
Ø« ÙĦ
ĠÙħØ¯ ÙĬØ±
ĠÙħØª Ø±ÛĮ
Ø¨Ø± ÙĨØ¯
Ġ1 7
ØªÙħ Ø§ÙħÛĮ
ĠÚ¯Ø± Ø§ÙħÛĮ
ĠÚ¯ÙĦ ÚĨÛĮÙĨ
ĠØ§Øµ ÙĦÙĬ
ĠÚ¯ÛĮ ÙĦØ§ÙĨ
ĠÛ±Û ¸
ĠÙĨÙħØ§ÛĮ ÙĨØ¯Ú¯ÛĮ
ĠØ¬ÙĨ Ø³
ĠÙĨÙĪØ± ÙĪØ²
ĠÙ¾ÛĮØ§Ùħ Ø¨Ø±
al l
Ø·Ø± Ø²
ĠØ§Ú© Ø´ÙĨ
ĠØ§ÙģØª Ø§Ø¯
ĠØ¹Ø¨ Ø§Ø³
ĠÚ©Ø§Ø±ÛĮ Ø§Ø¨ÛĮ
Ø§Ø¨Ùĩ Ø§Ø±
ĠØ§Ø±Ø²Ø´ ÛĮ
ĠÙħØªØ¹ Ø¯
ĠÛµ Û°
ĠØŃÚ© Ùħ
ĠØ¨Ø§ÛĮ Ø³Øª
ĠÙ¾ÙĦ Ø§Ø³
ĠØ¹Ø²ÛĮ Ø²Ø§ÙĨ
ĠÙ¾ÛĮØ± Ø§ÙĩÙĨ
ĠØ³Øª Ø§Ø±Ùĩ
ĠØªÙĦÙģ ÙĨÛĮ
ĠØ¹Ø¨Ø§Ø±Øª ÙĨØ¯
ĠØªØ¶ ÙħÛĮÙĨÛĮ
ĠÙħÙĤØ± Ø±
ĠÙħØ¶ Ø§Ø¹
ĠØ§ÙħÛĮØ¯ÙĪØ§Ø± Ùħ
ĠÙ¾Ø§ÛĮØ¯ Ø§Ø±
: //
P S
e y
Ġ k
Ġ ????
Ùħ ÙĬ
Ùħ Ù¾
Ú© Ø§
ĠØ¨ ÙĪØ´
Ø³ Ø±ÙĪ
ĠÙĪ Ø§ÛĮØª
ĠÚ© ÙĦØ§
Ùģ Ø§Ø¹
Ø² Ø¨
ĠØ± Ú¯
ĠÙĩ Ø§Ø³Øª
ĠØ³ ØªÙĪÙĨ
ÙĤ Ø¯
Ø¹ Ø§
Ø¹ ÙĦ
ĠØ® ÙĨÚ©
Ø¬ ÙĪÛĮ
Ø¬ Ø§ÙĨÛĮ
ĠØ¬ Ú©
Øµ Ø§Ø¨
ĠØ§ÛĮÙĨ Ú¯ÙĪÙĨÙĩ
ĠÙĤ ØµÙĩ
ĠÙĤ Ø§ØµØ¯Ú©
ĠØ² ÙĨØ¯Ø§ÙĨ
ĠÚĨ ÙĦ
ĠÚĨ Ø±Ø¨
ĠÚĨ Ø³Ø¨
ÙĪÛĮ Ø§
ĠØ· ÙĦØ¨
ĠØ§Ø± Ø§ÛĮÙĩ
ĠÙħØ¹ Ø¯Ùĩ
ĠÙħØ¹ Ø§Ø¯ÙĦ
ĠÙħØ¹ Ø¸Ùħ
ĠÙħØ´ ØºÙĪÙĦ
ĠÙħØª ÙĨÛĮ
ÙĪØ±ÛĮ Ø§ÙĨ
ĠÙħØ³ Ú©
ĠÙĨØ¸ Ø±ÛĮ
Ø§Ø¦ ÛĮØ¯
ĠØ¨Ø¯ ÙĨÙĩ
Ø§ÙĬ Ø¯
Ø§ÙĨØ¯ Ø§Ø²ÛĮ
ĠØ§Ø¨ Ø±
ĠØ¬Ùĩ Ø§Ø¯
Ġ3 20
ĠØªÙĤ Ø§Ø¶
ĠÙħØ® ÙĦÙĪ
ĠÙ¾ÙĪØ³Øª Ùĩ
ĠØ¬ÙĨ ÙĪØ¨ÛĮ
ĠÙ¾Ø²Ø´ Ú©Ø§ÙĨ
ĠÙĤØ· Ø±Ùĩ
ĠØ¬Ø§ÛĮ Ú¯Ø§Ùĩ
ĠØ¬ÙĦ ÙĪÛĮ
Ø·Ø± ØŃ
ĠÙħØŃÛĮØ· ÛĮ
ĠØ§Ø³ØªØ§ÙĨØ¯ Ø§Ø±
ĠÙĨØ¨ ÙĪØ¯Ùĩ
ĠÙħØ¹ÙĨ ÙĪÛĮ
ĠØ¬Ø¯ ÙĬØ¯
ÙĢÙĢÙĢÙĢ ÙĢÙĢÙĢÙĢ
ĠÙħÙĪÙĤ Ø¹
ĠØ¯Ø³ØªÛĮ Ø§Ø¨ÛĮ
ĠÙħØŃØ¯ÙĪØ¯ ÛĮØª
ĠÙħÛĮÚ© Ø±ÙĪ
ĠØ§ÙĨÚ¯ÛĮ Ø²
ĠÙĦØ² Ø¨ÛĮÙĨ
ĠØ´Øº ÙĦ
ĠØ¨Ø±ÙĤØ± Ø§Ø±
ĠÙĨÛĮÚ© ÙĪÙĨ
ĠØŃÙģØ§Ø¸ Øª
ĠÙħØ·Ùħ Ø¦ÙĨ
ĠØŃØ§Ø´ ÛĮÙĩ
ĠØªØ¯ÙĪ ÛĮÙĨ
ĠØ¯ÙħÙĪ Ú©Ø±
ØµÙĨ Ø¹Øª
ĠÙħØµÙĨ ÙĪØ¹ÛĮ
ĠÙħØ¶Ø§Ø¹ Ùģ
T S
c t
Ð ½
Ġ re
Ø§ ÙĪØ±ÛĮ
ÙĨ Ø§Ú©
Ùħ Ø¬ÙħÙĪØ¹Ùĩ
ĠÙħ ØªÙĩÙħ
ĠØ¯ Ø§ÛĮ
ĠØª ÙĬÙħ
ĠÙĨ Ú©ÙĨØ¯
ĠØ³ ÙĪØ±Ùĩ
ĠØ¢ Ùĩ
ÙĤ Ø§ÙĨ
Ø§ÙĦ ÙħÙĩ
ĠØ¨Ùĩ Ø²ÛĮØ³ØªÛĮ
ĠÙ¾ Ø³ØªØ§ÙĨ
ĠÙģ ÙĩÙħ
ĠØ¨Ø± ÙĪØ¯
ĠÚ¯ ÛĮÙħ
ÛĮÙĨ Ø§
ĠØŃ ÙĤÛĮÙĤØª
ĠØ§ Ùī
ĠÚ©Ø§Ø± Ø®Ø§ÙĨÙĩ
Ø§Ø¹ Ø¯
ÛĮØª ÙĪÙĨ
ĠØ¢Ùħ ÙĪ
Ø§ØŃ ØªÛĮ
ĠÙħØ¯ ØªÛĮ
Ø±ÛĮÙĨ ØªØ±
ĠØ±ÙĪ Ø³ÛĮ
ĠØº Ùģ
ĠÙħØ¬ Ø¯Ø¯
ĠÚ©Ø´ Ùģ
ĠÙĤØ± ÙħØ²
ĠØ¨Ø§Ø²ÛĮ Ú©ÙĨØ§ÙĨ
Ùĥ Ø²
ĠÙĩØ³Øª ÛĮ
Ø±Ø³ Ø§ÙĨÛĮ
ĠØªÙĪØ§ÙĨ Ø³Øª
ĠØ±Ø³ ÙĪÙĦ
ĠÚ©ÙĦ Ø§Ùĩ
ÙħØ¯ ÛĮØ±
ĠØ³Ø§Ø®Øª ÙħØ§ÙĨÛĮ
ĠØ§Øª ØµØ§ÙĦ
Ù¾ÛĮ Ø´
ĠØ±Ø§ÛĮ Ø¬
ĠÙģØ§Ø± Øº
ĠØ¨Ø²Ø±Ú¯ ØªØ±ÛĮÙĨ
ĠØ¢Ø± Ø´ÛĮÙĪ
ar k
Ø¨Ø§ÙĦ Ùĩ
ĠØªÙĪØ¬Ùĩ ÛĮ
ĠØ³ÙĦ Ø³ÙĦÙĩ
ĠÙħØ·Ø§ÙĦØ¨ Ø§Øª
Ø®ÙĪØ§Ùĩ ÙĨØ¯
ĠÚ¯ÙĪ ÛĮØ¯
ĠÚ¯Ø³Øª Ø±Ùĩ
ĠÙ¾Ø§Ø´ ÙĨÙĩ
ĠØ±Ùģ Ø§Ùĩ
ĠÙĤÙĦ Ø§Ø¨
ĠØ¹Ø¶ ÙĪÛĮØª
ĠÙ¾ÛĮØ± Ø§ÙħÙĪÙĨ
ĠØ§ØŃØªÙħØ§ÙĦ Ø§
ĠØµØ±Ùģ Ø§
ĠÙħÙĤØ§ ÙĪÙħ
ĠÙħÙĪÙĦ ÙĪØ¯ÛĮ
ĠÙģÛĮØ²ÛĮ Ú©ÛĮ
ĠÙĤØ·Ø¹ Ø§
ĠØ¯Ø´ÙħÙĨ Ø§ÙĨ
ĠØ§Ø®ØªØµØ§Øµ ÛĮ
ÙĨÙĤ Ø§Ø´ÛĮ
ĠØ¨Ø¨ÛĮÙĨ ÛĮØ¯
ĠZ oom
ĠÙģØ±Ø§Ùħ ÙĪØ´
ĠØ§Ø±Ø¯ Ø¨ÛĮÙĦ
ĠÙĪØ¹ Ø¯Ùĩ
ĠØªØ§Ø³ÛĮ Ø³
ĠØ¨Ø§Ø±Ø¯ Ø§Ø±ÛĮ
ĠØªÚ©ÛĮ Ùĩ
ĠØªØ¨ÙĦ Øª
ĠÙħØªØ¹Ø¯ Ø¯ÛĮ
e v
Ø§ ÙĪØ´
ÙĨ ÙĪÛĮØ³ÛĮ
Ø¯ Ø§ÛĮ
Ùħ Ø¬
ĠØ¨ Ø¯ÛĮ
ĠØ¨ Ø§Ø·
ĠØ¨ ØªÙĨ
ĠØ¨ Ù¾Ø±Ø¯Ø§Ø²
ĠØ¨ Ø§ØªØ±ÛĮ
ĠÙħ ÙĪÙĨ
ĠÙħ Ø§Ø¯ÛĮ
Ø§ÙĨ Ø¹
ĠÚ© Ø±ÙĪÙħ
Ú¯ Ø§
Ø§Ùħ ÛĮØ¯
Ø¬ Ø§Øª
ĠØ§Ø³ ÛĮØ¯
Ø³Øª Ø±ÛĮ
Ø® ÙĦ
ĠØ¨Ø± Ø·Ø±Ùģ
ĠÚ¯ ÛĮØª
ÛĮÙĨ Ø§ÙĦ
ĠØ² Ø¨Ø§ÙĦÙĩ
ĠÚĨ Ø·ÙĪØ±
ĠÚĨ Ø§Ø¨ÙĩØ§Ø±
ĠØ§ÙĨ Ø²
ÙĪÙĦ Øª
ĠØ· ÙĪØ±ÛĮ
Ø¸ Ø±
ØªÙĩ Ø±Ø§ÙĨ
ĠÙĪÛĮ ØªØ±
ĠØªÙĪ ÙĤ
Øº ÛĮØ±
Ø§Ø® ÙĪØ±ÛĮ
Ø§Ùģ ÙĨØ¯
ĠØ³Ø± ÙĤØª
ĠØ®ÙĪ Ø§Ø³ØªÙĩ
ÙĪØ±ÛĮ ØªÛĮ
ĠÚ©Ø´ ØªÛĮ
ĠØ³Ø§Ø² ÙĨØ¯Ùĩ
ĠØªØŃ ÙĪÛĮÙĦ
ĠÚ¯Ø± Ø§ÛĮØ´
ĠÙħÙĩ Ø§Ø¬
Ùĥ Øª
Ø®Øª ÙĨ
ĠØ§Ø¹ ØªØ±
ĠÚ©ÙĦ ÛĮØ¯ÛĮ
Ø±Ø¨ Ø®Ø´
ÙĦØ¨ Ø§Ø³
ĠØ´Ùĩ Ø¯Ø§
ĠØ§Ø·ÙĦØ§Ø¹ ÛĮÙĩ
ĠÙ¾Ø± ØªØ§Ø¨
ĠØ¹ÙĨ Ø§ØµØ±
ĠØ¨Ø§ÙĨ ÙĪØ§ÙĨ
ĠØºØ° Ø§ÛĮ
ĠÙĪØ¨ Ø³Ø§ÛĮØª
ĠØ³Ø· ÙĪØŃ
ĠØ§ÙģØª Ø§Ø¯Ùĩ
ĠÙĪØ³ Ø·
ĠÙģØ±ÙĩÙĨÚ¯ÛĮ Ø§ÙĨ
ĠØ¨Ø® Ø§Ø±
ĠÙĪØ§ØŃØ¯ ÙĩØ§ÛĮ
ĠØ±ÙĪØ§ÙĨ ÛĮ
ĠØ§ÙĨØªÙĤ Ø§Ø¯
ĠØ³Ø® ÙĨØ§ÙĨ
ĠØ±ÙĪØ´ÙĨ Ø§ÛĮÛĮ
ĠØ´Ø§Ùĩ ÙĨØ§ÙħÙĩ
ĠØ¢Ù¾ Ø§Ø±Ø§Øª
ĠÙģØ±Ø§ ÙĪØ§ÙĨ
ĠÙģØ±Ø§ ÙĪØ§ÙĨÛĮ
Ø¬Ø§Ùħ Ø¹Ùĩ
ĠØ¬Ø¯Ø§ Ú¯Ø§ÙĨÙĩ
ec t
ØªØº Ø§ÙĦ
ĠØ¬Ø¹ Ø¨Ùĩ
ĠØ§Ú©Ø³ ÛĮØ¯
ĠØ¹Ùģ ÙĪÙĨØª
ĠØ§Ø³ØªØ±Ø§Øª ÚĺÛĮ
ĠØ·Ø§Ùĩ Ø±ÛĮ
ĠØ±Ú© ÙĪØ±Ø¯
ĠÙĤÛĮÙħ ØªÛĮ
ĠØ¯Ú©ÙĪØ± Ø§Ø³ÛĮÙĪÙĨ
u b
Ð ¸
Ø¯ ÙĨÛĮ
ÙĪ Ø§Ø²
Ùħ Ø·
ĠØ¨ ÙĦÙĩ
ĠØ¨ Ú¯ÙĪ
Ø§ÙĨ Ú¯ÛĮ
Ø§Ø± Ø³ØªØ§ÙĨ
Ú¯ Ø²Ø§Ø±
ĠØª Ø²ÛĮ
ĠØ± Ø§Ø²
ĠÙĨ Ø§Øª
Ø¹ Ø§Ø±
Ø§ÙĦ ØŃ
ĠÙ¾ Ø§ÛĮÛĮ
ÙĬ Ùģ
ĠÙģ Ø³
ĠØ¹ ÛĮØ¯
ĠØ¹ ÙĦØ§Ùħ
Øµ ÙĦÛĮ
Ø· ÙĪ
ĠØ² ÛĮØªÙĪÙĨ
ĠÚĨ ÙĤØ¯Ø±
Ø§Ø¹ Ø¯Ùĩ
ĠÙħØ± Ø¨ÛĮ
Ø« ÙĨ
ĠÙħØ´ Ú©ÙĦÛĮ
ĠÙħØª ÙĪÙĨ
Ø§Ùģ Ø±Ø§
ÙĤÛĮ ÙĤÛĮ
ĠØ¯ÛĮ ÙģÙĨØ¯
ĠÙĩØ± ÚĨÙĩ
Ùĥ ÙĬ
ĠÚ©Ùħ Ø±Ø¨ÙĨØ¯
ĠØ³ÛĮ Ø¨
ÙĢ ÛĮ
ÙĪØª Ø±ÛĮ
Ù¾Ø¯ÛĮ Øª
ĠÚ¯ÙģØª Ø§Ø±
Ġ9 5
ĠØ´ÛĮ Ø±ÛĮÙĨÛĮ
ĠØ¨Ø²Ø±Ú¯ ØªØ±
Ø±ÛĮÚ© Ø§
ĠS I
ĠØºÛĮØ± Ùĩ
ĠÙħØ¹Ùħ ÙĪÙĦ
ĠØ§Ø¬ØªÙħ Ø§Ø¹
Ú©ÙĨÙĨØ¯ Ú¯Ø§ÙĨ
ĠÙģÙĦ Ø²
ĠÙħÙĦ ÙĬ
ĠÚĺ Ø§ÙĨ
ĠØ³ÙĨÚ¯ ÛĮÙĨ
at ion
ĠØ¬ÙĦ Ø³Ø§Øª
20 18
ĠÙħÙĩØ± Ø§Ø¨
ĠØ¢Ø° Ø±
ĠÙģØ±Ùħ Ø§ÛĮÛĮØ¯
ĠÚ©Ø§ÙħÙ¾ÛĮ ÙĪØªØ±ÛĮ
ĠÙĤØ¨ ÙĦØ§
ĠØŃÚ© Ø§ÛĮØª
ĠÙĨØ§ Ú¯Ùĩ
ĠØ¨Ø³Øª Ø±
Ġh t
ĠØ¨ÙĬ Ø´ØªØ±
ĠØŃØ³Ø§Ø¨ Ø¯Ø§Ø±ÛĮ
ĠØ¶Ø± ÙĪØ±Øª
ĠØŃÛĮ ÙĪØ§ÙĨ
ĠØ¨ÛĮÙħØ§Ø± Ø³ØªØ§ÙĨ
ĠØ¯ÙĤÛĮÙĤ Ø§
ĠÙħØ¤ Ø³
ĠØ³Ø®ÙĨ Ø±Ø§ÙĨÛĮ
ĠØ¢Ø´Ù¾ Ø²
ĠÙģØ§Ø· ÙħÛĮÙĩ
ĠÙĦØ² ÙĪÙħ
ØŃØ³ ÛĮÙĨ
ĠØªØŃÙĪÙĦ Ø§Øª
ĠØ³Ø±Ú¯Ø± Ùħ
ĠØ°Ø® ÛĮØ±Ùĩ
ĠØ¨ØµÛĮØ± Øª
ĠØ¨ÙĦÙĪÚĨ Ø³ØªØ§ÙĨ
ĠØµÙĦÛĮ Ø¨ÛĮ
ĠØ§ØŃØªØ± Ø§Ùħ
ĠÙħØ³Ú© ÙĪÙĨÛĮ
ĠÙħØ®ÙĦÙĪ Ø·
ĠÙĪÛĮØªØ± Ø§ÛĮ
Ø§ÙģØ±Ø§ Ú¯Ùħ
2 4
5 3
9 0
e g
Ġ {
ĠØ¨ Ø²
ĠØ¨ Ø´Ø±
ĠØ¨ ÙĤÛĮÙĩ
ĠÙħ Ø§Ø¬Ø±
ĠØ¯ Ø§Øº
Ø³ Ø§Ùħ
ĠÙĪ Ø¢
Ø´ ÙĪÙĨ
Ø§Ø± Ø³Ø§ÙĦ
ĠØ± Ø¨
ĠØ± Ø¯Ùĩ
ĠØ³ Ú©ÛĮ
ĠØ³ Ø§ÙĬØª
ĠØ´ ÙĦÙĪ
ĠØ¢ Ø³ØªØ§ÙĨÙĩ
ĠØ® Ùħ
Ø¬ Ø²
ĠØ§Ø³ ÙģÙĨØ¯
ÙĬ ÙĬÙĨ
ÛĮØ¯ Ùħ
Ø® ÙĪØ¯
Ø® ÙĪØ±Ø¯
ĠØ§Ø³Øª Ø±Ø³
ĠØ§Ø³Øª ÙĤÙĦ
ĠÛĮ Ùĥ
ĠØŃ Ø²Ø¨
ĠØ² Ø±
ĠÚĨ Ù¾
Ø¶ ÙĦ
Ø³ÛĮ ÙĦÙĩ
ĠØµ ÙĦØ§ØŃ
ĠÙħØ¹ ÙĦÙħØ§ÙĨ
ĠÙĨÙħ Ú©
ĠÙħØ´ Ø±ÙĪ
ĠØ³ÙĪ Ø¡
ĠØ§Ø¹ ØªÙĤ
ĠØ±ÙĪØ² ÙĩØ§
ÙĪØ³ Ùģ
ĠØ§Ø´ ÛĮ
ØŁ !
ĠÛ±Û ±
ĠØ§ØŃ Ø¯
ĠÙħØ§ÙĨ Ø¹
ĠØ¨Ø²Ø± Ú¯ÛĮ
ĠØ¨ÙĨ ÙĪÛĮØ³
ÚĨØª Ú¯ÙĦØ´ÙĨ
Ġ201 5
ĠÚ©ÙĪ ÛĮÙĨ
ĠØ®Ø· ÙĪØ·
Ùĳ Ùİ
ĠØ¬ÙĪ Ø§Ø¯
âĢ¦ âĢ¦
ĠØªØ±Ú©ÛĮ Ø¨ÛĮ
am e
ĠØŃØ¬ Øª
ĠÙģØ±ÙĪØ´Ú¯Ø§Ùĩ ÛĮ
ØªØŃ ÙĤÛĮÙĤ
ĠØ§Ø¶ Ø·Ø±
ĠÙ¾Ø§Ø± Ø³ÛĮ
ĠØªØµÙĪÛĮ Ø¨
ĠÙģØ±ÙħØ§ÙĨ Ø¯Ùĩ
ĠÙħÛĮÚ© Ø±ÙĪÙģ
ĠÙģÛĮØ²ÛĮ Ú©
ĠÚ©ÙħÙ¾ Ø§ÙĨÛĮ
ĠÙ¾Ø¯ÛĮØ¯ Ùĩ
ĠØ§Ø¯Ø± Ø§Ø±ÛĮ
ĠÙ¾Ø±ÙĪØª Ø¦ÛĮÙĨ
ĠØ´ÛĮÙħÛĮ Ø§ÛĮÛĮ
ĠØ§ÙģØ· Ø§Ø±
Ø§Ø·ÙĦØ§Ø¹ ÛĮÙĩ
ĠØ¯ÛĮÙģÙĨØ¯ Ø±
L R
i al
o y
ÙĨ Ø¨
Øª Ø§ØŃ
Ø³ ÙĪÛĮ
Ø³ ÙħÙĩ
ĠØª ÙĨÚ¯
ĠØ± ÙĬ
ĠØ± Ú©ÙĨ
ĠØ± ÙĨØ¬
Ø§Ùħ Ø¹
ĠÙħÛĮ Ø³
ĠÙħÛĮ Ú©ÙĨÙħ
ĠÙģ Ø§ÛĮ
ĠØ¨Ø± ÙħÛĮ
ĠØ¬ Ø§Ø¯Ùĩ
ĠÛĮ Ø§Ø¨
Ø§Ø³ ÙĬ
ĠØŃ Ø¯ÛĮ
Ú©ÛĮ Ø¬
ĠÙħÙĨ Ø¹
ĠØ§Ø± Ø¨Ø¹
ĠØ§ÙĦ Ú¯ÙĪÛĮ
Ø§ØŃ Ú©Ø§Ùħ
ĠÙģØ± ÙĨÚ¯ÛĮ
ĠÙħØ± Øª
ĠØ¯ÛĮ Ø§ÙģØ±Ø§Ú¯Ùħ
Ø¯Ø± Ø¨Ø§Ø±Ùĩ
ĠØªØŃ ÙħÙĦ
ĠÙĩØ³Øª Ùħ
Ø±Ùĩ Ø¨Ø±
ĠØªØ¹ Ø§ÙħÙĦ
ĠÙħØ· ÙĦÙĪØ¨
ĠØ±ÙĪÛĮ Ø§ÙĨ
ĠØ±ÙĪØ² ÙħÙĨ
ĠØ¶ Ø¹ÛĮÙģ
ĠÚ¯ÙģØª ÙĨØ¯
ĠØ´ÛĮ Ø®
Ùİ Ùĳ
ĠÚ©ÛĮÙģ ÛĮ
ĠÙ¾Ø±Ø¯ Ø§Ø®ØªÙĩ
ĠÙħØªÙĨ Ø§Ø³Ø¨
ÙĩØ§ÙĬ ÙĬ
ĠÚ©Ø§ÙĦ Ø§ÙĩØ§ÛĮ
ĠÚ©Ø§ÙĦ Ú©Ø´ÙĨ
Ġ13 8
ĠÙ¾ÙĬ ÙĪÙĨØ¯
ĠÙħØªØ¹ Ø¯Ø¯
ĠÙħÙĪØ³ Ø³Ø§Øª
ĠÙħØ³Ø¦ÙĪÙĦ ÛĮÙĨ
ĠØ¨ÙĬ Ø§ÙĨ
ĠØ¯Ø¹ Ø§
ĠÙħØªØ®ØµØµ Ø§ÙĨ
ĠÙħÙĤØ§Ùħ Ø§Øª
ĠÙħØ¤ Ø«Ø±
ĠÙĪØ§ÙĦ Ø¯ÛĮÙĨ
ĠØ®ÙĦØ§ÙĤ ÛĮØª
ĠÙħÚ©Ø§ÙĨÛĮ Ú©
ĠØµØ§Ø¯Ø± Ø§Øª
ĠØ²ÛĮÙĨ Ø¨
ĠÙĪØ§Ø³ Ø·Ùĩ
ĠÚĺØ§Ù¾ ÙĨ
ĠBl ack
ĠØºÙģ ÙĪØ±ÛĮØ§ÙĨ
a p
a st
e b
Ù «
ÙĪ ÙĬ
Ùħ Ø§Ùħ
Ú© ÙĪØ³
ĠØ¨ Ùħ
ĠØ¨ ÙĦØ§
ĠØ¨ Ú¯ÛĮØ±ÙĨØ¯
ĠÙħ ÙĪÙĨØª
Ø§ÙĨ Ø¯ÛĮ
ĠØ¯ Ø¨ÛĮ
ĠÙĪ Ú©ÛĮÙĦ
ĠÚ© Ø§Ø´Øª
ĠÙĨ Ø²
ĠÙĩ Ø¬
âĢ ¢
ĠØ® Ø±Ùħ
ĠØ® ÙĦÙĤ
ÙĬ Ø¹
ĠØ¨Ø± Ø§Ùī
ĠÚ¯ Ø´
ĠØ¬ Ø³
ĠØ¬ ÙĪÛĮ
ÛĮÙĨ ÙĪ
Ø· Ø¨ÛĮ
ĠØŃ ÛĮÙĨ
ĠØŃ Ø³Ø¨
ĠØ§ ÚĨ
ĠÙĤ Ùħ
ĠØ² Ø§ÛĮ
ĠØ² Ø§Ø¦
Ù¾ ÙĦÙħ
ĠÚĨ Ø§Ø±ÚĨ
ĠÙĩÙħ Ø¯Ø§ÙĨ
ÙĪØ§ÙĨ Ùĩ
Ø§Ø±ÛĮ Ø®
ĠØµ ÙħØ¯
Ø° Ø±
ĠØ§Ø± Ø³
ĠØ§ÙĦ Ùģ
ÙĪØ´ Ø§Ù¾
ĠÙħØ¯ Ø§Ø±Ú©
ĠÙħØª ÙĪÙĤ
ĠØ¯Ø³Øª Ø±Ø³
ĠØ³Ø§ÙĦ Ø§ÙĨÙĩ
ĠØ´Ø± Ø·
Ġ1 1
ĠÙĥ ÙĨØ¯
ĠÙĥ ÙĪØ¯
Ġ2 5
ĠÚ©Ùħ Ø±
ĠØ¨Ø¯ ÙĨÛĮ
ĠØªØ¹ ÙĪÛĮØ¶
ĠØ±Ø³ Ø§ÙĨØ¯
ĠÙħØ· Ø§Ø¨ÙĤ
ĠØ§Ø¹ Ø·
ĠØ§Ø´ ØªØºØ§ÙĦ
ĠØ§ÙĤ Ø§ÙħØª
Ú©Ø§Ø± Ø¨Ø±Ø§ÙĨ
ĠÚ¯Ø° Ø±
ĠØ§ØŃ ÙħØ¯ÛĮ
ĠÙĩÛĮ Ø¬Ø§ÙĨ
ĠØ¨Ø§ÙĨ ÙĪ
ĠÙħØ® Ø§ÙĦÙģ
ĠÙħØªÙĨ ÙĪØ¹
ĠÙħØ¹Ùħ ÙĪÙĦÛĮ
ĠÙĤØ· Ø¹ÛĮ
or d
ĠØ¬Ø§ÛĮ Ø²Ùĩ
ĠÙĨØ³Ø¨Øª Ø§
ĠØ§ÛĮØ±Ø§ÙĨÛĮ Ø§ÙĨ
ĠÙĩÙħØ§ÙĨ ÙĨØ¯
Û°Û° Û°
ĠØ¨ÙĪ Ø³ÛĮÙĦÙĩ
ĠØ´Ú© Ùħ
ĠØ§ÙģØª Ø§Ø¨ÛĮ
ĠÙĨØ® Ø¨
ĠØ¯Ùģ Ø¹
ĠÚ©Ø± Ø¬
ĠØ§ÙĦÚ©Øª Ø±ÛĮ
ĠÙĤØ¯Ø± ØªÙħÙĨØ¯
ÙħØ¹ Ø§ÙĪÙĨ
ĠØ³Ø® ØªÛĮ
ĠÙĨÚ¯Ùĩ Ø¨Ø§ÙĨ
it e
ĠØ¯Ø§Ùħ Ø§Ø¯
ĠØ±ÙĤ Ùħ
ĠØ¬Ø³Øª Ø¬ÙĪÛĮ
ĠØ¢Ø±Ø§ÛĮØ´ ÛĮ
ĠØ¨Ø´ Ú©Ùĩ
ĠØ§Ø±Øª ÙģØ§Ø¹
ĠÚ©ÙħÙ¾ ÛĮÙĨ
ĠØ´Øº ÙĦÛĮ
ĠØ¯Ø§ÙĪ Ø·ÙĦ
ĠÙĤØ±Ø§Ø±Ø¯ Ø§Ø¯
ĠØ±Ø§Ø¯ÛĮ ÙĪ
ĠØªØ§ÛĮ Ù¾
ĠØŃÛĮÙĪØ§ÙĨ Ø§Øª
ĠØ§Ø³ØªÙĤÙĦ Ø§ÙĦ
N A
g ram
n g
r iv
ÙĨ Ø§Øª
ÙĨ ÙĬÙĨ
Øª ÙĪÙĦ
ĠØ¨ Ø§ÙĨØ¯
ĠØ¯ Ø³Ø±
Ø´ ÛĮØ±
Ø´ Ø§ÙĩÛĮ
ĠÚ© Ø§Ø¯Ø±
ĠÚ© Ø±ÛĮÙħ
Ø¨ ÙĪÙĦ
ĠÙĨ Ø¨Ø§Ø´
ĠÙĩ Ø§Ø±
âĢ ĵ
ĠØ³ ÙĨØ¬ÛĮ
ĠØ´ Ø§Ù¾
ÙĤ Ø³ÙħØª
ÙĤ ÙĬÙĤ
Ø¹ Ø·Ø±
ĠÙ¾ ÙĦÙĪ
ĠØ® Ø³
ĠØ® ÙĪÛĮØ´
Ø¬ Ø§Ø±
ĠØ§Ø³ Ø§Øª
ÛĮØ¯ Ú¯ÛĮ
Ø® ØªÛĮ
ĠÙģ Ú©Ø±ÛĮ
ĠØ¹ ÙĬÙĨ
ĠØ§Ø³Øª Ø§Ø±Øª
ĠØ¬ Ø§ÙĪ
Ø· ÙĪØ¨
ĠØ§ ÙĪØ²
ÙĦÛĮ Ø³Øª
ĠØ¢ÙĨ Ø±Ø§
ĠÙĦ ÙħØ³
ĠØµ Ø§Ùģ
ĠØµ ÙĦØŃ
ĠÚ©Ø§Ø± ÙĩØ§
ĠØ§ÙĦ Ø¯
Ø§ÙĨÛĮ ÛĢ
ĠÛ °
ĠÙħØ± Ø·ÙĪØ¨
ĠÙħØ¹ Ø§ÙħÙĦÙĩ
ĠÙĨÙħ ÙĬ
ĠÙ¾ÛĮ Ú©Ø³ÙĦ
ĠÙħØ¯ Ø§Ø±
Ø§Ùģ Ø²Ø§Ø±
ĠØ±ÙĪ ÙĬ
ĠØ±ÙĪ Ø¶Ùĩ
Ø²ÛĮ Ùĩ
ĠÚ©Ø´ ÛĮØ¯Ùĩ
ĠÙħØ³ ÙĦØŃ
ĠØ¯Ùĩ ÛĮ
Ġ1 6
Ùĥ Ø§ÙĨ
ĠØ³ÛĮ Ø³ØªØ§ÙĨ
ĠØ§Ø¹ ØµØ§Ø¨
ĠØ¶ Ø±ÛĮØ¨
ĠØ´ÙĩØ± ÙĩØ§ÛĮ
ÙĪØ³Øª Ø±
ĠÙĩÛĮ Ø¦Øª
ØªÙĪ Ø¬Ùĩ
Ø¬ÛĮ ØŃ
ĠÛ² Û´
ĠÙħØ® ÙģÛĮ
ĠØ³Ùĩ Ùħ
ĠÙ¾Ø§Ø³Ø® Ú¯ÙĪÛĮ
ĠÚ©Ø§ÙĨ ÙĪÙĨ
ĠÙĦÛĮ Ú¯
ĠÙħÚ© Ø§ÙĦÙħÙĩ
ĠÚ©Ø§ÙĦ Ø§ÛĮ
ĠÙħÙģ ØµÙĦ
ĠØ¨ÙĪ Ø¬ÙĪØ¯
ĠØ¬Ø² Ø¡
ĠØªØ®Øµ Øµ
ĠØ³ÛĮÙĨ Ø§
ĠØ´ÙĩØ±ÛĮ ÙĪØ±
as h
ĠØ¯ÙĨØ¯Ø§ÙĨ Ù¾Ø²Ø´
ĠÙħØŃÙħ Ø¯Ø±Ø¶Ø§
ĠÙĨÙĬ Ø³Øª
ĠØ¨Ø³Øª Ú¯ÛĮ
ĠØ¶Ø± Ø±
ĠÙĩØ´ Ø¯Ø§Ø±
ĠØ´ÙĩØ±ÙĪ ÙĨØ¯
ĠØ§ÙĨÚ¯ÛĮ Ø²Ùĩ
ĠÙħØ±Ø§ÙĤ Ø¨
ĠØ¯Ø±ÛĮ Ø§ÛĮÛĮ
ĠÙ¾Ø¯ Ø§ÙģÙĨØ¯
ĠØ¨Ø§Ø²Ø± Ú¯Ø§ÙĨÛĮ
ĠØ§Ø±ØªÙĤ Ø§Ø¡
ÙħØ´Ø§ÙĪØ± Ùĩ
ĠØ§ÙģØªØ® Ø§Ø±
ĠÙĤÙĩ ÙĪÙĩ
ĠØ§ÙĨÚ¯ÙĦ Ø³ØªØ§ÙĨ
ĠØ§ØŃØ¯ Ø§Ø«
2 7
h er
Ø ¥
Ġ *
ÛĮ Ø§Ø¯
Ùĩ Ø²
Ú© ÙĪØ¯
ĠØ¨ Ú©ÙĨ
ĠØ¨ ÙĦØ§Ùħ
ĠØ¯ Ø³
ĠØ¯ ÙĪÙĨ
ĠØ¯ Ø®Øª
ĠÚ© Ø§Ø¨
ĠÚ© Ø¨Ø§Ø¨
Ø§Ø± ØªÛĮ
ĠÙĨ Ø±Ø³
ĠØ³ Ø§Ú©
ĠØ³ Ø¤
ĠØ´ Ø§Ùħ
ĠØ¢ ÙĩÙĨ
Ø§ÙĦ ÙħÙĦ
ĠÙ¾ Ø³ØªÛĮ
ĠØ® Ø§ÙĦ
ĠØ® Ø³ØªÙĩ
ĠØ® ÙħÛĮÙĨÛĮ
ĠØ§ÛĮ Ø§Ùħ
Ø® Ø§Øµ
ĠÙģ Ø¶Ø§ÛĮÛĮ
ĠØ¹ Ø·
ĠØ¹ Ø§Ø¯Øª
ØŃ ÙĤ
ÚĨ Ùħ
ĠØ§Ø³Øª Ø«ÙĨ
Ø³ÛĮ Ø³
Úĺ Ø§ÙĨØ³
ĠØ§ÙĦ Ø¯ÛĮÙĨ
ĠÙ¾ÛĮ Ú©
ĠÙħØ´ ÙĩÙĪØ±
Ø¨Ùĩ Ùĩ
ĠÙħØ¬ Ø³ÙħÙĩ
ĠÙħØ³ ÙĦÙħØ§ÙĨ
ĠÙĨØ¸ Ùħ
ĠØ¹Ùħ ÙĤ
Ùĥ ÙĨØ¯
ĠØ¯Ø§Ø´ ØªÙħ
ĠØ¹ÙĦ Ø§Ø¦Ùħ
ĠØ´ÙĩØ± ÙĬ
ÙģØ± ÙĤÙĩ
ĠØ³Ø§Ø²ÙħØ§ÙĨ ÙĩØ§
ĠØªÙĨ ÙĪØ¹
ĠØ¨Ø§Ø± ÙĪÙĨ
er ry
ĠØªØ´ ÙĪÛĮ
ĠØ±Ø§ÛĮ ØŃÙĩ
on g
Ġ201 6
ĠØ¯ÙĦ Ø®ÙĪØ§Ùĩ
ĠØŃÙħ ÛĮØ¯
ĠD ownload
ĠÙĤØ· Ø±
Ø§ÙģÛĮ Ú©ÛĮ
ĠØªØŃÙĤÛĮÙĤ Ø§ØªÛĮ
ĠØ§Ø±ØªØ¨Ø§Ø· ÛĮ
ĠØ¬ÙĨÚ¯ ÙĦ
ĠØ§Ø« Ø±Ø¨Ø®Ø´
ĠÙħÙģ Ø§ØµÙĦ
Û² Û°
ĠØ³ÙĦØ§Ùħ ØªÛĮ
ĠØ§ÙģØª ØªØ§ØŃ
ĠÙħØ¨ ÙĨØ§ÛĮ
ĠØ®ÙĪØ± Ø´Øª
ĠÚ©ÙĪÚĨ Ú©ÛĮ
-- --
ĠÙ¾ÙĬ Ø´
ĠØ§ÙģØ²ÙĪØ¯ ÙĨØ¯
ĠØ¨Ø§Ø¨ Ú©
ĠÙħØ¨ÙĦ ÙħØ§ÙĨ
ĠØ¶Ø± Ø¨Ùĩ
ĠØªØ¹ÙħÛĮØ± Ø§Øª
ĠØ¯Ø§Ø±ÙĪ ÙĩØ§ÛĮ
ĠØ§Ø³ØªØ§ÙĨØ¯Ø§Ø±Ø¯ ÙĩØ§ÛĮ
Ø±ÙĪÛĮ Ø¬
ĠÙĤÛĮ Ø§Ùħ
ĠØ³ÛĮÙħ Ø§
ĠØ¨Ø±Ø¬ Ø³ØªÙĩ
ĠÙħØªØŃ Ø¯Ùĩ
ĠÙħØªØŃ Ø±Ú©
Ø¢ÙĪØ± Ø¯Ùĩ
ĠØ±ÙĪÙĨ ÙħØ§ÛĮÛĮ
ĠØŃØ³Ø§Ø³ ÛĮØª
ĠÚ¯ÙĨ Ø§Ùĩ
ĠØ§ÙĦÚ¯ÙĪ ÙĩØ§ÛĮ
ĠØªØ¦ Ø§ØªØ±
ĠÙģØ±ÙĪØ¯ Ú¯Ø§Ùĩ
ĠÙħØ¨Ø§ØŃ Ø«
ĠÙģÙĬ ÙĦÙħ
ĠØ±Ú©ÙĪØ±Ø¯ Ø±
ĠSI D
ĠØ³Ú©ÛĮ ÙĪØ±ÛĮØªÛĮ
ĠÙħÛĮÚ©Ø±ÙĪÙģ ÙĪÙĨ
ĠØ§Ø±Ø¨Ø¹ ÛĮÙĨ
ĠÙħØªÙĪÙĤ Ùģ
ĠÙĨØ®Ø¨ Ú¯Ø§ÙĨ
ĠØ¨ÙĦØ§Ùħ Ø§ÙĨØ¹
9 7
o c
p ort
Ġ 09
Ø¯ ÙĦ
Ø¯ Ø³ØªÙĩ
Ùħ ÙĪØ±
Ú© Ø´ÛĮ
ĠØ¨ ÙĬÙħ
ĠÙħ Ú¯Ø±
Ø³ ÛĮÙĨ
ĠØª Ø§Ø²
ĠÙĨ Ø¹
ĠÙĨ ØªÙĪØ§ÙĨ
ĠÙĨ ÚĺØ§Ø¯
ĠÙĩ ÙĦ
ĠÙĩ ÙĪØ±
ĠØ³ Ø§
ĠØ³ Ú©Ùĩ
Ø±ÛĮ Ø§
ĠÙ¾ ÙĦØ§Ú©
Ø¬ Ø§ÛĮ
ĠÚ¯ Ø±ÛĮÙħ
Ø§Ø³ Ù¾
ĠØŃ Ùĥ
ĠÙĤ ÙĪÙĩ
ĠØ² ÙĪ
ĠØ² ÙĪÙħ
ĠØ§Ùħ Ø§ØªÙĪØ±
ĠØµ ÙĩÛĮ
ĠÚ©ÙĨ Ø³
ĠØ¯Ø§Ø± ÙĪÛĮÛĮ
ĠÙħÙĨ Ùħ
Ú¯Ø± ÙģØª
ĠÙħØŃ Øª
ĠÙħØŃ Ø§Ø³
ĠÙħØŃ ÙĦÙĩ
ĠÙĨÛĮ Ø§Ø²ÛĮ
ĠØ§ÙĦ Ø²
ĠØ¨ÛĮ Ø§ÙĨÛĮÛĢ
Ø§Ø® Ø±
ĠØªØ± Ø¬ÛĮØŃ
ĠØ¯ÛĮ Ù¾ÙĦÙħ
ĠØ³Ø§ÙĦ ÛĮ
ĠÙħØ¬ ÙĩØ²
Ø§ÛĮØ´ Ø§ÙĨ
ĠÙħØ³ Ø¹ÙĪØ¯
Ø§Ø· Ø±
Ø±ÙĪØ´ ÛĮÙħÛĮ
Ø±Ø³ ÙĬ
ĠØªØ¹ Ø§Ø¯ÙĦ
ĠØ±Ø³ Ùħ
ĠØªÙĦ Ú¯Ø±
ĠØ³Ø§Ø²ÙħØ§ÙĨ ÙĩØ§ÛĮ
Ø¯Ø§ ÙĪÙĦ
ĠØ±ÛĮ ÛĮØ³
ĠØ±ÛĮ Ø¨ÙĨ
ĠÙħØ§ÙĨ ÙĪÙħØªØ±
ĠØªÙĪÙĦ ÙĬØ¯
ĠØªØ´ Ø±ÛĮØŃÛĮ
ĠÙĨÙĩ Ø§Ø¯
ÙĨÙħ ÙĪÙĨÙĩ
ĠÙħØ® Ø§ÙĦ
ĠØªÚ© ÙħÛĮÙĦÛĮ
ĠÚ©Ø§ÙĨ ÙĪÙĨÛĮ
ĠÚ©Ø§ÙĨ Ø§Ø¯Ø§
ĠD S
ĠÙĦØ¨ ÙĨØ§ÙĨ
ĠÙĤØ· Ø¹Ùĩ
ĠÙĦÛĮ Ø²
ĠÙ¾Ø° ÛĮØ±ÛĮ
ĠÙĤØ¯ Ø³
ĠÙĤØ¯ ÛĮÙħ
ĠØŃØ¬ Ø§Ø¨
ĠÙ¾ÙĨØ¬ Ø±Ùĩ
ĠÙħØŃÙĦ ÙĪÙĦ
ĠÛ±Û³Û¹Û ¶
ĠÙħØ§Ø³ Ú©
Ø§Ø²Ø¯Ùĩ ÙħÛĮÙĨ
ĠØ§ÙĨØ¯ÛĮ Ø´Ùĩ
ĠØ´ÙĩØ±Ø¯ Ø§Ø±
ĠØ´Ø§Ø® Ùĩ
ĠÛ¹Û ´
ĠØ¹ÙħÙĪÙħ ÙĬ
ĠÙħÙĤØ± Ø±Ø§Øª
ĠÙ¾Ø§Ø¯ Ø´Ø§Ùĩ
ĠÙħÛĮØ± Ø§Ø«
ĠØ¹Ø¯ Ø³ÛĮ
Ø³ÙĪÙĨ Ú¯
ĠØ¢ÙĤ Ø§
ĠÙħÙĨØ§Ùģ Ø¹
ØºØ± Ø§ÙģÛĮ
ĠØ¯Ø§Ø¦ ÙħÛĮ
ĠØ´Ø³Øª Ø´ÙĪ
ĠØªØ§Ø® ÛĮØ±
ĠØ¢Ú© Ø§Ø¯ÙħÛĮ
ĠÙ¾Øª Ø±ÙĪØ´ÛĮÙħÛĮ
ØµÙģ ØŃÙĩ
ĠÙ¾ÙĪØ±Øª Ø§ÙĦ
ĠÙģØª ÙĪØ´Ø§Ù¾
ĠÚ©ÛĮÙĦÙĪÙħ ØªØ±
ĠØ±Ú©ÙĨ Ø§
ĠØ¯Ø§ÙĪØ·ÙĦ Ø¨Ø§ÙĨ
ĠØµÙĩÛĮ ÙĪÙĨÛĮ
3 00
9 3
T I
d f
i st
¡ Ù
Ġ >
Ø§ Ø§
Ø± ÙĬ
Ø¯ Øª
Øª ÙĬØ¨
Ùħ Øµ
Ú© ÙĦÛĮÙĩ
ÙĦ Ùī
ĠØ¨ ÙĢ
Ø³ Ø±ÛĮ
Ø³ ÙĬ
ĠÚ© ØªØ¨
Ø§Ø± Úĺ
Ú¯ ÙĪØ´
Ùģ Ø§ÙĨØª
ĠØ± Ø·ÙĪ
ĠÙĨ Ø§Ø¯Ø±
ĠØ¯Ø± Ùħ
ĠØ³ Ø§Ø¯Ú¯ÛĮ
ĠØ´ ÙĪÙħ
ĠØ¨Ùĩ ØªØ±ÛĮ
ĠÙ¾ Ø±ÛĮÙĨØªØ±
ĠÙħÛĮ Ø®ÙĪ
Ø® Ø§ÙĨ
ĠÙģ Ø§Ú©ØªÙĪØ±
ĠØ¨Ø± Ø¬Ø§Ùħ
ĠØ¹ Ø±Ùģ
ØŃ Ø§ÙĦÛĮ
ĠØ¬ Ø§Ø³
Ø±Ø¯ Ø§Ø¯
ĠØ¨Ø§ ÙĤ
Ø· Ø§ÙĨÛĮ
ĠØ² ÙĪØ§ÙĦ
ÙĪØ² ÛĮØ±
ØªØ± ÙĨØª
ĠÙĦ ÙĪØ³ØªØ±
ĠØ§Ùħ ÛĮÙĨ
ĠØ¢Ùħ Ø¯ÙĨ
ÙĪÙħ ÛĮÙĨ
ĠØªØ§ ÙĪÙĦ
ĠÙħØª ØºÛĮØ±
Ø¨Ø± Ø²
ĠØªØ± Ø§Ø´
ĠØ³Ø§ÙĦ Ú¯ÛĮ
ĠÙĤØ± Ø¨Ø§ÙĨÛĮ
ĠÙħØ³ ÙĦÙħ
ĠÚ©Ùħ ØªØ±ÛĮÙĨ
ĠØªÙĪØ§ÙĨ Ø³ØªÙĩ
ĠÙħØ· ÙĦ
ĠØ§Ø¹ Ø¶Ø§
ĠÙħØ±Ø¯ ÙħÛĮ
ĠØ§ÙĨØª ÙĩØ§ÛĮ
ĠÚ©Ø´ÙĪØ± ÙĩØ§
ĠÚ©Ø´ÙĪØ± ÙħØ§ÙĨ
ĠØ§Ø´ Ú©
ĠØ§Ø´ Ø®Ø§Øµ
ĠÚ¯Ø° Ø±Ø§ÙĨ
ĠÚ¯Ø° Ø§Ø±Ø¯
ĠØªÙĨ ÙĩØ§ÛĮÛĮ
Ø§ÙĦØ¨ ØªÙĩ
ĠÙħÙĪØ¶ Ø¹
ÙĨÙħ Ø§ÛĮØ¯
ĠA g
ĠA han
ĠC h
ĠÙħØ¬Ùħ ÙĪØ¹
ÂŃ ÂŃ
ĠÙģÙĦ Ø²ÛĮ
ĠØ¬ÙĦ Ø¯
ĠØ¬ÙĦ ÙĪÙĩ
ĠØªÙģ Ø±ÛĮØŃÛĮ
ĠØ¯Ø§ÙĨØ´Ø¬ ÙĪÛĮ
ĠØ´ÙĪ ÛĮÙħ
ĠØ³Ø§Ùħ Ø³ÙĪÙĨÚ¯
ĠÙ¾Ø°ÛĮØ± ÙģØªÙĩ
it y
ĠØªØŃØµÛĮ ÙĦØ§Øª
ĠØ¨Ø±Ø¯ Ø§Ø´ØªÙĩ
ĠØ§ØŃØªÙħ Ø§ÙĦÛĮ
ĠØ¹ÙĪ Ø¶
ĠÙħØ² ÛĮØª
Ġ139 7
ĠÚ¯ÛĮØ± ÙĨØ¯Ùĩ
ĠØ¹Ø±ÙĪØ³ Ú©
ĠÙħÙĪØ± Ø¯ÛĮ
ĠÙħØŃÙĤÙĤ Ø§ÙĨ
Ø¯Ø³Øª Ú¯Ø§Ùĩ
ĠØ±ÙĪÙĨ ÙĤ
Ø¬ÙĦ Ø³Ùĩ
ĠØŃØ§Ú© Ùħ
Ø¹Ø¨ Ø§Ø³
ĠØ³ÙĪØ± Ø§Ø®
ĠÙĩÛĮØ¯Ø±ÙĪ Ú¯Ø±Ø§ÙģÛĮÚ©
ĠØªÙģØ³ ÛĮØ±
ĠØ¨Ø®ÙĪØ§ÙĨ ÛĮØ¯
ĠÙħØ¯ÙĬØ± ÙĬØª
ĠØ±ÙĪØ³ÛĮ Ùĩ
Ø®ÙĦ Ø§ØµÙĩ
ĠØ¨ÙĨÙĪÛĮØ³ ÛĮØ¯
ĠÚĨØ§Ø±ÚĨ ÙĪØ¨
ĠDS LR
ĠØ±Ø·ÙĪ Ø¨Øª
ĠAhan ge
2 6
i le
o st
t s
Ġ _
Ŀ ¤
ÛĮ Ø±Ø¯
ÙĨ ÙĪØ±
ÙĨ Ø±Ùħ
Ú© Ø¯
Ú© Ø§Øª
ĠØ¨ Øª
ĠØ¨ Ø¨Ø±Ø¯
ĠÙĪ Ø§Ø´
ĠØ§Ø °
ĠØª Ø§Ø±
ĠØª ÙĨØ¯
ĠØª Ø±ÙĪÛĮØ¬
Ø² ÛĮØ±
ĠÙĨ Ø§Ø´
ĠÙĩ ÙĬ
Ø§Ùħ ÛĮÚ©
ĠØ³ ÙĪÙĦ
ĠØ´ Ø§ÙĨÙĩ
ĠØ´ Ùĥ
Ø§ÙĦ Ø¨ÛĮ
Ø§Ø¯ Ø§Ø±
ĠÙ¾ ÙĪÛĮØ§
ĠÙ¾ Ú©ÛĮØ¬
ĠÙħÛĮ Ø§Ø¯
ÙĬ ÙĬ
ÛĮØ¯ ÙħØ§ÙĨ
ĠØ¹ ÛĮ
ĠØ¹ Ø¯Ùĩ
ĠØ¹ ÙĨØ§
ØŃ ÛĮ
ØŃ Ø±
ØŃ Ø¯ÙĪØ¯
ĠØ¬ ØºØ±Ø§ÙģÛĮ
ĠÛĮ Ø®
ĠÚĨ Ø§Ø¯Ø±
ĠØ§ÙĨ Ú©ÙĪØ¨
ÙħØ§ÙĨ Ùĩ
ĠÚ©ÙĨ ÙĨ
ÙħÛĮ Ø²ÛĮ
Ø¯ÛĮ Ùĩ
ĠÚ©Ø±Ø¯ ÛĮ
ĠÙħÙĨ Ø§Ø¸
Ú¯Ø± Ùħ
ĠÛĮÚ© Ø³Ø§ÙĨ
ĠØªÙĪ Ø±ÛĮ
ĠØ§ÙĦ ÙĤ
ĠØ§ÙĦ ØªÙĩ
ĠØ§ÙĦ Ø§Ø³ÙĦØ§Ùħ
ÙĪØ´ Ø§Ø±Úĺ
ĠØ¨Ø§Ø´ Ùħ
Ø« Ø±ÛĮ
ĠØªØ§ Ú©
Ø¨Ø± Ú¯
Ø¢ ÙĩÙĨÚ¯
Ø¢ ÛĮØ§
ĠØ³Ø± Ø§Øº
ĠØ®ÙĪ Ø§Øµ
ĠÚ©Ø´ ØªÙĩ
ĠÙĥ Ø´
ĠÙĩØ± ÚĨÙĨØ¯
Ġ2 6
ĠØ¹Ùħ Ø¯
ĠØ§Øµ ÙĨ
ĠØ³ÙĪ Ø§Ø¯
ĠØ§Ø¯ Ø§Ø±Ø§Øª
ĠØ§Ø® ÙĦØ§ÙĤÛĮ
ĠØ§Ø´ Ø¹Ø§Ø±
Ġ9 0
ĠØ¨Ø¹ ÙĨÙĪØ§ÙĨ
ĠÚ¯ÛĮ Ù¾ÙĪØ±
ĠÛ±Û ¶
ĠØ¨Ø§Ø± ÙĩØ§
ÙĪÙĤ ØªÛĮ
ĠØ¢Ø¨ Ú©Ø§Ø±ÛĮ
ĠØ¨ÙĦ Øª
ĠÙĨÙĪ Ø§ØŃÛĮ
ĠØªØ´ Ú©Ø±
ar e
Ø§Ù¾ ÙĦ
ĠÙ¾Ø§Ø³ Ù¾ÙĪØ±Øª
ĠÚ©ÙĪ Ø«Ø±
ĠØ®Ø· Ø§Ø¨
ĠØºÛĮØ± Ø¹Ø§ÙħÙĦ
ĠØ¯ÛĮØ¯ Ú¯Ø§ÙĩÛĮ
Û± Û°
Û± Û³Û
es s
ĠÙħÙĨØ¸ Ùħ
ĠØªØ£ ÙħÛĮÙĨ
ÙħØ¹ Ùħ
Ġ6 0
ĠØ®Ø± ÙĬØ¯
ĠÙĤÙĦ Ø¨ÛĮ
Ġ139 4
ĠØ¯Ø´ ÙĪØ§Ø±
ĠÙħÚ¯ Ø§Ù¾ÛĮ
ĠØµØ±Ùģ Ùĩ
ĠØŃÛĮ Ø§Øª
ĠØ®ØµÙĪØµÛĮ Ø§Øª
ĠØ±Ø§ÙĨ ÙĨØ¯Ùĩ
ĠÙ¾ÙĨ ÙĦ
ĠØ¸Ø§Ùĩ Ø±ÛĮ
ĠØ¢Ø¬Ø± ÙĩØ§ÙĬ
ĠÙĨÙĪØ¬ÙĪØ§ÙĨ Ø§ÙĨ
ĠÙ¾Ø±Ùĩ ÛĮØ²
ĠÙģØ´ Ø±Ø¯Ùĩ
Ø¹Ø¶ ÙĪ
ĠØ§Ø¹ØªØ± Ø§Ø¶
ĠØªØ²ÛĮ ÛĮÙĨ
ĠØ¹ÙĦØ§Ùħ Øª
ĠØ§Ø¶Ø·Ø± Ø§Ø¨
ĠÙħØ®Ø§ÙĦ ÙģØª
ÙģØ§ÙĨØª Ø§Ú©Ø±ÙĪÙħ
2 5
p t
x t
ÙĨ Ø§Ø±
ÙĪ Ø§Ø±ÛĮ
ĠØ¨ Ú©
ĠØ¨ Ø§Ø±ÛĮ
ĠØ¨ Øº
ĠØ¨ ÙĦØ§Ùģ
ĠØ¨ ÙħØ§ÙĨØ¯
ĠÙħ ÙĨØ¯
ĠØ¯ ÛĮØ±
ĠØ¯ Úĺ
Ø³ Ù¾
Ø´ Ø§ØºÙĦ
ĠÚ© ÙĨÚ¯
Ùģ ÙĨ
Ø² ÙĨÛĮ
ĠØ± Ø§Ø¬
ĠÙĨ ÙĪØ¯
ĠÙĨ Ø§Ø¯
ĠØ¯Ø± Ú¯ÛĮØ±
ĠØ´ ÙĬ
ĠØ´ Ø§Ø¹
ĠØ¢ ÙĦÛĮ
ĠÙ¾ Ø§Øª
ĠÙ¾ ÙĨÙĩ
ĠØ® Ø§ÙĦÛĮ
ĠØ® Ø§ÙĪØ±
ĠÙħÛĮ Ø¯ÙĩØ¯
ÛĮØ¯ ÙĨÛĮ
Ø® Ø§Ø°
ĠÙģ ÙĤÙĩ
ĠØ¨Ø± ØªØ±ÛĮÙĨ
ĠØ¬ Ø§Ø¨
Ø±Ø¯ ÛĮ
Ø· ÙĪØ±ÛĮ
Ø· ÙĦØ¨
Ø±ÙĪ Ú©
ĠØ§ Ú©Øª
ĠÙĤ Ø¶
ĠÙĤ Ø¨Ø§ÙĦ
ĠÚĨ Ø§ÙĤ
ĠØ§ÙĨ Ø¨
ÙħØ§ÙĨ Øª
ĠÙĦ Ø§ÛĮØª
ĠØ§Ùħ ÙĪ
ĠÚ©ÙĨ ÛĮ
ĠØ¯Ø§Ø± Ø§
ĠÙħØ¹ Ú©ÙĪØ³
ĠÙħØª Ø¯Ø§ÙĪÙĦ
Ø¨Ø± Ø±Ø³ÛĮ
ĠØªØ± Ùĩ
ĠØªØ± ØªÙĬØ¨
ĠØ³Ø± Ø²ÙħÛĮÙĨ
ÙĤÛĮ Ø¨
ĠØº ÙĦØ·
ĠØ¯ÙĪ Ø§Ø²Ø¯ÙĩÙħ
Ø§ÙĤ Ø¯
Ġ| --
ĠÙĥ ÙĦ
ĠØ§Ø¹ Ø¶
ĠØ±ÙĪÛĮ Ùĩ
ĠØ§Ø¯ Ø¨
ĠÚ©ÙĦ Ø§Ø³ÛĮ
ĠØ´Ùĩ Ø§Ø¨
Ġ9 1
ĠØ±Ø§Ùĩ Ø¨Ø±Ø¯
ĠØ¯Ø§Ø¯ Ùħ
ĠØ§ÙģØ² ÙĪØ¯Ùĩ
ĠÙ¾Ø± Ø³Øª
Ú©Ø±Ø¯ ÙĨ
Ø±Ø§ ÙģØª
ĠØ§ÙĪÙĦ ÙĪÛĮØª
Ø§ÙĪ ØªÛĮ
ĠØºØ° Ø§Ø®ÙĪØ±ÛĮ
ĠØ¯ÛĮØ¯ ÙĨÛĮ
ĠÙ¾Ø§Ø³Ø® Ú¯ÙĪ
ĠØ§Ø« Ø§Ø«
ĠÙ¾Ø±Ø³ Ù¾
ĠÙħÚ© ÙħÙĦ
ĠØªØ§Ø±ÛĮØ® ÚĨÙĩ
ĠØ¹Ø¨ Ø§Ø³ÛĮ
ĠØ¨Ø±Ø® ÙĬ
ĠØ§ÙĦÚ©Øª Ø±ÙĪÙĨ
ØªØŃ ØµÛĮ
Ġ8 0
ĠØ±Ø§ÙĩÙĨÙħ Ø§
ĠÙħØº Ø²ÛĮ
ĠÙħØ±Ø§Ø¬ Ø¹
ĠØªÛĮØ± Ùĩ
ĠÙĨØŃ ÙĪÛĮ
Ø§ÙĪÛĮ Ùĩ
ĠÙħØ¨Øª ÙĨÛĮ
ĠØ®Ø¨Ø±ÙĨÚ¯ Ø§Ø±Ø§ÙĨ
ĠØªÙĦÙĪÛĮØ²ÛĮ ÙĪÙĨÛĮ
ĠØ±ÙĪÛĮØ¯ Ø§Ø¯
eh r
Ø¨ÙĨ Ø§Ø¨Ø±
ĠÙĪÙĬ ÚĺÙĩ
ig ht
ĠÙĨØ§Ø® ÙĨ
ÙĬÚ© ÙĬ
ĠØ³Ø§ÙĨ ØªÛĮ
ĠÙħÙĨØ§Ùģ Ø°
ĠÙ¾ÛĮÙĪØ³Øª Ùĩ
ĠØ¢ÙĦÙĪØ¯ Ú¯ÛĮ
ĠØªØ±ÙĪØ±ÛĮ Ø³ØªÛĮ
ĠØªÛĮØªØ± Ø§Úĺ
ĠÙĤØµ Ø§Øµ
Ġsh ad
ÙģØ±Ø§ÙĨ Ø³
ĠØ¯Ø§ÛĮ Ø±Ùĩ
ĠØ¢Ø´Ù¾Ø² Ø®Ø§ÙĨÙĩ
ĠØ±ÙĪØ²ÙħÙĨ ÙĪ
ĠØ§ÙĦÚ©ØªØ±ÛĮ Ú©ÛĮ
) :
4 5
5 5
a x
o x
Ñ Ĥ
Ø± Ø§Ø±
ÙĨ ÙĬ
ĠØ¨ Ø§Ø±Ùĩ
ĠØ¨ Ø¯ÙĩØ¯
ĠÙħ ÙĪØ¯
ĠÙħ Ø§ÛĮÙĨ
ĠØ¯ ÛĮØª
ĠÙĪ ÙĦÙĬ
ĠÚ© Ø§ÙĦÛĮ
Ø¨ Ø³ÛĮ
ĠØª Ú¯
ĠØª Ø¨Ø§Ø±
Ø² Ø§Ø±ÛĮ
ĠØ± ÙĪØ¯Ùĩ
ĠØ³ Ø¯
ĠØ³ Ùħ
ĠØ³ ÙĦÛĮ
ĠØ³ Ø±Ø§ÙĨ
ĠØ³ Ø±ÙĪØ´
ĠØ¢ Ø¯
ĠÙ¾ Ú©ÙĨ
ĠÙħÛĮ Ø±Ø³
ÙĪØ± ÙĨ
Ø® ÙĪØ±
Ø® ÙĪØ´
Ø® Ø§ÙĨÛĮ
ĠØ¨Ø± ÙĨ
ĠØ¨Ø± Ùħ
ĠØ¨Ø± ÙĨØ¯Ùĩ
ĠØ¨Ø± ÙĨØ¬
ĠØ¨Ø± Ø§Ø¯Ø±
ØŃ Ùħ
ÚĨ ÙĨØ§ÙĨ
ĠØ¬ Ø§ÙĬ
ÛĮÙĨ Øª
Ø±Ø¯ ÙĨ
Ø§Ø¨ Ø±ÛĮ
Ø§Ø¨ ÙĬ
ĠØ§ ÙĪÙħ
ĠÙĤ ÙĪØª
ĠØ² ÛĮÙħ
ÙĪØ² Ø³ØªØ§ÙĨ
ĠØ§Ùħ Ø±ÙĪØ²ÛĮ
ĠØ· ÙĦØ§ÙĤ
ĠÙħÙĪ Ø´Ú©
ĠÙħÙĪ Ø§ÙĤØ¹
ĠÚ©Ø§Ø± ÙħÙĨØ¯Ø§ÙĨ
Ú¯Ø± ÙħÛĮ
ĠØ§Ø± Ø¶ÛĮ
ĠØ§Ø± ØªØ´
ÙĦØ§ ÙĪÙĩ
ĠØ¨Ø§Ø² Ø³Ø§Ø²ÛĮ
ĠØ¨ÛĮ Ø§ÛĮØ¯
Øº Ø¯
Ø§Ø® ÙĦ
ĠÙħØ¹ ÙĨØ§
Ø« Ø¨Øª
Ø§Ùģ Ø±
ĠØ¯Ø³Øª Ùħ
Ø¢ ÙĨÛĮ
Ø±Ùģ Ùĩ
ĠØ³Ø§ÙĦ ÙĩØ§ÛĮ
ĠÙħØ¬ Ø§ÙĦ
ĠÙħØ¬ Ø±Ø¨
ĠÙĤØ± Ø¢ÙĨÛĮ
ĠØ¯ÙĪ Ø´ÙĨØ¨Ùĩ
Ø§ÙĤ ØªØµ
ĠØ¢ÙħÙĪØ²Ø´ ÙĬ
Ġ2 1
Ġ2 2
Ġ2 3
ĠØ³ÛĮ Ø²Ø¯Ùĩ
ĠØ³ÛĮ Ø§ÙĪØ´
Ø§ÙĬ ÙĨ
ĠØ§Ø¹ Ø²Ø§Ùħ
ĠØªÙħ Ø§ÛĮÙĦ
ĠÚ©ÙĦ ÛĮÙĨ
ĠØ®Ø±ÛĮØ¯ Ø§Ø±ÛĮ
ĠÙĨØ´ Ø¯
ĠØ§Ø® Ø°
ĠØ¶ Ø®
ĠØ¶ ÙħØ§ÙĨØª
ÙģÛĮ Ø§ÙĨ
ĠØ´ÛĮ Ù¾ÙĪØ±
ĠÛ±Û ´
ĠØ§Øª Ø®Ø§Ø°
ĠØ´ÙĨ ÛĮØ¯Ùĩ
ĠØ±ÙĪØ´ ÛĮ
ĠØ³Ùĩ Ø§Ùħ
ĠØ§ÙĬÙĨ ØªØ±ÙĨØª
ĠØªØ±ÛĮÙĨ Ø±
ĠÙĪÙĤ ÙĪØ¹
Ú¯Ø±Ø¯ ÛĮ
en d
ĠÚĺ ÙĨØªÛĮ
ĠÚ¯ÙĪØ´ Ùĩ
ĠØ¯Ø®ØªØ± Ø§ÙĨ
Ø·Ø± Ø§ØŃÛĮ
ĠØ§Ú© Ø¨Ø±
ĠØ³Ø·ØŃ ÛĮ
ĠØ®ÙĪØ§ÙĨ Ø¯Ùĩ
ĠR e
ĠØ®Ø§Ø· Ø±Ùĩ
Ġt o
ÙħØ± ØªØ¨
ĠØŃØ§Ø¬ ÛĮ
ĠØ¯Ø§Ùħ ÙĨ
ĠÙĨØ¯Ø§Ø± Ùħ
ĠÙĨØ¯Ø§Ø± ÛĮÙħ
re e
ĠÙħØ² Ø§ÛĮØ§ÛĮ
ĠØ³Ø¹ ÙĪØ¯ÛĮ
ĠÙĦØ± Ø³ØªØ§ÙĨ
ĠØ¨ÙĦÙĪ Øº
!! !
ĠØ§ÛĮØ¯ Ø¦
ĠØ¨Ø¯Ø§ÙĨ ÙĨØ¯
ĠÙ¾Ø±Ø¯Ø§Ø² Ø´
ĠØªÙĩØ¯ÛĮØ¯ Ø§Øª
ĠÙħØ¹ÛĮ Ø§Ø±
ĠÙģØ±Ø§ÙĨ Ø³ÙĪÛĮ
ĠØ§Ø¯Ø± Ø§Ø±
ĠÙĨÚ¯Ø±Ø§ÙĨ ÛĮ
ĠØ§Ø³Ùģ ÙĨØ¬ÛĮ
ĠØ§Ø®ØªÙĦ Ø§ÙĦ
ĠÚ¯Ø°Ø§Ø´Øª ÙĨ
ĠÚĺÙĨ Ø±Ø§ØªÙĪØ±
ĠØªÙĪØ¬ÛĮÙĩ ÛĮ
lin e
Ø§ÙħØ±ÙĪØ² Ùĩ
ĠÙħÙĪÙĨØª Ø§Úĺ
ĠØ¬Ø§ÙĪ Ø§
ĠØ§Ø³ØªØ«ÙĨ Ø§ÛĮÛĮ
ĠÙħØŃØ§Ø³ Ø¨Ùĩ
ĠØ¨ÙĦØ§Ùģ Ø§ØµÙĦÙĩ
< #
B erry
i x
Ġ y
Ø§ Ú©Ø³
ĠØ ¥
ĠØ¨ ÙĤ
ĠÙħ ÙĪØ§ÙĨ
ĠÙħ Ø¸
Ø§ÙĨ ÛĮØ¯
ĠØ¯ Ø§Ø³ØªØ§ÙĨÛĮ
Ø³ Ø§ÛĮ
ĠÙĪ Øª
ĠØ§Ø ¦
Ú¯ Ø´
Ø¨ Ø³ØªÙĩ
ĠØª Ùĥ
Ùģ Ø´
Ø² ÙĬ
ĠÙĨ Ø±ÛĮ
ĠÙĩ Ø§Øª
ĠÙĩ ÙĪÛĮØª
ĠØ¯Ø± ÙĩÙħ
ĠØ³ Ø§Ø±
Ø§ÙĦ ÙĬ
Ø§ÙĦ Ø¯ÛĮÙĨ
Ø§Ø¯ Ùī
ĠÙ¾ Ø®Øª
ĠØ® ÙħÛĮØ±
ÙĪØ± Ú©
ĠÙģ Ø§ÙĤØ¯
ĠØ¨Ø± Ùģ
ĠØ¨Ø± Ø³Ø§ÙĨ
ĠØ¨Ø± Ø±Ø³ÙĬ
ĠØ¹ Ø³
ĠØ¹ Ø§Ø·
Ø§Øª ÙĦ
ĠÚ¯ Ø±ÙĪ
ĠÚ¯ Ø±ÛĮÙĩ
ĠØ¬ Ø±Ùħ
Ø§Ø² Ø¯ÙĪØ§Ø¬
ĠØ¨Ø§ Ú©ÛĮÙģÛĮØª
ĠÛĮ Ø§Ø±ÛĮ
ĠÛĮ ÙĪØ³Ùģ
Ø±ÙĪ ØŃ
ĠØŃ ÙĤÛĮÙĤÛĮ
ĠÙĤ Ø´
ĠØ² ÙĨÛĮ
ĠØ² ÙĪÙħÛĮØª
ĠØ² Ø§ÙĪÛĮÙĩ
ĠÚĨ ÛĮØ¯ÙħØ§ÙĨ
ÙĪÙĦ Ø¯
ĠÙĩÙħ Ø¯
Ø¶ Ø§Ø¹
ØªÛĮ Ú©
ĠÙĦ Ø±ÛĮ
ĠÙħÙĨ ÛĮ
ĠØ§Ø± Ú©
ĠØ¨ÛĮ Ø³
ĠÙħØ± Ø¨
Ø¨ÛĮ ØªÛĮ
ĠÙħØ¹ ÙĦÙĪÙħ
ĠÙĨÙħ Ø±Ùĩ
ĠÙħØª ÙģØ±ÙĤÙĩ
Ø§Ùģ Ø¹
ĠØªØ± Ùĥ
ÙĪØ±ÛĮ Ø¯
ÙĦÙħ Ùĩ
ĠÙħØ¬ Ø±ÛĮ
ĠÙħÙĤ Ø§Ø¯
ĠÙĥ Ùħ
Ø§Ø¬ ÛĮ
Ø§Øµ Ø·ÙĦØ§ØŃ
Ø§ÙĬ ÙĦ
ĠÙħØ· Ø¨
ĠØªÙħ Ø§Ø´Ø§
ĠØ§ÙĪ Ø¶Ø§Ø¹
ĠØ§ÙĨØ¯ Ø§Ùħ
ĠØ§ÙĨØ¯ Ø§Ø²
ĠØ¹ÙĦ ÙĬÙĩ
ĠØ§Ø® ÙĦØ§ÙĤ
ĠÚ¯ÙģØª Ùħ
ĠÚ¯ÙģØª ÙħØ§ÙĨ
ĠØ´Ùĩ Ø¯Ø§ÛĮ
ĠØ³Ø§Ø®Øª ÙĨ
ĠØ´ÛĮ Ø¹ÛĮ
ĠÛ±Û ³
ĠÚ¯Ø±Ø¯ Ø§ÙĨ
ĠÙ¾Ø± Øª
ĠÙ¾Ø± ÚĨÙħ
an t
ĠÚ©ÙĪØ¯ Ú©ÛĮ
ĠÙħØµ Ø¯
ĠØ° Ø±Ùĩ
ar ge
ĠØªÙĤ ÙĦØ¨
Ø¯ÛĮØ±ÛĮ Øª
ĠØ®ÛĮ Ø±ÛĮÙĩ
ĠÛ² Û²
Ø£ Ø³
ĠØ§Ùĩ Ø§ÙĦÛĮ
ĠÙģØ±Ø¯ Ø§
ĠØ³Ù¾ Øª
ĠØŃÙħ Ø§Ø³Ùĩ
ĠÙĩÙĪ Ø§Ø¯
ĠØ§Ø³ØªØ® Ø¯Ø§ÙħÛĮ
ĠØ²ÛĮØ¨ Ø§ØªØ±ÛĮÙĨ
ĠÙħÙĦ ÙĦ
ĠÚ©Ø§ÙĦ Ø¬
Ø¬ÙħÙĩ ÙĪØ±
ĠØ®ÙĪØ¯Ø±ÙĪ ÛĮ
ĠÙģÙĨØ§ ÙĪØ±ÙĬ
ĠÙĦÙĨØ² ÙĩØ§ÛĮ
ĠØ¢Ø³ÛĮ Ø§
ac t
ĠÚ¯ÙĪ Ø¬Ùĩ
Ġ10 80
as s
ĠÙ¾Ø§Ø± Ø³
ĠØ§ØŃØ³ Ø§Ø³ÛĮ
ĠÙ¾ÛĮØ´ÙĨÙĩ Ø§Ø¯ÛĮ
Ġ# >
ĠØªÛĮØ± Ø§ÙĨØ¯Ø§Ø²ÛĮ
ĠÙĪØ³ÛĮ Ø¹
ĠØ¨Ø³ ÙĬØ§Ø±
ĠÛ´ Û°
ĠØ§ØµÙģÙĩ Ø§ÙĨÛĮ
ĠÚ©ÙĦÙħ Ø§Øª
Ø§ÙĦØ¹ Ø§Ø¯Ùĩ
ĠØ§ÛĮØ± ÙĨØ§
ĠØ±ÙĪÛĮØ¯ Ø§Ø¯ÙĩØ§ÛĮ
ĠØ¹Ø¯ Ø§ÙĦØª
ĠØ§ÙĪØ± Ø¬
ĠØ±ÙĪØ³Øª Ø§ÛĮ
ĠØ²Ùħ ÙĬÙĨÙĩ
ĠØªØ² Ø¦ÛĮÙĨ
ĠØ¯Ø±ÙĪ Øº
ĠØ§Ø³ØªØ¹ Ø¯Ø§Ø¯
ĠØ´ÙĨØ§ ÙĪØ±
ÙħÙħ Ú©ÙĨ
ĠØ§Ø³ÙĦ Ø§ÛĮØ¯
ĠØªØ§ÙĦ Ø§Ø±
ĠØ¨ÙĪÙħ ÙĬ
ĠØªÙĪÙĤ Ùģ
ĠØ´ÙĦÙĪ Ø§Ø±
ĠBlack Berry
ĠØ§ÙĨÚ©ÙĪØ¨ Ø§ØªÙĪØ±
ĠØ§ÙĬÙĨØªØ±ÙĨØª ÙĬ
0 3
a f
i b
ð Ł
Ġ u
Ġ ro
Ùĩ Ø±ÛĮ
Ùħ Ø³ÛĮ
Ø§ÙĨ ÙĪØ§Ø¹
Ø§ÛĮ Ø¨
ĠØ¯ Ú¯Ø±
ĠÚ© ÙĪØ¨
ĠÚ© Ø§ÙħÛĮ
Ø¨ Ø®Øª
Ùģ Ø¸
Ø² Ø§ÛĮÛĮ
ĠÙĨ Ø¯Ø§
ĠÙĨ Ø§Ø´ÙĨ
ĠÙĩ Ø¯ÛĮÙĩ
ĠØ¯Ø± ØµØ¯ÛĮ
ĠØ³ ÙĩØ±
ĠØ³ Ø¬Ø§Ø¯
ĠØ´ ÙĪÛĮ
Ø¹ Ø¯
Ø¹ Ø¬
Ø¹ ØµØ±
Ø§ÙĦ Ø¯
Ø§Ø¯ ÙĬ
ĠØ® ÙĪØ²Ø³ØªØ§ÙĨ
ĠÙħÛĮ Ø®
ĠÙħÛĮ Ú©ÙĨÙĩ
ĠØ§ÛĮ Ø§ÙĦØ§Øª
ĠØ§ÛĮ ØªØ§ÙĦÛĮØ§
ÙĬ ÙĬØ±
Ø³Øª ÙĨØ¯
ĠÙģ ÙĦØ§ÙĨ
Ø§Ùĩ Ø±Ø§Øª
ĠØ§Ø³Øª ÛĮÙĦ
ĠÚ¯ Ø²
ĠÚ¯ Ø§ÙĨÙĩ
ĠÚ¯ ÙĪØ³
ĠÚ¯ Ø²ÛĮÙĨ
ĠØ¬ ÙĨØ¬
ÛĮÙĨ ÙħØ§ÛĮØ´
Ø· ÙģÛĮ
Ø±ÙĪ ÙĨØ¯
ĠØ² Ø§ÙĦ
ĠØ² ÙĬØ±
ĠØ² Ø§ÙĨÙĪ
ÙĩØ§ÛĮ Ø´
ĠØ¯Ø§ÙĨ ÙĨØ¯
ĠÚ©ÙĨ ÙģØ±Ø§ÙĨØ³
ĠÚ©Ø§Ø± Ú¯Ø±Ø§ÙĨ
ĠÙħÙĨ ÙĪ
ĠÙħØŃ ÙĪ
ĠØ§ÙĦ Ø§ÙĨ
ĠØ¨ÛĮ Ø§Ùħ
ĠØ¨ÛĮ ÙĨØ¯
ĠÙģØ± Ø§Ø±
Ø¯ÛĮØ¯ Ùĩ
ĠØ¯ÛĮ Ø§Ø¨Øª
ĠÙħØ¬ ÛĮØ¯
ĠÙħÙĤ Ø¯Ø§Ø±ÛĮ
ĠÙħÙĤ ÙĪÙĦÙĩ
Ø§Ú© ØªØ±
ĠÙĨØ¸ Ø±ÛĮÙĩ
ĠÙħÙĩ ÙħØ§ÙĨ
ĠØ¯Ø§ÙĨØ´ ÙħÙĨØ¯Ø§ÙĨ
Â» .
ĠØ§Ø¹ Ø¯Ø§Ø¯
ÙĬÙĨ ÙĬ
ĠØ§Ø¨ ÙĪØ§ÙĦ
ĠØ§Ø¯ Ø¨ÛĮ
ĠÙħØ§Ùĩ Ùĩ
ĠØ¨Ø§ÙĦ ÛĮÙħ
ĠØ¨Ø§ÙĦ Øº
ÙģÛĮ ÙĤ
ĠØ±ÛĮ Ø³Ú©
ĠÙ¾Ø± Ø®
ĠÙĪØ± ÚĺÙĨ
ĠØªØº ÙĬÙĬØ±
ĠÙĨÙĪ ØŃÙĩ
Ø§Øº Øª
ĠØ²ÙħÛĮÙĨ ÛĮ
ĠØ®Ø§ÙĨ ÙĪÙħ
ĠÙħÙĪØ¶ÙĪØ¹ ÛĮ
ĠÚ©ÙĪ ÚĨÙĩ
ĠP ro
ĠØ¸ Ø±ÙĪÙģ
ĠÙģØ±Ø¯ ÙĪØ³ÛĮ
ĠØ§Ø« Ø±Ø§Øª
ĠÚĺ Ø¦
at e
ĠØªØ¬Ø± Ø¨ÛĮØ§Øª
ĠÙ¾Ø° ÙĬØ±
ĠØ³Ùģ Ø§ÙĦ
ĠÙħÙĨØ· ÙĤÛĮ
ĠØ§Ú© Ø¨Ø±ÛĮ
Ø·ÙĪØ± Ùĩ
Ø¨Ø¹ Ø¯
ĠØ®ÙĪØ± Ø¯Ùĩ
ĠØ¨Ø® Ø§Ø·Ø±
ĠØªØ§Ø¨ Ø¹
ĠØ·Ø±Ùģ Ø¯Ø§Ø±Ø§ÙĨ
ĠÙ¾ÙĪØ´ Ùĩ
ÙħØ¹ Ø±ÙģÛĮ
ÙĦØ§ÙĤ Ø§Øª
Ġp df
ĠØ¢Ø´ Ú©Ø§Ø±
ĠÙħØ¹ÙĨ Ø§ÙĬÙĬ
ĠÚ©Ø´Ø§ÙĪØ± Ø²Ø§ÙĨ
ĠÛ±Û³Û¹Û µ
Û³ Û°
ĠÙĪØ³ÛĮ Ø¹ÛĮ
ĠØ³Ø¹ Ø§Ø¯Øª
ĠÙĦØ± Ø³ØªØ§ÙĨÛĮ
ĠÙģØ§ÙĨØª Ø²ÛĮ
ĠØ³Ø±Ø§Ø³ Ø±ÛĮ
ĠÛĮØ§ÙģØª ÙĨ
ol d
ĠØ³Ú© ØªÙĩ
ĠÙħØ§Ùħ Ø§ÙĨ
ou r
ĠØ¹Øµ Ø§Ø±Ùĩ
ĠØŃÙĪ Ø§Ø¯
ĠØŃÙĪ Ø¶
ĠØ§Ø³Ùħ Ø§Ø¹ÛĮ
ĠØ³ÙĤ ÙĪØ·
ÙĥÙĨ ÙĨØ¯
ĠØ¨Ø±ÙĪ ÛĮØ¯
ĠÙĤÙĩØ± ÙħØ§ÙĨÛĮ
ÙĨÙħØ§ÛĮ ÙĨØ¯Ùĩ
ĠØ¨Ø±ÙĤØ± Ø§Ø±ÛĮ
ĠØ¯Ø±ÙĪ Ø§Ø²Ùĩ
ĠØ¨Ø§Ø²Ø± Ú¯Ø§ÙĨ
ĠÙħØ±ÙĪØ± Ú¯Ø±
ĠØ¨Ø²ÙĨ ÛĮØ¯
ĠØ®Ø§Øª ÙħÛĮ
ĠØ§ÙģØ³ Ø§ÙĨÙĩ
ĠØªØµØ§Ø¯ ÙģÛĮ
ĠØªÙĤÙĪ ÛĮÙħ
ele gram
ĠÙģØ³ Ø§Ø¯
ĠØªÙĦÚ¯Ø± Ø§ÙħÛĮ
ĠØ¹ÙĨØ§ ÙĪÛĮÙĨ
ĠØ§ØµÙĨ Ø§Ùģ
ĠØ±Ø§Ø¬ Ø¹
ĠÙħØ¬Ø§ÙĦ Ø³
ĠÙħÙĤØ§Ø¯ ÛĮØ±
0 6
3 2
4 0
9 4
A C
Ġ ÛĮØ¯
Ġ de
Ø§ ÙĪÙĨØª
ÙĪ ÛĮØ¯
ÙĪ Ø§ØŃ
ÙĦ Ø§ÛĮØª
ĠØ¨ Ø§Ø³ØªØ§ÙĨ
ĠØ¨ Ø²ÙĨØ¯
ĠÙħ Ø§Ø±
ĠÙħ ÙĦØ§ÙĤØ§Øª
Ú¯ ÙĪÙĨÛĮ
Ø¨ Ø§ÛĮÛĮ
ĠØ± Ø§Ø²ÛĮ
ĠÙĨ Ø¨Ø±Ø¯
ĠÙĨ Ú©ÙĨÙĨØ¯
ĠØ¯Ø± ÙĪÙĨÛĮ
ĠØ³ ÛĮØ±
ĠØ³ Ø§Ø¹
ĠØ¢ Øª
ĠØ¢ ØªÛĮ
ĠØ¢ Ù¾Ø¯ÛĮØª
ĠÙ¾ Ø§ÙĦ
ĠØ® Ø§ÙĨØ¯
ĠÙħÛĮ ÙĩÙĨ
ĠÙħÛĮ Ú©ÙĨÛĮØ¯
ĠØ§Ø³ Ø·ÙĪØ±Ùĩ
ÛĮØ¯ Ø±ÛĮ
ĠÙģ ÙĪØ¯
ĠÙģ Ø±ÛĮØ¯
ĠØ¹ Ø²Ø§Ø¯
Ø§Øª ÛĮÙĨ
ØŃ Ø¯
ĠØ§Ø³Øª ÛĮ
ĠÚ¯ Ø´ØªÙĩ
ĠØ¬ Ø¨Ø±Ø§ÙĨ
ĠØ¬ Ø¨ÙĩÙĩ
Ø§Ø³ Ø®
Ù¾ Øª
Ù¾ Ø²
ĠØ¢ÙĨ ØªÙĨ
ØªØ± Ùĩ
Ø´ÙĨ Ø§Ø®ØªÛĮ
ĠÙĦ ÛĮØ³
ĠÚ©ÙĨ Ùĩ
ÙħÛĮ ÙĤ
ĠÚ©Ø§Ø± Ø§ÛĮÛĮ
ĠÚ©Ø±Ø¯ ÛĮØ¯
ĠØ§Ø± Ø¯ÙĪ
ĠØªÙĪ Øª
ĠØ§ÙĦ ÙħÙĦ
ĠØ§ÙĦ Ø¨Ø±Ø²
Øº Ø§ÙĦ
Ø§Ø® Ø°
ĠÙħØ¹ Ø±Ùģ
ĠÙħØª Ùģ
ĠÙħØª Ø´Ú©ÙĦ
ĠØ±ÙĪ Ø¨Ø§Øª
ĠØªØŃ ÙĦÛĮÙĦÛĮ
ĠØªØŃ ÙĤÙĬÙĤ
ĠØ³ÙĪ Ø§Ø±ÛĮ
ĠØªØ¹ Ø§ÙĪÙĨ
ĠØ±Ø³ ÙĪÙħ
ĠØ§Ø¹ Ùħ
ĠØ§Ø¨ ÙĨ
Ø¯Ø§Ø± ÙĨØ¯Ùĩ
ĠØ¹ÙĨ ØµØ±
ĠØ¨Ø§Ø± Ùħ
Ù¾ÛĮ ÙĪØªØ±
ar s
ar y
ĠØªÙĤ Ø¯ÛĮÙħ
ĠØªÙĪÙĦÛĮØ¯ Ø§Øª
ĠÙĨØ¯ Ø§Ø±Ùĩ
Ø³Ø§ÙĦ Ùĩ
ĠØ®Ø· Ø§
ĠØ®Ø· ÛĮ
ĠØ¬ÙĨ Ø§Ø¨
ĠØ¬ÙĪ Ø§ÙħØ¹
ĠØŃÙħ Ø§ÛĮØªÛĮ
ĠØ®ØµÙĪØµ Ø§
ĠÙ¾Ø±Ø³ Ø´ÙĨØ§ÙħÙĩ
ĠØ¯ÙĪÙħ ÛĮÙĨ
ĠÚĨÙĩØ§Ø± Ø´ÙĨØ¨Ùĩ
ĠÙħÙģ ØµÙĦÛĮ
ĠØ¨ÙĪ Ø§Ø³
ĠÙħØ¨ ÙĨÛĮ
oo l
Ø´ÙĨØ§Ø³ Ø§ÙĨ
ĠØ´ÙĩØ±ÛĮ Ùĩ
ĠØ®Ø§Ø· Ø±Ø§Øª
ÙħØ¹ Ø§ÙĪÙĨØª
ĠÙ¾Ø§Ø± Ø§Ùħ
09 36
Ø³Ø§Ø² Ø¯
ĠÚ¯Ø±Ø¯Ø´ Ú¯Ø±Ø§ÙĨ
ĠÙĪØ¶ Ø¹
Ù¾Ø±Ø¯ Ø§Ø²ÙĨØ¯
ĠÙĪÙĦ Ø§Ø¯Øª
ĠØ¢Ø³ ÙħØ§ÙĨÛĮ
ĠØ§Ø¨Ø²Ø§Ø± ÙĩØ§ÛĮ
ĠØ§Ø³Ù¾ Ø±Øª
ĠØ¢ÙĪØ± ÙĨØ¯
ĠØ¨ÙĨÛĮ Ø§ÙĨ
ĠØ¸Ø§Ùĩ Ø±Ø§
ĠØ²ÙĪØ¯ ØªØ±
Ú©Ø§ÙĦ Ø§
ĠØ¯Ùħ Ø§ÛĮ
ÙħÙĤ Ø§ÙĦÙĩ
ĠÙħÙĩØ¯ Ùī
ĠØ§Ø®ØªÙĦ Ø§ÙĦØ§Øª
ĠÚĨÙĨØ§ÙĨ ÚĨÙĩ
ĠØ³Ø±Ù¾Ø± Ø³Øª
ĠØ¨Ø±Ú¯Ø² ÛĮØ¯Ùĩ
ĠÚ©Ø§Ø±Ø¢Ùģ Ø±ÛĮÙĨÛĮ
ĠØ¨ÙĪØ´ ÙĩØ±
ĠÙ¾Ø§ÛĮÛĮ Ø²
ÙĨØ¨ Ø´ØªÙĩ
ĠØ§Ø³Ø§Øª ÛĮØ¯
ĠØªØ´ÙĪÛĮ ÙĤ
ĠØªØ§Ø² Ú¯ÛĮ
ĠÙħØŃØª ÙĪÛĮ
ĠÙĦÛĮØ² Ø±ÛĮ
ĠÙ¾ÙĨÙĩ Ø§ÙĨ
ĠØ§ÙħÙĪ Ø§Ø¬
ĠØ§Ø«Ø§Ø« ÛĮÙĩ
ĠØ²ÛĮÙħ ÙĨØ³
Ø§ÙĤØªØµ Ø§Ø¯
ĠÙħÙĪØ§ÙĨ Ø¹
ĠØ³Ù¾Øª Ø§ÙħØ¨Ø±
ĠÙĩÙĪØ§Ø¯ Ø§Ø±Ø§ÙĨ
ĠØ§ÙĪØ±Ø¬ ÛĮÙĨØ§ÙĦ
) -
+ +
P U
c y
i o
i an
z a
¿ ½
Ð »
ÛĮ Ø§Ø¨Ø¯
Ø± Ø²
Ø¯ ÙĬØ¯
Ùħ ÙĨÛĮ
ĠØ¨ Ú¯ÙĪÛĮ
ĠØ¨ Ø¯ÙĩÙĨØ¯
ĠØ¯ ØºØ¯
Ø³ Ú©ÙĪ
ĠÙĪ Ùĥ
Ø´ Ú©Ø±
Ø´ ÛĮØ¯ÛĮ
ĠÚ© Ø§Øª
Ú¯ Ùī
ĠØª Øª
Ø² ÛĮØ¯
ĠØ± Ø§Ùħ
ĠÙĩ Ø²
ĠØ¯Ø± ÙĬ
ĠØ¯Ø± Ø§Ø²
ĠØ³ ÙĨÛĮ
ĠØ¢ ÙĨØ¯
Ø§ÙĦ Ø§ÙĨ
Ø§Ø¯ Ø±ÛĮ
ĠÙ¾ ÛĮÙħØ§ÙĨ
ĠÙħÛĮ Ø±Ø¯
ĠÙħÛĮ Ø´ÙĪÙĨØ¯
ĠØ§Ø³ Ú©
ÙĪØ± ÙĪ
ÙĬ Ø³Øª
ĠÙģ ÙĪÙĨ
Ø§Ùĩ Øª
Ø§Ùĩ Ø§ÙĬ
ĠØ¹ Ø²
ĠØ§Ø³Øª ÙĪØ¯ÛĮ
ĠÚ¯ ÙĪØ§Ø±
ĠØ¨Ø§ Ú©ØªØ±ÛĮ
ĠÛĮ Ø²Ø¯ÛĮ
ĠØ§ÛĮÙĨ ÙĩØ§
Ø· Ø§Ùģ
Ø±ÙĪ ÙĨÙĩ
ĠØŃ Ø§ÙħØ¯
ĠÙĤ Ø¨ÙĪÙĦÛĮ
ĠØ² Ø¨
ĠØ² ÙĪØ¯ÛĮ
Ù¾ Ø¯
ĠØ§ÙĨ ØŃ
Ø¯Ùĩ ÙĨØ¯Ùĩ
Ø³ÛĮ Ø³ØªÙħ
ØªØ± ÙĬÙĨ
ØªÛĮ Ø§Ø±ÛĮ
ĠØ· ÛĮÙģ
ĠÚ©Ø§Ø± Ú¯Ø±ÙĪÙĩ
ĠÚ©Ø±Ø¯ Ø³ØªØ§ÙĨ
Ú¯Ø± ÙģØªÙĩ
ĠÙħØŃ Øµ
ĠÙĨÛĮ ÙĪØ²ÛĮ
ĠÙģØ± Ø³
ĠÙģØ± Ø§ØºØª
ĠÙħØ¹ ÙĦ
ĠÙĨÙħ Ø§ÙĬ
ĠÙħØ¯ ÙĨÛĮ
ĠÙħØ¯ Ø§ÙģØ¹
ĠÙħØª Ø¯
ĠÙħØª ØµÙĦ
Ø¢ ÙĤØ§ÛĮ
ĠØ³Ø± ÙĪØ¯
ĠØ®ÙĪ Ø§Ø±
ĠØ¯ÛĮ ÙĪØ§ÙĨ
ĠØ¯ÛĮ Ø±ÙĪØ²
Ġ2 7
ĠÚ¯Ø± Ø¨Ùĩ
ĠÚ¯Ø± ÙħØ§
Ø§Ø®Øª ÙĨ
Ø²Ø´ ÛĮ
ĠØ§Ø¹ ØªÛĮ
ĠØ§Ø¯ Ø¹
ĠÙħØ§Ùĩ ÛĮØª
ĠØ§Ø´ Ø±ÙģÛĮ
ÙĨØ§ ÙĪØ±ÛĮ
ĠØ´ÛĮ Ø¹Ùĩ
ĠØ±ÛĮ Ø§ÙĦ
Ú©Ø±Ø¯ ÙĨØ¯
ĠØ§Ú¯Ø± ÚĨÙĩ
ĠØ´Ø¨ Ø§ÙĨÙĩ
ĠØ¨Ø²Ø± Ú¯Ø§ÙĨ
ĠÙģØ¹ Ø§ÙĦÛĮ
Ġ3 5
Ú¯ÛĮØ±ÛĮ Ùħ
ar d
ĠØªÙĤ Ø¯Ùħ
ĠØ§ÙĨØªØ®Ø§Ø¨ Ø§ØªÛĮ
ĠØ®Ø· Ø±ÙĨ
Ø¨ÙĪ Ø³ØªØ§ÙĨ
ĠØŃÙħ Ø§Ùħ
ĠØ³ÙĦ Ø·
ĠÛĮØ§Ø¯ Ø¯Ø§Ø´Øª
ĠÙģØ¹Ø§ÙĦÛĮØª ÙĩØ§ÛĮ
ĠÙĦÛĮ Ø²Ø±
ĠÙħÙĨØª Ø¸Ø±
ĠÙħÙģ Ø§Ùĩ
ĠØŃÙĦ ÙĤÙĩ
ĠØ¬Ø² ÛĮØ±Ùĩ
20 17
ĠØŃØ± Ø§Ø±Øª
ĠØªØ§Ø¨ Ø´
ĠØ±Ùĩ Ø¨Ø±Ø§ÙĨ
ĠØ®Ø§ÙĨÙĪ Ø§Ø¯Ú¯ÛĮ
ĠØ§ÙĨÚ¯ÙĦÛĮ Ø³
Ø´ÙĨØ§Ø³ ÙĬ
ĠR S
ĠØ¨ØŃ Ø±Ø§ÙĨ
ĠØ§Ø±Ø²Ø´ ÙħÙĨØ¯
ĠÙģÙĪÙĦ Ø§Ø¯
ĠØ´Ø§Ùĩ Ø²Ø§Ø¯Ùĩ
ÙĩØ¯ Ùģ
ĠØ·ÙĦ Ø¨Ø§ÙĨ
ÙģØ±ÙĪØ´ Ú¯Ø§Ùĩ
ĠÙĪØŃ Ø¯Øª
Ġf or
ĠØ§ØªÙģØ§ÙĤ Ø§Øª
ĠØ¨Ø±Ø³ Ø§ÙĨØ¯
ÙĨÙĪØ´ ØªÙĩ
Ù¾Ø³ ÙĪÙĦ
ĠÙ¾Ø¯Ø± Ø´
ĠÙĤÛĮ ÚĨÛĮ
Ù¾Ø±Ø¯Ø§Ø² Ø¯
ĠØ±Ø® Ø¯Ø§Ø¯
ĠÙĨØ¬ Ø§Øª
ĠÙħÙĪÙĩØ§ÛĮ ØªØ§ÙĨ
ĠÙħØ¹ÛĮ Ø§Ø±ÙĩØ§ÛĮ
ĠØ±ØŃ ÛĮÙħ
ĠØ§ÙĨÚ¯Ø´Øª Ø§ÙĨ
ĠØ¹Ø¨Ø¯ Ø§ÙĦÙĦÙĩ
ĠØ§Ø³ØªØ± Ø§ØŃØª
Ø¢Ø¨ Ø§Ø¯
ĠØªØ§Ø® ÛĮØ±ÛĮ
ĠØŃØ±Ú© Ø§Øª
ĠØŃØ±Ú© ØªÛĮ
Ġâ Ĺ
ĠÙģÙĦØ³ Ø·
Ù¾Ø§Ø± ÚĨÙĩ
nd ro
ĠØ±ÙĪØ¨ Ø±ÙĪ
ĠÙĩØ§Ø´ ÙħÛĮ
ĠØ§Ø³ÙĨ Ø§Ø¯
ĠÙ¾ÙĩÙĦ ÙĪØ§ÙĨ
Ġht tp
ĠØ²Ø§ÛĮ ÙħØ§ÙĨ
ĠÙĨØ±Ø³ ÛĮØ¯Ùĩ
ĠØµÙĩÛĮÙĪÙĨÛĮ Ø³ØªÛĮ
ĠØ§ÙĦÚ©ØªØ±ÙĪÙĨ ÙĬÚ©ÙĬ
ĠØ¯ØºØ¯ ØºÙĩ
1 00
9 5
9 8
: :
G O
f u
i k
s e
â Ŀ¤
ï ¿½
Ġ }
Ġ ..
Ġ .....
Ø± ÙĤ
ĠÙ ¡Ù
Ùĩ Ø²Ø§Ø±
Ùĩ ÙħÙĩ
ĠÙħ ÙħÙĦ
ĠÙħ Ø³ØªÙħ
ĠÙħ ÙĦØ§ØŃ
Ø§ÙĨ Ø§
Ø§ÙĨ Ø¯Ùĩ
Ø§ÛĮ Ø²
Ø³ ÙĨÚ¯
Ø´ Ø¹
ĠÚ© Ø§Ø®
Ø¨ Ø§Ø±ÛĮ
ĠØ± Ø§Ø¦
ĠÙĨ Ø§Ú©
ĠÙĨ Ø§Ù¾
ĠØ³ Ø§Ø¯Ø§Øª
ĠØ´ ÙĦ
ĠØ´ ÙĨÛĮ
ĠØ¢ Ø±Ùħ
ĠÙ¾ ÙĨØ¯
ĠÙ¾ Ø§Ø±Ùĩ
ĠÙ¾ ÙĩÙĨ
ĠÙħÛĮ ÙĨ
ĠÙħÛĮ ØªÙĪØ§ÙĨØ¯
ĠØ§ÛĮ ÙħØ§ÙĨ
Ø® Ø·
ĠÙģ Ø³Øª
ĠÙģ Ø¬Ø±
ĠØ¨Ø± Ø´
Ø§Ùĩ Ø±
Ø§Ùĩ Ø§ÛĮÛĮ
ĠØ¹ Ø§Ø¯ÙĦ
ØŃ ÙĦÙĪØ§ÛĮ
ĠØ§Ø³Øª Ø¯
ĠØ¬ ÙĪÙĨ
ĠÛĮ ÙĪØ´Ø§Ø±Úĺ
ĠØŃ Øª
ĠØŃ Øµ
ĠÙĤ ÙĪÙĦ
Ù¾ Ú©
Ù¾ Ø§ÛĮÙĩ
ÛĮÙħ Ø´Ø§ØºÙĦ
Ø¯Ùĩ ÛĮØ¯
ÙĨÚ¯ Ø±ÛĮ
ÙĨÚ¯ ØªÙĨ
Ø³ÛĮ ÙĦ
ĠÙĦ ÙĤ
ĠÙĦ Ø§Ø±Ø³ØªØ§ÙĨ
ĠØ§Ùħ Ø±ÛĮ
ĠØµ Ø¯Ùħ
Ú©ÛĮ Ú©
ÙħÛĮ Ø§ÙĨÙĩ
ĠÙħÙĪ Ø§Ùģ
ĠÙħØŃ Ú©
ĠÙħØŃ Ø¶
ĠÛĮÚ© Ùħ
ĠÛĮÚ© Ø´ÙĨØ¨Ùĩ
ĠØ®ÙĪØ¯ Ø¯Ø§Ø±ÛĮ
Ú¯ÛĮ ÙĦ
ĠØ¨Ø§Ø² ÙĨÙĪÛĮØ³ÛĮ
ĠØªÙĪ ÙħØ§ÙĨÛĮ
Ø§ØŃ Ø§ÙģØ¸
ĠÙģØ± ÙĤ
Ø¨ÛĮ Ú©
ĠÙĨÙħ Ø§Ø¦ÛĮØ¯
ĠÙ¾ÛĮ Ø§Ù¾ÛĮ
ĠÙħØ´ Ø§ØºÙĦ
ĠØªØ± Ø§Ø²
ĠØªØ± ÙħÛĮÙħ
ĠØ¯Ø³Øª Ú¯ÛĮØ±
ĠØ³Ø± Ø´Ø§Ø±
Ú©Øª Ø§Ù¾
ĠÙħØ¬ Ø¯
Ø¦ ÛĮØ¯
ĠÙħØ³ ÙĪ
Ø§ÙĤ Øª
Ø§Ú© Ùħ
Ġ2 8
ĠÚ¯Ø± Ø§ÙģÛĮÚ©
ĠÙħÙĩ Ø±Ø¯Ø§Ø¯
Ùĥ Ø±
Ø§Øµ Ø¯
ÙħÙĨ Øª
ĠØ³ÙĪ Ù¾
ÙĬÙĨ Ø´
ĠØ§Ø¨ Ø±ÙĪ
ĠÙĨØ§Ùħ ÛĮØ¯Ùĩ
ĠÙĨØ§Ùħ Ø²Ø¯
Ú©Ø§ÙĨ Ø³
ĠÚ©ÙĦ ÙĨØ²
ĠØ¹ÙĦ ÙĦ
ĠÙĨØ´ Ø±ÛĮÙĩ
ÙĪØ³ Ø§Ø²ÛĮ
Ø§ÙĪØ± Ø§ÙĨ
Ø§ÙĪØ± ÙĬ
ĠÙ¾Ø³ ÙĨØ¯
ĠÙ¾Ø³ Ø±Ø§ÙĨ
ĠÙ¾Ø³ Ø±Ø§ÙĨÙĩ
ĠØ´ÛĮ Ø·Ø§ÙĨ
ĠÛ±Û ¹
Ø®ÙĪ Ø§Ø¨ÛĮ
ĠÙ¾Ø± Ø·Ø±Ùģ
an on
Ġ3 4
Ġ3 00
ĠA c
ĠA PS
ĠØ§Ø³ØªØ§ÙĨ Ø¨ÙĪÙĦ
ÙĢÙĢ ÙĢ
ĠØ¬ÙĨ Ø§ÛĮØª
ĠØ¸ Ø±ÛĮÙģ
ĠM ehr
Ø¯ÙĪ Ø§Ø²Ø¯ÙĩÙħÛĮÙĨ
ĠÚ¯Ø±ÙģØª ÙĨØ¯
ĠÙħÙĦ Ø§ÛĮÙħ
ĠØªÛĮ Ø²Ø±
ĠØ¨Ø§Ø²Ø§Ø± ÙĩØ§ÛĮ
ĠÙĪØ§ Úĺ
ĠØ¨ÙĪ Ú©
ĠÙĨØµ ÛĮØ±
ĠØ´Ú© Ø³ØªÙĩ
ĠØ®ÙĪØ¯Ø±ÙĪ ÙĩØ§ÛĮ
ĠØªØ® Ø±ÛĮØ¨
ĠØµØ¯ ÙĪØ±
ĠØŃØ± Ø§Ùħ
Ø³Ø± Ú¯Ø±ÙħÛĮ
Ġm p
ĠØ³ÛĮÙĨ ÙħØ§ÛĮ
Ġ7 0
ĠØ´ÙĩØ±ÛĮ Ø§Ø±
ĠH D
ĠØ§ÙĬ Ø¬Ø§Ø¯
ĠÙ¾ÚĺÙĪÙĩØ´ Ú¯Ø±Ø§ÙĨ
ĠÙħÙĪØ³ ÙĪÛĮ
ĠÙ¾Ø§ Ú©Ø³
ĠØ¨ÙĨØ¯Ø± Ø¹Ø¨Ø§Ø³
ĠÙĨÙģØª ÛĮ
Ø§ÙħÙ¾ ÙĪ
ĠØ®Ø§Ùħ ÙĪØ´
Ġ12 8
ĠØ±ÙĪØŃ ÛĮÙĩ
Ġd ownload
ĠØ¯Ø³ØªÙĪØ± Ø§ÙĦØ¹ÙħÙĦ
ĠØ±Ø³ÛĮØ¯ Ú¯ÛĮ
ĠØ¬Ø°Ø§Ø¨ ÛĮØª
ĠØ§Ø®ÛĮØ± Ø§
ĠØ¯Ø§ÙĨØ³Øª ÙĨ
ĠØªÙĨØ¸ÛĮÙħ Ø§Øª
ĠÛ¹Û ·
ĠØ¨Ø´ ÙĪÛĮ
ĠØ¹Øµ Ø¨
ĠØ¹Øµ Ø¨ÛĮ
ĠÙĦØ§Øº Ø±
ĠÙ¾Ø±Ø¯Ø§Ø² ÙĨØ¯Ùĩ
Ø¯Ú© ØªØ±
ĠØ®Ø¯ Ø§ØŃØ§ÙģØ¸
ĠØµÙĨØ¯ ÙĦÛĮ
ĠÙĩÙĨØ±Ùħ ÙĨØ¯
ĠÛĮØ§Ø± Ø§ÙĨÙĩ
ĠÙħØ§ÙĨØ¯ Ú¯Ø§Ø±
ĠÙĨØ§Ø² Ú©
ĠØ¹Ø¨Ø¯ Ø§ÙĦ
ĠÚ©Ø§Ø´ Ø§ÙĨ
ĠØªØ² Ø±ÛĮÙĤ
Ø§ÙģØ² Ø§ÛĮØ´
ĠØªØ±Ø¯ ÙħÛĮÙĦ
ĠØ³Ø¨Ø²ÛĮ Ø¬Ø§Øª
ÚĨØ± Ø§Øº
ĠØ§Ø®ØªØ± Ø§Ø¹
ont ent
ĠÚĨØ§ ÙĤÛĮ
ĠÙĨØ§Øª ÙĪØ§ÙĨÛĮ
ĠÚĺØ§ÙĨ Ø±
ĠÙ¾Ø§Ø³Ø®Ú¯ÙĪÛĮ Ø§ÙĨ
ĠØ¯Ø±Ùħ ÙĪØ±Ø¯
ĠÙħÚ¯Ø§Ù¾ÛĮ Ú©Ø³ÙĦ
ĠÚ©ÙĨÚ¯ Ø±Ùĩ
ĠÙĨØ§Ø´ÙĨ Ø§Ø®ØªÙĩ
ĠØ¬ÙĨØ¬ Ø§ÙĦÛĮ
ĠÙ¾Ø±Ø® Ø§Ø´
ĠØŃÙĪØ§Ø¯ Ø«
ĠØ§Ø¹ØªÛĮ Ø§Ø¯
ĠÙħÙĪØ§Ùģ ÙĤØª
. )
i es
l y
s s
Ø§ Ú¯
Ø§ ÙĪÙħ
Ø± Ø§ÙĦ
Ø± Ø§ÙĤ
ÙĪ Ø§ÛĮ
Ùħ Ø±Ùĩ
Ø§Ø ¢
Ú© Ø±Ø§ÙĨ
ĠØ¨ ÙĪÙĦ
ĠØ¨ Ø°
ĠØ¨ ÙĨØ¯Ùĩ
ĠØ¨ Ú¯Ø°
ĠØ¨ Ø®ØµÙĪØµ
ĠØ¨ Ø®ÙĪØ§ÙĩÛĮØ¯
ĠØ¨ Ú¯Ø°Ø§Ø±Ø¯
ĠÙħ Ù¾
ĠÙħ Ø§ÛĮÙĦ
Ø§ÛĮ Ø±Ø§ÙĨ
ĠØ¯ ÙĪØ´
ĠÙĪ ÙĨ
ĠÙĪ Ø¯Ø±
ĠÚ© Ø¨
ĠÚ© Ø±Ú©
Ú¯ Ø§Ùħ
Ø¨ ÙĪØ³Øª
Ø¨ Ø³ØªÚ¯ÛĮ
ĠØª Ø¨ÛĮ
ĠØª Ø·Ø¨ÛĮ
Ùģ ØµÙĦ
Ùģ ÙĪÙĦÛĮ
ĠØ¯Ø± ØŃØ§ÙĦÛĮ
ĠØ³ Ø§Ø³
ĠØ³ Ø¯ÛĮÙħ
ĠØ´ Ø§
ĠØ´ Ú©Ø±
ĠØ´ Ø§ÙĨØ³
ĠØ¢ ÛĮÙĨÙĩ
âĢĮ ØĮ
Ø§ÙĦ Ø§
ĠØ¨Ùĩ Ø±ÙĪØ²
Ø§Ø¯ Ú©ÙĦÙĨ
Ø±ÛĮ ÙĨÚ¯
ĠÙ¾ Ú©
ĠØ® ÙĪÙĨÙĩ
ĠØ® Ø´Ùħ
ĠØ§Ø² Ø§ÛĮ
ĠØ§Ø³ Ø§ÙħÛĮ
Ø® Ø¨
ÚĨ Ø§ÙĦ
ĠÚ¯ ÙĪØ¯
ĠÚ¯ ÙĬ
ĠÚ¯ ÙĦÙĩ
ĠÛĮ Ø¨ÙĪØ³Øª
ĠØ§ÛĮÙĨ Ú©Ø§Ø±
ĠÙĤ ÙĦÛĮ
ĠØ² Ø±Ø¯
Ù¾ ØªÛĮ
ĠØ§ÙĨ Ùģ
ĠØ§ÙĨ Øµ
ĠÙĩÙħ ÙĪÙĨ
ĠÙĩÙħ Ø¨Ø³ØªÚ¯ÛĮ
ĠØ¢ÙĨ ÙĥÙĩ
ĠØ¢ÙĨ ØªØ§ÙĦÛĮØ§
ĠÙĦ ÙħØ³ÛĮ
ĠÚ©ÙĨ ÙĪÙĨÛĮ
Ú©ÛĮ Øª
ĠÙĨÛĮ ÙĪÛĮ
ĠÛĮÚ© ÙĨÙĪ
ĠØ¢Ùħ Ø§Ø±ÛĮ
ĠØ§Ø± Ø¬
ĠÙĪÛĮ Ø²Ø§ÛĮ
ĠØ§ÙĦ Ø³
ĠØ§ÙĦ Ø¥
Ø§Ø® ÙĪØ§ÙĨ
Ø§Ø® Ø±Ùĩ
ĠÙħØ¹ ÙĬØ§Ø±
Ø« Ùħ
ĠÙ¾ÛĮ Ú¯Ø±Ø¯
ĠÙħØ´ Ú©ÛĮ
Ø§Ùģ ÙĦ
ĠØªØ± ÙĪØ±
ĠØ³Ø± ÙĪØ±
ÙĦÙħ Ø§Øª
ÙĦÙħ ÛĮÙĨ
ĠØº ÙĦØ§Ùħ
ĠØº ÙĬØ±
ĠØº Ø±ÛĮØ¨
Ø¯Ø± ÙħØ§ÙĨÛĮ
ÙĪØ¹ ÙĦÛĮ
Ú©Ø³ Ø¨
ĠÙħÙĤ Ø§ØµØ¯
Ø¦ Ùĩ
ĠØ¨Ø§Ø²ÛĮ Ø§ÙģØª
ĠØ³ÛĮ ÙĦ
Ø§ÙĦÛĮ Ø§
Ø§ÙĦÛĮ Ø²
ÙħÙĨ Ø§ÙĨ
ÙħÙĨ Ø¸
ĠØ¨Ø¯ ÙĦÛĮÙĦ
Ø§ÙĬ Ø¬
Ø§ÙĬ Ø·
ĠØ³ÙĪ Ø§Ø±
ĠØ§Ø¬ Ø²Ø§ÛĮ
ĠÙĨÙĤ Ø§Ø´
Ø¨Ø§ÙĨ ÙĬ
ĠØ§ÙĨØª ÙĩØ§
ĠÙĨØ§Ùħ Ø´
ĠØ§ÙĪ Ø§Ø®Ø±
ĠØ§Ø´ Ø¹Ùĩ
ĠÚ¯ÙģØª ÙĨ
ĠØ¨Ø§ÙĦ Ùħ
ĠØ¨Ø§ÙĦ ÛĮÙĨÛĮ
ĠØªÙĦ Ø®
ÙģØ± ÙĩÙĨÚ¯
Ø®ÛĮ ÙĦÛĮ
ĠØ¨Ø¹ Ø¶
ĠØªÙĨ Ø§Ø³Ø¨
ĠÚ¯Ø±Ø¯ ÙĨØ¯
ĠØ§ÙģØ² ÙĪÙĨÙĩ
ĠØ§ÙģØ² Ø§ÙĬØ´
ĠØ§ØŃ Ú©Ø§Ùħ
ĠÙ¾Ø± Ø´
ĠØªØ¬ Ø¯ÛĮØ¯
ĠØªØ¬ Ø²ÛĮÙĩ
ĠØ´ÙĨ Ø§Ø®ØªÛĮ
ĠØ° ÛĮÙĦ
ØªØµ Ø§ÙĪÛĮØ±
ÙĨÙħ Ø§ÛĮÛĮ
ĠÙĩÙħÚĨ ÙĨÙĬÙĨ
ĠA M
ĠÚ©ÙĪ Ù¾
ĠÛ² Ûµ
ĠÛ² Û¸
ĠÙħØ® Ø±Ø¨
ĠÙĩÙħØ±Ø§Ùĩ ÛĮ
ĠØ®Ø¨Ø± ÙĩØ§ÛĮ
ĠØ³Ù¾ ÛĮØ¯Ùĩ
ĠÙĤØ· Ø§Ø±
al t
en cy
ĠØ§Ø« Ø¨Ø§Øª
ĠØ¨ÙĨØ¯ Ø±ÛĮ
ĠØ§Ø³Ø§Ø³ Ø§
ĠØªÙģ Ø§ÙĩÙħ
ĠØªØ® ÙĦÙģ
ĠØ´ÙĪ ÙĩØ±
ØªÙĨ ÙĩØ§
ĠØ®ÙĪØ§ÙĨ ÛĮ
ĠØ¨Ø® ØªÛĮØ§Ø±ÛĮ
ÙĪÙĦÙĪ ÚĺÛĮÚ©
ĠØ´ÙĩØ±ÛĮ Ø§Ø±ÛĮ
ĠØ±ÙĪØ´ÙĨ Ùģ
ĠÚĨØ±Ø§ Ú©Ùĩ
ĠØ´ÛĮØ± Ø§Ø²ÛĮ
ĠØ®Ø± Ø§Ø¨
ĠÙĨÙħÙĪØ¯ ÙĨ
ÙĦÛĮØº Ø§Øª
ĠÙģØ±Ø§ Ú¯ÛĮØ±
ĠÙĨÙĬ Ø§Ø²
is h
ĠÙĦØ· Ùģ
ĠØ¨Ø§Ø¯ Ø§Ùħ
Ø²ÙĨ ÙĨØ¯
ĠØ´Ø§Ø± Ù¾
ĠØ§Ø¸Ùĩ Ø§Ø±Ø§Øª
ĠØ¨Ø¯Ùĩ ÛĮ
ĠÛ¶ Û°
ÙĨØ´ Ø³Øª
Ġw ww
ĠØ¢Ùģ Ø±ÛĮÙĤ
ĠÙħÙħÙĨ ÙĪØ¹Ùĩ
ïº İ
ĠÙĤØ² Ø§ÙĤ
ĠNew s
ĠÙħÛĮØ± Ø²Ø§
ĠØ¯Ø§ÙĪ Ø·ÙĦØ¨
ĠØ¨Ú©Ø§Ø± Ú¯ÛĮØ±ÛĮ
ÙĬØ² ÙĬ
Ø·Ø¨ ÙĤ
ĠØªØ±ÙĪØ±ÛĮ Ø³Øª
ĠØ¨ÛĮØ¯ Ø§Ø±
ĠÙģÙĦØ³ ÙģÙĩ
ĠØ§ÙĦÙĩ ÙĬ
ĠØ¯Ø±Ø®Ø´ Ø§ÙĨ
ĠØ§Ø®ØªØ± Ø§Ø¹Ø§Øª
ĠØ±Ø¦ Ø§ÙĦ
ĠØ§ÙĨØ¹ Ø·Ø§Ùģ
ĠØ§Ø¨Ø± Ø§Ø²
ĠÙħÙĤØ§ÙĪÙħ ØªÛĮ
ĠØ¨Ø§Ø· Ø±ÛĮ
ĠÙħØ¤Ø³ Ø³Ùĩ
ĠÙĪØ¢ ÙĦÙĩ
ĠØ§ÙĦØ¯ ÙĪØ±ÙĬ
ĠÙĪØ§Ø´ ÙĨÚ¯ØªÙĨ
ĠÙħÙĨØ§Ø¸ Ø±Ùĩ
ĠØ¹ÙħØ¯ ØªØ§
ĠØ¯Ø³ØªÙħ Ø²Ø¯
ĠÙĤØ´ ÙĨÚ¯
ĠØ´ÛĮØ¹ÛĮ Ø§ÙĨ
ĠØ¨ÛĮØ§Ùħ ÙĪØ²
ÙĪØ§ØŃ Ø¯
ĠØ¹Ø²Ø§Ø¯ Ø§Ø±ÛĮ
ĠØ±ÙĪØ¨Ø§Øª ÛĮÚ©
ĠÙĨÛĮÙĪØ²ÛĮ ÙĦÙĨØ¯
ĠØ®Ø·Ø±ÙĨ Ø§Ú©
ĠâĹ ı
ĠØ±Ø§Ø¦ ÙģÛĮ
ĠØ§Ø³ØªØ¯ ÙĦØ§ÙĦ
ĠÙ¾Ø±Ø·Ø±Ùģ Ø¯Ø§Ø±
2 1
A R
D F
D ownload
I P
b ot
c i
c o
e k
e ad
h am
m l
p a
r ic
v er
w p
Ñ ı
Ġ &
Ø§ ÚĨ
Ø§ ÙĪÙĦÛĮÙĨ
Ø± ÙĬÙħ
ÙĨ ÙĦ
ÙĨ Ø§Ø³Ø¨
Ùĩ Ø§Ø¯
ÙĪ Ú¯ÙĪ
Øª Ø§Ø±ÛĮØ®
Ú© Ø§ØªÙĪØ±
ĠÙħ Ø¯ÛĮ
ĠÙħ ÙĢ
ĠÙħ Ø§Ø±Ú©Øª
Ø³ Ø§Ø¹Øª
ĠÙĪ Ø±ÛĮ
ĠÙĪ Øµ
Ø´ Ø§ÛĮØ¯
ĠÚ© Ø§Ø¨ÙĦ
ĠÚ© ÙĪØ±Ùĩ
ĠÚ© Ø±Ø§ÙģØª
ĠØª ÙĦØ§
ĠØª Ø§Ø±ÙĬ
ĠØ± ÙĩØ§
ĠÙĨ Ú¯
ĠÙĨ Ø®ÙĪØ§ÙĩÛĮØ¯
ĠÙĨ Ø§ÙĨÙĪ
ĠÙĩ Ú©
ĠÙĩ Ø§ÙĦ
Ø§Ùħ Ø§Ø¯
ĠØ¯Ø± Ø§ÛĮÙĨ
ĠØ¯Ø± Ø¯ÙĨ
ĠØ³ Ø³
ĠØ³ Ø§ÙħÛĮ
ĠØ´ Ø§ÛĮØ¹
ĠØ¢ Ú¯
Ø¹ ÙĦÛĮÙĩ
ÙĪØ¯ ÙĨ
ĠØ® ÙĪÙĨÛĮ
ĠØ§ÛĮ ÙĦØ§Ùħ
ÙĬ Ø·
Ø® ÛĮØ±
ĠØ¨Ø± Ú¯Ø±Ø¯
ØŃ ØªÛĮ
ĠØ¬ ÙĨØª
Ø§Ø¨ ØªÛĮ
ĠØ±Ø§ ÙĬ
ĠÙĤ Ø§Ø¹Ø¯Ùĩ
Ù¾ ÚĺÙĪÙĩ
ĠØ¯Ø§ÙĨ Ùħ
ÙĪÛĮ ÚĺÙĩ
ĠÙĩÙħ Ø´Ùĩ
ÙħØ§ÙĨ Ø¯Ùĩ
ØªØ± Ø¬ÙħÙĩ
ĠØ¨Ø±Ø§ÛĮ ØªØ§ÙĨ
ĠÙĦ Ùĩ
ĠÙĦ ÙĨÚ¯
ĠÙĦ Ø§Ø¨ÛĮ
ĠÙĦ Ø«Ùĩ
ĠØµ Ø¨Ø±
ĠÚ©ÙĨ ÙĬØ¯
ĠÚ©Ø§Ø± ÙĪØ§ÙĨ
ĠÚ©Ø§Ø± Ø§Ú©ØªØ±
ĠÙĨÛĮ Ú©Ø§ÙĨ
ĠØªÙĪ ÙħÙĪØ±
ĠÙħØ± ÙĥØ²
Ø¨ÛĮ ÙĨØ¯
ĠÙħØ¹ Ø§ØµØ±
ĠÙħØª ÙĪÙĦØ¯
ĠØªØ± Ø§ÙģÛĮÚ©
Ø¢ ÛĮØª
ĠØ³Ø± Øª
ĠØ¯ÛĮ Ø²ÙĦ
Ú©Øª ÙĪØ±
ĠØº Ø¯ÛĮØ±
ĠÚ©Ø´ ÛĮØ¯
ĠØ³Ø§Ø² Ú¯Ø§Ø±
ĠØ´Ø± Ø§ÙĬØ·
ĠÚ¯ÙĦ Ù¾Ø§ÛĮ
ĠØ§Øµ ØºØ±
ĠØªØ¹ ÙĦÙĤ
ĠØªÙħ Ø§Ø´
ĠØ§Ø¨ ÙĪ
ĠØ§Ø¨ Ø±ÛĮ
ĠØ§Ø¨ Ø²Ø§Ø±ÛĮ
ĠÙĨØ§Ùħ Ø²Ø¯ÛĮ
ĠÙĨØ§Ùħ ØŃØ¯ÙĪØ¯
ĠÙħÙĪØ±Ø¯ ÙĨØ¸Ø±
ĠØªÙĦ ÙĤÛĮ
ĠØ´Ùĩ Ø±Ø§ÙĨ
Ø§ÙħÛĮ Ú©ÛĮ
ĠÙģÛĮÙĦÙħ Ø¨Ø±Ø¯Ø§Ø±ÛĮ
Ø¹ÛĮ ØªÛĮ
Ø®ÙĪ Ø¨ÛĮ
Ø®ÙĪ Ø§ÙĩÛĮ
ØªØ¨ ÙĦÛĮØºØ§Øª
ĠØ§Øª ÙĩØ§Ùħ
ĠÙĨÙĪ Ø§Ø±
ĠØªØ´ Ø±ÛĮØŃ
ĠÙħØ®Øª ØµØ±
ĠØªÙĤ Ø§Ø·Ø¹
ĠS h
ĠØ³Ø¨ Ø²Ùĩ
ĠA b
Ú¯Ø° Ø´Øª
ĠØ¸ ÙĩØ±
ĠÙĪÙĤ ÙģÙĩ
ĠÙ¾Ø§Ø³Ø® ÙĨØ§ÙħÙĩ
ĠM ark
ĠÙĨÙĪØ´ ÙĩØ±
ĠC PU
Û± Û´
ĠÙĩÙħØ§ÙĨ Ø·ÙĪØ±
ĠÚ©ÛĮ Ø³Ùĩ
ĠÚ©Ø§ÙĦ Ø§ÙĩØ§
ĠI TI
ĠØ¹ÙĦØ§ ÙĤ
ĠØ¨Ø±Ú¯ Ø´Øª
ĠØ§ÙģØª Ø¯
ĠØ¢Ø³ÛĮ Ø§Ø¨
ĠØ¨Ø® ÙĪØ±
ĠØªØ§Ø¨ ÙĨØ§Ú©
ĠØ±Ùĩ ÙĨ
ĠÙĨÙģ Ø¹
ÙħØ³ Ø¦
ĠØ´Ø¹ Ø¨
ĠÚ¯Ø³Øª Ø±
Ġ6 00
it h
Ġp ro
ĠÙĨØ¯Ø§Ø± ÛĮØ¯
ĠÛ±Û³Û¹Û ³
ĠØ±ÙģØªØ§Ø± ÙĩØ§ÛĮ
is s
ĠØ±Ø² ÙħÛĮ
Ġ139 2
Ġ139 3
ĠØ±Ø§Ø³Øª Ø§
ed u
ĠØ±ÙĪØŃ ÛĮ
ch arge
ĠÙ¾ÙĨ Ø§Ùĩ
il l
ĠØ´ÙĩØ±ÙĪ ÙĨØ¯ÛĮ
ĠØ§ØªÙĪÙħ Ø§Ø³ÛĮÙĪÙĨ
ĠØ¯Ø§ÙĨØ³Øª ÙĨÛĮ
Ú©Ø§Ùħ Ù¾ÛĮÙĪØªØ±
ĠÙĨØ§Ø± Ø§ØŃØª
ĠØŃÙħÙĦ Ø§Øª
ĠØ§Ø±ÙĪÙ¾ Ø§ÛĮÛĮ
ĠØ¯ÛĮÙĨ Ø§ÙħÛĮÚ©ÛĮ
ĠÙħÙĪØªÙĪØ± ÙĩØ§ÛĮ
ĠÛ¹Û µ
ĠÙĥÙĨ ÙĨØ¯
ĠØ³ÙĪØ®Øª Ú¯ÛĮ
ĠØ¹ÙħÙĪÙħ Ø§
Ù¾Ø²Ø´ Ú©ÛĮ
ĠÙĥØ±Ø¯ ÙĨ
up load
ĠØ²Ùħ Ø³ØªØ§ÙĨ
Ġi OS
Ú©Ø´ÙĨ Ø±ÛĮ
ĠØŃØ§Ú© ÙħÛĮØª
ĠØ§ÙĨØ³ Ø§Ø¨
ĠÙħÙĩØ¯ ÙĪÛĮØª
ĠÛĮÙĪÙĨ Ø³Ú©ÙĪ
ĠØ¢ÙĦÙĪØ¯ Ùĩ
Ø§ÙĦÙĪ Ú¯
ÙģØ¹ Ø§ÙĦ
ĠÚĨÛĮØª Ú¯Ø±
ĠÙĩÙĪØ§Ù¾ ÛĮÙħ
ĠÙĩÙĪØ§Ù¾ ÛĮÙħØ§
ĠÙ¾ÙĦØ§Ø³ØªÛĮ Ú©
ĠØ§Ø³Ø± Ø§Ø¦ÛĮ
ĠØ¯ÙħÙĪÚ©Ø± Ø§Ø³ÛĮ
ĠØ¨Ú¯ÙĪ ÛĮÙħ
ĠØ§Ø¬ØªÙħØ§Ø¹ ÙĬ
ĠØ§Ø´ÛĮ Ø§Ø¡
ØªÙĪÙĦ ÛĮØ¯
ĠÙĩØ§Ø± ÙĪØ³Øª
ĠØ¨ÙĬÙħ Ø§Ø±ÙĬ
ĠAg ency
ĠØ®Ø§ÙĪØ± ÙħÛĮØ§ÙĨÙĩ
ĠÚ©ÙĦÛĮÙĨ ÛĮÚ©
ĠÚ¯ÙĪØ³ ÙģÙĨØ¯
ĠØ®Ø§ÙĨØ¯ Ø§ÙĨ
ĠØ¹Ø² Øª
fu el
ĠÙħÙħÙĦ Ú©Øª
ĠÙ¾Ø§Ú©Ø³ Ø§Ø²ÛĮ
ĠØ¨Ø´ÙĪÛĮ ÛĮØ¯
alt fuel
ĠØ¯Ø±Ø¯ÙĨ Ø§Ú©
1 18
N G
c ontent
e ed
h at
m m
u d
Ù ł
Ġ ï»
Ø§ Ùĥ
ÛĮ Øµ
Ø¯ ÙĪØ±
ÙĪ Ø§Ùħ
ÙĪ Ú©Ø§Ø±
ÙĪ Ø§Ø¨Ø·
Ùħ Ø«
Ùħ Ø¯ÛĮØ±ÛĮØª
ÙĦ Ø§ÛĮÛĮ
ĠØ¨ Ú¯
ĠØ¨ Ø§Ø®
ĠØ¨ Ø§Ø¨Øª
ĠØ¨ Ù¾Ø±Ø³
ĠØ¨ Ù¾ÙĪØ´
ĠØ¨ Ø§Ø³ØªØ§ÙĨÛĮ
ĠØ¨ Ø®ÙĪØ§ÙĩÛĮÙħ
ĠÙħ Ú¯ÙĪ
ĠÙħ Ø§ÛĮØ¹
ĠÙħ Ø§ÙĨØ¯ÙĨ
ĠØ¯ ÙĨØ¯
ĠØ¯ Ùĥ
Ø³ Ø§Ø±
Ø³ ÙĨØ¬ÛĮ
ĠÙĪ Ø§Ø²
ĠÙĪ Ø·
ĠÚ© ÙĪØ±
ĠÚ© Ø±ÙĪ
Ø¨ ÙĨÛĮ
Ø¨ Ø§ÛĮØ¯
Ùģ Ø±Ø¯
Ùģ Ø¶ÙĦ
Ø² ÙħÛĮ
ĠØ± ÛĮÙĨÚ¯
ĠÙĩ Ø§Ùħ
ĠÙĩ Ø±ÛĮÚ©
Ø§Ùħ ÙĪØ±
ĠØ¯Ø± Ú¯ÛĮØ±ÛĮ
âĢ Ļ
ĠØ³ ÙģØª
ĠØ³ ÙĦØ§ØŃ
ĠØ´ Ø±ÛĮ
ĠØ´ Ø¬
ĠØ´ Ø§ØªØ±
ĠØ¢ ÙħÛĮØ²
ÙĨØ¯ ÙĤ
Ø§Ø¯ ÙĪ
Ø±ÛĮ Ø§Øª
ĠÙ¾ ÛĮÙħ
ĠØ® Ø§Ø´ÙĤ
ĠÙħÛĮ Ú¯Ùĩ
ĠØ§Ø³ Ú©Ø±ÛĮ
ĠØ§ÛĮ ÙħÙĨ
ĠØ§ÛĮ ÙģØ§
ÙĬ ÙĦÙĬ
Ø® Ø§Ø¨ÛĮ
ĠÙģ ÙĦÙģ
ĠÙģ ÙĪØ±ÛĮÙĩ
ĠØ¨Ø± Ú¯Ùĩ
ĠØ¹ Ø¬
ĠØ¹ ÙħÛĮÙĤ
ØŃ ÙĦ
ÚĨ Ú¯ÙĪÙĨÙĩ
ĠØ§Ø³Øª ØŃ
ĠØ¬ ÙĪØ±
Ø§Ø² ÙĨ
ĠÛĮ Ú¯Ø§ÙĨÙĩ
ĠØ§ÛĮÙĨ ÚĨÛĮ
ĠÙĤ ÙĨØ¯
ĠÙĤ ÙĪØ§Ø¹
ÙĦÛĮ Ùģ
ÛĮØ± Ø§ÙĨ
ĠÚĨ Ø±ÙĪÚ©
ĠÙĩØ§ÛĮ ØªØ§ÙĨ
ĠØ§ÙĨ Ø§Ø±
ÙĪÙĦ Ø§ÙĨ
ĠÙĩÙħ Ú¯ÛĮ
ÙĨÚ¯ Ø§Ø±ÛĮ
ĠØ§Ùħ Ø±ÛĮÚ©Ø§
ĠØµ ÙĦÙī
ĠÙħÙĨ ÛĮÙħ
Ú¯Ø± Ø§
Ú¯Ø± Ø§Ùĩ
ĠÙħØŃ Ø±ÙĪÙħ
ĠÙħØŃ Ú©Ùħ
ĠÙĪÛĮ ÙĦ
ĠØ¨Ø§Ø² Ú¯Ø±Ø¯
ĠØ§ÙĦ Ø£
ĠÙħØ± Ø§Ø¯
ĠÙħØ¹ Øµ
ĠØªØ± Ø§ÙģÛĮÚ©ÛĮ
ĠØªØ± Ø¨ÛĮØªÛĮ
ĠØªØ± Ø§Ú©Ùħ
Ø¢ Ø®
Ø¨Ùĩ ØªØ±ÛĮÙĨ
ĠÙħØ¬ Ø²Ø§
ĠØ¯ÙĪ Ø®Øª
Ø§ÙĤ Ø¨Øª
ĠØ´Ø± ÙĥØª
ĠÚ¯Ø± Ùĩ
Ø§ÙĬ Ùĩ
ĠÙĩØ³Øª Ø´
ĠØ³ÙĪ Ø¦ÛĮ
ĠØªØ¹ Ø¨ÛĮØ±
ĠØªØ¹ ÙĬÙĬÙĨ
ĠÙģÛĮ Ø´
Ø§ÙĨØ¯ Ø§Ø²
ĠØ§Ø¬ Ø¨Ø§Ø±
ÙĢ Ùĩ
ĠÙĨØ§Ùħ ÙĨØ§Ø³Ø¨
ĠØ§ÙĪ Ø¬
ĠØ§ÙĪ Ø³Øª
ĠâĢ Ŀ
ĠÙĨØ´ ÛĮÙĨ
ĠÙĨØ´ Ø±ÛĮØ§Øª
ĠØ§Ø® Ø±
ĠØ§Ø´ Ú©Ø§ÙĦ
ĠØ´ÙĩØ± Øª
Ú©Ø§Ø± Ø¨Ø±Ø¯
ĠØªÙĨ ÙģØ³
ĠØ¯Ø§Ø¯ Ú¯Ø§Ùĩ
ĠØ±ÛĮ Ø²
Ø¯Ø§Ø± ÙĪ
ĠØ¢Ø¨ Ø§Ø¯ÛĮ
Ø±Ø§Ùĩ ÙĨÙħØ§ÛĮ
ĠØ¨Ø²Ø± Ú¯Ø±Ø§Ùĩ
ĠÙĨÙĪ Ø§ÙħØ¨Ø±
ĠØ®Ø¯Ùħ Ø§ØªÛĮ
ĠÙĨÙĩ Ø§Ø¯ÙĩØ§ÛĮ
on e
ĠØ¢Ø± Ø²
ĠÚ¯Ø±ÙĪÙĩ ÙĩØ§ÛĮ
ÙĬØ¯ ÙĨ
ØªÙĪ Ø¶ÛĮØŃ
ĠØªÙĤ ÙĦ
ĠÙħØ´Ú©ÙĦ Ø§ØªÛĮ
ĠØªÙĪÙĦÛĮØ¯ ÛĮ
in t
ĠA n
ĠØ¯ÙĦ Ø®Ø±
ĠÛ² Û±
ĠØªÚ© Ø§ÙħÙĦ
ĠØ¯ÙĪØ±Ø¨ÛĮÙĨ ÛĮ
ĠØ¬ÙĪ Ø§ÙĩØ±Ø§Øª
ĠM P
ĠÙħÙħ Ø¨Ø±
ĠÚ¯Ø±ÙģØª Ùħ
ĠÛ±Û³Û ¹
ĠØ¬ÙĩØ§ÙĨ Ø¨Ø®Ø´
ÙĪÙĦÛĮ Øª
ĠØ¬ÙĨÚ¯ ÛĮ
ĠØ¨ÙĨØ¯ ÙĬ
ĠØ¢Ø® Ø±ÛĮ
Ø¢ÙĨ ÚĨÙĩ
ĠØªÙģ Ø±ÛĮØŃ
ĠØ§Ú© Ø±Ø§ÙĨ
ĠØ¢Ø³ÛĮ Ø§ÛĮÛĮ
oo k
ĠÚ©Ø§Ø±Ø¨Ø±Ø¯ ÙĩØ§ÛĮ
Ø§Ø¸ Ùħ
ĠØ·Ø±Ùģ ÛĮÙĨ
ĠF or
ĠØ§Ø¶ Ø§ÙģÛĮ
ĠÙ¾Ø°ÛĮØ± ÙģØª
ĠØ®ÙĪØ´ Ùħ
ÙħØŃ Ùħ
ĠÙ¾ÚĺÙĪÙĩØ´ ÙĬ
ĠØ¨Ø±ÛĮ Øª
ĠØ¢Ù¾ Ø´ÙĨ
ĠØŃØ³ÛĮÙĨ ÛĮÙĩ
ĠÙĩÙģØª Ú¯ÛĮ
ĠØ§ØŃØ³Ø§Ø³ Ø§Øª
ĠØ³ÙĪÙħ ÛĮÙĨ
ĠØ§Ø³Ù¾ Ø§ÙĨÛĮØ§
ĠÙħØªÙĤ Ø§Ø¨ÙĦ
ĠÙ¾Ø§Ø±Ú© ÛĮÙĨÚ¯
Ú¯ÛĮÙĨ Ø§ÙħÙĩ
ĠØ¹Ø±Ø¨ Ø¯Ùĩ
ĠØ§ÙĨØªØ´Ø§Ø± Ø§Øª
ĠØ¢Ùģ Ø±ÛĮÙĨ
Ø¨Ø§Ø² Ø§ÙĨ
ĠÚ¯ÙĪÛĮ Ø§
ĠU n
ĠÙĨÛĮØ§Ø²Ùħ ÙĨØ¯ÛĮ
ĠØªØ³Ùĩ ÛĮÙĦ
ĠÙ¾Ø§Ø¯ Ø´Ø§ÙĩÛĮ
ĠÙĤØ¯Ùħ Øª
ĠÙĦØº ÙĪ
ĠØ§ÙħÛĮØ¯ÙĪØ§Ø± ÛĮÙħ
ĠÙħØ§ÛĮ Ú©
ĠØªØ¯ Ø§Ø®ÙĦ
ul l
ĠØªØ±ÙģÙĨØ¯ ÙĩØ§ÛĮ
ĠØ¨ØªÙĪØ§ÙĨ ÛĮÙħ
Ø¬Ø¯ÛĮØ¯ ØªØ±ÛĮÙĨ
Ø¯Ø§ÙĨØ´ Ú¯Ø§Ùĩ
ĠØªØ±Ø´ ØŃ
âĻ«âĻ« âĻ«âĻ«
ĠÙ¾ÙĦØ§Ø³ØªÛĮ Ú©ÛĮ
ĠØ§Ø±Ø²Ø´ÛĮ Ø§Ø¨ÛĮ
ĠØ¬Ú© ÙĪØ²ÛĮ
ĠÙħØ§Ø¬Ø± Ø§ÛĮ
ĠØ§Ø¹ØªÙĤ Ø§Ø¯
ĠÙħØ±Øª Ø¶ÛĮ
ĠØ¬Ø³ ÙħÛĮ
ĠÙĩÙĦ Ø§ÙĦÛĮ
ĠØ§ÙĦØªÙĩ Ø§Ø¨
ĠØ¬Ø§Ø¨ Ø¬Ø§ÛĮÛĮ
ĠØ³ÙĦÛĮ ÙĤÙĩ
ÙģÛĮØ§ÙĨ Ùī
ĠØ³ÙĩØ± Ø§Ø¨
ĠÚ¯Ø²ÛĮÙĨ Ø´
ĠÙģØ±ÛĮØ¯ ÙĪÙĨ
ĠØ§ÙĦÙħÙĦ ÙĦ
ĠÙ¾Ø§Ø±Ø§Ùħ ØªØ±
ĠØªØª ÙĦÙĪ
ĠÙħÛĮØ±Ø¯ Ø§ÙħØ§Ø¯
ĠÙĤØ²Ø§ÙĤ Ø³ØªØ§ÙĨ
ĠØªÙĦØ§ ÙĪØª
ĠØ¢Ú¯ ÙĪØ³Øª
ĠÚ¯ÙĦÙ¾Ø§ÛĮ Ú¯Ø§ÙĨ
upload s
ĠÙģÙĦÙģ ÙĦ
" ØĮ
8 6
E R
M P
R T
i e
l an
u al
Ù ©
Ù ¬
ÛĮ Ø¹
Ø± ÙĩØ§
ÙĨ ÚĺØ§Ø¯
Ø¯ Ø§Ø±Ø¯
Ø¯ ÙĪØ¨
Ø¯ Ø§Ø³ØªØ§ÙĨ
ÙĪ Ø§ÛĮÛĮ
ÙĦ Ø³
ÙĦ ÛĮÙĨ
ĠØ¨ Ø§Ùĩ
ĠØ¨ Ø§Øª
ĠØ¨ ÙĦÛĮ
ĠØ¨ Ø§ÙĨÙĩ
ĠØ¨ Ø³Ø§Ø²
ĠØ¨ Ú©ÙĨÛĮØ¯
ĠØ¨ Ú©Ø´
ĠØ¨ Ú¯ÛĮØ±ÛĮÙħ
ĠÙħ Ø±ÙĪ
ĠÙħ Ú©Øª
ĠÙħ Ø§Ø¬
Ø§ÛĮ Ø¬Ø§Ø¯
ĠÙĪ Ø¬
Ø´ ÙĪÛĮ
Ø´ Ø§Ø¡
ĠÚ© Ø§Ø²
ĠÚ© ÙĦÙĪØ¨
ĠÚ© Ù¾Ø³ÙĪÙĦ
Ú¯ Ø²Ø§Ø±Ø´
Ø¨ Ø§Ø¹
ĠØª Ù¾
ĠØª Ø±Ø§ÙĨ
Ùģ Ø±ÛĮÙħ
ĠØ± Ø¬
ĠÙĨ Ø±
ĠÙĨ Ú©ÙĨ
ĠÙĨ Ø§Ø±Ø³
ĠÙĨ ÙĪÛĮØ²
ĠØ¯Ø± Ø´Øª
ĠØ³ ÙĪØ±ÛĮ
ĠØ³ Ø§ÙĤ
ĠØ´ Ø¨Ùĩ
ĠØ´ Ø§ÙħÙ¾ÙĪ
ĠØ¢ Ø±ÛĮØ§
ÙĤ Ø§Ø¨ÙĦ
ÙĨØ¯ Ú¯ÙĬ
âĢĮ .
Ø¹ ÙĦØ§ÙĪÙĩ
Ø±ÛĮ Ø³
ØĮ âĢĮ
ĠÙ¾ ÙĪ
ĠØ® Ø²
ĠØ§Ø³ Ú©Ø§Ø±
ĠØ§ÛĮ Ø«Ø§Ø±
ĠÙģ Ø¯Ø±
ĠÙģ ÙĤÛĮÙĩ
ĠØ¨Ø± Ø§ÙĨÚ¯ÛĮ
ĠØ¹ ÛĮÙĨÛĮ
ĠØ¹ Ø³ÙĦ
ĠØ¹ Ø§ÙĦÙħ
ØŃ Ø§ÙĦØª
ÚĨ Ú©
ĠÚ¯ ÙĪÙĦ
Ø±Ø¯ Ú¯ÛĮ
Øµ Ø¨
ĠÛĮ Ø§Ø¨ÛĮ
Ø§Ø³ ÙħÛĮ
Ø±ÙĪ ÙĨÛĮ
ĠÙĤ ÙħÛĮ
ĠÙĤ Ø§ÙĦÛĮ
ĠÙĤ Ø³Ùħ
ĠÙĤ Ø§ØªÙĦ
Ù¾ Ø§Ø³Ø®
ÛĮÙħ Ùĩ
ĠØ§ÙĨ Ø¯Ø±
ĠØ§ÙĨ Ø¨Ø§Ø±
Ø¶ Ùħ
ĠØ¢ÙĨ Ú¯Ø§Ùĩ
ĠÙĦ ÛĮÙħ
ĠØ§Ùħ Ø´Ø¨
ĠÚ©ÙĨ ÙĪÙĨ
ĠØ· ÙĬ
ĠÙħÙĨ Ø§ÙĤ
ĠÙħØŃ Ø§Ø³Ø¨
ĠØ§Ø± Ú¯Ø§ÙĨÛĮ
ĠØ¨ÛĮ Ø§
ĠØ¨ÛĮ ÙĪÚ¯Ø±Ø§ÙģÛĮ
Øº ÛĮ
ÙĨÛĮ Ø§
ĠÙģØ± Ø§ØªØ±
ĠÙģØ± ÙĩØ§Ø¯
ĠÙħØ¹ ÛĮÙĨ
ĠÙħØ¹ Ø§ÛĮÙĨ
ĠÙħØª Ø±ÙĪ
Ø¨Ø± Ø®ÛĮ
ĠØ³Ø± ÚĨ
ĠØ³Ø± Ø·Ø§ÙĨÛĮ
ĠØ±ÙĪ Ø³ØªØ§
ĠØ¯ÛĮ Ú©Ø´ÙĨØ±ÛĮ
ĠØº ÙĦ
ĠÚ©Ø´ ÛĮØ¯ÙĨ
ĠØ¯ÙĪ Ø§Ùħ
ĠØ¯ÙĪ Ø³ØªÛĮ
ĠÙħØ³ Ø§ØŃØª
ĠØ¢ÙħÙĪØ²Ø´ Ú¯Ø§Ùĩ
Ġ1 000
ĠÙĨØ¸ Ø±Ø³
ĠÙĩØ± ÙħØ²
Ø§Ø¬ Ø¯
ĠØ³ÛĮ Ø³Øª
ĠØ³ÛĮ ÙĦÛĮØ³
ĠØ§Øµ ÛĮÙĦ
Ø±Ø³ Ø§ÙĨÙĩ
ĠØªÙĪØ§ÙĨ ÙħÙĨØ¯
ØªÙĪØ§ÙĨ ÛĮÙħ
ĠØ·Ø± ÙĬÙĤ
ÙĦÙĪ ÙĦÛĮ
Ø§ÙĨØ¯ Ø§
ĠÙĨÙĤ Øµ
Ø§ÛĮÙĨ ÙĪ
ĠØ§ÙĨØª Ø®Ø§Ø¨ÛĮ
ĠØ®Ø±ÛĮØ¯ Ø§Ø±
ĠØ¶ ÙĪØ§Ø¨Ø·
ĠØ§ÙĤ Ø´Ø§Ø±
ĠØ´ÙĩØ± ÙĩØ§
ÙħØª ÙĨ
ĠØ¨Ø§ÙĦ Ø§Ø®Ø±Ùĩ
ĠØ³Ø§Ø²ÙħØ§ÙĨ Ø¯ÙĩÛĮ
ĠÙĨÙħÛĮ Ø´Ùĩ
Ø®ÙĪ Ø§Ø±
ĠØ¹Ø§Ø´ ÙĤÛĮ
ÙĪØ³Øª Ùĩ
ĠØ« Ø¨Ø§Øª
Ø§Ø¶ Ø¹
ĠØ´Ø¨ Ø§ÙĩØª
ĠÙħØµ ÙĪØ¨
ĠØŃØ¶ ÙĪØ±ÛĮ
ĠÚĨÙĨØ¯ Ø§ÙĨÛĮ
Ġ3 60
ĠÙĨÙħØ§ÛĮ Ø§ÙĨ
ĠØ° Ø±
ĠÙħØ®Øª Øµ
ĠØªÙĤ Ø¯ÛĮØ±
in d
ĠA r
ĠÙħØ¯ÛĮØ± Ø¹Ø§ÙħÙĦ
ĠØ¬Ø§Ùħ Ø¯
ĠØ¸ ÙĦÙħ
ĠÚ©ÙĦÛĮ ÙĪÛĮ
ĠØ¬ÙĪ Ú©
ĠÚ©Ø§ÙĨ Ú©Ø³
ĠØ®ÙĪØ§Ùĩ Ø§ÙĨ
ĠØ³ÙĦ Ø·Ø§ÙĨ
ĠØ§ÙĨÚ¯ Ø§Ø±
ĠÙĩÙĪ Ø§ÙĬÙĬ
at a
ĠØ§ÙĤØ¯Ø§Ùħ Ø§ØªÛĮ
ÙĬÙħ ÙĬ
ĠØ³Ùģ Ø§ÙĦÛĮ
20 8
Ø§ÙĨØª Ø®Ø§Ø¨
ĠØ´Ú© ÙĦÛĮ
ĠØ®ÙĪØ¯Ø±ÙĪ ÙĩØ§
ĠØ´ÙĪ Ø®ÛĮ
ĠØ¹Ú© Ø§Ø³
ĠØ¹Ú© Ø§Ø³Ø§ÙĨ
ĠÙħØ¨ Ø§Ø¯
Ø³ÙĨ Ø³
Ø³Ø± Ø·Ø§ÙĨ
ĠØ®ÙĪØ± Ø´ÛĮØ¯ÛĮ
ĠØ¨Ø±Ø® ÙĦØ§Ùģ
ĠØªØ§Ø¨ ÙĦÙĪ
ĠØªØ§Ø¨ Ø³ØªØ§ÙĨÛĮ
ag e
ĠÙĨÙģ Ø±ÛĮ
ĠÙĨÙģ Ø±Ùĩ
ĠÙ¾ÙĪØ´ Ø§Ú©
Ġ7 20
ĠÙħØ¨Ø§Ø± Ø²
ĠØªÙĪØ± Ø§ÙĨ
ĠØ´Ø¹ Ø§Ø±
ĠÚ©ÙĪØª Ø§ÙĩÛĮ
ÙĪÙ¾ Ø§Ø±Ú©
Ø³Ø§Ø² Ø§ÙĨ
ĠÙĨÙħÙĪØ¯ Ø§Ø±
ĠÙĩÙĨØ± ÙĩØ§ÛĮ
ĠØ¨Ø³Øª ÙĨ
ĠØ¨Ø§ÛĮ Ú¯Ø§ÙĨÛĮ
ĠÙĨØª Ø§ÙĬØ¬
ĠØ·ÙĦ Ø¨ÛĮ
ĠØ¬Ø± Ø§ØŃ
ÙģØ±ÙĪØ´ ÛĮ
ĠØ§ÙĤØªØµØ§Ø¯ ÙĬ
ĠØ¸Ø±Ùģ Ø´ÙĪÛĮÛĮ
ĠØ®ÛĮØ§Ø¨ Ø§ÙĨÛĮ
ĠÚ©Ø±Ø¨ ÙĨØ§Øª
ĠØ§ÙĨØªØ¸ Ø§ÙħÛĮ
ĠÙĨØ§Ø± Ø§ØŃØªÛĮ
ob ile
ĠØ²ÙĨØ¬ ÛĮØ±
ĠÙĩÙĨØ¯ Ø³Ùĩ
ĠØ²ÙĨØ¯ Ú¯ÙĬ
ĠÙĪØ§Ø¨ Ø³ØªÚ¯ÛĮ
ĠØ³ÛĮÙħ Ø§ÛĮ
ĠÚ©Ø§Ø±Ø´ÙĨØ§Ø³ ÙĬ
ĠØ§Ø±Øª ÙĤØ§ÛĮ
ĠÙħÙĪØ± Ø®
ĠÙ¾Ùĩ ÙĦÙĪ
ĠÙĪÙģ Ø³ÛĮ
ĠØ¨Ø±ÙĪ ÛĮÙħ
ĠÙĦØº Ø§Øª
ĠÙĪÙĬ Úĺ
ĠÚĨØ±Ø® Ùĩ
ĠØ§Ø³ØªØ± Ø§ÙĦÛĮØ§
ĠØ§ÙĨØ³ Ø¬Ø§Ùħ
ĠVide o
ĠÙĩÙħØ³ Ø§ÛĮÙĩ
Ð° Ð
ĠØ®Ø´ ÙĪÙĨØª
ĠÙĦØ§ÛĮ Ø³ÙĨØ³
ĠÚĺØ§Ù¾ ÙĨÛĮ
ĠØ³ÙĪØ² ÙĨÛĮ
ĠÙĤÙĩØ±ÙħØ§ÙĨ Ø§ÙĨ
Ø§ÙħÙĨ ÛĮØª
Ø¨Ø¨ Ø¨Ø¨
ĠÙĪØ§Ø±ÛĮ Ø²
ĠÙħØ±Ø¨ÛĮ Ø§ÙĨ
ĠØ§Ø±Ø³ Ø§ÙĦÛĮ
ĠØ¯Ø®Øª Ø±ÛĮ
ĠØ³Ø¤ Ø§ÙĦ
Ø¨ÙĨØ§Ø¨Ø± Ø§ÛĮÙĨ
ĠÚĺÙĨØªÛĮ Ú©ÛĮ
ĠÙħØ·Ø¨ ÙĪØ¹
ĠØªØ²Ø¦ÛĮÙĨ Ø§Øª
Ġro bot
ĠÚ©ÙĪØ¨ ÛĮØ¯Ùĩ
ĠØŃÙĪØ¶ ÚĨÙĩ
ĠÙħØªÙģ Ø§ÙĪØªÛĮ
ĠØ¨ÙĪØ§Ø³ ÛĮØ±
ĠRS TS
ĠÙĨÛĮÙĪÛĮ ÙĪØ±Ú©
ĠÛĮÚ©ÙĨÙĪ Ø§Ø®Øª
ĠØªØ§Ø±ÙĬ Ø®
ĠØªÙħØ§Ø´ Ø§ÛĮ
ĠITI L
ĠØ§Ø³Ú©Ø±ÛĮ Ù¾Øª
ĠØ¯ÙĦØ®Ø± Ø§Ø´
8 5
> >
A B
B S
E D
I C
I F
L O
T M
f f
p ng
u ro
| --
Ġ '
Ġ ïº
Ø± Ø§ÛĮ
Ø± Ø§ØªÛĮ
ÙĪ Ø¬ÙĪØ¯
ĠØ¨ ÙĨØ¬
ĠØ¨ Ú¯ÛĮØ±
ĠØ¨ ÙĦØ§Ú¯
ĠÙħ ÙģØª
ĠÙħ Ø±ÛĮÙħ
Ø§ÙĨ ÙĨØ¯
ĠØ¯ Ø´Øª
ĠØ¯ Ø²Ø¯
Ø³ Ø®
ĠÙĪ Ùħ
ĠÙĪ ÙĨÙĪØ´
ĠÚ© ÙĪØ´
Ø§Ø± Ø¶
Ø¨ Ú©
Ø¨ Ø³
Ø¨ Ø§Ø·
ĠØª ÙĢ
ĠØª Ø³ØªÛĮ
ĠØª Ø³ÙĨ
Ùģ Ø§ÙĦ
Ùģ Ø§Øª
Ø² Ø¨Ø§ÙĨ
ĠÙĨ Ø§Ùĩ
ĠÙĨ Ø§Øµ
ĠÙĨ Ú¯Ø§ÙĩÛĮ
ĠÙĩ ÙĢ
ĠÙĩ ÙĦØ§ÙĦ
ĠØ³ ØŃØ±
ĠØ³ ÙģÛĮØ§ÙĨÙī
ĠØ´ Ø§Ø¯ÛĮ
ĠØ¢ Ø¦
ĠØ¢ ÚĺØ§ÙĨØ³
ÙĤ Ø¯Ø§ÙĨ
ĠØ® ÙģÙĨ
ĠÙħÛĮ Ø§ÙĨÙĩ
ĠØ§Ø³ ÛĮØ¨
ĠØ§ÛĮ ÛĮ
ĠØ§ÛĮ ÙĪØ§ÙĨ
ÙĬ ÙĨØ¯
ÙĬ Ø§Ø¨ÙĬ
ĠÙģ ØªØŃ
ĠØ¹ Ø§Ùħ
ĠØ¹ Ø¸ÛĮÙħ
ĠØ¹ Ø§Ø±Ùģ
ØŃ ÙĪÙħ
ØŃ Ø«
ĠÚ¯ Ùĩ
ĠÚ¯ ÙĦÛĮ
ĠØ¬ Ø±ÛĮ
ĠØ¬ ÙĪÙħ
Øµ ÙĬÙĦ
Ø§Ø¨ Ø²Ø§Ø±
ĠØ§ÛĮÙĨ Ø¬
ĠÙĤ Ø§Ø³Ùħ
Ù¾ Ø§Ø¯
Ø¯Ùĩ Ùħ
ÙĪÙĦ Ø§Øª
ÙĪÙĦ ØªÛĮ
Ø§Ø±ÛĮ ÙĪÙħ
ÙĪØ² ÙĪÙħ
ĠÙĦ Ø§Ø³ØªÛĮ
ĠØ§Ùħ Øª
ĠØ§Ùħ Ù¾Ø±
Ø° Ø§Ø¨
Ø° ÙĩÙĨÛĮ
ĠØ· Ø§ÙĦ
ĠÚ©Ø§Ø± Ùĩ
ĠØ¯Ø§Ø± Ø§ÙĬ
ĠÙħØŃ Ø¨Øª
ĠÙħØŃ Ø±Ú©
ĠÙħØŃ ÙĬØ·
ĠÛĮÚ© Ù¾Ø§Ø±ÚĨÙĩ
ĠØ§Ø± Ùħ
ĠØ¨Ø§Ø² Ùħ
ĠØ¨Ø§Ø² ÙĨÚ¯Ø±ÛĮ
ĠØ§ÙĦ Ù¾ØªÛĮ
ĠØ¨ÛĮ Ø±ÙĪÙĨÛĮ
Øº Ø§Ùħ
ĠÙģØ± Ø§Øª
ĠÙģØ± Ø¹ÛĮ
ĠÙĨÙħ Ø§Ø¯
ĠÙĨÙħ Ùī
ĠÙħØ¯ ÙĬ
ĠÙħØ¯ Ø§ÙĪÙħ
ĠÙħØ´ ÙĪØ±Øª
ĠØªØ§ Ú©Ø³ÛĮ
ĠÙħØª Ø£Ø³
Ø¨Ùĩ Ùħ
ĠÙħØ³ Ø¯ÙĪØ¯
ĠØ³Ø§Ø² ÙĨØ¯
ĠØ´Ø± Ú©
ĠÙĥ Ø±ÙĬÙħ
ĠÚ¯Ø± ÚĨÙĩ
Ùĥ Ø±Ø¯
Ø§ÙĬ Ø±
ĠØ¬Ùħ Ø´ÛĮØ¯
ĠØ³ÙĪ Ø®ØªÙĩ
ĠØªØ¹ Ø·ÛĮ
ĠÙħØ· ÙĦÙĤ
ĠØ§Ø¬ ØªÙĨ
ĠÙħØ±Ø¯ Ùĩ
Ú©ÙĦ ÛĮØ¯
ĠØ§Ø¨ ÙĩØ§Ùħ
Ø¨Ø§ÙĨ Ú©
ĠØ§Ø¯ Ú©ÙĦÙĨ
ĠØ§ÙĪ ÙĦÛĮ
ĠØ¬Ùĩ Ø§Ø¯ÛĮ
ĠØªÙĩ Ø§Ø¬
ĠØªØµ ÙĪ
ĠØ§ÙĨØ¯ Ø±ÙĪ
ĠØ¹ÙĦ Ùī
ĠØ§ÙĤ Ø§Ùħ
ĠØ´ÙĩØ± Ø§Ùħ
ÙħØª Ø±ÛĮ
ÙħØ¯ Øª
Ø¯Ø§ ÙĪÙħ
Ø²Ø± Ú¯
ÚĨÙĩ Ø§Ø±
ĠØ§ØŃ Øª
ĠØ§ØŃ ØªÛĮ
ĠØ§ØŃ ÙħØ±
ĠÙ¾Ø± ÙĨØ¯Ú¯Ø§ÙĨ
ĠØŃØ³ Ø§Ø¯Øª
ÙĪÙĤ Øª
Ø¨ÛĮÙĨ ÛĮØ¯
ĠØ§Øª ÙĪØ¨
ĠØ§Øª ÙħØ§Ùħ
ĠØªØ¬ ÙĪÛĮØ²
ĠØ´ÙĨ ÛĮØ¯ÙĨ
ĠÙĨÛĮØ³Øª ÛĮØ¯
Ġ3 1
ĠØ¢Ø± ÙħØ§ÙĨ
Ø¨Ø§ÙĦ ÙĨØ¯Ú¯ÛĮ
Ø§ÙĪ ÙĪØ³
ĠÙĥÙĩ ÙĨ
ĠØªØ§Ø±ÛĮ Ú©
ĠØªØºÛĮ ÛĮØ±ÛĮ
ĠÙ¾ÚĺÙĪÙĩ Ø´Ú©Ø¯Ùĩ
ĠÙĦÛĮ ØªØ±
ĠØ³ÙĨÚ¯ ÛĮ
ĠØ¯Ø±ÛĮØ§ ÚĨÙĩ
ĠÙģÙĤ Ø±
at t
ĠT e
ĠÙħÙĨØª ÙĤØ¯Ø§ÙĨ
ĠÙħÚ© Ø±Ø§ÙĨ
20 22
ĠÙħØ´Ø§ÙĪØ± Ø§ÙĨ
ĠØµØŃ Øª
ĠØµØ¯ Ø§Ø¨
ĠÙħØ¨ ØŃØ«
ÙĪÙĨØª ÙĪØ³
ĠØŃØ± Ø§Ø±ØªÛĮ
Ø³ÙĨ Ø³ÙĪØ±
ĠÙ¾ÙĨØ¬ ÙħÛĮÙĨ
ĠÙħÙĪØ¨ Ø§ÛĮÙĦÛĮ
Ø¬Ø± Ø§ØŃÛĮ
ĠÙĩØ²Ø§Ø± Ø§ÙĨ
ÙħØ³ ÙĦÙħÛĮÙĨ
ĠÙĨÚ© Ø§ØªÛĮ
ĠØ´Ø¹ Ø¨Ùĩ
lo g
ĠØ§ÙģØ²ÙĪØ¯ ÙĨ
ĠÙħØŃÙħ Ø¯ÛĮ
ĠØ§Ø³ØªØ§ÙĨØ¯ Ø§Ø±ÛĮ
ĠN o
ĠÙħØº Ø§Ø²Ùĩ
ĠÙĨÙĬ Ø±ÙĪ
ÙĩÛĮ ÚĨ
ĠØ¨Ø³Øª ÙĨÛĮ
ĠØ¹Ø¶ ÙĦØ§Øª
ĠØ±Ø² Ø±ÙĪ
ĠÚ©ÙĦÛĮØ¯ ÙĩØ§ÛĮ
ĠÙĪØŃ ÙĬ
ĠØ±ÙĪØ¯ Ø®Ø§ÙĨÙĩ
ÙĪØ· ÛĮ
iv ers
il d
ĠÙĨÙĪÛĮØ³ ÙĨØ¯Ú¯Ø§ÙĨ
ĠØ§ØªÙĪÙħ Ø§ØªÛĮÚ©
ĠÚ©Ø±Ø¨ ÙĦØ§ÛĮÛĮ
of t
ĠØ®ÙĪØ§Ø³Øª Ø§Ø±
ĠÙħØ¬Ø§Ø² Ø§Øª
ht tp
ĠØ§ÙĬØ±Ø§ÙĨ ÙĬ
ĠÙħØ§Ùħ ÙĪØ±ÛĮØª
ĠØ¢Ø²ÙħØ§ÛĮØ´ ÛĮ
ĠÙħØ³Ø¦ÙĪÙĦÛĮ ØªÛĮ
Ø§ÙĬØ´ Ú¯Ø§Ùĩ
ĠØ§ÙĦÙħ Ø«ÙĦ
ĠØªÙħØ±ÛĮÙĨ Ø§Øª
ÙĨÚ© ØªÙĩ
ĠÙĨØ§Ø¨ ÙĪØ¯
ĠÙĨØ¬ Ùģ
ÙĨÙĤ Ø¯
Ø¨Ø®Ø´ ÛĮ
ĠÙĥØ±Ø¯ Ùħ
ĠÚ¯Ø±Ø§ÙĨ ØªØ±ÛĮÙĨ
ØªØº Ø°ÛĮÙĩ
Ø±ÙĪØ§ÙĨ Ø´ÙĨØ§Ø³ÛĮ
ĠØ¬Ø¹ ÙģØ±
ww w
Ðµ Ð
Ø³ÙĨØ¬ Ø§ÙĨ
ĠØ§Ø±ØªÙĤ Ø§
ĠØ¯Ø² ÙģÙĪÙĦÛĮ
ĠÙ¾Ø§ÙĬ Ø§ÙĨ
ĠØ±Ø¯ÛĮ Ø§Ø¨
Ø¬ÙĨ Ø§Ø¨
ĠØ¬Ø²ÙĪ Ø§Øª
ĠÙģÙĪ Ø§ÛĮØ¯
ĠØ±Ø¦ ÙĬØ³
ĠØ³ÙĪÙĨ Ø±Ø§
ĠØ´Ø§ÛĮ Ø³ØªÙĩ
ĠÚĨØ§ ÙĪØ´ÛĮ
ĠØªÙĤØ§Ø¶ Ø§ÛĮ
ĠÙħÙĩØ§Ø¬ Ø±Øª
ĠÙĨØ§Ú¯Ùĩ Ø§ÙĨ
ĠÙĨØ§Ú¯Ùĩ Ø§ÙĨÛĮ
ĠØ¹ÙĬÙĨ Ú©
ĠØ¯ÙĨØ¯Ø§ÙĨÙ¾Ø²Ø´ Ú©
ĠØ¯Ø³ Ú©ØªØ§Ù¾
ĠÙĩÙĪØ± ÙħÙĪÙĨ
ĠÚ¯Ø°Ø±Ø§ÙĨ Ø¯ÙĨ
ÙħØ¹Ùħ ÙĪÙĦØ§
ĠÙ¾Ø§Øª Ø§ÛĮØ§
ĠÙĩØ§Øª Ú¯Ø±Ø§Ùħ
ĠØ¹Ø§Ø· ÙģÛĮ
ĠÙĩÙħØ¯ ÙĦÛĮ
ĠÙ¾Ø°ÙĬØ± Ø´
ĠÙĦÛĮØ³ Ø§ÙĨØ³
ĠØ¯Ø±ÙĬ Ø§ÙģØª
ĠØµØ¯Ùħ Ùĩ
ĠØªØ¨ÛĮ ÛĮÙĨ
ĠØ§ÙħÙ¾Ø± Ø§Ø·
ĠØ§ÙĦÙ¾ØªÛĮ Ú©Ø§ÙĦ
ĠØ§Ø¬ØªÙĨ Ø§Ø¨
2022 208
3 4
3 5
5 6
6 53
c an
l ash
o us
r us
t h
t xt
Ġ or
Ùĩ ÛĮÙĨ
Ø¯ ÙĬ
Ø¯ Ø§ÙĨØ¯
Ø¯ Ø¨ÛĮØ±
Ùħ Ø±Ø¨
Ùħ ÛĮÙħÛĮ
Ú© ÙĨÛĮ
Ú© Ø§Ø±Øª
Ú© Ø¯Ø§Ùħ
Ú© Ø§ÙģÛĮ
ĠØ¨ ÛĮØ±
ĠØ¨ ÙħØ§ÙĨ
ĠØ¨ Ø§ØŃ
ĠØ¨ Ø§ÙĩÙħ
ĠØ¨ Ú¯ÙĪÛĮØ¯
ĠÙħ Ø§ÙĨÛĮ
ĠÙħ Ø®Ø§Ø¨
ĠÙħ Ø£
ĠÙħ ÙĨØ¯Ø±
Ø§ÙĨ Ø´
Ø§ÙĨ Ú¯
ĠØ¯ ÙħØ§
Ø³ Ø§Ø·
ĠÙĪ Ø§Ø²ÛĮ
ĠÙĪ ØµÙĦ
ĠÚ© Ø§ÙĪØ±
ĠÚ© Ø¨Ø¯
Ø§Ø± ÛĮØ¯
Ø¨ Ø§Ùģ
Ø¨ Ø§ÙĦÛĮ
ĠØª Ú©Ùĩ
ĠØª Ú©Ø§ÙĨ
ĠØª Ø¯Ø§ÙĪÙħ
Ùģ Ø±Ùĩ
ĠØ± ÛĮØª
ĠÙĨ Ú¯ÙĪ
ĠÙĨ Ø§Ø¸
ĠÙĨ Ø¯ÛĮØ¯Ùĩ
ĠÙĩ Ú©Øª
ĠØ¯Ø± Ø§ÛĮ
ĠØ¯Ø± Ø§Ùħ
ĠØ´ Ø¯ÛĮ
ĠØ´ Ø±ÛĮÙģ
ĠØ´ ÙĦÛĮÚ©
ĠØ¢ Ø²Ø§Ø±
Ø§ÙĦ Ø¨Ø§
Ø±ÛĮ Ø±
ĠÙ¾ Ø²ÛĮ
ĠÙ¾ ÙĪØ³
ĠÙ¾ ÙĪÙĦÛĮ
ĠØ® ÙĪÛĮ
Ø¬ ÙĨØ¯
Ø¬ Ø§Ø¨
Ø¬ ÙĪØ´
Ø¬ ÙĪÛĮØ§ÙĨ
Ø¬ ÙĨØ³
ĠÙħÛĮ Ø¯ÙĩÙĨØ¯
ĠÙħÛĮ ÙĩÙħØ§ÙĨ
ĠÙħÛĮ Ø«Ùħ
ĠØ§Ø³ Ø¨
ÙĪØ± Ø§ÙĦØ¹ÙħÙĦ
Ø® Ùħ
ĠÙģ Ø§ÙĦ
ĠÙģ ÙĨØ¯ÙĤ
ĠØ¨Ø± ÙĪÙĨØ¯
Ø§Ùĩ ÙĨÚ¯
Ø§Øª Ø¨
ØŃ Ú©Ùħ
ÚĨ ÛĮÙĨÛĮ
ĠØ§Ø³Øª ÙĨ
ĠØ§Ø³Øª Ø§Ø±
ĠÚ¯ Ø²Ø§Ø±
ĠÚ¯ Ø¬Øª
Ø±Ø¯ Ø§Ø±ÛĮ
Ø§Ø² ÙĦ
Øµ ÙĪØ¯
ĠÛĮ ÙħÙĨ
Ø· ÛĮÙĦ
ĠÙĤ Ø±ÙĪÙĨ
ĠØ² Ø¨Ø§ÙĨÛĮ
Ù¾ Ø´
Ù¾ Ø²ÛĮ
Ù¾ Ø±ÙĪÙģ
ĠÙĩØ§ÛĮ Ø´
ÙĪÙĦ Ø§ÛĮ
ÙģØª Ø¯
ĠØ¢ÙĨ ÙĤØ¯Ø±
ĠØ¢ÙĨ Ø¬Ø§ÛĮÛĮ
ÙĨÚ¯ ÙĪÛĮ
Ø³ÛĮ ÚĺÙĨ
ØªØ± Ø³
ĠÙĦ ÙĪØ¯
ĠÙĦ Ø§Ø²
ĠÙĦ ÙĤØ¨
ĠØµ Ø¯Ø±
ĠØµ Ø§ÙĦØŃ
ĠÙħÙĪ Ø§ÙģÙĤ
ĠÙħÙĨ ÙĪÛĮ
ĠØ®ÙĪØ¯ ÙħØ§ÙĨ
ĠØªÙĪ ÙĩÛĮÙĨ
ĠØ§ÙĦ ØªØŃØµÛĮ
Ø§ÙĨÛĮ Ø§ÛĮÛĮ
ÙĪÙħ ÙĨ
Øº Ø°
ĠÙģØ± Ø§Ø²
ĠÙħØ± ØŃÙĪÙħ
Ø¨ÛĮ Ø±ÛĮ
ĠØ´Ùħ Ø´ÛĮØ±
ĠØ³Ø± Ø´
ĠÙħØ³ Ø§Ø¦
ĠØ¯Ùĩ ÙĦ
ĠÙĥ ÙĦÙħØ§Øª
ĠÚ¯Ø± Ø§Ùħ
ĠÚ¯Ø± ÙħÛĮ
ĠÙħÙĩ ÙħØ§ÙĨÛĮ
ĠØ¨Ø§Ø²ÛĮ Ú¯Ø±ÛĮ
ĠÚ©Ùħ Ø¯ÛĮ
ĠÚ©Ùħ ØªØ±ÛĮ
Ø§ÙĦÛĮ Ùģ
ĠÚ¯ÙĦ Ø³ØªØ§ÙĨ
ĠØªÙĪØ§ÙĨ ÛĮÙħ
ĠØªÙĪØ§ÙĨ ÙħÙĨØ¯ÛĮ
ĠØ±Ø³ ÙĪØ¨
ĠÙģÛĮ Ø¨Ø±
ĠÙħØ· ÙĩØ±
ÙĦÙĪ Ø§
ĠØ±ÙĪÛĮ Ø§
ĠØªÙħ Ø¯ÛĮØ¯
ĠØ§Ø¨ ÛĮ
ĠÙģØ±ÙĪØ´ ÙĨØ¯Ùĩ
ĠØ§ÙĪ Ø¨
ĠØ§ÙĪ Ø¨Ø§Ø´
ĠØ¹ÙĦ Ø§ÙħÙĩ
ÙĪØ¨ Ø±ÛĮ
ĠÙħØ§Ùĩ ÙĪØ§Ø±Ùĩ
ĠØ¶ ÙĦ
ĠÙ¾ÛĮØ´ ÛĮÙĨ
ĠÙ¾ÛĮØ´ Ø±ÙĪ
ĠØªÙĪØ³ Ú©Ø§Øª
ĠÛ±Û ·
ĠØŃØ³ Ø§Ø¨ÛĮ
ÙĪØ³Øª ÛĮ
ĠØ²ÛĮØ± Ø³Ø§Ø®Øª
ĠÙħØµ Ø±
ĠÙħØµ Ø±ÙģÛĮ
ĠÙħØµ Ø§ÙĦØŃ
ĠØªØ´ Ú©ÙĦ
ĠÙĨÙħØ§ÛĮ ÛĮÙħ
ĠØ° ÙĪØ¨
ĠØ¯Ø§Ø´Øª ÛĮÙħ
Ġ201 9
in a
in e
ĠA d
ĠØ¯ÙĦ ÙĬÙĦ
ĠÙħØ³Øª Ø¯Ø§Ùħ
ĠÙħØ³Øª ÙĦØ²
ĠÙħØ¯ÛĮØ± Ùĩ
ĠØ¯ÛĮØ¯ Ùħ
Ø¨ÙĪ ØªÛĮ
Ø£ Øª
ĠÙ¾Ø§Ø³Ø® Ú¯ÙĪÛĮÛĮ
ĠÙĦØ¨ ÙĨÛĮ
Ø§ÙĩÛĮ Ø§ÙĨ
or k
ĠÙĩÛĮÚĨ Ú¯ÙĪÙĨÙĩ
ÙĪÙĦÛĮ Ø³
es h
en ce
ĠØªØ±Ú©ÛĮ Ø¨Ø§Øª
ĠÙ¾Ø±Ø³ ÛĮØ¯
Ġ4 2
ĠÙħÚ© Ø¹Ø¨
ĠØ³Ùģ Ø±Ùĩ
ĠÙħÛĮØ§ÙĨ Ú¯ÛĮÙĨ
ĠØ´ÙĪØ± Ø§
ĠØ´ÙĪØ± Ùĩ
ĠØ¬ÙĪØ§ÙĨ ÛĮ
ĠÙģØ±Ùħ ÙĪÙĦ
ĠØªØ®Øµ ÛĮØµ
ĠØ±ÙĪØ§ÙĨ Ùĩ
Ġm obile
Ø´ÙĨÙĩ Ø§Ø¯
Ø±ÙĪØ³ Ø§ÙģØª
ĠÙ¾Ø°ÛĮØ± Ø§ÛĮÛĮ
ĠØ³ÙģØ± ÙĨØ§ÙħÙĩ
Ø±ÛĮÙģ Ø§Øª
ĠØªØµÙĪÛĮØ± Ø¨Ø±Ø¯Ø§Ø±ÛĮ
ÙħØ± ØŃÙĦÙĩ
ĠÙħØ° Ú©ÙĪØ±
ÙĤØ± Ø§Ø±
ĠÙħØ®ØµÙĪØµ Ø§
ĠÚ©Ø´Ø§ÙĪØ± Ø²
ĠØ¨Ø±Ø®ÙĪØ±Ø¯ Ø§Ø±ÛĮ
ĠÙĨØ§ ÙĪØ¨Ø±ÛĮ
ĠØ±ÙģØªØ§Ø± ÙĩØ§
ĠØ¹ÙĪ Ø§ÙħÙĦÛĮ
ĠÙ¾ÛĮØ´ÙĨÙĩØ§Ø¯ Ø§Øª
ĠØ§ÙĦØ¹ ÙħÙĦ
ĠÙħØ² Ú¯Ø§
ĠÚĨØ± Ø®Ø´
ĠØ¨ÙĬ ÙħÙĩ
ĠØ´ÙĨØ§Ø³ ÙĨØ§ÙħÙĩ
ĠØ¨Ø³ Ù¾Ø§Ø±
om m
ĠÙĪÙĦ Øª
Ġ139 5
Ø¹Ùģ ÙĪÙĨÛĮ
ĠØ§Ø¨Ø²Ø§Ø± ÙĩØ§
ÙħÙĪ Ø§Ø¯
ĠØ¨Ø§ÙģØª ÙĨÛĮ
ĠÙ¾ÙĨ Ø¨Ùĩ
ĠÙħØ§Ø¯Ø± Ø´
ÙĪØ§ Ú©ÙĨØ´
ÙĨØ´ ÛĮÙĨ
ĠÙĬÙĥ ÙĬ
ĠÙħØ³Ø§Ùģ Ø±Ø§ÙĨ
ĠÛ±Û³Û¸ Û¸
ĠØ§ØªØŃ Ø§Ø¯
ĠÙ¾Ø±Ø¯Ø§Ø² Ø¯
ĠØ¯Ø§ÙĨØ´Ø¬ÙĪ ÙĬØ§ÙĨ
ec ial
ĠÙħØ§Ø¯ Ø±ÛĮØ¯
ĠØ¯Ø¨ÛĮØ± Ø³ØªØ§ÙĨ
ĠØ¯Ø¨ÛĮØ± Ø®Ø§ÙĨÙĩ
ĠØ¯ÙģØªØ± ÚĨÙĩ
ĠÙĨØ¬ ÙĪÙħ
ĠÙ¾Ø§Ú© Ø³ØªØ§ÙĨ
ĠØ³ÙĬ Ø§Ø³ÙĬ
ĠÙħØ°Ùĩ Ø¨
ĠØ²Ø® ÙħÛĮ
Ø³ÙĪ Ø§ÙĦØ§Øª
ĠÛĮÙĪ ÙĪÙĨØªÙĪØ³
ĠØ¹Ø¯ Ø¯ÛĮ
ĠÙħØŃØ¨ÙĪØ¨ ÛĮØª
ĠØ¯Ø¨ Ø³ØªØ§ÙĨÛĮ
ĠÙħÙģÙĩ ÙĪÙħÛĮ
ĠØ§ÛĮØ³Øª Ú¯Ø§Ùĩ
ĠÚ©Ø§Ø´ Ø§ÙĨÛĮ
ĠÙ¾Ø±ÙĪØª Ø²
ul t
ĠSt r
ĠÙĪØ§Ø³ Ùĩ
ĠÛ¹ Û°
ĠÙ¾Ø§ÛĮØ¯ Ø§Ø±ÛĮ
ĠØ§Ø³ØªØ±Ø§Øª ÚĺÛĮÚ©
ĠÙĦÙĨØ¯ ÙĨ
ĠØ±Ø¨Ø§Øª ÛĮÚ©
Ø¨ÛĮÙħ Ø§Ø±ÛĮ
ĠØ±Ø§ÙĩÚ©Ø§Ø± ÙĩØ§ÛĮ
ĠÙħØ¹ØªÙĤØ¯ ÙĨØ¯
Ø¢ÙħÙĪØ² Ø§ÙĨ
ĠÚ©Ø§Ø±Ø¢Ùģ Ø±ÛĮÙĨ
Ġk h
ĠÚĨÙĦ Ú©
ĠÚĨÙĦ ÙĨØ¯Ø±
ĠÙĨØ¸Ø±ÛĮ Ø§Øª
ĠÙĥÙĪØ¯ ÙĥØ§ÙĨ
ĠÙĨØ¨Ø§Ø´ ÛĮØ¯
Ú©ÙĪØ¯ Ú©Ø§ÙĨ
Ø§ÙĦÙħÙĦ Ú©
ĠÚ©ÙĨØ³ Ø±Øª
ĠÚ©ÙĦØ§Ø³ÛĮ Ú©
ĠØªØ¨Ø§Ø± Ø´ÙĨØ§Ø³ÙĬ
ĠØ³Ø±Ø§ÙĨ Ø¬Ø§Ùħ
ĠØ¢Ø¯ Ø§Ø¨
ĠØ¶Ø® Ø§ÙħØª
ĠØ§Ø±Ú© Ø³ØªØ±ÛĮ
ĠØ§Ø¨ÙĪØ§ÙĦ ÙģØ¶ÙĦ
ĠØ¢Øª ÙĦÛĮÙĩ
ĠÙħÙģØ§Ùĩ ÛĮÙħ
ĠÙħÙĦØ§ØŃ Ø¸Ùĩ
ĠÙĦÙĤ ÙħÙĩ
ĠÙħØ¬Ø¯ Ø¯Ø§
ĠØ±ÙĪØ´ÙĨÙģ Ú©Ø±Ø§ÙĨ
ĠØ§Ø³Ø±Ø§Ø¦ÛĮ ÙĦ
ĠØ§ÙĨØ§Ø± ÙĪØ±
Ø¢Ø® Ø±ÛĮÙĨ
ĠÙħØ¹Ø§ÛĮÙĨ Ùĩ
Ġrobot s
LO GO
ĠØ¨ÙĨØ¬ Ú©ÙĪÙĦ
ĠØ§Ø±Ùħ ØºØ§ÙĨ
ĠÙĪØ§Ø²ÛĮ ÙĪØ§Ø±
ĠØªÙĪØ³Ú©Ø§Øª Ú©
ĠÙħØ³ØªÙĦØ² Ùħ
% )
0 8
2 8
4 6
A S
C O
E S
F T
a in
c es
l d
m an
n u
o g
o de
p h
p r
u re
Ä ±
Ù Į
Ġ x
Ġ <#
Ø§ ÙĪÙĦ
Ø§ ÙĪØ²
Ø± Ø§Ùħ
ÙĪ Ø¦ÙĨ
Øª Ø¨ÛĮ
Ú© ÛĮÙĨ
Ú© ÙĪÙĨ
ÙĦ Ø§Ø³
ĠØ¨ Ø§ÙĨÛĮ
ĠØ¨ Ø§ÛĮØª
ĠØ¨ ÙĪØª
ĠØ¨ Ø´Ùĩ
ĠØ¨ Ø§Ø¨ÙĦ
ĠØ¨ Ø®ÙĪØ§ÙĩØ¯
ĠØ¨ Ø¨Ø±ÙĨØ¯
ĠÙħ Ø§Ø±Øª
Ø§ÛĮ Ø³
ĠØ¯ ÙĦØ§
ĠØ¯ Ø§Ø¦Ùħ
ĠØ¯ Ø§ÙĪØ±ÛĮ
Ø³ ÙĪØ²
Ø³ ÙĪÙħ
ĠÙĪ Ø§Ø¶
ĠÙĪ Ø§ÙĨØª
ĠÚ© ÙħØ§ÙĨ
ĠÚ© ÛĮØª
ĠÚ© Ø¨ÙĪ
ĠÚ© Ø§Ø¸Ùħ
Ø§Ø± ÙĨ
Ú¯ ÙĨØ¯
Ø¨ ØªÛĮ
ĠØª ÙĬ
ĠØª ÛĮÚ©
Ùģ Ø§ÛĮ
ĠØ± Ø§Ø¯
ĠØ± Ø§Ø³
ĠØ± Ø¬Ø¨
ĠØ± Ø§ÛĮÙĨÙĪ
ĠÙĨ Ø®ÛĮ
ĠÙĨ Ø§ØµØ±
ĠÙĩ Ø±Ø¯
ĠÙĩ ÛĮØ±
ĠÙĩ ÙĬØ§Øª
ĠÙĩ Ø¶Ùħ
ĠØ³ ÙĪÙĨØ§
ĠØ³ ÙħÙĨØ§ÙĨ
ĠØ¢ Ø±Ùĩ
ĠØ¢ ÙĦÙĪ
ĠØ¢ Ø±ÙĪÙħ
ĠØ¢ Ø³Ùħ
ĠØ¨Ùĩ Øª
ĠØ¨Ùĩ Ø§ÙĨÙĩ
Ø§Ø¯ Ø§Ø±Ùĩ
Ø±ÛĮ Ø²
ØĮ ,
ĠÙ¾ Ø´
ĠØ® ÙĦÛĮ
ĠØ® Ø§ÙĦÙĩ
ĠØ® Ø³ØªÚ¯ÛĮ
Ø¬ ÙĨÚ¯
ĠÙħÛĮ ÙĨÛĮ
ĠÙħÛĮ Ú©ÙĨÛĮÙħ
ĠÙħÛĮ Ø®ÙĪØ§ÙĩÛĮØ¯
ĠØ§Ø³ Ø¯
ĠØ§ÛĮ Ø²ÙĪ
ÙĪØ± Ø¯ÛĮ
ÙĬ Ø´
ÛĮØ¯ Ø§ÙĨ
Ø® Ø§Ø·
Ø® Ø¯Ø§
ĠÙģ ÙĪØ±ÛĮ
ĠØ¨Ø± ÙĪÙĨ
ĠØ¨Ø± Ø§Ø¨Ø±ÛĮ
Ø§Ùĩ ÙĪ
ØŃ Ø¬
ÚĨ ÙĪÙĨ
ÚĨ ÙĪØ¨
ÚĨ Ø±Ø§
ÚĨ ÛĮØ²
ĠØ§Ø³Øª Ø§ÙĨÛĮ
ĠÚ¯ Ù¾
ĠØ¬ ÛĮÙħ
ĠÚ©Ùĩ ÙĨÙĩ
Øµ Ø±Ùĩ
ĠÛĮ Ø§Ùħ
ĠØŃ ÙĦØ¨
ĠØŃ Ø§ÙħÛĮ
ĠØŃ Ø±ÛĮÙģ
ĠØŃ ÛĮØ¯Ø±ÛĮ
ĠÙĤ ÙĨ
ĠÙĤ Ø§Ø±ÚĨ
Ù¾ ÛĮØ±
Ù¾ ÛĮÚ©
ĠÚĨ Ùħ
ĠÚĨ Ø±Ùħ
ĠÚĨ ÙĪØ¨ÛĮ
ÛĮÙħ Ù¾
ĠØ¯Ø§ÙĨ Ø¯
ĠÙĩÙħ Ú©Ø§Ø±
ĠÙĩÙħ Ø°ÙĩÙĨÛĮ
ĠØ¢ÙĨ Ø§ÙĦÛĮØ²
ĠÙĦ Ø§
ĠØ§Ùħ Ù¾
ĠØµ Ø±
ÙħÛĮ Ø§ÙĨ
ĠÚ©Ø§Ø± Ø¢ÛĮ
ĠÚ©Ø§Ø± Ú¯Ø±Ø¯Ø§ÙĨ
Ú¯Ø± ÙĬ
ĠÙħØŃ Ø±
Ø¸ Ø±ÙĪÙģ
ØªÙĩ ÛĮ
ÛĮØª Ø§ÙĨ
ĠØ®ÙĪØ¯ Ø¨Ø§ÙĦÙĨØ¯Ú¯ÛĮ
ĠØ¢Ùħ Ø±
ĠØ§ÙĦ ÛĮÙħÙ¾
Ø§ØŃ ÙħØ¯
ĠÙħØ¹ Ø§Ùģ
ĠÙ¾ÛĮ Ø±ÛĮ
ĠÙħØ¯ Ø¯
ĠÙħØ¯ ÙĨØ¸Ø±
ĠÙħØ´ Ùħ
Ø§Ùģ ÙĬ
Ø¨Ø± Ùĩ
ĠØªØ± Ø³ÙĨ
Ø¢ ÙĬØ¯
Ø±Ùģ Ø³
ĠØº ÛĮ
ĠØº ÙĪ
ĠØº Ø¯Ø¯
ĠØº Ø§ÙĦØ¨Ø§
Ø¯Ø± ÙħØ§ÙĨ
ĠØ³Ø§ÙĦ Ø±ÙĪØ²
ĠÙħØ¬ Ø§ÙĪØ±
ĠÙħØ¬ ÙĦØ§Øª
ĠÙħÙĤ Ø§ÙĦ
Ø§Ú© Ø¯Ùĩ
ĠÙĨØ¸ Ø§ÙģØª
ĠÙĥ Ø´ÙĪØ±
ĠØ¹Ùħ ÙĪØ¯ÛĮ
ĠØ¨Ø§Ø²ÛĮ Ø§Ø¨ÛĮ
Ø§Ø¬ ØªÙħ
ĠÚ©Ùħ Ø§ÙĦ
ÙħÙĨ Ø³
ĠØªØ¹ ÙħÛĮÙħ
ĠØªØ¹ Ø¬Ø¨
ĠÙħØ· ÙĩØ±ÛĮ
ĠÙĨÙĤ Ø¶
ĠÙĨÙĤ Ø¯ÛĮ
ĠØ±ÙĪØ² Ú¯Ø§Ø±
ĠØ±ÙĪØ² ÙħØ±Ùĩ
ĠØ§ÙĪ Ù¾Ú©
ĠÚ©ÙĦ ÙģØª
ĠØªÙĩ ÙĬÙĩ
ÙĨØ¬ Ø§Ø±ÛĮ
ĠÙ¾Ø§ÛĮ Ø§ÙĨÛĮ
ÙĪÙĨØ¯ ÛĮ
ĠØ¶ Ø§ÛĮ
Ø±Ø¨ ÙĬ
ĠÙ¾ÛĮØ´ ÙĪØ§Ø²
ÙģØ± ÙĬÙĨØ´
ĠÚ¯Ø° Ø§Ø±Ø§ÙĨ
ĠØŃØ§ÙĦ Ùħ
ĠÚ¯Ø±Ø¯ ÛĮ
ĠÚ¯Ø±Ø¯ ÙĩÙħ
ĠØ¨ÛĮÙĨ Ø´
ĠØ±ÛĮ Ø´
ĠÙ¾Ø± Ø§Ú©
ĠØ¹ÙĨ Ú©
ĠØ¨Ø§Ø± Ø¨ÛĮ
Ú©Ø±Ø¯ Ùħ
Ø±Ø§ ÙĤÛĮ
ĠØ« Ø±ÙĪ
ĠÙħÙĬ Ø¯Ø§ÙĨ
ĠØ´Ø¨ Ø³ØªØ§ÙĨ
Ù¾ÛĮ ÙĪÙĨØ¯
Ġ3 9
ĠØ° ÛĮ
Ø´Ø¯ ÙĨ
ĠØ¯Ø§Ø´Øª ÛĮØ¯
ĠS M
ĠS ch
Ġ201 2
ĠÙģØ¹Ø§ÙĦ ÙĬØª
ĠÙ¾Ø±Ø¯ Ø§Ø²ÙĨØ¯
ĠØ³Ùĩ ÙĪÙĦØª
ĠØºÛĮØ± ÙĤØ§Ø¨ÙĦ
ĠP C
ĠP DF
ĠØªÚ© Ø«ÛĮØ±
ĠÙħØ¹Ùħ Ø§Ø±ÙĬ
ĠÙģØ±Ø¯ ÙĪØ³
ĠÙĬ Ø§Ø¯
ĠD ual
ĠC at
ĠC anon
Û± Û¸
ĠØ§ÙĨÚ¯ ÙĪØ±
al e
or y
ĠÛ±Û³Û µ
ad em
ĠØ¨Ø§ÙĨÚ© ÙĩØ§
ĠÙħØ´Ø®Øµ ÛĮ
ĠÚ©ÛĮ Ø´
Ø´Ø± ØŃ
ir an
ĠT AB
ĠÙħÙĨØª ÙĤØ¯
ĠØªÙģ Ú©ÛĮÚ©
ĠÙħÙĨØ· ÙĤ
ĠØ´Ú© Ø§ÛĮØª
ĠØ´Ú© Ø§Ùģ
ĠØ§Ú© Ø±Ùħ
ĠØ§Ú© Ø³ÛĮÚĺÙĨ
ĠØ¹Ø´ Ø±ÛĮÙĩ
ĠÙĪØ³ Ø·ÛĮ
ĠÙĦÙĨØ² ÙĩØ§
ÙĪØªØ± Ø§Ù¾ÛĮ
oo s
Ġ+ ++
ĠÙĨÙģ Ø®
ĠØ§ÙĦØ¨ ÙĨÛĮÙĨ
ĠÙ¾ÙĪØ´ ÛĮØ¯ÙĨ
ĠR oy
ĠØªÙĪØ± ÙĩØ§ÛĮ
ÙħØŃ ØµÙĪÙĦ
ÙħØŃ ÙĤÙĤ
ĠÙħØŃØ¯ ÙĪØ¯ÛĮ
ĠÙĤØ±Ø¢ÙĨ ÙĬ
ĠØµÙĨØ¹Øª ÙĬ
ĠØ³Ø±ÛĮØ¹ ØªØ±
ĠÙħØ² Ø§ÛĮ
ĠE x
ĠÙħØªØ± Ø¬Ùħ
ĠØ¨Ø³ Ø±Ùħ
ĠÙĦØ· ÙģØª
ĠÙ¾Ø²Ø´Ú© ÙĬ
ĠÙħØ§Ø²ÙĨØ¯ Ø±Ø§ÙĨÛĮ
!! !!
Ú©ØªØ§Ø¨ Ø®Ø§ÙĨÙĩ
ĠÙĪØŃ ÛĮØ¯
Ú¯ÙģØª Ø§Ø±
Ú¯ÙģØª Ø§ÙĪØ±Ø¯
ĠÙĨØ²Ø¯ÛĮ Ú©ÛĮ
ĠØ¢Ø°Ø±Ø¨Ø§ÛĮ Ø¬Ø§ÙĨÛĮ
Ġd ata
Ġ0 2
Ú¯ÙĬ Ø±Ø¯
ĠÙĨÙĩØ§ÛĮ ØªØ§
ÙĬØ³ ÙĬ
ĠÙĤÛĮ ØµØ±
ĠÙħØ§Ùħ ÙĪØ±
ĠU charge
ĠÛ±Û³Û¸ Û·
ĠØµØ§Ø¯ÙĤ ÙĦÙĪ
ĠØªØ¶ ÙħÛĮÙĨ
ĠÙħØ§Ø¯ Ø±Ùħ
ĠÛ¸ Û°
ĠØ¨Ø±Ø®ÙĪØ±Ø¯Ø§Ø± ÙĨØ¯
ĠØ²ÙĬ ÙħÙĨØ³
ĠØµØ§ØŃ Ø¨Ø§ÙĨ
ĠØªØ¯ Ø¨ÛĮØ±
ĠÛ±Û¹Û ¸
ØŃØ¶ ÙĪØ±
Ø®ÙĪØ§ÙĨ ÙĨØ¯Ùĩ
ĠÛ³Û µ
ĠÙĦØ§ÛĮ ØŃÙĩ
ĠØ±Ø¯ÛĮ Ø§Ø¨ÛĮ
ĠØ®Ø§Øª ÙħÙĩ
ĠÚ©Ø¬ Ø§Ø±ÙĪ
ĠÙħÛĮØ¯ Ø§ÙĨÛĮ
ÙĪÚĨ ÙĩØ±
ĠØ³Ø§ÙħØ§ÙĨ Ø¯ÙĩÛĮ
ĠÙ¾ÙĩÙĦ ÙĪÛĮ
ĠØ¨ÙĩÙħ ÙĨÛĮ
ĠÚ©ÛĮÙĦÙĪ Ú¯Ø±Ùħ
ĠÚ©ÙĪÙĦ Ø±
Ġre g
ĠØ¢ÙħÙĪ Ø®ØªÙĨ
ĠØ§ÙĨØ² Ø§ÙĦÛĮ
ĠÛĮØ§Ø¨ ÙĨØ¯
ĠÙĩØ¬ Ø±ÛĮ
ÙĬØ¹ ÙĬ
ĠØ®Ø§ÙĦ Øµ
ĠÙħØ·ÙĦ Ø¹
ĠØ¬ØºØ±Ø§ÙģÛĮ Ø§ÛĮ
Ø§Ù¾ÙĦ Ø§Ø³ØªÛĮ
ĠØ§ÙĨØ¨ ÙĪÙĩ
ĠÚ©Ø§ÙĦÛĮ ÙģØ±
Ø¨Ø³ÛĮ Ø§Ø±ÛĮ
ix el
Ø¨Ø®Øª Ø§ÙĨÙĩ
ĠÚĺØ¦ ÙĪÙ¾Ø§Ø±Ú©
ĠØ³Ø§Ø¹ ØªÙĩ
ĠØ¨Ú¯ÙĪÛĮ ÛĮÙħ
ĠØ®ÙĪØ§Ø± Ø²ÙħÛĮ
ĠÙħØ³ØªÙħ Ø±
ĠÙħØŃÚ© ÙĪÙħ
ĠÙĪØ§Úĺ Ú¯Ø§ÙĨ
ĠÙĨØµÛĮØ± Ø§ÙĦÙħÙĦÚ©
ĠØ§ÙĨÙģ Ø¬Ø§Ø±
ĠÙĩÙħØ´Ùĩ Ø±ÛĮ
ĠÙĤÙĪØ§Ø¹ Ø¯
ĠØ³ÙĪØ¦ÛĮ ÚĨ
ĠÚ©Ø§Ø² Ø±ÙĪÙĨ
ĠØ§Ø±Ú¯Ø§ÙĨÛĮ Ú©
ĠÙĨØ¸Ø±Ø³ ÙĨØ¬ÛĮ
ĠÙĩØ±ÙħØ² Ú¯Ø§ÙĨ
ĠØ°Ø± ÙĬÙĩ
ĠÙĪÙĬÚĺ Ú¯ÙĬ
ĠØ¬ÙĪÙħ ÙĦØ§
ĠÙħØªØ£Ø³ ÙģØ§ÙĨÙĩ
ĠØ§ÙĨØ¯Ø±ÙĪ ÛĮØ¯ÛĮ
ĠØ§ØªÙĪØ¨ ÙĪØ³
ĠÚ¯Ø²Ø§Ø± Ø´ÛĮ
ĠÙĩÛĮØ± Ø§Ø¯
ĠÚ©Ø§Ø±Ø¢ÛĮ ÛĮ
ĠØªØ±Ø³ÙĨ Ø§Ú©
) /
1 20
4 3
4 7
8 3
E B
E X
Q u
a w
e i
e an
m ot
n e
r ag
¸ ı
Â ©
ï ¸ı
Ĉ Ĉ
Ġ e
ÛĮ Ø§Ø±
Ø± Ø±
Ø± ÙĩØ§ÛĮ
ÙĨ ØŃ
ÙĨ Ø§Ø³
Ùĩ ÙħÛĮÙĨ
Ø¯ ÙĪÙĨ
ÙĪ ÙĪ
ÙĪ Ø¬
Ùħ Ø§Ø³
Ùħ ÙĪØ³
Ú© Ø§ÙĨÛĮ
ÙĦ ÙĨ
ÙĦ Ú©
ÙĦ Ø§Ø·
ĠØ¨ Ø·
ĠØ¨ Ø´ÙĨØ§Ø³
ĠØ¨ ÙģØ±Ùħ
ĠØ¨ Ù¾Ø±Ø¯Ø§Ø²ÙĨØ¯
ĠÙħ Ú¯Ùĩ
ĠÙħ Ø§ÙģÛĮ
ĠÙħ Ø¨ÙĩÙħ
ĠØ¯ ÙĪØ²ÛĮ
Ø³ Ø§
Ø³ Ø·
ĠÙĪ Ø®
ĠÙĪ Ø§ÛĮØ¯
ĠÚ© ÛĮØ±
ĠÚ© Ø§Ú©Øª
ĠÚ© Ø±ÙģØ³
Ú¯ ÙĪÙĦ
Ø¨ ÙĤ
Ø¨ Ø§Ø³
Ùģ Ø§Ø±
Ø² Ø§Ø¨
ĠØ± Ø£
ĠØ± Ø§Ø¨Ùĩ
ĠØ± ØºÙħ
ĠÙĨ ÙĢ
ĠÙĨ Ø§Ø¢
Ø§Ùħ Ø§Ø±Øª
ĠØ¯Ø± Ø®ØµÙĪØµ
ĠØ¯Ø± ØŃØ§ÙĦ
ĠØ¯Ø± Ø§ÙħØ¯
ĠØ³ Ø§Øª
ĠØ³ Ú©Ø³
ĠØ³ Ø§Ø¹Ø§Øª
ĠØ´ ØªØ§Ø¨
ĠØ¢ ÛĮÙĩ
ÙĤ Ø¨ÙĦ
Ø¹ ÙĪØ¯ÛĮ
ĠØ¨Ùĩ Ø´ØªÛĮ
Ø§Ø¯ Ø§ÙħÙĩ
ĠÙ¾ Ø§Ù¾
Ø¬ Ø¹
Ø¬ Ø³Øª
ĠÙħÛĮ ÙĦÙĩ
ĠÙħÛĮ Ø±ÙĪØ¯
ĠØ§Ø³ ÙħØ§ÙĨÛĮ
Ø® ÙĪØ±ÛĮ
Ø® ÙĪØ§ÙĨÛĮ
ĠÙģ Ø§
ĠÙģ Ø¯
ĠÙģ ÙĪÙĦÛĮ
ĠØ¨Ø± Ø§Ø´
ĠØ¹ Ø§ÙĤØ¨Øª
ÚĨ Ø´Ùħ
ĠÚ¯ Ø§Ø²ÛĮ
ĠØ¬ Ø³Ùħ
ĠÛĮ Ø§Ø®ØªÙĩ
Ø· Ø§Ø±ÛĮ
ĠØŃ Ø±ÙĪÙģ
Ø§Ø´ ØªÙħ
ĠØ§ Ú¯Ø²
ĠÙĤ ÙĪØ±
ĠÙĤ Ø§Ø¦ÙĦ
ĠÙĤ Ø±ÛĮØ¨
Ù¾ Ø§ÙĪØ±Ù¾ÙĪÛĮÙĨØª
ĠÚĨ Ø§ÙĨÙĩ
ĠØ§ÙĨ ÙĩØ§
ĠØ§ÙĨ Ø¨Ø§Ø´
ĠØ§ÙĨ ÙĦØ§ÛĮÙĨ
Ø¯Ùĩ ÛĮÙħ
ĠØ¯Ø§ÙĨ Ø³ØªÙĩ
Ø¶ Ø±
ĠØ¢ÙĨ ÙĩØ§Ø³Øª
ĠØ¨Ø±Ø§ÛĮ Ø´Ø§ÙĨ
ĠÙĦ Ø§ÙĦ
ĠÙĦ Ø¨Ùĩ
ĠÙĦ ÙģØ¸
ĠØ§Ùħ Ø¯Ø§Ø¯
ÙħÛĮ Ø³
ĠØ· Ø±ÙģÛĮ
ĠÙħÙĪ Ø´
ĠÙħÙĪ Ø§Ø¯ÛĮ
Ø§Ø¹ ÙĪÙĨ
ĠÙħÙĨ Ú©Ø±
ĠÙħÙĨ ØªÙĩÛĮ
ĠÙħÙĨ ÙĪÚĨÙĩØ±
ĠÙĨÛĮ Øª
ĠÙĨÛĮ ÙĦ
ĠÛĮÚ© Ø¬Ø§
ĠØ®ÙĪØ¯ Øª
ĠØ§Ø± Ø¶Ø§ÛĮÛĮ
ĠØ¨Ø§Ø² Ø¯Ø§Ø±ÙĨØ¯Ùĩ
ĠØ§ÙĦ Ú©ÙĦ
ĠØ§ÙĦ Ø±ØŃ
ĠØ§ÙĦ ÙĩØ§Ùħ
ĠØ¨ÛĮ Ø§ÙĪØ±Ø¯
ÙĪÙħ ØªÛĮ
Ø§Ø® Ø¨Ø§Ø±
ĠÙģØ± Ø²Ø§Ø¯
ĠÙħØ± ØªØ¨Ùĩ
Ø¨ÛĮ Ø§
Ø¨ÛĮ Ø§ÙĨ
ĠØ´Ùħ Ø³
ĠÙĨÙħ Ø§
ÙĩÙĨÚ¯ Ø§ÙħÛĮ
ĠÙħØª Ø¹ÙĩØ¯
Ø¢ Ù¾
Ø¢ Ø¯Ø±Ø³
ĠØ±ÙĪ Øª
ĠØ±ÙĪ Ø¨Ùĩ
ĠØ±ÙĪ Ø§Ø¬
ĠØ¯ÛĮ ÙĪØ§Ø±Ùĩ
ĠØº Ø±ÛĮ
ĠØº Ø§ÙģÙĦ
ĠÙħØ¬ ØªØ¨ÛĮ
Ø§Ø³Øª Ø§ÙĨØ¯
ĠØ§ÛĮØ±Ø§ÙĨ Ø´ÙĩØ±
ĠÙħÙĤ ØµÙĪØ¯
Ø¦ ÙĨØ§
ĠÙħØ³ Ø§ÛĮÙĦ
ĠØ¯Ùĩ Ø§ÙĨÙĩ
ĠØ´Ø± Ø¹ÛĮ
ĠÙĥ ÙĪÚĨ
Ø§Ø³ÛĮ Ø§Ø¨
ĠØ¹Ùħ ÙĦØ§
Ùĥ Ùħ
ÙħÙĨ ÛĮÙĨ
ĠØªØ¹ Ø§ÙĦÛĮ
ĠØªØ¹ Ø¨ÛĮÙĩ
ĠØ§Ø¹ ØªØµ
ĠØ§Ø¬ Ø²
ĠØªÙħ ÙĪÙħ
ĠÙĨÙĤ Ø±Ùĩ
ÙĢ Ø¯
ÙĪØª Ø§Ùĩ
ĠØ§ÙĪ Ø³ØªØ§
Ú©Ø§ÙĨ Ø§ÙĦ
ĠØ§ÙĨØ¯ Ø§Ø®ØªÙĩ
ĠØ§Ø® ÙĦØ§ÙĦ
ĠØ§Ø´ Ø¨Ø§Ø¹
ĠÙ¾Ø±ÙĪ ÛĮÙĨ
ĠÙ¾Ø±ÙĪ Ø³Ùĩ
ĠØ§ÙĤ Øª
ĠØ§ÙĤ ÙĦÛĮÙħ
ĠØ´ÙĩØ± Ø²Ø§Ø¯
ĠØªÙĨ Ø´
ĠØ¯Ø§Ø¯ ÛĮÙħ
ĠØ¨ÛĮÙĨ ÛĮØ¯
ĠØ§ØŃ Ø³Ø§ÙĨ
ĠÙ¾Ø± ÙĪØ±
ĠÙ¾Ø± ØªØ±Ùĩ
ĠØ¹ÙĨ Ø§ÛĮØª
ĠØ§ÙħØ§ Ú©ÙĨ
an i
Ù¾ÛĮ ÚĨ
Ù¾ÛĮ ÙĪØ³ØªÙĩ
ĠØªØ¬ Ø§ÙĪØ²
ĠÙĩÛĮ Ø¬Ø§ÙĨÛĮ
ĠÙħØµ Ø·ÙģÛĮ
ĠØ¨ÙĨ Ø²
ĠØ§ÙģØ± Ø§Ø³ÛĮØ§Ø¨
Ġ3 6
ĠØ¹Ø± ÙĤ
ĠÚ©ÙĪ Ú©ÛĮ
Ø³Ø§ÙĦ Ø§ÙĨ
ĠP ass
ĠP ixel
ĠØ®Ø¨Ø± ÙĨØ§ÙħÙĩ
ĠØ§Ùĩ ÙĪØ§Ø²
ĠD ead
Ø´Ø§Ø± Úĺ
ĠØ¢ÛĮ ÙĨØ¯
Û± Û²
Û± Ûµ
ĠÙĤØ· Ø¨
ĠÙħÙĦÛĮ Øª
ĠÛ±Û³Û ·
ĠØ·Ø¨ ÙĬØ¹ÙĬ
ĠØ§ÙģØ²Ø§Ø± ÙĩØ§
ĠÙĦÛĮ Ú©ÙĨ
Ġ5 00
ĠØ¯Ø® Ø§ÙĦØª
ĠB al
ĠÚĨÙĩØ§Ø± ÙħÛĮÙĨ
ĠT o
ĠØªÛĮ Ù¾
ĠØ¬ÙĦ ÙĪÛĮÛĮ
ĠÙħØ·Ø§ÙĦ Ø¨ÛĮ
ĠÙĪØ§ Ú¯Ø°Ø§Ø±
ĠØ¬Ø² Ø§ÛĮ
ĠØ¬Ø² ÙĪÙĩ
ĠÙħÙĩØ± Ø¨Ø§ÙĨ
ĠÙħÙĩØ± Ø²Ø§Ø¯
ĠI ran
ĠØ´Ú© ÙĪÙĩ
ĠÙĤØ¯ Ø±Ø¯
ĠØªØ® ÙĦÛĮÙĩ
ĠÙħØ¨ ÙĦÙĩ
ĠØ¬Ø§ÙĨ Ø¨
ĠØ¬Ø§ÙĨ Ø¨Ùĩ
ĠÙĩØ¯Ùģ ÙħÙĨØ¯
Ø§Ø±Ø§ÙĨ ØªÛĮ
ÙĪÚ© Ø³ÛĮ
ĠØ®ÙĪØ± Ø§Ú©ÛĮ
ĠG am
ĠØªØ£ Ø³ÛĮØ³
........ ........
ĠØ¨ÙĩØªØ± ÙĬÙĨ
ag es
ĠØ¢ÙĦ ÙħØ§ÙĨÛĮ
ĠÙ¾ÙĪØ´ Ø§ÙĨ
ĠÙ¾Ø±Ø¯Ø§Ø®Øª ÙĨ
Ù¾Ø± Ø´
ÙħØŃ ÙĦ
ĠÙ¾ÙĬ Ø´Ø±
ĠÙħØŃÙħ ÙĪÙĦÙĩ
ĠØŃÚ© ÙĪÙħØªÛĮ
ĠÙĨÙħØ§ÛĮØ´ Ú¯Ø±
ĠØ±Ø§Ø¨ Ø·
ĠØªØµÙħÛĮÙħ Ø§Øª
ĠÙĨØ§ Ù¾ÛĮÙĪØ³ØªÙĩ
ĠÚ©ÙĪÚĨÚ© ØªØ±
ĠØ±ÙĤ Øµ
ĠÙħØ² Ø§ØŃ
ĠØ¶Ø¯ Ø¹ÙģÙĪÙĨÛĮ
ĠØ¹Ø²ÛĮ Ø²ÙħØ§ÙĨ
Ù¾Ø±Ø¯ Ø§Ø®Øª
ĠØ¹Ø¨Ø§Ø± ØªÛĮ
ĠÚ©Ø§ÙģÛĮ Ø³Øª
ĠØ¨ÙĦÙĪ Ø§Ø±
ĠÙ¾Ø³Øª ÙĪÙĨ
el l
ĠØ¬Ø§ÙħØ¹ ÛĢ
ÙħØ´ Ø§ØºÙĦ
ĠÛ· Û°Û°
ĠØ¨Ø±ÙĨØ¯ ÙĩØ§ÛĮ
ĠØµØ§Ø¯ ÙĤÛĮ
ĠØªÙĪÙĦØ¯ Øª
ĠØ§ÙĨØ¯ÛĮ Ø´ÛĮ
Ø¬Ùħ ÙĦÙĩ
ÙĨØ´ Ø§ÙĨÛĮ
ĠÙģØ±ÙħØ§ÙĨ Ø¯ÙĩÛĮ
ĠØªØ¯Ø±ÛĮ Ø¬
ĠØ²ÙĨØ¯ Ú¯
ĠØ¨Ø´ Ø±ÛĮ
ĠÙĥØ§Ø± Ø¨Ø±Ø¯
ĠU S
ĠÛ±Û³Û¸ Û¹
ĠØªÚ©Ø± Ø§Ø±ÛĮ
ØŃØ³ Ø§Ø¨
ĠØ¬ÛĮ Ø¨
ĠØ¬ÛĮ Ú¯Ø±
ĠØ§Ø³Ùħ Ø§Ø±Øª
ĠÙģØ±Ø²ÙĨØ¯ ØªØ§ÙĨ
ĠÚ©Ø§Ø±Ø¯ Ø§ÙĨÛĮ
ĠØ§ÙĪØ± Ø§ÙĤ
ĠØ¯Ø§ÙĪ ÙĪØ¯
Ġ200 6
ĠØ¹Ø±ÙĪ ÙĤ
ĠØ±ÙĪØ³Øª Ø§ÛĮÛĮ
un g
ĠÙĪÛĮØ¯ Ø¦
ĠÙħØ§ÛĮ Ú©ÙĦ
ĠØ§ÙĦÛĮ Ø§Ùģ
ĠØ¨ÙĨÛĮØ§Ø¯ Ø§Ø²Ø¯ÙĪØ§Ø¬
ÙĩÙħØ§ÙĨ Ø·ÙĪØ±
ĠØªØ±Ø¯ ÛĮØ¯
ĠØŃÙģØ§Ø¸ ØªÛĮ
ĠØ¯Ø² ÙģÙĪÙĦ
ĠØªØ§Ø³ÛĮ Ø³Ø§Øª
ĠÙ¾Ø±Ùĩ Ø§Ùħ
ĠØ¢ÙĪ Ø§Ø²
ĠÙģØ±Ø³Øª Ø§Ø¯
ĠÚĨØ´ ÙħØ§ÙĨ
ĠÚĨØ´ ÙħÙĩ
ĠÙħÙĨØµ ÙĪØ±
ĠØ±Ø¯ÛĮ Ùģ
ĠØ¨Ø§Ùħ Ø²Ùĩ
ĠÙħØ³ÛĮ Ø±ÛĮ
ĠÙ¾Ø§ÙĨ Ø²Ø¯Ùĩ
Ð¾ Ð
Ø¨ÛĮÙħ Ùĩ
ĠSp ecial
Ú©Ùģ Ø´
ĠÚ¯ÙĨØ¬ ÙĪØ±
ĠØ³ÙĪÙĨ ÙĪÚ¯Ø±Ø§ÙģÛĮ
Ù¾Ø§ÛĮ Ú¯Ø§Ùĩ
ĠØ§ÙĨØ¹ Ú©
ĠØªØ¹ÙĩØ¯ Ø§Øª
ĠØªÙĤØ§Ø¶ Ø§
ct ion
ĠØ¢ÙħÙĪ Ø®ØªÙĩ
ĠØ¨Ù¾Ø±Ø¯Ø§Ø² Ø¯
ĠØ¨Ù¾Ø±Ø¯Ø§Ø² ÛĮØ¯
Ø§ÙħÛĮØ¯ ÙĪØ§Ø±
ĠÙħØ´Ø±ÙĪ Ø·
ØªØŃÙĤÛĮÙĤ Ø§Øª
ĠØŃØ¯ÛĮ Ø«
ĠÙĥÙĪØ¯ Ùĥ
ĠØ®Ø³ Ø§Ø±Øª
ĠØ§ÙĦØ² Ø§ÙħÛĮ
ĠØ¢Ú©Ø§Ø¯ÙħÛĮ Ú©
ĠÙĨØ§Ø¯Ø± Ø³Øª
ĠÙħÛĮØ®ÙĪ Ø§Ùħ
ĠØ¹Ø±Ùģ Ø§ÙĨ
ĠÙĩÙĬ ÚĨ
ĠØªÙĪØ±ÛĮ Ø³Øª
ĠØ´Ø§Ø¹ Ø±
ĠØ±Ø§ÙĩØ¨Ø±Ø¯ ÛĮ
ÚĨÙĨØ§ÙĨ ÚĨÙĩ
ĠÙħØµØ¯ Ø§ÙĤ
ĠØ´ÙĪÛĮ ÙĨØ¯Ùĩ
ĠÙĦØ§Ø¨ÛĮ Ø§Ù¾ÙĦØ§Ø³ØªÛĮ
ĠÙħØ§ÛĮÚ© Ø±ÙĪØ³Ø§ÙģØª
ĠØ¨ÙĦÛĮ Ø·
ĠÙĤØ³Ùħ ØªÛĮ
ĠØ³ÛĮØ³Øª ÙħÛĮ
ĠØªØ³ÙĨ ÛĮÙħ
ĠÙĨØ§Øµ Ø±Ø®
ĠÙħÙĨØ¯Ø± Ø¬
ĠÙĩÚ©Øª Ø§Ø±
ĠÙħØ³Ø§Ø¦ ÙĦÛĮ
ĠØ§ÙĪØ¨ Ø§ÙħØ§
ĠÚ©Ø¨ÙĪ ØªØ±
Ø§Ø¬ØªÙħ Ø§Ø¹ÛĮ
Ġreg al
ĠÚ©Ø§Ú©Øª ÙĪØ³
ĠÙģÙĪÙĦÛĮ Ú©ÙĪÙĦ
ĠØ§Ø¹ØªØµ Ø§ÙħÛĮ
ĠPass port
. âĢı
2 9
9 6
A L
M A
d u
e ar
h k
k h
l u
m s
m ad
n a
p eg
s y
y ndro
Ġ z
Ġ Ø§Ø¯ÛĮ
Ġ ar
ÛĮ ÛĮØ¯
ÛĮ ÛĮØ±
Ø± ÙĬÙĨ
ĠÙ ¢
ÙĨ Ø§Ø¬
Ùĩ Ø§ÙĦ
Ø¯ ÙĪØ±Ùĩ
ÙĪ Ø¨Ùĩ
Øª Ùģ
Øª Ø§ÛĮÛĮ
Ú© ÙĪÙĩ
ÙĦ ÛĮÙĨÚ©
ÙĦ ÛĮÙĨÚ¯
ĠÙħ Ø²Ø±
ĠÙħ ÙĨØ¯Ø§ÙĨ
Ø§ÛĮ ÙĨØ¯ÛĮ
ĠØ¯ ÙĪØ±ÛĮ
ĠØ¯ ÙĦÛĮÙĦÛĮ
ĠØ¯ Ø§ÙĪØ±Ø§ÙĨ
Ø³ Ø§Ø±ÛĮ
Ø³ Ø§ÛĮÙĩ
Ø³ Ø§Ø¨ÙĤÙĩ
Ø´ Ø§Ø¨
ĠÚ© Ø§
ĠÚ© Ù¾
ĠÚ© Ø«
ĠÚ© Ø§Ù¾
ĠÚ© Ø§Ø´ÛĮ
ĠÚ© Ø¨ÛĮØ±
Ø§Ø± Ø²ÛĮ
Ø¨ ÙĪÙħ
Ø¨ ÙĪØ¯ÛĮ
ĠØª ÙĨÛĮ
ĠØª Ø§ÛĮÙħ
Ùģ Ø±ÛĮ
ĠÙĨ Ø³Ø¨
ĠØ¯Ø± Ø¢ÙĪØ±Ø¯
ĠØ³ ÙĢ
ĠØ³ ÙĨÛĮÙĨ
ĠØ³ Ø§ØŃÙĦ
ĠØ³ ÙĦÙĪÙĦÛĮ
ĠØ´ ÙĪØ´
ĠØ¢ Ø±Ø¯
ĠØ¢ Ø³ØªØ§ÙĨ
ÙĤ Ø·
âĢĮ :
Ø¹ ÛĮÙĨ
Ø§Ø¯ Ùģ
ĠÙ¾ Ø§Ø±ÛĮ
ĠÙ¾ ÙĦØ§ÙĨ
ĠØ® ÛĮØ±Ùĩ
Ø¬ Ú©
ĠÙħÛĮ Øª
ĠÙħÛĮ Ø±Ùħ
ĠÙħÛĮ Ú¯ÛĮØ±Ø¯
ĠÙħÛĮ ØªÙĪÙĨ
ĠÙħÛĮ Ú¯Ø±Ø¯Ø¯
ĠÙħÛĮ Ú¯ÙĨ
ĠØ§Ø³ Ú©ÙĨ
ĠØ§ÛĮ ÙĦÛĮ
ÛĮØ¯ Ø±
Ø³Øª ÙĨ
ĠÙģ ÛĮØª
ĠÙģ Ø§ÙħØ§Ø±Øª
ĠØ¨Ø± Ø¢ÙĪØ±Ø¯
ĠØ¹ ÙĤÙĦ
ØŃ Ø§ÙĨ
ØŃ ÛĮØŃ
ĠÚ¯ ÙħØ§ÙĨ
ĠÚ¯ Ø§Ø±Ø§ÙĨØªÛĮ
ĠØ¬ Øº
ĠØ¬ Ø§ÙĦØ¨ÛĮ
ĠØ§ÛĮÙĨ Ùĩ
ĠØŃ Ø´
ĠØŃ Ø§Øª
ĠØŃ Ø§ÙģØ¸
ĠØŃ ÙĦÙĪØ§
ĠÙĤ Ø§Ø±
ĠÙĤ Ùģ
ĠÙĤ Ø§Ø¬
ĠÙĤ Ø²ÙĦ
ĠØ² Ø§Ø±
ĠØ§ÙĨ Ø´Ø§Ø¡
ÙģØª Ú¯ÛĮ
ĠØ¯Ø§ÙĨ Ø§Ú©Ø¯Ùĩ
ĠÙĩÙħ ÙĬÙĨ
Ø¶ ÙĪØ¹
ØªØ± Ø§Ø³Øª
Ø±Ø§ÙĨ ÙĬ
ĠÙĦ ÙĨ
ĠÙĦ Ú¯ÙĨ
ĠÙĦ Ø´Ú©Ø±
ĠØµ Ø¹ÙĪØ¯ÛĮ
Ú©ÛĮ ÙĪ
ĠØ· Ø§ÙĦØ¨
ĠØ· Ø¹Ùħ
ĠÙħÙĪ Ø¸
ĠÙħÙĪ Ø§Ø¶Ø¹
ĠÚ©Ø§Ø± ÙĩØ§ÛĮÛĮ
ĠÚ©Ø§Ø± Ø¢Ùħ
ĠÚ©Ø§Ø± ÙĪÙģ
Ø¸ Ø§Øª
ĠÛĮÚ© Ø¨Ø§Ø±
ĠØ®ÙĪØ¯ ØªÙĪÙĨ
ĠØ§Ø± Ú¯
ĠØ§Ø± Ø§Ø¯Ùĩ
ĠØ¨ÛĮ Ø§Ø¨
ĠØ¨ÛĮ Ú¯Ø§ÙĨÙĩ
ĠØ¨Ø§Ø´ ÛĮ
ĠÙħØ± Ø§Ø¯ÛĮ
ĠÙħØ± Ø§ØªØ¨
ĠÙħØ¹ Ø§Ø±Ùģ
ĠÙħØ¯ Ø§ÙĦ
ĠÙħØ¯ Ø§ØŃ
ĠÙħØ´ Øª
Ú©ÙĨ ØªØ±ÙĦ
ĠØ§Ùģ Ø´
ĠÙħØª Ø®
Ø¢ Ø²
ĠØ³Ø± Ø§ÛĮ
ĠØ±ÙĪ Ú©Ø´
ĠØ±ÙĪ ÙħÛĮØ²ÛĮ
ĠØº ÙĬ
ĠØº ÙĨÛĮ
Ø¯Ø± ØµØ¯
ĠØ³Ø§ÙĦ Ú¯Ø±Ø¯
ĠÙĤØ± Ø¶
ĠØ¯ÙĪ ÛĮØ¯
ĠØ¢ÙħÙĪØ²Ø´ Ú©Ø¯Ùĩ
ĠÙĨØ¸ Ø±Ùħ
ĠÂ ©
ĠÙħÙĩ ÙĦØª
ĠÚ©Ùħ Ú©ÛĮ
ĠØ³ÛĮ Ú¯Ø§Ø±
ĠÚ¯ÙĦ ÙĪ
ĠÚ¯ÙĦ ÙĪÙĦÙĩ
ĠÚ¯ÙĦ ÚĨÛĮÙĨÛĮ
ĠØ¬Ùħ Ø§ÙĦ
ĠØ³ÙĪ Ù¾Ø±
Ø±Ø³ Ø§ÙĨ
ĠØªØ¹ ÙĤÛĮØ¨
ĠØ±Ø³ ÙħÛĮØª
ĠØ±Ø³ Ø§ÙĨØ¯ÙĨ
ĠØ·Ø± ÙĤ
ĠØ±ÙĪÛĮ Ø§ÛĮ
ĠØªÙħ Ø±ÙĬÙĨ
ĠÙħØ±Ø¯ ÛĮ
ĠÙĨÙĤ Ø´ÛĮ
ÙĢ Øª
ÙĢ Ø·ÙĦØ§ØŃ
ÙĪØª Ø§
ĠØ§ÙĪ Ø§ÛĮÙĦ
ĠÙĨØ´ ÙĪÙĨØ¯
ĠØ§ÙĤ Ø¯Ø§ÙħÛĮ
ĠØ¨Ø§ÙĦ Ú¯Ø±Ø¯
ĠØ¨Ø§ÙĦ Ø§ØªØ±ÛĮ
ĠØ¨Ø¹ Ø¶Ø§
ÙģÛĮ Ø³
ĠØŃØ§ÙĦ ØªÛĮ
ĠØ´ÛĮ Ø±ÛĮÙĨÚ¯
Ø®ÙĪ Ø§Ø³ØªÛĮ
ĠØ±ÛĮ Ú¯
ĠØ§ØŃ ÙĪØ§ÙĦ
ĠÙ¾Ø± ÙĨØ¯Ùĩ
ĠØ¨Ø§Ø± Ø´
Ú©Ø±Ø¯ Ùĩ
ĠØ§Øª ÙĪÚ©
an ce
ĠØ´Ø¨ Ø§ÛĮ
ĠÙĩÛĮ ÙĪÙĦØ§
ĠÙĩÛĮ Ø£Øª
ĠÙĨØ³ Ø¨ÛĮ
er lin
ĠÙĨÙĪ Ø§Ø²
Ø§Øº Ùĩ
ĠØ° ÙĥØ±
ĠØ¢Ø± Ø²ÙĪ
ĠS er
Ø§ÙĪ ÙĬ
ĠÙĨØ¯ Ø§Ø¯Ùĩ
ĠØŃØ¯ Ø³
ĠA m
ĠØ¯ÙĦ Øª
ĠØ®ÛĮ Ø§Ø·ÛĮ
ĠÛ² Û¶
ĠØ§Ø³ØªØ§ÙĨ Ø¨ÙĪÙĦÛĮ
ĠÙħØ¯ÙĦ ÙĩØ§ÛĮ
ĠØ®Ø§Ø± ÙĤ
ĠØ³Ù¾ Ø§Ø³
ĠM o
ĠM AR
ĠØŃÙħ Ø²Ùĩ
ĠD ev
ĠD riv
ĠØ®ÙĪØ§Ùĩ Ø±
ĠÙĨÙĪØ´ ÛĮØ¯ÙĨÛĮ
ĠC FT
ĠØ³ÙĦ ÙħØ§ÙĨ
Ú¯Ø±Ø¯ Ø´
ĠÙĩØ¯ Ø³Øª
ĠÚ©ÙĪØ¯Ú© Ø§ÙĨÙĩ
en s
ĠÚĨØ´Ùħ Ø§Øª
ĠØ§Ø¨Øª Ú©Ø§Ø±
Ġ5 5
ĠB u
ĠÚĺ ÙĦ
ĠÚĺ ÙĪØ±ÙĨ
ĠØ¢Ø® Ùĩ
ÙģÙĤ Ø·
ĠÙħÙģ Ø§Ø¯
ĠØ´Ú© Ø§ÛĮØ§Øª
ĠØ´ÙĪØ± Ø§ÙĬ
ĠÙħØŃØªÙĪ Ø§ÛĮÛĮ
Ø¬Ø§ÙĨ Ø¨Ùĩ
ĠÙĪØ³ Ø¹Øª
ĠÙĨØ® Ø¨Ùĩ
ĠØ¬Ø° Ø§Ø¨ÛĮ
ĠØ®ÙĪØ§ÙĨ Ø¯
ĠØ®ÙĪØ§ÙĨ Ø¯ÙĨÛĮ
ĠØ¯Ø±ÛĮØ§ÙģØª ÛĮ
ĠG ro
ĠG IF
ĠØªØ£ ÛĮÛĮØ¯
Ø¢Ùħ Ø¯Ùĩ
ĠÚ¯ÙĪ Ø§ÙĩÛĮ
ĠØ´Ú©ÙĦ Ø§Øª
ĠÙ¾ÙĪØ´ ÛĮØ¯Ùĩ
Ø¹Ú©Ø³ ÙĩØ§ÛĮ
ĠÙ¾ÙĬ Ø§Ùħ
ÙĦÙĬ ÙĦ
ĠÙĤØ¨ Ø§Ø¯
ĠØŃÚ© ÛĮÙħ
ĠÙĨØ¨ Ø§ÙĬØ¯
ĠØ®Ø± Ø§Ø¨ÛĮ
ĠÛ±Û³Û¹Û ±
ĠÛ±Û³Û¹Û ²
ĠØ®ÙĪØ§Ø¨ ÛĮØ¯ÙĨ
ĠØ¨Ø³Øª Ø±ÛĮ
ow er
Ø§ÙģØª Ø¯
Ġc s
Ú¯Ø°Ø§Ø± ÙĨØ¯
ĠÙħØ² Ø§Ø¬
Ø§Ø¦ÛĮ Ø§ÙĨ
ĠÙ¾ÙĦÛĮ Ø³ÛĮ
ĠØªÙĦÙģ Ø¸
Ġb ts
ĠØ¨ÙĬ Ø´
ĠØ¢ÙĪØ±Ø¯ ÙĨØ¯
ĠØ´ÙĨØ§Ø³ ÙĬ
ĠØ¹ÙħÙĦÛĮ Ø§ØªÛĮ
ĠÙħÚ¯ Ø§Ø¨
ĠØ¯ÙĤÛĮ ÙĤÛĮ
ĠØ¬Ø¯ Ø§ÛĮÛĮ
ĠÙĪØŃ ÛĮ
et t
ĠØŃÛĮ Ø§Ø·
ĠØ¯Ø³ØªÙĪØ± Ø§Øª
ĠØ®ÙĪØ±Ø¯ Ú¯ÛĮ
ĠØ¹ÙĤ ÛĮØ¯Ùĩ
ĠØµÙĪØ±ØªÛĮ Ú©Ùĩ
ĠÛ· Û°
Ø´ÙĪ ÛĮØ¯
ĠØ§ÙĨØ¯ÛĮ Ø´Ú©Ø¯Ùĩ
ĠØ¢Ø±Ø§ÛĮØ´ Ú¯Ø±
Ø³ÙĦ Ø·
ĠÙĨØ§Ø± Ú¯ÛĮÙĦ
Ø§Ø° ÙĦ
Ú©Ø±ÛĮ ÙħÛĮ
ĠÙĤÛĮ Ø§ÙħØª
ĠÙħÙĪÙĦ Ùģ
ĠÙħÙĤØ¯Ùħ Ùĩ
ĠÙħØ§Ùħ ÙĪØ±Ø§ÙĨ
ĠJ AC
ĠÙĨØ¨ÙĪØ¯ ÙĨ
ĠÙĨÙĪØ´Øª Ø§Ø±
ĠØ®ÙĦØ§ÙĤ ÙĬØª
Ù¾Ø° ÛĮØ±ÛĮ
ĠØ¹Ø²ÛĮØ² Ùħ
Ø¨Ø¯ ÙĪÙĨ
ĠØ±ÙĪÛĮØ¯ Ø§Ø¯ÙĩØ§
ĠØ¨Ú¯Ø°Ø§Ø± ÙĨØ¯
ĠØªÚ©ÙĨÛĮÚ© ÙĩØ§ÛĮ
av e
ØªØº ÛĮÛĮØ±
ĠØ¯ÙĬÚ¯Ø± ÙĬ
ig n
ĠÙħØ°Ø§Ú© Ø±Ø§Øª
ĠÙħÙĨØŃ ÙĨÛĮ
ĠØ§Ø®ØªÙĦØ§Ùģ Ø§Øª
ĠØªØ§ÙĨ Ú©
ĠØ¯Ø§Ø¦ Ø±Ùĩ
ĠÛĮÙĪÙĨ Ø§ÙĨ
Ù¾ÙĪØ±Øª Ø§ÙĦ
ĠØ§Ø³ÙĦ Ø§ÛĮÙħ
ĠÙħÙĨØµ ÙĪØ¨
ĠØªØ¦ ÙĪØ±ÛĮ
ĠÙĨØ¯Ø§Ø´Øª ÙĨØ¯
ĠØªÙĪØµÛĮÙģ ÛĮ
ĠSp eed
ĠØªÙģØ³ ÙĬØ±
ĠØ§Ø³ÙĨ Ù¾
Ø¹ÙĦ Ø§Ø¦Ùħ
ÙħØ¯ÛĮØ± Ú©ÙĦ
ĠØ¨Ø¯ÛĮ ÙĩÛĮ
ĠÚ¯ÛĮØª Ø§Ø±
ĠØ§ÙĨØ² Ø§ÙĦ
ĠÚĺØ§ÙĨ ÙĪÛĮÙĩ
Ø³Ø§Ùħ Ø§ÙĨÙĩ
âĢ¦âĢ¦ âĢ¦âĢ¦
ĠÙĨØ² ÙĪÙĦ
ĠÙĨØ² ÙĪÙĦÛĮ
ĠØ§Ø¹Ø· Ø§ÛĮ
ĠÙĨØ¹ ÙħØª
ĠØ¯ÛĮÙ¾ÙĦÙħ Ø§Ø³ÛĮ
ĠØ¬Ø§Ø³ ÙĪØ³ÛĮ
ĠÙħØ³ÙĦÙħ Ø§
ĠØ´Ùĥ ÙĦ
ĠØ´ÙĬ ÙĪÙĩ
ĠØ¢ÙĦÛĮ Ø§Úĺ
ĠÙĤØ¶ ÛĮÙĩ
ĠØ§Ø¹Ø¶ Ø§Ø¡
ĠØ§Ø¦ ÙħÙĩ
ĠÙĨØ±ÛĮ ÙħØ§ÙĨÛĮ
ĠØªØºÙĬÙĬØ± Ø§Øª
ĠØªØŃÙĤÙĬÙĤ Ø§Øª
0936 2022208
ĠØ±Ø®Ø¯Ø§Ø¯ ÙĩØ§ÛĮ
ĠÙ¾Ú© ÛĮÙĨÚ¯
ÙħÙĨØ¸ ÙĪØ±
ĠØ¨Ø¹Ø¶ ÙĬ
ĠÚ©ÙĪÙ¾ ØªØ±
ØªÙĪØ¶ÛĮØŃ Ø§Øª
ÙħØŃÙħ Ø¯Ø±Ø¶Ø§
ĠØ¨Ø±ÛĮØª Ø§ÙĨÛĮØ§
Ø¯ÙĪØ¨ ÙĦÙĩ
ĠÙĤÙħÛĮ Ø´ÛĮ
ĠØ·Ø§ÙĦ Ø¨Ø§ÙĨ
ĠØ¯ÙĩÙĦ Ø±Ø§ÙĨ
ĠÙħØ§Ø±Øª ÛĮÙĨ
ĠØ¶Ø§ÛĮ Ø¹Ø§Øª
ĠØ¹ÙĨÚ© Ø¨ÙĪØªÛĮ
ĠØ¨ÙģØ±Ùħ Ø§ÛĮÛĮØ¯
ĠÙĪÛĮØ¯Ø¦ ÙĪÛĮÛĮ
yndro me
ĠÙħØ²Ø± Ø¹Ùĩ
ĠÚ©Ø§Ø±ÙĪÙģ ÙĨØ§ÙĪØ±ÛĮ
ĠMAR C
) ØĽ
2 00
: âĢĮ
D L
O R
d ownload
i ew
l ish
p x
q u
s l
Ð º
Ù ¢
Ġ ÛĮÙĨ
Ġ an
Ġ is
Ġ **
Ġ Ñģ
ÛĮ Ø§Ø¨
Ø± Ø³Øª
Ø± Úĺ
ÙĨ Ø§Ø¨
ÙĨ Ú©Ø±Ø¯
Ø¯ Ø¹
Ø¯ ÙĦÙħ
ÙĪ Ø§Ø³ØªÙĩ
Ùħ ÙĬÙĨ
Ú© Ø§Ø±Ø¯
ĠØ¨ Ø§Ø¯ÛĮ
ĠØ¨ Ø¬Ø§ÛĮ
ĠÙħ Ú©Ùĩ
ĠÙħ ÚĺÙĩ
ĠÙħ Ø§ÛĮÙĩ
ĠÙħ Ø§Ø±Ø³
ĠØ¯ Ø§ÛĮÙĨ
ĠØ¯ ÙĦØ¨
Ø³ Ø§Ø¨
ĠÙĪ Ø¯
ĠÙĪ ÙĦÙĪ
ĠÚ© ÙĦÙĩ
Ø§Ø± ÙĨÚ¯
ĠØª ÙĦÙĩ
ĠØª Ú©Ø³
ĠØª ÛĮÙħÛĮ
ĠØª Ø³Ú©
Ùģ Ø§ØµÙĦÙĩ
ĠØ± Ø¬Ø§ÛĮÛĮ
ĠÙĨ ÛĮÙĨ
ĠÙĨ Ø·
ĠÙĨ Ø§ÙĤ
ĠÙĨ ØµÛĮ
ĠÙĨ Ø§ÛĮØ¨
ĠÙĩ ÙĦÛĮ
ĠÙĩ ÙĪÛĮ
ĠØ³ ØªÙħ
ĠØ´ ØµØª
ĠØ¢ ÙħÛĮ
Ø¹ Ø±ÙģÛĮ
Ø¹ ÙĦÙĪÙħ
ĠØ¨Ùĩ Ø§Ø±Ùĩ
ĠØ¨Ùĩ Ø¬Øª
ĠØ¨Ùĩ Ø¨ÙĪØ¯ÛĮ
Ø±ÛĮ Ø´
ĠÙ¾ Ø±Ùģ
ĠÙ¾ Ø§ÛĮØ´
ĠÙ¾ Ø§Ø±Øª
ĠÙ¾ ØªØ§ÙĨ
ĠÙ¾ ÙħÙ¾
ĠØ® ÙĨØ¯
ĠØ® ÙĦÙĪ
Ø¬ Ø²Ùĩ
ĠØ§Ø² Ø§Ø¯
ĠÙħÛĮ ÙĨØ§
ĠÙħÛĮ Ø´Ùħ
ĠØ§Ø³ ÙĩØ§ÙĦ
ÙĪØ± Ùħ
ÙĬ ØŃ
ÙĬ Øµ
ÙĬ ÙĦÙĩ
ÙĬ Ø¬Ùĩ
Ø® Ø±Ùĩ
ĠÙģ Ùĩ
ĠØ¨Ø± ØªØ±ÛĮ
ĠØ¨Ø± Ø§ØŃØªÛĮ
ØŃ Ø§Ø¯
ØŃ ÙħØª
ĠÚ¯ ÙĪÛĮÛĮ
ĠÚ¯ Ø±Ø§ÙĨÛĮ
ĠØ¬ ÙĪÙĦØ§ÛĮ
Ø§Ø¨ ÛĮØ±
ĠØŃ Ø§Ú©ÛĮ
ĠÙĤ ÛĮØ¯
ĠÙĤ Ø§ÚĨ
ĠÙĤ ÙĪØ·ÛĮ
ĠØ² ÙĨØ§
Ù¾ Ø§ÛĮÛĮ
Ù¾ Ø§Ø±Ú©
Ù¾ Ø§Ø±ÚĨ
ÙĩØ§ÛĮ Ø´Ø§ÙĨ
ÙĩØ§ÛĮ ØªØ§ÙĨ
ĠØ§ÙĨ Ú©Ø§Ø±
ĠÙĩÙħ Ø¬ÙĨØ³
Ø¶ Ø§Ø¡
ÙĪØ² Ø§Ø±Øª
ÙĨÚ¯ Ø§Ùĩ
Ø³ÛĮ Ø³Ø§Øª
ĠØ¨Ø±Ø§ÛĮ Ø´
ĠÙĦ Ø¹
ĠÙĦ Ø§ÙħÛĮÙĨ
ĠØ§Ùħ Ø§Ø±Ø§Øª
ĠØµ Ø¯ÛĮ
ĠØµ ÙĪØª
ĠØµ Ø¯ÙĩØ§
ĠØµ Ø¹ÙĪØ¯
ĠÚ©ÙĨ ÛĮÙĨ
Ú©ÛĮ ÙĦØ§Øª
ĠØ· ÙĪÙĦÛĮ
ĠØ· Ø§Ø¹ÙĪÙĨ
ĠÙħÙĪ Ø§Ø²
ĠÚ©Ø§Ø± Ú¯Ø±
ĠÚ©Ø§Ø± Ú¯Ø±Ø¯
ĠÚ©Ø§Ø± Ø¢ÙħØ¯
ĠÚ©Ø§Ø± ÙģØ±Ùħ
Úĺ ÙĪÙĦ
ĠØ¯Ø§Ø± Ø§ÛĮÛĮ
Ú¯Ø± Ø§ÛĮÛĮ
ĠØ§Ø± Ø§Ú©
ĠØ¨ÛĮ Ú¯ÛĮ
ĠØ¨ÛĮ Ø¬Ø§Ø±
ÙĨÛĮ Ø§Ø²
ÙĨÛĮ ÙĪØ²
ĠÙģØ± Ø¢ÙĪØ±Ø¯Ùĩ
Ø¨ÛĮ Ø´
ĠÙħØ¹ Ø¶
ĠÙħØ¹ Ø¯ÙĨÛĮ
ĠÙħØ¹ Ø¬Ø²Ùĩ
ĠØ´Ùħ Ø±Ø¯Ùĩ
ĠÙ¾ÛĮ Ø§Ø²
ĠÙħØ¯ Ø¹ÛĮ
ĠÙħØ´ Ùĩ
ĠÙħØ´ Ø±ÙĤ
ÙĩÙĨÚ¯ Ø§Ùħ
ĠÙħØª ÙħØ§ÛĮ
ĠØ¯Ø³Øª Ø§ÙĨ
ĠØ´Ø¯ ÛĮÙħ
ĠØ´Ø¯ Ú¯Ø§ÙĨ
Ø¢ ÙĦØ§Øª
ĠØ³Ø± ÙħØ§
ĠØ±ÙĪ Ø³Ø§ÛĮ
Ø²ÛĮ Ø¨Ø§ÛĮÛĮ
ĠØº Ø¨Ø§Ø±
ĠØº Ø§ÙĦØ¨
ĠØº Ø²Ùĩ
ĠØ§ÛĮØ±Ø§ÙĨ Ø³ÙĦ
ĠÙĤØ± Ø¨Ø§ÙĨ
ĠØ¢ÙĩÙĨÚ¯ ÙĩØ§ÛĮ
ĠÙħØ³ ÙĦØ·
ĠØ¯Ùĩ ÙĬØ¯
ĠØ¯Ùĩ ÙĤØ§ÙĨ
ĠØ´Ø± Ùħ
ĠØ¹Ùħ ÙĪ
ĠÚ¯Ø± Ø§
ĠÚ¯Ø± Ø§ÙģÛĮÚ©ÛĮ
ĠØ²ÛĮ Ø±ÛĮÙĨ
ĠØ²ÛĮ Ø³ØªÛĮ
Ùĥ Ø³
Ø§Ø¦ Ø±
ĠØ§Øµ ÙĪÙĦÛĮ
ĠØ³ÙĪ Ø¦
ĠØ³ÙĪ Ú¯ÙĨØ¯
ĠØªØ¹ Ø·ÛĮÙĦ
ĠØ±Ø³ Ø§ÙĦØª
ĠØ¢Ø²Ø§Ø¯ Ú¯Ø§ÙĨ
ĠÙģÛĮ Ø³
Â» ØĽ
ĠØ±ÙĪÛĮ Ø§ÛĮÛĮ
ĠØªÙħ Ø¯ÙĨ
ÙĪØª ÙĨ
ĠØ§ÙĨØª Ø²
ĠÙĨØ§Ùħ ÛĮ
Ø¨Ø§Ø± Ø§ÙĨ
ĠØ§ÙĨØ¯ Ú©ÛĮ
ĠØ§ÙĤ ÙĦØ§Ùħ
ĠØ´ÙĩØ± Ú©ÛĮ
ĠØ³Ø§Ø²ÙħØ§ÙĨ ÙĩØ§ÛĮÛĮ
Ø¯Ø§ÙĨ ÙĨØ¯
Ú©Ø§Ø± Ú¯Ø§Ùĩ
ĠØªÙĨ Ø¨ÛĮÙĩ
Ø®ÙĪ Ø§Ùħ
ĠØ¯Ø§Ø¯ Ø³ØªØ§ÙĨ
ĠØ§ÙģØ² ÙĪÙĨ
ĠØ±ÛĮ Ø®ØªÙĩ
Ø¯Ø§Ø± ÙĬ
ĠÙħØµ ÙĦØŃ
ĠÙħØµ ÙĪØ¨Ùĩ
Ø´Ùħ Ø§Ø±
ĠØ´Ø±Ú©Øª ÙĩØ§ÛĮ
Ø¨Ø±Ø¯ Ø§Ø±
ĠØªØ´ Ú©ÛĮÙĦØ§Øª
Ø±ÙĪØ² ÙĨØ§ÙħÙĩ
Ġ3 2
on y
ĠØ° Ùĩ
ĠÙħØ« Ø§ÙĨÙĩ
Ø§ÙĪ ÙĬØ±
ĠÙģØ¹Ø§ÙĦ Ø§ÙĨ
ĠØ·Ø±ØŃ ÛĮ
ĠØªÙĩØ±Ø§ÙĨ ÛĮ
ĠØŃØ¯ ÙĪØ¯ÛĮ
ĠÚ©ÙĪ Ø¨ÛĮ
ĠØ®ÛĮ Ø§ÙĦ
ĠØ®ÛĮ Ø§ÙĨØª
ĠØ®Ø· Ùī
ĠØ®Ø· Ø±Ø§Øª
ĠÙħØ³Øª ØŃÚ©Ùħ
ĠØªØ¨ ØµØ±Ùĩ
ĠÙħØªÙĨ ÙĪØ¹ÛĮ
ĠÚ©Ø§Ùħ Ù¾
ĠØªÚ© Ø³Øª
ĠØªÚ© ÙĨÛĮÚ©ÛĮ
ĠÚ©ÛĮÙģÛĮØª Download
Ø¯ÙĨ Ø¨Ø§ÙĦ
Ùĳ ÙĲ
ĠØ³Ù¾ Ùĩ
ĠM on
ĠØ±ÙģØª Ø§Ø±ÛĮ
ĠÚ©Ø§ÙĨ ØªØ±
ĠD er
ĠØ®ÙĪØ§Ùĩ Ùħ
ĠØ¢ÛĮ Ù¾Ø¯
ĠÙħÙħ ÙĥÙĨ
Ú¯Ø±Ø¯ ÙĪÙĨ
ĠÚĨØ´Ùħ Ú¯ÛĮØ±ÛĮ
ĠÙģÙĦ Ú©
ĠØ§Ø« Ø±ÛĮ
ĠØ®Ø§Øµ ÛĮØª
ĠØ³Ø§ÛĮ Ø¨Ø±
at ch
ĠÚĨÙĩØ§Ø± ÚĨÙĪØ¨
ĠT h
ĠT r
Ø¶Ø§ÛĮ ØªÛĮ
ĠÙħÙĨØª Ø¸
ĠÙħÙĨØª Ø®Ø¨
ĠØŃÙĦ Ø§ÙĦ
ĠØ³Ùģ Ø§Ø±Øª
ĠÙĨØµ Ø±ØªÛĮ
ĠI m
ĠÙĪØ§ØŃ Ø¯ÙĩØ§
ĠØªØ® ØªÙĩ
ĠØªØ® ÙħÛĮÙĨ
ĠÙĨØ® ÙĪØ¯
ĠØ¯Ùģ Ø§ØªØ±
ĠÚ©Ø± ÙħÛĮ
ĠØ³Ø§Ùħ Ø±Ø§
ĠØªØ£ Ø³ÛĮØ³Ø§Øª
ĠØ§ÙĨØ³Ø§ÙĨ ÙĩØ§
Ø®ÙĪØ§Ùĩ Ùħ
Ø¢Ùħ Ø±ÛĮÚ©Ø§
ĠØ¯ÙĪØ³Øª Ø§ÙĨÙĩ
ĠØ§ÙĨØªÙĤ Ø§Ùħ
Ù¾Ø± Ø³Øª
ĠØ®ÙĪØ´ Ø¨Ø®ØªØ§ÙĨÙĩ
ÙħØŃ ÛĮØ·
ĠØ¨Ø±ÛĮ Ø¬
ĠÙħØ³ØªÙĤÛĮÙħ Ø§
ĠØªØ§Ø« ÙĬØ±
ĠN iss
ĠØ±Ùģ Ø§ÙĩÛĮ
ĠÙħØ¹ÙĨ Ø§ÛĮÛĮ
ĠÙħØ¹ÙĨ Ø§ÙĬ
ĠÛ±Û³Û¹Û ´
ĠL ED
ĠÙĨØŃ ÙĪ
ĠÙ¾ÙĦ Ú©
ĠÛ³ Û°Û°
ĠØŃØ§ÙĦÛĮ Ú©Ùĩ
Ġh p
Ġb y
ĠÙħØ§ÙĦÛĮ Ø§Øª
ĠØ¨Ø§Ø¯ Ùħ
ĠØ§Ø³Ù¾ Ø±ÛĮ
ĠÙĪØŃ Ø´Øª
ĠÙĪØŃ Ø´ÛĮ
ĠØªØ¨Ø±ÛĮ Ø²ÛĮ
ĠÙħØªØ®ØµØµ ÛĮÙĨ
ĠW eb
ĠW ord
ĠØ¯Ø§Ø±ÙĪ Ø®Ø§ÙĨÙĩ
ĠØ§ÙħÛĮØ± Ø§ÙĦÙħ
ĠÙ¾ÛĮÚĨ ÛĮØ¯Ú¯ÛĮ
ĠØ§ÙĨØ¯ÛĮ Ú©Ø§ØªÙĪØ±
ĠÙģØ±ÙħØ§ÙĨ Ø¯Ø§Ø±
ĠØ¨Ø¯Ø§ÙĨ ÛĮÙħ
ÙĤØ¯Ø± Øª
ĠØ³Ú© ÙĪÙĦ
ĠJ av
ĠØ¬Ø§ÛĮÚ¯Ø² ÛĮÙĨÛĮ
ĠÛ±Û³Û¸ Û´
ĠØªØ¶ Ø§Ø¯
Ø§ÙĦÙħ Ø«ÙĦ
ÙĬÙĤ ÙĬ
ĠØ³ÙĬ Ø§ÙĤ
ĠØ³ÙĬ Ø³ØªÙħ
Ø¯Ø³Øª ÙĪØ±Ø§ÙĦØ¹ÙħÙĦ
ĠØ¨Ø¨ÛĮÙĨ ÛĮÙħ
ĠØ§ÛĮØ± Ø¬
Ù¾Ø²Ø´ Ú©
ĠÙħØ¶ Ø±
ĠÙĪÙģ Ø§Øª
ĠØ±ØŃ ÙħØª
ĠÙĦØº Øª
Ø§Ø¬Ø± Ø§ÛĮ
ĠØ¬ÙĪØ´ Ú©Ø§Ø±ÛĮ
ĠÙĬÚ© ÙĬ
ĠØ¯Ø±Ø®Øª Ø§ÙĨ
ÙħÛĮÙĦÛĮ Ø§Ø±Ø¯
ĠÙĨØ§Ø® ÙĪØ§Ø³ØªÙĩ
ĠØªØ³ Ø®ÛĮØ±
ØªØ±Ø§Ú© Ùħ
ry pt
ĠØ§Ø³Ùģ ÙĨØ¯ÛĮ
ĠØ§Ø³Ùģ ÙĨØ§Ø¬
ĠÚĨØ§ÙĦ ÙĪØ³
ĠÙĩÙħØ³ Ø±Øª
Ø²ÛĮÙĨ Ø³
ĠÙħØ·Ùħ Ø¦ÙĨØ§
ÙĤØ¨ Ø§Ø¯
ĠØ§ÙģØ· Ø§Ø±ÛĮ
ĠÙħØ¨Ø§ØŃ Ø«Ùĩ
ĠØ¯Ø±Ø®Ø´ ÙĨØ¯Ùĩ
ĠØ·Ø±Ø§ØŃ Ø§ÙĨ
ĠÙĩÙħØ³Ø± Ø´
ah ar
ĠÙĪØ§Ø±ÛĮ Ø³
Ø¹Ø§ ÙĪÙĨØª
ĠÚĨØ³Ø¨ ÛĮØ¯Ùĩ
ĠØ¯ÙħÙĪÚ©Ø± Ø§ØªÛĮÚ©
ÙĤØ§ÙĨ ÙĪÙĨÛĮ
ÙħØ· Ø§ÙĦØ¨
ÙĬÙģ ÙĬØª
Ø§Ø³ÙĬ ÙĪÙĨ
ÛĮÙĨÙĪ Ú©Ø³
ĠØ²Ø§Ø¦ Ø±Ø§ÙĨ
NA K
ĠØ¯Ø®Øª Ø±ÙĪÙĨÙĩ
ĠÙħØ³ÙĦÙħØ§ÙĨ Ø§ÙĨ
ĠØ§Ø«Ø±Ø¨Ø®Ø´ ÛĮ
ĠÙĨØªÙĪØ§ÙĨ Ø³Øª
ĠØ³Ø§ Ú©ÙĨ
ĠØŃÙĥ ÙĪÙħØª
ĠÙ¾Ø§Ø¯Ø´Ø§Ùĩ Ø§ÙĨ
ÙħØµ Ø±Ùģ
ĠÛĮØ® ÚĨØ§ÙĦ
ĠÚ©ÙĪØ«Ø± Ø§Ø³ØªØ§ÙĨ
ĠØ¨Øº ÙĦ
ĠÙĨØ§Ø¯ ÛĮØ¯Ùĩ
ĠØ§Ø¹Ø¶ Ø§ÙĬ
ĠRe za
ĠØ§ÛĮØ¯Ø¦ ÙĪÙĦÙĪÚĺÛĮÚ©
Ø±ÙĪØŃ Ø§ÙĨÛĮ
Ø§ØµØ·ÙĦØ§ØŃ Ø§Øª
ĠØ¯Ú¯Ø± Ú¯ÙĪÙĨÛĮ
ĠÙħØŃÙĪ Ø·Ùĩ
ĠØ¨Ø§Ø²Ø±Ú¯Ø§ÙĨ Ø§ÙĨ
ĠØ§Ø³ØªÙĪØ¯ÛĮ ÙĪÛĮ
ĠØ³ÙĦØ· ÙĨØª
ĠØ¢Ø±Ùħ ÛĮÙĨ
ĠØŃØª ÙĬ
ĠAc adem
ĠÚ©Ø¨ Ø§Ø¨ÛĮ
ĠØªØ·Ø¨ÛĮ ÙĤ
ĠØ³Ø§Ø³ ÙĪØ±ÛĮ
ĠÙĪØµ ÛĮØª
Ù¾ÚĺÙĪÙĩ Ø´
ĠÙĪÛĮÙĦ Ø§ÙĩØ§ÛĮ
ĠÛ±Û³Û¹ Û°
ĠÙģØ¯Ø± Ø§Ø³ÛĮÙĪÙĨ
ĠÙħÙĨØ§ÙĤ ØµÙĩ
ĠØ¢Ø¦ ÙĬÙĨ
ĠØ¬Ø±ÛĮ ÙħÙĩ
ĠØ§Ø³ØªÙĨ Ø§Ø¯
ĠStr ong
ĠTAB NAK
ÙħØŃØµÙĪÙĦ Ø§Øª
Ú¯ÙģØªØ§Ø± Ø¯Ø±ÙħØ§ÙĨÛĮ
ĠÚ©Ø§ÙĦÛĮÙģØ± ÙĨÛĮØ§
ĠØ§ÙĤØª Ø¯Ø§Ø±
ĠØ¬Ø²Ø§ÛĮ Ø±ÛĮ
ĠÙħØ²Ø§ØŃ Ùħ
Ø´Ø§Ø¨ ÙĪØ±
ĠÙ¾Ø§Ø±ÛĮ Ø³
ĠØ¬Øº Ø±Ø§Ùģ
ĠÙħØªØ® ÙĦÙģ
ĠGro up
Ù¾Ø§Ø±ÚĨ Ú¯ÛĮ
ĠÙħØªÙħØ§ÛĮ Ø²
ĠNiss in
) ,
. "
4 8
5 8
5 00
E L
R E
S I
T he
b er
c k
f o
l es
n y
p er
s h
v e
Ù £
ã Ģ
Ġ .................
Ø± Ø´ØªÙĩ
Ø± ØºÙħ
ÙĨ ÙĪØ³
ÙĪ Ø¸
ÙĪ Ø§Ø³Øª
Øª ÛĮÙħ
Øª Ø§Ø¬
Ùħ Ø§Ø±
Ùħ Ø®
Ú© Ø§Ø¨
Ú© Ø±Ùĩ
Ú© Ø¨Ø§Ø±
Ú© Ø´Ø¯
ĠØ¨ Ø§Ø³
ĠØ¨ Ø´ÙĪØ¯
ĠØ¨ ÙĦØ§Ú©
ĠØ¨ ÙħØ§ÙĨÙĨØ¯
ĠØ¨ Ø®ÙĪØ§Ø¨
ĠØ¨ ÙĪØ¹ÙĦÛĮ
ĠÙħ ÚĨ
Ø§ÛĮ Ø§ÙĨÙĩ
ĠØ¯ Ø§
ĠØ¯ ÙĤ
ĠØ¯ ÙĨØ¯Ùĩ
ĠØ¯ ÙĪÙĨÙĩ
Ø³ Ùģ
Ø³ ÙģØ±
Ø³ Ø¨Ø§ÙĨÙĬ
ĠÙĪ Ùĩ
ĠÙĪ Ø´
ĠÙĪ Ø§Ø¯Ø§Ø±
Ø´ ÙħÙĩ
ĠÚ© Ø§Ùģ
ĠÚ© Ø§Ø³Ùĩ
Ø§Ø± Ø¨
Ú¯ ÙģØªÙĩ
Ú¯ Ø§ÙĦØ±ÛĮ
Ø¨ Ø±ÛĮØ¯
ĠØª Ø¯Ø§Ø±
ĠØª Ø§Ø¨ÙĦ
Ùģ Ø§ÙĦÙĪ
Ø² ÙħØ§ÙĨÛĮ
Ø² ÙĨØ§ÙĨ
Ø² ÙħÛĮÙĨÛĮ
ĠØ± Ù¾
ĠØ± ÙĪÙĦ
ĠØ± ÙĤÛĮØ¨
ĠÙĨ ÙĪÙĩ
ĠÙĨ Ú¯ÛĮØ±Ø¯
ĠÙĨ Ø¨Ø§Ø´ÙĨØ¯
Ø§Ùħ ÛĮØ±
ĠØ³ ÙĪØ²Ø´
ĠØ³ Ø§ÙĨØ¯
ĠØ³ Ø§ÙĨØª
ĠØ³ Ú©Ø§ÙĨØ³
ĠØ´ Ø±ÛĮÚ©
ĠØ¢ ÙĬ
Ø¹ ÙĤ
Ø¹ Ø§ÙĦÛĮ
Ø¹ ÛĮÙĨÚ©
Ø¹ Ø§ÙħÙĦÛĮ
Ø§ÙĦ Ø§Ø³ÙĦØ§Ùħ
ĠØ¨Ùĩ Ø´Øª
Ø±ÛĮ Ø¹
Ø±ÛĮ Ø¯Ùĩ
Ø±ÛĮ ÛĮØ³
ĠÙ¾ ÚĨ
ĠÙ¾ Úĺ
ĠÙ¾ Ø§ÙĨØ¯Ø§
ĠØ® Ø¬
ĠØ® Ø´Øª
ĠØ® Ø±Ø¯Ùĩ
ĠØ§Ø² ÙħÙĪÙĨ
ĠÙħÛĮ Ø´Ø¯
ĠÙħÛĮ Ú¯ÛĮØ±
ĠÙħÛĮ Ø³Ø±
ĠØ§ÛĮ ÙĨØ¯
ĠÙģ ØµÙĦÛĮ
ĠØ¨Ø± Ø§Øª
ĠØ¨Ø± Ø§ÙĤ
ĠØ¨Ø± Ú¯Ø±ÙģØªÙĩ
Ø§Ùĩ ÙĬ
ĠØ¹ Ø§Ø±
ĠØ¹ Ø°Ø§Ø¨
ĠØ§Ø³Øª ÙĪØ§Ø±
ĠÚ¯ Ø§ÙĪ
ĠØ¬ Ø§Ø¨Ùĩ
ĠØ¬ Ø§Ø±ÙĬ
ĠØ¬ Ø¹Ùģ
ĠØ¬ ÙĪÛĮØ§ÙĨ
ĠÚ©Ùĩ ÙĨ
Ø§Ø¨ Ø§Ø¯
ĠÛĮ ÛĮ
ĠÛĮ Ø§ÙĦØ§ÙĨ
ĠÛĮ ÙĪØ±ÙĪ
Ø±ÙĪ Ø§Ø¨Ø·
ĠØŃ Ø§Ø¦
ĠØŃ ÙĪØµ
ĠØŃ ÙĪÙĦÙĩ
Ø§Ø´ ÙĪÛĮÛĮ
ĠØ§ ÙĪØ±ÛĮ
ĠÙĤ Ø¨Ø±
ĠÙĤ Ø§ÛĮÙĤ
ĠÙĤ Ø§Ø¹Ø¯
ĠØ² ÙĪØ±
Ù¾ ÙĨ
Ù¾ ÙĨØ¯
Ù¾ ÙĪÙĦ
ĠÚĨ ÙħÙ¾
ĠÚĨ ÙĨØ§Ø±
ĠÙĩØ§ÛĮ Ø´Ø§ÙĨ
Ø¯Ùĩ Ø§ÙĬ
ĠØ¯Ø§ÙĨ ÛĮØ¯
ÙĪÛĮ ÙĪ
Ø¶ Øª
Ø¶ ÙħÙĨ
ĠØ¢ÙĨ ÙĩØ§ÛĮÛĮ
ÙĪØ² Ø§ÙĨ
ØªØ± Ú©ÛĮ
ĠÙĦ ÙĪÙĦ
ĠÙĦ Ø§Ú©
ĠÙĦ Ø§ÙĦÙĩ
ĠØ§Ùħ ÛĮ
ĠØ§Ùħ Ø¶Ø§
ĠØµ ÙĦÙĪ
ĠØ· Ø±ÛĮ
ĠÚ©Ø§Ø± ÙħÙĨØ¯
ĠÚ©Ø§Ø± Ø³Ø§Ø²
Ġ( (
ĠÙħÙĨ Ùģ
ĠÙħÙĨ Ø²
ĠÙħÙĨ Ø§Ø¯Ùī
Ø¸ Ø±Ùģ
ĠÛĮÚ© Ù¾Ø§Ø±ÚĨÚ¯ÛĮ
ĠØ®ÙĪØ¯ ØªØ±Ø§Ú©Ùħ
ĠØ¢Ùħ ÛĮÙĨÙĪ
ĠØ§Ø± Ú©Ø§ÙĨ
ĠØ§Ø± Ø¨Ø§Ø¨
ĠØ¨Ø§Ø² Ø±Ø³ÛĮ
ĠØ¨Ø§Ø² ÙĨØ´
ĠØ¨Ø§Ø² ÙĨÙħØ§ÛĮÛĮ
ĠØ§ÙĦ ÙĨ
ĠØ§ÙĦ ÙĦ
ĠØ¨ÛĮ Ùĩ
ĠØ¨ÛĮ Ø§ÙĪØ±ÛĮ
ÙĨÛĮ Ùĩ
ĠÙģØ± Ø§Ø®ÙĪØ§ÙĨ
Ø¨ÛĮ Ø´ØªØ±
ĠÙħØ¹ Ø¨Ø±
ĠÙħØ¹ Ø¶ÙĦ
ĠÙ¾ÛĮ Ú©Ø±
ĠÙ¾ÛĮ Ø±ÙĪÛĮ
ĠÙħØ´ Ø§ÙĩØ¯
ĠØªØ± Ø¨
ĠØªØ± Ø§Ú©ØªÙĪØ±
ĠØ¯Ø³Øª Ú¯ÛĮØ±ÛĮ
ĠØ¯Ø³Øª Ø§ÙĪØ±Ø¯
Ø¢ Ø´
Ø¢ Ú¯Ø§Ùĩ
Ø¢ ÙĦØ§
Ø¢ ÛĮÛĮÙĨ
Ø¢ ÙħÛĮØ²
ĠØ³Ø± Ø§ÙħÛĮÚ©
ĠØ±ÙĪ ÙħØ§ÙĨ
ĠØ®ÙĪ ÙĨØ¯
Ø²ÛĮ ÛĮ
Ø¨Ùĩ Ø¯Ø§Ø´Øª
ĠØ¯ÙĪ ØªØ§
ĠØ¯ÙĪ Ú¯Ø§ÙĨÙĩ
ĠÙħÙĤ Øª
ĠÙħØ³ Ø£
ĠØ³Ø§Ø² ÙĬ
ĠØ´Ø± ÙĪØ±
ĠØ´Ø± Ø¨Øª
ĠØªØŃ ÙħÛĮÙĦ
ĠÙĥ Ø§ÙĩØ´
ĠÙĩØ± Ú©ÛĮ
ĠÚ¯Ø± Ø´
Ø±ÛĮØ¯ ÙĨ
ĠØ²ÛĮ Ø§Ø±Øª
Ùĥ Ø§Ø±
Ø§Ø¬ ÙĪÛĮÛĮ
Ø§Ø¦ Øª
ĠØ³ÛĮ ÙĪ
Ø§ÙĦÛĮ Ø³ØªÛĮ
Ø§ÙĦÛĮ Ø³Ùħ
ĠØ¨Ø¯ Ø§ÙĨØ¯
ĠØ§Øµ ÙĪÙĦØ§
ĠÚ©ÙĨØ¯ ÛĮ
ĠØªØ¹ Ø¯ÛĮÙĦ
ÙĦÙĪ Ú©
ĠØ§Ø¹ ØªØ¨
Ø§ÙħÙĦ Ø§Øª
ÙĢ ÙĨ
ĠÙģØ±ÙĪØ´ ÙĨØ¯Ú¯Ø§ÙĨ
ÙħÛĮÙĨ Ø§Ø±
ĠØ¹ÙĦ ÙĬ
ĠØ¹ÙĦ ÙĨÛĮ
ĠÙĨØ´ Ø§Ø·
ĠØ¶ Ø§ÙħÙĨ
ĠØ´ÙĩØ± Ú©Ø±Ø¯
ÙħØª Ø®ØµØµ
ĠØ±Ø§Ùĩ ÙĩØ§ÛĮ
ÙħÙĩ Ø¯ÛĮ
ĠØŃØ§ÙĦ ÙĬ
ĠØªÙĨ Ùĩ
ĠØ¨ÛĮÙĨ ÙĨØ¯Ùĩ
ĠØ±ÛĮ ÙĪÙĨ
ÙĪÙĤ Ø¹
ĠØ§Øª ÙħÛĮ
ĠØ¯ÛĮÚ¯Ø± Ùī
ĠÙħÙĬ Ø§ÙĨ
ĠÙħÙĬ Ø²Ø§ÙĨ
ĠÙĨØ³ Ø®
er a
ÛĮØ§ ÙģØª
ĠØ¨Ø®Ø´ Ø¯
ĠØ¨Ø®Ø´ ÛĮØ¯ÙĨ
ĠÙĨÙĪ Ø§ÛĮ
Ġ3 7
ĠÙĨÙĩ Ø¬
ĠÙħÙĪØ¶ Ø¹ÛĮ
ÙĨÙħ Ø§ÛĮÙĨØ¯
ĠÙģØ±ÙĩÙĨÚ¯ ÙĬ
ĠØ¨Ø§ÙĨ ÙĪÛĮ
ĠØºØ° Ø§ÙĩØ§ÙĬ
ĠØªØ§Ø±ÛĮ Ú©ÛĮ
ĠÛ² Û³
ĠÙħØ® Ø²ÙĨ
ĠØ²ÙĨ ÙĨØ¯
ĠÙħØ¯ÛĮØ± Ú©ÙĦ
ĠÚ©Ø§Ùħ ÙĨØª
ĠÙ¾ÙĪØ³Øª Ø±
ĠØªÚ© Ø§ÙĦÛĮÙģ
ĠØªØºÛĮÛĮØ± Ø§ØªÛĮ
ĠØ¬ÙĨ Ø§ØŃ
ĠØ¨Ø¹Ø¯ Ø§Ø²
ĠÙĨØ±Ùħ Ø§ÙĦ
ĠØ±ÙĨÚ¯ Ø§Ø±ÙĨÚ¯
ĠØ±ÙģØª Ùħ
ÙģØ§ ÙĤÛĮ
ĠØŃÙħ Ø§Ø³ÛĮ
ĠD es
ĠØªÙħØ§Ùħ ÛĮØª
ĠÙ¾ÛĮØ§Ùħ Ø¯
ĠÚ¯Ø±ÙģØª Ø§Ø±
al y
ĠÛ±Û³Û ´
ĠÙĩÙĪ Ø§ÙĪÛĮ
ad e
ad er
en g
Ø§Ø« Ø±
ĠÙĦÛĮ Ø¨ÙĦ
ĠØ¨Ø§ÙĨÚ© Ø¯Ø§Ø±ÛĮ
ĠÙħÛĮÙĦÛĮ ÙĪÙĨÛĮ
ĠÙħØ´Ø®Øµ Ùĩ
ĠÚ©ÛĮ Ø³Øª
ĠØ³Ø§ÛĮ Ù¾Ø§
ĠØ³ÙĨÚ¯ ÛĮÙĨÛĮ
at ew
ĠT elegram
ĠÙĪØ±Ø²Ø´ Ú¯Ø§Ùĩ
ĠÙħØ·Ø§ÙĦ Ø¹
ĠÙħÚ© Ø§Øª
ĠØ·Ø¨ÛĮ Ø¨
ĠÙħÙģ ÛĮØ¯ÛĮ
ĠØ¯ÙĨÛĮ Ø²
ĠØ¨ÙĪ ÛĮØ±
Û² Û°Û°
ĠÙĨØµ Ùģ
ĠØ§ÙģØª Ø§Ø¯ÙĨ
ĠØµØ¯ Ø¯
ĠØ¬ÙĪØ§ÙĨ Ùĩ
le t
ĠØŃØ¬ ÛĮÙħ
ĠØŃØ¬ ÙħÛĮ
ÙĩÙħ Ø³Ø§ÛĮÙĩ
Ûµ Û°
oo d
ĠG atew
ĠØ¨Ø® ÙĪØ±Ø¯
ic e
ag h
ag s
Ġ7 00
ĠÙ¾Ø±Ø¯Ø§Ø®Øª ÙĨØ¯
ro m
ĠÙ¾ÛĮØ¯ Ø§ÛĮØ´
ĠØªÙĪØ± ÙĪ
ĠØªÙĪØ± Ùħ
ĠÙ¾Ø§Ø± ÙħÛĮØ³
ĠØ§ÙĬ Ø³ÙĨØ§
ÙħØŃ Ø§ÙĦ
09 03
ĠØ¨Ø±ÛĮ Ø²ÛĮØ¯
ĠØ´Ø§Ùĩ ÛĮÙĨ
ĠÙħØªØ¹ Ø§ÙĦ
ĠÙħÙĪØ³ ÙĪÙħ
Ø¤ ÙħÙĨÛĮÙĨ
Ġp h
Ġp hotos
ĠØ®Ø± Ø¬
ot e
ĠØ¬ÙĦÙĪ Ú¯ÙĬØ±ÙĬ
ĠØªØ§Ø«ÛĮØ± Ø§Øª
ĠÙĨÛĮÙħ Ø³Ø§ÙĦ
ĠÙĨÙģØª Ú©Ø´
ĠØ·ÙĦ ÙĪØ¹
ĠØ±ÙĤ ÙħÛĮ
Ù¾Ø±Ø¯ Ø§Ø²ÛĮ
ĠE uro
ĠØ¨Ø³ Ø²Ø§ÛĮÛĮ
ĠØ³Ø¹ Ø¯ÛĮ
om e
ĠÛ´ Û°Û°
ĠØ¶ÙħÙĨ Ø§
ĠØ¨Ø§Ø¯ Ù¾Ø§
ĠØ´ÙĩÛĮØ¯ Ø§ÙĨ
ĠØ¨Ø§Ø¨ Ø§ÛĮÛĮ
ÙĨØ¸ Ø§ÙħÛĮ
ĠÙħÙĪÙĤ Ø¹ÛĮØªÛĮ
ĠØ¹ÙĤ Ø§ÛĮØ¯
ĠØ§Ø³ØªØ§Ø¯ Ø§ÙĨ
ĠØ§ÙħÛĮØ± Ø®Ø§ÙĨÛĮ
ĠÙ¾ÛĮÚĨ Ø±
ĠØ§Ù¾ ØªÛĮ
ĠØ®Ø¨Ø±ÛĮ Ø¨Ø±ÚĨØ³Ø¨
ĠÚ©Ø±Ø¨ ÙĨ
ĠÙħØ¨Øª Ø¯ÛĮ
ĠØ¨Ø¨ ÙĨØ¯
ĠÙĨØ§Ø± Ø¶Ø§ÛĮØªÛĮ
ĠØ´ÙĩØ±Ø¯ Ø§Ø±ÙĬ
ĠØ³Ø±Ø¯ Ø§Ø±
ĠØ®Ø§Ú© Ùħ
ĠØ§ÙĨÚ¯ÛĮ Ø²Ø´ÛĮ
ĠÙģÛĮØ²ÛĮ ÙĪÙĦÙĪÚĺÛĮ
ĠØ³Ú© ÙĪØª
ĠØ³Ú© ÙĪÙĨØª
ĠØ³ÙĪØ¯ ÙħÙĨØ¯
ĠÙħØ§ÙĦ Ø²ÛĮ
ĠÛ±Û³Û¸ Ûµ
ĠÛ±Û³Û¸ Û¶
ou t
ĠÙĥÙĨ ÙĨØ¯Ùĩ
ĠÙĥÙĨ ÙĬØ¯
ĠØ³Ø§Ø®ØªØ§Ø± ÙĩØ§ÛĮ
ĠØ¯ÛĮÙĪ ÙĪÙĨÙĩ
ĠÙĨØ±ÙĪ ÚĺÛĮ
ĠÙħØ§Ø¯ Ø±Ø¨
ĠØ§ÙĦÙħ Ø§Ø³
ĠØ²ÙĪØ¯ Ø±Ø³
ÙĨØ³ Ø®Ùĩ
ĠØ§ÛĮØ± Ø§Ø¯
ĠØ±ØŃ Ùħ
ĠØ±ÙĪØ³Øª Ø§ÙĩØ§ÛĮ
ĠØ±ÙĪØ³Øª Ø§ÙĩØ§
ĠÙĨÙĪØ²Ø§Ø¯ Ø§ÙĨ
ĠÙ¾Ø¯ÛĮØ¯ Ø§Ø±
ÙħÛĮÙĦÛĮ ÙĪÙĨ
ĠØªØ³ ÙĦÛĮØª
ĠØ²Ø¯ Ø§ÛĮÛĮ
ĠØ¬ÙĨØ³ÛĮ Øª
ĠØ³ÙĨØ¯ Ø±Ùħ
ĠÛ±Û¹Û ¹Û
ĠØªØ±ÙģÙĨØ¯ ÙĩØ§
Ø®ÙĪØ§ÙĨ Ø¯
ĠØªØ±Ø¯ Ø¯
ĠØ³ÙĪØ± ÙħÙĩ
ĠØ®Ø´ Ú©ÛĮ
Ðµ Ð½
ĠØ¢Ú¯Ø§Ùĩ Ø§ÙĨÙĩ
ØªÙħØ§Ùħ ÛĮØª
ĠØ¯Ø² Ø¯Ø§ÙĨ
ĠØµÙģØ± Ø§
ĠØ±Ø³Ø§ÙĨ Ø¯Ùĩ
ĠÙħÙĨØµ ÙĪØ±ÛĮ
ĠÙ¾Øª Ø§Ø³
ĠÙħÙħÙĨÙĪØ¹ ÛĮØª
ĠÙħØ³ÛĮ ØŃ
Ø¹Ø¶ ÙĪÛĮØª
ĠØ´Ú©ÙĨ Ø¬Ùĩ
ĠØ±ÙĪÛĮÚ©Ø±Ø¯ ÙĩØ§ÛĮ
ĠÚ©ÙĦØ§ÙĨ ØªØ±ÛĮ
Ġr x
ĠØ·Ø±Ø§ØŃ ÙĬ
Ø¢Ø± Ø§ÛĮØ´
ĠØªØµØ§Ø¯ Ùģ
'' ''
)) ))
ĠÙħÛĮØªÙĪØ§ÙĨ ÛĮÙħ
ĠØ§Ø³ØªØ§ÙĨØ¯Ø§Ø± Ø¯ÙĩØ§
ĠØ¢Ùĩ ÙĥÙĬ
ÙħØ¬ Ø§Ø²
ĠÙĨØ§Øª ÙĪØ§ÙĨ
ĠÙģÙĦØ² Ø§Øª
24 06
ĠÙħØ§Ø¬Ø± Ø§Ø¬ÙĪÛĮÛĮ
ĠØµÙĦØ§ØŃ ÛĮØª
ĠØ§Ø´ÛĮ Ø§ÛĮ
ĠÙĤÙħ Ø±ÛĮ
ĠØ§Ø¹Ø· Ø§
ĠØ¹ÙĬÙĨ Ùĥ
ĠØ§ÙĪØ² Ø¬Ø§ÙĨ
ĠØ¯ÙĨØ¯Ø§ÙĨÙ¾Ø²Ø´ Ú©ÛĮ
ĠÙħØ±Ø§ÙĤØ¨ ØªÛĮ
ĠØ¯Ø³ Ø§ÙħØ¨Ø±
ĠÚ©ÙĨØ³ ÙĪÙĦ
ĠÙģØ§Ú©ØªÙĪØ± ÙĩØ§ÛĮ
Ú©Ø¯ Ø®
ĠÙĨØ§Ø´ Ø±
ĠØ¬ØºØ±Ø§ÙģÛĮ Ø§ÛĮÛĮ
ĠØ¨Ø§Ø±ÛĮ Ú©
ĠØ§Ú©Øª Ø´
ĠÙ¾Ø±Ø³Ù¾ ÙĪÙĦÛĮØ³
45 2406
ĠØ¨Ø±ÙĨ Ø²Ùĩ
ĠØ¬Ø§ÙĬ Ú¯Ø§Ùĩ
ĠØ¹Ø³ Ú©Ø±ÛĮ
Ġu ps
ĠØ§Ø³ÙħØ§Ø¹ÛĮ ÙĦ
ĠØ§Ø³ÙħØ§Ø¹ÛĮ ÙĦÛĮ
ĠÙĩØ² ÙĬÙĨÙĩ
ï¿½ .
ĠÙĨØ§Ù¾ Ø°
ĠØŃØµ ÛĮØ±
ĠÙħØ³ÙĪ Ø§Ú©
ĠØ¨Ú¯Ø° Ø±Ø§ÙĨ
ĠØ§Ø±Ø¬ Ø§Ø¹
ĠØ§ÙĦØ¥ Ø³Ø¨Ø§ÙĨÙĬ
ĠÙħØ¹ÙĬØ§Ø± ÙĩØ§ÙĬ
ham mad
ĠØ±ÙĩÙĨ ÙĪØ±Ø¯
ÙħØ³Ø¦ ÙĪÙĦ
ĠØ¯Ùĥ ØªØ±
ĠÙĪØ· ÙĨ
ĠØ®Ø§Ø´ÙĤ ÚĨÛĮ
ĠØ¢Ø¨Ø§Ø¯ÛĮ Ø³
ĠFor ces
ĠÙħØ§Ø¬ Ø±Ø§
ĠØªÙ¾ Ùĩ
ĠÙĦÛĮÙħ ÙĪ
ĠØªØ¹Ø·ÛĮ ÙĦØ§Øª
ĠØ§ØŃØªÛĮ Ø§Ø¬
ĠØµØ¯Ø§Ø¨ Ø±Ø¯Ø§Ø±ÛĮ
ivers ity
ĠÙĨØ§Ø¸ Ø±
ĠÙĩØ±Ø¯ ÙĪ
ĠØ¢ÙħØ± ÙĬÚ©
ĠÙħØ´Ùħ ÙĪÙĦ
ĠÙħÙĤØ§ÙĦ Ø§ØªÛĮ
ĠÚ¯Ø±Ø¯ÙĩÙħ Ø§ÛĮÛĮ
ĠSch ool
ÙħØŃÙĤÙĤ Ø§ÙĨ
120 452406
ÙĨØŃ ÙĪÙĩ
ĠØ³Ø§Øª ÙĨ
ĠÙĤÙĪØ± ÙħÙĩ
ĠÙĦØ§ÙĦ Ø§ÛĮÛĮ
ĠØ§Ø¬Ø² Ø§Ø¡
ĠÙĨØ§ØµØ±Ø® Ø³Ø±ÙĪ
ĠÙħÙĪØ¸ Ùģ
Ø¢Ø² ÙħÙĪÙĨ
ĠØªÙħØ±ÙĬÙĨ Ø§Øª
ĠØ§ØªÙĪÚ© Ø¯
ĠØªØ³Ú© ÛĮÙĨ
ĠÙ¾Ø±Ùģ Ø±ÙĪØ´
ĠÙ¾ØªØ§ÙĨ Ø³ÛĮÙĦ
ĠÙĤØ§ÚĨ Ø§ÙĤ
ĠÙĦØ§ÙħÛĮÙĨ ÛĮØª
ĠØ§ÙĨØªØ² Ø§Ø¹ÛĮ
ĠØ¨Ø§Ø¯Ùħ Ø¬Ø§ÙĨ
ĠAcadem ia
ĠØªØ§Ø¨ÙĦ ÙĪÛĮ
ĠØŃØ§Ø¦ Ø²
ĠØŃÙĪØµ ÙĦÙĩ
ĠÚĨÙħÙ¾ Ú©Ø³
ĠGatew ay
! /
0 4
5 1
5 19
A W
A l
R A
S t
a il
b as
e e
i er
k e
l if
l ite
Â ±
Ñ ĥ
Ñ ĭ
â ľ
Ġ <
Ġ st
Ġ he
Ġ im
ĩ Ĳ
ÛĮ Ø§Ø±ÛĮ
ÛĮ Ø¹ÙĨÛĮ
Ø± Ø§Ø¨
Ø± Øº
Ø± Ø§ÙħØ´
ÙĨ Ø®
ÙĨ ÙģØ±
Ùĩ ØªÙĦ
Ø¯ ÙĦÛĮÙĦ
Ø¯ ÙģØªØ±
ÙĪ ØªÙĩ
ÙĪ Ø§Ø±Ø¯
ÙĪ Ùī
ÙĪ Ú©Ø±
Øª Ø²
Øª ÙĪØ±ÛĮ
Øª Ùĥ
Øª Ø§Ù¾
Øª ÙĦØ§Ùģ
Øª Ø¬ÙĩÛĮØ²Ø§Øª
Øª Ø®Ùħ
Ùħ ÙĪÙĨÛĮ
Ùħ ÙĬÙħ
Ùħ Ø«ÙĦ
Ú© ÙĪÚ©
ĠØ¨ ÙĪØ³
ĠÙħ Ø§Ø²
ĠÙħ ÙħØª
ĠÙħ ÙĪÙĨÛĮ
ĠÙħ ÙĦØ§Ú©
Ø§ÙĨ Ø¬
Ø§ÙĨ Ø¬Ø§Ùħ
Ø§ÙĨ Ø´Ú©Ø¯Ùĩ
Ø§ÛĮ ÙĪÙĨ
Ø³ Ø³
Ø³ Ùī
Ø³ Ø§Ø²Ùĩ
Ø³ ÙħØ³
ĠÙĪ ÛĮÙĨ
ĠÙĪ ÙĬØ±
ĠÚ© Ø§Ø¯
ĠÚ© ÛĮÙĩ
Ú¯ Ø§Ø±Ø§ÙĨ
Ø¨ Ø§ÙĨÙĩ
Ø¨ ÙĬØ±
ĠØª ÙĪÛĮÛĮ
Ø² ÛĮÙħ
ĠØ± ÛĮÙĩ
ĠØ± Ø´Øª
ĠÙĨ Ø§Ø³
ĠÙĨ Ú¯ÛĮÙĨ
ĠÙĨ Ú©ÙĨÛĮÙħ
ĠÙĨ Ø¯ÙĩÛĮØ¯
ĠÙĨ ÙĪØ³Ø§Ø²ÛĮ
ĠÙĨ Ø§ÛĮØ³
Ø§Ùħ Ø¯Ùĩ
ĠØ¯Ø± Ø®ØªÛĮ
ĠØ¯Ø± Ø®ÙĪØ§Ø³ØªÛĮ
ĠØ³ ÙĨØ¯ÛĮ
ĠØ³ ÙĪÙĨÛĮ
ĠØ³ ÙĪØ²ÛĮ
ĠØ´ ØªØ±
ĠØ¢ Ø±ÛĮ
ĠØ¢ ÙĦÙĩ
ĠØ¢ Ø±Ø§
ĠØ¢ Ø±Øª
ĠØ¢ Ø³Ø§ÙĨÛĮ
ĠØ¢ ÙĪÛĮØ±
ĠØ¢ Ú©ÙĨÙĩ
ĠØ¢ ÙģØ±ÙĬÙĨØ´
ÙĨØ¯ ÙĪ
Ø¹ ÙĨÙĬ
Ø§ÙĦ Ø«
ĠÙ¾ ÙĪØ¯
ĠÙ¾ ÙĨÚ¯
ĠØ® Ø´ÙĨ
ĠØ® ÙĦØ§
ĠØ§Ø² Ø´
ĠÙħÛĮ Ø´
ĠÙħÛĮ Ø±ÛĮ
ĠØ§Ø³ Ú©ÙĦ
ĠØ§Ø³ ÙħØ´
ĠØ§ÛĮ ØªØ§ÙĦÛĮ
ÙĪØ± Ø²Ø´
ÙĬ Ø´Ùĩ
ÙĬ Ø§Ø±ÙĬ
ÛĮØ¯ ÙĨØ¯
Ø³Øª ÛĮÙĨ
Ø³Øª ÙĪÙĨ
Ø® Ø¨Ø±
ĠÙģ Ø§ÙĨ
ĠÙģ Ø±ÛĮØ¨
ĠÙģ ÙĪØ±Ø§
ĠØ¨Ø± Ø§
ĠØ¨Ø± Ø§Ø¯
ĠØ¨Ø± ÙĪÛĮ
ĠØ¨Ø± Ø´Ùħ
ĠØ¨Ø± Ø³ÛĮÙħ
ĠØ¨Ø± Ø¢ÙĪØ±Ø¯Ùĩ
ĠØ¹ Ø§ÙĦ
ĠØ¹ ÙĦÙĪ
ĠØ¹ Ø§ÛĮÙĤ
Ø§Øª Ø³
Ø§Øª Ø§Ø±
ØŃ Ø³ÙĨ
ØŃ ÙģØ¸
ÚĨ ÙĪÙħ
ĠØ§Ø³Øª Ø§ÛĮÙĦ
ĠØ§Ø³Øª Ú©Ø¨Ø§Ø±
ĠÚ¯ Ø§Ø±Ø¯
ĠØ¬ Ø§Ø¯
ĠØ¬ ÙĪØ±ÛĮ
ĠØ¬ ÙĪÛĮÛĮ
ĠØ¬ ÙĪÙĨÙħ
Ø§Ø² ÛĮØ¯
ĠØ¨Ø§ Ú©
ĠÛĮ Ø§Ø±Ø§ÙĨ
ĠÛĮ Ø§Ø²Ø¯Ùĩ
ĠÛĮ ÙħÙĨÛĮ
ĠØ§ÛĮÙĨ Ø³Øª
Ø· Ùģ
Ø§Ø³ Ø¯
ĠØŃ Ø¨ÛĮ
ĠØŃ Ø¨Ø§Ø¨
ĠØŃ Ø§ÙħÙĦÙĩ
ĠØŃ Ø¨Ø³
Ø§Ø´ ÛĮØª
ĠØ§ Úĺ
ĠØ§ Ù¾Ø¯ÛĮØª
ĠÙĤ ÙĬ
ĠÙĤ Ø§Ø±Ùĩ
Ù¾ Ø§Ú©
ĠÚĨ Ø§Ø±Ùĩ
ĠÙĩØ§ÛĮ ÙĦØ§ÛĮØª
ĠØ§ÙĨ Ø¶
ÙĪÙĦ ÙĬØ³
ĠÙĩÙħ Ú¯Ø§ÙĨÛĮ
Ø¶ Ø¯
ÙĪØ² Ø§ÙĦ
ØªØ± Ø§ÙĨÙĩ
ĠÙĦ Ø³
ĠÙĦ ÛĮÙĨÙĪÚ©Ø³
ĠØ§Ùħ ÙĦØ§ØŃ
ĠØ§Ùħ ÙĪØ²Ø§ÙĨ
ĠØµ Ø¨Ø§
Ø° ÛĮ
ĠØ· ÙĪÙģ
ĠØ¯Ø§Ø± ÙĪØ³
ĠØ¯Ø§Ø± ÙĪØ³Ø§Ø²ÛĮ
ĠÙĨÛĮ Ø§
ĠÙĨÛĮ ÙĪ
ĠÙĨÛĮ Ú©ÙĪ
ĠØ§Ø± Ú¯Ø§ÙĨ
ĠØ§Ø± Ú¯ÙĪÙĨ
ĠØ§Ø± Ø§Ø°ÙĦ
ÙĦØ§ Ùĥ
ĠÙĪÛĮ Ø§
ĠØ¨Ø§Ø² Ø¯Ùĩ
ĠØªÙĪ Ø§ÙĦØª
ĠØ§ÙĦ Ø´
ĠØ§ÙĦ Ø¬
ĠØ§ÙĦ ØŃØ³ÛĮÙĨ
ĠØ¨ÛĮ Ø²ÛĮÙĨØ³
Øº Ø§
ÙĨÛĮ ÙĪØ³
ĠÙħØ± Ø¬Ø§ÙĨ
Ø¨ÛĮ ÙĦÛĮ
ĠÙħØ¹ Ø§ÙħÙĦØ§Øª
ĠØ´Ùħ Ø¹
ĠØ´Ùħ Ø§Ø¹ÛĮ
ĠÙ¾ÛĮ Ø±ÙĪ
ĠÙħØ¯ Ø§Ùħ
ĠØ§Ùģ Ø´ÛĮÙĨ
ĠØ§Ùģ ÙĦØ§Ø·
Ø¨Ø± Øª
Ø¨Ø± Ùħ
ĠØ¯Ø³Øª ÙħØ§ÙĦ
Ø¢ ÙĦ
Ø¢ Ø³ÛĮ
ĠØ³Ø± Ø§
ĠØ³Ø± Ú©ÙĪØ¨
ĠØ³Ø± Ú¯Ø°Ø´Øª
ĠØ±ÙĪ Ø¨ÛĮÚ©
Ø²ÛĮ Ø³Øª
ĠØ¯ÛĮ Ø³Ú©
ĠØ¯ÛĮ ÙĪØ§ÙĨÙĩ
Ú©Øª Ø±ÙĪ
ĠØº ÙĨ
ĠØº ÙĪÙĦ
ĠØº ÛĮØ±Ø¯
ĠØ³Ø§ÙĦ ÙĩØ§
Ú©Ø³ ÙĪÙĨ
ĠÙħÙĤ Ø§ÙħÛĮ
ĠÙħÙĤ Ø§Ø·Ø¹
ĠÙħÙĤ ØªÙĪÙĦ
... )
Ø¦ ÙĪÙĨ
Ø¦ ÛĮÙĨÛĮ
ĠÙħØ³ Ø§Ø¹Ø¯
ĠØ³Ø§Ø² ÙĪÚ©Ø§Ø±
ĠØ¯Ùĩ Ú©Ø¯Ùĩ
ĠÙĥ ÙĪØªØ§Ùĩ
ØªÙħ Ø§Ø³
ĠÂ ŀ
ĠØ¨Ø§Ø²ÛĮ ÙĩØ§ÛĮ
ĠØ¯Ø§ÙĨØ´ ÙĪØ±
ĠØ³ÛĮ Ø§
ĠØ³ÛĮ Ùģ
ĠØ³ÛĮ Ú¯ÙĨ
ĠÚ¯ÙĦ Ø§Ø¨
ĠÚ¯ÙĦ ÙĩØ§ÛĮ
ÙħÙĨ Ø³ØªØ§ÙĨ
ĠØ¨Ø¯ ØªØ±
ĠØ§Øµ Ø±Ø§Ø±
ĠØ§Øµ ÙĢØ·ÙĦØ§ØŃ
ĠØ³ÙĪ Øª
ĠØ³ÙĪ Ø§ÙĦÛĮ
Ø±Ø³ ÙħÛĮ
ĠØªÙĪØ§ÙĨ Ùħ
ĠØªÙĪØ§ÙĨ Ø¨Ø®Ø´ÛĮ
ĠØªØ¹ ÙĦÛĮÙħ
ĠØ±Ø³ Ø§ÙĦÙĩ
ØªÙĪØ§ÙĨ Ùĩ
ĠØ§Ø¹ ÙĦÛĮ
ĠØ§Ø¬ ÙħØ§ÙĦ
ĠØªÙħ Ø¯ÙĬØ¯
ĠØ§Ø¨ Ø§
ĠÙĨØ§Ùħ Ú¯Ø°Ø§Ø±ÛĮ
ĠØ§Ø¯ ØºØ§Ùħ
ĠØ¬Ùĩ Ø´
ĠØ¬Ùĩ ÙĨÙħ
ĠÚ©ÙĦ Ø§Ø¨
ĠÚ©ÙĦ ÙĪÙĨ
ĠØ¹ÙĦ Ø§ÛĮÙħ
ÛĮÚ© Ø§
ĠØ§Ø· ÙĦØ§ÙĤ
ĠÙ¾Ø±ÙĪ Ù¾
ÙĨØ§ Ù¾Ø°ÛĮØ±
ĠØ§ÙĤ ÙĪØ§Ùħ
ĠØ¨Ø§ÙĦ ÙĨØ¯Ú¯ÛĮ
ÙģØ± Ø¢ÛĮÙĨØ¯
ĠÚĨÙĩ ÙĦ
ØŁ Â»
ØŁ ØŁ
ÙħÙĩ ÙĨØ¯
ÙģÛĮ ÙĦ
ÙģÛĮ Ø¹ÛĮ
Ø´Øª ÛĮÙĨ
ĠØ²ÙħØ§ÙĨ Ø¨ÙĨØ¯ÛĮ
ĠØ¯Ø§Ø¯ Ø¯ÙĦÙħ
ĠØ¨ÛĮÙĨ Ø§ÛĮÛĮ
ĠØ±ÛĮ Ø´ØªØ±
ĠÙ¾Ø± ØªÙĪ
Ġ20 00
Ø¨Ø±ÛĮ Ùħ
ĠØ¨Ø§Ø± Ø²
ĠØ¨Ø§Ø± Ú¯Ø°Ø§Ø±ÛĮ
ĠØ« Ø§ÙĨ
ĠØ« ÙĨØ§
ĠØ§Øª Øµ
ĠØ§Øª ÙģØ§ÙĤÛĮ
Ø§Ø¶ Ùĩ
Ù¾ÛĮ Ø´ÙĨÙĩØ§Ø¯
er y
ÙĨØª Ø§ÙĨ
ĠØ¨ÙĦ Ø¹
ĠÙģØ¹ ÙĦØ§
ĠØ¨ÙĨ ÙģØ´
ĠÙĨÙĪ ÙĬØ³
ĠØªØ´ Ø¯ÛĮØ¯
ĠÙĨÙĩ ÛĮ
ĠÙĨÙĩ Ø¶Øª
on s
ĠØ¨Ø²Ø±Ú¯ Ø¯Ø§Ø´Øª
ĠØ¨Ø²Ø±Ú¯ Ø³Ø§ÙĦØ§ÙĨ
ĠÚ¯Ø±ÙĪÙĩ ÙĩØ§
ÙĨÙħ Ø§
ĠS c
ĠØ®Ø§ÙĨ ÙĪØ§Ø±
ĠØ¯ÙĦ Ø§Ø±ÛĮ
ĠÚ©ÙĪ Ø§Ø¯
ĠØ®ÛĮ Ø±ÛĮÙĨ
ĠØ®Ø· Ø¨Ùĩ
ĠØ®Ø· Ø§ÙĩØ§ÛĮ
ĠÙħØ³Øª Ø¬Ø§Ø¨
ĠØºÛĮØ± ÙĤØ§ÙĨÙĪÙĨÛĮ
ĠP H
ĠP r
ĠP hot
ĠP ers
ĠØ¯Ø³ØªÚ¯Ø§Ùĩ ÙĩØ§ÛĮ
ĠØªÚ© ÙĦÛĮÙģ
Ú¯Ø° Ø±
Ú¯Ø° Ø§Ø±ÙĬ
ĠÙĪØ§ÙĤ Ø¹Ùĩ
ĠØ¬ÙĨ Ø¨
ĠØ¬ÙĨ Ø§ÛĮÛĮ
ĠÚĨÛĮ Ø°Ø±
ĠØ¸ Ø±ÙģÛĮ
ĠØ³Ù¾ Ø±ÛĮ
ĠÙĪØ§Ø±Ø¯ Ø§ØªÛĮ
ĠM B
ĠM arc
ĠØ±ÙģØª ÙĨØ¯
ĠÙĬ Ø§ÙģØª
ĠÙĬ Ø¹ÙĨÙĬ
ĠÚ©Ø§ÙĨ Ø¯ÛĮØ¯
ĠD IP
ĠØ®ÙĪØ§Ùĩ ÛĮ
ĠÙĨÙĪØ´ ÛĮØ¯ÙĨ
ĠØ§ÙħÚ©Ø§ÙĨ Ø§ØªÛĮ
ĠÙĪÙĦÛĮ Ø¹ØµØ±
ĠÛĮØ§Ø¯ Ø¢ÙĪØ±
ĠØ¬ÙĩØ§ÙĨ ÙĬ
ĠB i
ĠB ab
ĠÚĺ ÙĪØ¦ÙĨ
ĠÙ¾Ø±Ø³ Ø±
ĠÙ¾Ø±Ø³ ÙĨÙĦ
ĠØ³Ø§ÛĮ Ø±ÛĮÙĨ
Ġ4 8
ĠÚĨÙĩØ§Ø± Ø¯Ùĩ
ĠÚĨÙĩØ§Ø± ÙħØŃØ§ÙĦ
ir at
ir ect
ĠÙĪØ±Ø²Ø´ Ú©Ø§Ø±Ø§ÙĨ
ĠÙħÙģ Ø³
ĠØŃÙĦ ÙĤ
ĠØ¯ÙĨÛĮ Ø§ÛĮÛĮ
20 13
Ø§ÙĨØª ÙĤ
ĠÙħÙĨØ· Ø¨ÙĤ
ĠØ¬ÙĪØ§ÙĨ ÙħØ±Ø¯
ĠÙħØŃØªÙĪ Ø§ÙĩØ§ÛĮ
ĠØ§Ø¬Ø± Ø§ÙĬ
ĠÙħÙĨØ¸ ÙĪÙħÙĩ
ĠØ®ÙĪØ§ÙĨ Ø³Ø§Ø±
ÙĩÙħ Ø±Ø§Ùĩ
Ø¨Ø¹ Ø¶ÛĮ
ÙħÛĮØ± Ùħ
ĠØ¨Ø® ÙĪÙĨ
Ø´ÙĪØ± Ø§
ĠØ±ÙĪØ§ÙĨ Ø´ÙĨØ§Ø³
ĠØ·Ø±Ùģ Ø¯Ø§Ø±
ac e
ic al
ĠF ull
ĠØ¯ÙĪØ³Øª Øª
ĠÙħØ³ØªÙĤ ÙĬÙħ
Ġ7 5
ÙħØ³ Ø¬Ø¯
ĠR AW
ĠØ³Ø® ÙĨÚ¯ÙĪÛĮ
ĠÙħÙĪØ§Ø±Ø¯ ÙĬ
ĠØ®ÙĪØ´ ØŃØ§ÙĦ
ÙħØ± Ø§Ø³Ùħ
ÙħØŃ Ø³ÙĨ
ĠÙ¾ÙĬ Ø±ÙĪ
ĠÙ¾ÚĺÙĪÙĩØ´ Ú¯Ø±
ĠÙ¾ÚĺÙĪÙĩØ´ Ú¯Ø§Ùĩ
ĠÙĪØ²Ø§Ø±Øª Ø®Ø§ÙĨÙĩ
ĠØŃÚ© ÙħØª
ĠØ±Ùģ ÙĦ
he d
ĠØ¨Øµ Ø±ÛĮ
ĠØ¯Ø§Ùħ Ù¾Ø²Ø´Ú©ÛĮ
ÙĤØ± Ø¢ÙĨ
ĠÙĨÙħÙĪØ¯ ÙĨØ¯
Ø§Ø³Ùħ Ø§Ø¹ÛĮ
ĠÙħÙĪØ²ÛĮÚ© Ø§ÙĦ
ĠÙĨØ§ Ø§Ùħ
ĠÙĨØ§ ÚĨØ§Ø±
ĠÙģØ±Ø§ Ú¯ÛĮØ±ÛĮ
ĠÙģØ±Ø§ Ú¯ÛĮØ±ÙĨØ¯Ùĩ
ĠØªØ§Ø«ÛĮØ± Ú¯Ø°Ø§Ø±
re at
ĠÙĨØª ÙĬØ¬Ùĩ
ĠÙ¾ÙĦ ÙĨ
ĠÙģÙĪØª Ø¨Ø§ÙĦÛĮ
ĠÚ©Ø±ÛĮ Ø³Øª
ĠØ¹Ø²ÛĮ Ø²ÛĮ
ĠE d
ing s
ĠÙĦØ· ÛĮÙģÙĩ
ĠÙĪÛĮÚĺÚ¯ÛĮ ÙĩØ§ÛĮ
ĠÚ©ÙĦÛĮØ¯ ÙĩØ§
ĠÙĦØ± Ø²Ø´
ĠØ±ÛĮØ§Ø¶ÛĮ Ø§Øª
ĠØ¨Ø§Ø¯ Ú©Ø´
ĠØ¨ÙĦÙĪ ÙĨØ¯
ĠÙħÚ¯ Ø§
ĠÙģÙĨ ÙĬ
Ġ12 9
Ú¯ÙģØª ÙĨÛĮ
ĠØ§ÛĮØ¯ ÛĢ
ĠØŃÛĮ Ø§ØªÛĮ
ĠØ§ØµÙĦØ§ØŃ Ø§Øª
ĠW EB
ĠØ¹ÙĤ Ø¯
Ø®ÙĪØ§Ø³Øª Ùħ
ĠØ§Ù¾ ÙĪÚ©Ø³ÛĮ
ĠØ¨Ø¯Ùĩ ÛĮÙħ
ab ar
ĠØ¹Ø±Ø¨ ÙĬ
ÙĨØ´ ÛĮÙĨÛĮ
of f
ĠÙĨØ§Ø± ÙĨØ¬
ĠØ®ÙĪØ§Ø³Øª Ùħ
ob e
ĠØ³Ø±Ø¯ Ø±
ĠØ²ÙĨØ¯ Ø§ÙĨÛĮ
ĠÙĪÛĮØ¯ÛĮ ÙĪÛĮÛĮ
ĠÙħØ³Ø§Ùģ Ø±Øª
Ġw est
ĠØ¢Ùģ Ø±ÛĮÙĨÛĮ
Ø¨Ø§Ø² Ø§Ø±
Ø¨Ø§Ø² Ø§Ø±ÛĮ
ĠØ·Ø¨ÙĤ Ø§Øª
ou n
ĠÙħÙħÙĨ ÙĪÙĨ
ĠÙģÛĮÙĦ ÙħÛĮ
ĠØªÚ©Ø± Ø§ØªÙĪ
ĠÙħØªØŃ Ø¯
Ø¢ÙĪØ± ÙĨØ¯
Ø¨Ø¯ Ø§ÙĦÙĦÙĩ
ĠÙĨØ§Ø¨ ÙĪØ¯ÛĮ
ĠÙĨØ¬ ÙģÛĮ
em usic
ĠØ³ÙĬ Ø§Ø³Øª
ĠØ¢ÙħØ¯ ÙĨØ¯
ĠÙĤÙĪÛĮ ØªØ±ÛĮÙĨ
Ġg al
ĠØ®Ø¯ Ø§ÛĮ
ĠØ´Ø§Ø±Úĺ Ø±
ĠØ¯ÛĮØ¬ÛĮØª Ø§ÙĦÛĮ
ĠØ²ÙĬ Ø§Ø¯
ĠØ²ÙĬ Ø¨Ø§
ĠØ§Ø¨Ø±Ø§Ùĩ ÛĮÙħÛĮ
un d
ra f
ra p
ĠÙĨØ§Ø² ÙĦ
ĠÙħÛĮØ² Ø¨Ø§ÙĨ
ĠÙħÛĮØ² Ø¨Ø§ÙĨÛĮ
âĻ ¥
ĠÙģØ±Ø§Ùħ Ø±Ø²
Ġi f
ĠÙĤØ±Ø§Ø±Ø¯ Ø§Ø¯ÙĩØ§ÛĮ
ĠÚ©Øª Ø¨ÛĮ
ĠØ¨Ø§ÙĪØ± ÙĨÚ©Ø±Ø¯
Ø´Ø¨ Ú©Ùĩ
ĠÙħØ§ÙĩÛĮ ÚĨÙĩ
ĠÙħÙĩÙĨØ¯Ø³ ÙĬ
ĠØ¢ÙĤ Ø§Ùī
ĠÙģØ¶ Ø§ÙĩØ§ÛĮ
ĠÛ±Ûµ Û°
Ø§ÙģØ² ÙĪÙĨ
ÙĦØ· ÙģØ§
ĠØ¹Ùģ ÙĪÙĨÛĮ
ĠØ¨ÙĪÛĮ ÚĺÙĩ
ĠØ¹ÛĮÙĨ Ú©ÛĮ
ĠØ¨Ø±Ùĩ Ø§ÙĨ
ĠØ¬ÙħØ¹ÛĮ ØªÛĮ
ĠØ°Ø® Ø§ÛĮØ±
ĠÛ±Û°Û° Û°
ĠÙ¾Ø§ÙĬ Ùĩ
ĠØ¢ÙģØªØ§Ø¨ ÙĬ
Ø²ÙħÛĮÙĨ Ùĩ
ĠÚ©Ø¬ Ø§Ø³Øª
ĠÙħØ±Ø§ ÙĥØ²
ÙħØ±Ø¯ Ùħ
ĠØ´Ú¯ÙģØª ÛĮ
ĠÙģØ±ÛĮ ÙĪÙĨ
ĠØ³Ø±Ù¾Ø± Ø³ØªÛĮ
ĠÚ©ÛĮÙĦÙĪÙħ ØªØ±ÛĮ
ĠÙħØªØ±ÛĮ Ø§ÙĦ
ĠÙħÛĮÚ©Ø±ÙĪ Ø¨
ĠÚ¯ÛĮÙħ Ø±
ĠØªÙĪÙĤ Ø¹
ĠØ¨Ø®Ø§Ø± Ù¾Ø²
Ø§ÙĨÚ¯ÛĮ Ø²
ĠÙħØ¤Ø³ Ø³Ø§Øª
ĠØ±ÙĬ ÙĬØ³
ĠØ¨Ùħ Ø¨
ĠÚ¯Ø´ Ø³Ù¾
27 0903
ĠÚ©Ø§Ø¨ ÛĮÙĨ
ĠÙ¾ÛĮÚ© Ø§Ù¾
ĠÙħÛĮØ§Ø¯ ÛĮÙĨ
ĠØ§ÙĦÙĤ Ø§Ø¹Ø¯Ùĩ
Û±Û³Û ¹Û
ĠØ´Ø§Ø¹ Ø±Ø§ÙĨ
ĠÙ¾Ø±Ø³Ù¾ ÙĪÙĦÙĬØ³
ĠØ¯ÛĮØª Ø§Ø´ÛĮØª
ĠÙħÛĮØ±Ø³ ÛĮÙħ
ĠØ§ÛĮØ¯Ø¦ ÙĪÙĦÙĪÚĺÛĮ
Ġy ou
ĠØ§Ø¦ ØªÙĦØ§Ùģ
ĠØªØ±Ùĥ ÙĬØ¨
ĠÙ¾Ø±Øª Ø§ÙĦ
ĠØ¯Ú¯Ø± Ú¯ÙĪÙĨ
ĠÚ©Ø§ÙħÛĮ ÙĪÙĨ
0936 270903
ĠÙħØŃØªÙĪÛĮ Ø§Øª
Ø§ÙĤØªØµØ§Ø¯ ÙĨÛĮÙĪØ²
ĠÚ©Ø§Øª Ø§ÙĦÙĪÚ¯
ĠÙĩØ² Ø§Ø±Ùĩ
ĠØ§Ø³ØªÙĪØ¯ÛĮ ÙĪ
ĠØ§Ø¯Ø¹ Ø§ÛĮ
ĠÙģÙĦØ³Ø· ÛĮÙĨÛĮ
ĠÙĨØ§Ú© Ø§Ùħ
ĠØ´ÙĦ ØºÙħ
ĠØ¹Ø¨Ø¯Ø§ÙĦ Ø±Ø¶Ø§
ĠÙ¾Ø±Ø®Ø§Ø´ Ú¯Ø±ÛĮ
ĠÙĨÙĤØ§Ø´ Ø§ÙĨ
ĠØªØ¬Ø¯ÛĮØ¯ Ù¾Ø°ÛĮØ±
ĠØ¢ÙģØ±ÛĮÙĤ Ø§
ĠØ¨ÛĮØ§ÙħÙĪØ² ÛĮØ¯
ĠÙĨÚ¯ Ø§Ø´ØªÙĩ
ĠÚ©Ø§Ø±Ø§Ú©ØªØ± ÙĩØ§ÛĮ
ÙģØ¹Ø§ÙĦ ÛĮØª
ud io
ÙħØ« ÙĦØ§
Ø¨ÙĨÛĮ Ø§ÙĨ
ĠØ´Ø¬ Ø§Ø¹Øª
ĠØ®ÙĪØ´Ùħ Ø²Ùĩ
ĠÙħÚ©Øª Ø¨
ĠØ®Ø² Ø§ÙĨÙĩ
ĠØ³Ø±ÚĨ Ø´ÙħÙĩ
ĠØºÙĦ Ø¨Ùĩ
ind ow
ĠÙħØ¨Ø§Ø±Ø² Ø§Øª
ĠÙĨØ§Ùĩ ÙĨØ¬Ø§Ø±ÛĮ
ĠØ§ÛĮÙĨØ¬ Ø§Ø³Øª
ÙħØ±Ø¨ ÙĪØ·
ĠØ¨ÙħØ§ÙĨ ÛĮØ¯
ĠÙħØ®Ø§Ø¨ Ø±Ø§ØªÛĮ
ĠÙħÛĮÙĩÙħØ§ÙĨ Ø§ÙĨ
ĠØ§ÙĦØªØŃØµÛĮ ÙĦØ§ÙĨ
ĠØ¶ÙĦ Ø¹
ĠÙĪØ§Ø¶ ØŃ
ĠSM D
oos k
ĠØ±Ø£ ÛĮ
Ø·Ø§Ø±ÛĮ Ùĩ
ĠÙĥÙĪÚĨ Ùĥ
ĠØ§ÙĨØ¹Ú© Ø§Ø³
Ø§ÙħÛĮØ¯ÙĪØ§Ø± Ùħ
Ø§Ø±Ø²ÛĮ Ø§Ø¨ÛĮ
ĠÙĤØ§Ø¬ Ø§Ø±
ĠBu ild
ĠÙĪÙĦÙĪ ÙĪ
ĠÙĩÙĪÛĮ Ø¬
ĠÙģÙĩ ÛĮÙħ
ĠÙħØ¹Ø¶ ÙĦØ§Øª
ĠÙĤØ§Ø¹Ø¯ Ú¯ÛĮ
ĠÙħØ³Ø£ ÙĦÙĩ
ĠØ§Ø¹ØªØ¨ Ø§Ø±ÛĮ
ĠEuro pa
lif emusic
ØªÙĥ ÙĨÙĪ
ĠÙħÙĪÙĨÛĮ Ø®
Ø§ÙĨØ¬ ÙħÙĨ
ĠÙĪÙĬØ± Ø§ÙĬØ´
ĠØ¢ÙĪÛĮØ± Ø§
ĠØ³ÛĮÚ¯ÙĨ Ø§ÙĦ
Ġwest lifemusic
0936270903 3
! ØŁ
' s
0 1
2 3
3 1
5 7
6 1
6 00
7 4
7 5
8 8
8 50
H D
M S
O A
P N
T ags
e f
f um
h s
h old
k y
m p
n et
p ost
r on
r ack
t a
u st
v an
y r
£ Ù©
ä ¸
Ġ Ø§Ø±ÛĮ
Ġ al
Ġ el
Ġ !!!
Ø§ ÙĤÛĮ
Ø§ ÙĪØ±Øª
Ø§ Ú©ÙĨÙĪÙĨ
Ø± Ø§ÙħÛĮ
ĠÙ Ĳ
ÙĨ ÙĪØ¹
Ùĩ Ø²ÛĮÙĨÙĩ
Ø¯ Ø§ÛĮÛĮ
ÙĪ Ú¯Ø±Ø§Ùħ
Øª Ø§ÛĮ
Øª Ø¬
Øª ÙĪØ³
Øª ÙĪØµ
Ùħ ÙĬÙĦ
Ùħ ÙĤÛĮØ§Ø³
Ùħ Ø§Ø®Ø°
Ú© ÙħÛĮ
Ú© Ø§ÙħÙĦ
ÙĦ Ø§ÙĨÛĮ
ÙĦ Ø§ÙĨØ¯
ÙĦ Ø§Ø²Ùħ
ÙĦ ÙħØ§ÙĨÛĮ
ĠØ¨ ÙħØ§ÙĦ
ĠØ¨ Ú¯ÙĪÛĮÙĨØ¯
ĠØ¨ Ø¨ÛĮÙĨØ¯
ĠÙħ Úĺ
ĠÙħ Ùĥ
ĠÙħ Ú©Ø±
Ø§ÙĨ Ø§Øª
ĠØ¯ ÙĪØ¯
ĠØ¯ ÙĪØ²
Ø³ Ø±Ùħ
Ø³ Ø¦ÙĪ
Ø³ Ù¾Ø³
ĠÙĪ Ø²ÛĮ
ĠÙĪ Ø§ÛĮÙĨ
ĠÙĪ ÙħØ¹
Ø´ Ú¯ÛĮ
Ø´ Ø§Ø¨Ùĩ
Ø§Ø± Ú¯
Ø§Ø± ÙĨØ¯
Ø¨ ÙĪØ±ÛĮ
Ø¨ Ø®ØªÛĮ
Ø¨ Ø²Ø±Ú¯
ĠØª Ø«
ĠØª Ø¬ÙĩÛĮØ²
ĠØª Ø§Ø¦ÛĮØ¯
ĠØª Ø³ÙĦØ·
ĠØ± Ø¦ÛĮ
ĠØ± Ø§Ø³ØªÛĮ
ĠØ± ÙĬØ²ÙĬ
ĠÙĨ Ø¯Ø±
ĠÙĨ Ùĥ
ĠÙĨ Ø§ÙĪ
ĠÙĨ Ø§ÙĩÙħ
ĠÙĩ ÙĨØ¬
ĠÙĩ Ø§Ø±Ùħ
ĠÙĩ Ø±ÛĮØ³
ĠØ¯Ø± Ø¨Ø±
ĠØ¯Ø± Ø¨Ø§Ø±
ĠØ¯Ø± ÙĪÛĮØ´
âĢ ľ
ĠØ³ ØªÛĮ
ĠØ³ ÙĬÙĨ
ĠØ³ Ø§ÙģØª
ĠØ´ ÙĬØ±
ĠØ´ Ù¾Ø´
ĠØ¢ ØªÙĪØ±
ĠØ¢ ØŃØ§Ø¯
ÙĤ Ø§ÙĦØ¨
ÙĤ ÙģÙĦ
Ø¹ ÙĪ
Ø¹ Ø±Ùģ
Ø¹ ÙħÙĦ
Ø§ÙĦ ØªÛĮ
Ø§ÙĦ Ø³ÙĦØ§Ùħ
Ø§ÙĦ ØªØŃØµÛĮ
Ø§Ø¯ Ø§Ø±ÛĮ
ĠÙ¾ Ø¯ÛĮ
ĠÙ¾ Ø§Ø¦
ĠÙ¾ Ø§ÙĨØ³
ĠÙ¾ Ø§Ø²ÙĦ
ĠØ® Ø§ÙĨÛĮ
ĠØ® ØªÙħ
ĠØ® Ø±Ø¨
ĠØ® Ø²Ø±
Ø¬ Ø§Ø²
Ø¬ ÙĪÛĮÛĮ
Ø¬ Ø§Ø¨Øª
ĠÙħÛĮ Ø§ÙĨÛĮ
ĠÙħÛĮ Ú©Ø³
ĠÙħÛĮ ØªÙĪØ§ÙĨÙĨØ¯
ĠØ§Ø³ ÛĮØ±
ĠØ§Ø³ Ú©ÛĮ
ĠØ§ÛĮ ÙģÙĪÙĨ
ĠØ§ÛĮ ÙģØ§ÛĮ
ÛĮØ¯ Ø³Øª
Ø® ÙĨØ¯
ĠÙģ ØªØ§ÙĦÛĮ
ĠÙģ ÛĮÙĨØ§ÙĦ
ĠØ¨Ø± Ø§Ùħ
ĠØ¹ Ø§Ø¨
ĠØ¹ Ø¸
ĠØ¹ ÙĢ
ĠØ¹ Ø°Ø±
ØŃ Ø¬Øª
ĠØ§Ø³Øª Ùħ
ĠØ§Ø³Øª Ø¬Ø§Ø¨Øª
ĠÚ¯ Ø´ÙĪØ¯
ĠØ¬ ÙĩØ±
ĠØ¬ ÙĨÛĮÙĨ
ĠØ¬ Ø²ÛĮÛĮ
Øµ ÛĮØ±
Øµ ØªÛĮ
Øµ ÙĬÙĦÙĬ
Ø§Ø¨ ÙĨ
Ø±ÙĪ Ù¾
Ø±ÙĪ ÚĺÙĨ
ĠØŃ Ø³ÛĮ
Ø§Ø´ ÛĮÙĨ
ĠØ§ Ùĥ
ĠÙĤ ÙĪØ³
ĠÙĤ Ø´Ø±
ĠÙĤ Ø§Ø·Ø¹
ĠÙĤ Ø§Ø³ÙħÛĮ
ĠØ² ÙĩØ±
ĠØ² ØŃÙħØª
ÙĪÙĨ ÛĮÚ©
Ù¾ Ø³Øª
Ù¾ Ø´Øª
Ù¾ Ø±Ø®
ÙĩØ§ÛĮ Øª
ĠÚĨ ÙĪ
ĠÚĨ Ø§ÛĮÛĮ
ĠÚĨ ÙĨØ¯ÛĮ
ĠÙĩØ§ÛĮ Ù¾Ø±
ÙĪÙĦ Ùī
ÙĪÙĦ ÛĢ
ÙĪÙĦ Ø©
ÙģØª ÛĮ
ÙģØª ÙĨ
ØªØ± Ú©
ĠÙĦ Ø§ÙĨÙĩ
ĠÙĦ Ú©ÙĨ
ĠÙĦ Ø§ØªÛĮÙĨ
ĠØµ Ø¯Ø§Ùħ
ĠÙħÙĪ ØªØ§
ĠÙħÙĪ ØªÙĪØ±ÛĮ
ĠÚ©Ø§Ø± ÙĪ
ĠÚ©Ø§Ø± Ú¯ÛĮØ±ÛĮ
ĠÚ©Ø§Ø± Ú¯Ø²Ø§Ø±
Ø§Ø¹ ØªÙħ
ĠÙħÙĨ Ø´
ĠÙħÙĨ Ø§Ø±Ùĩ
ĠÙħØŃ Ø§Ú©
ĠÙĨÛĮ Ø§ÛĮØ¯
ĠÙĨÛĮ Ø§ÙħØ¯Ùĩ
ÛĮØª ÙĪØ±
ĠØ¢Ùħ Ø¯ÛĮØ¯
ĠØ¢Ùħ Ù¾Ø±
ĠØ§Ø± Ø§ÛĮØ´Ú¯Ø§Ùĩ
ĠØ¨Ø§Ø² Ø¯Ø§Ø´Øª
ĠØªÙĪ Ø´
ĠØªÙĪ Ú©ÛĮÙĪ
ĠØ§ÙĦ ÙĬ
ĠØ§ÙĦ ÙħØ§ÙĨ
ĠØ§ÙĦ ØªØŃ
ĠØ§ÙĦ ØŃØ³
ĠØ§ÙĦ Ú©ÙĦÛĮ
ĠØ§ÙĦ Ø²Ø§Ùħ
ĠØ¨ÛĮ Ø§Ø¯
ĠØ¨ÛĮ Ø³ØªÙħ
ĠØ¨ÛĮ Ú©Ø§Ø±ÛĮ
ĠØ¨ÛĮ Ø§ÛĮÙĨØ¯
ĠØ¨ÛĮ ÙģØªØ¯
ĠØ¨ÛĮ Ø§Ø¶Ùĩ
Ø§ÙĨÛĮ ÙĦ
ÙĪÙħ ÙĨÛĮÙĨ
Ø§ØŃ ÙĬ
Øº Ø§ÙĨÛĮ
Øº Ø¯ÛĮØ±
Ø§Ø® ÙĪØ±Ø¯
Ø§Ø® Ø·Ø§Ø±ÛĮÙĩ
ĠÙģØ± Ø¬
ĠÙģØ± ÙĩÛĮ
ĠÙģØ± Ø¢ÙĪØ±ÛĮ
ĠÙģØ± Ø§Ø±ÙĪ
ĠÙģØ± Ú©Ø§ÙĨØ³
ĠÙģØ± ØµØªÛĮ
ĠÙħØ± Øµ
ĠÙħØ± ØªÚ©
ĠÙħØ¹ Ø§ÙĦ
ĠÙħØ¹ ÛĮÙĨÛĮ
ĠÙħØ¹ Ø§Ø¯ÙĨ
ĠÙ¾ÛĮ Ø§ÙħÛĮ
ĠÙħØ¯ ÙĪÙĨ
ĠÙħØ´ Ùĥ
ĠØ§Ùģ ÙĤÛĮ
Ø§Ùģ ÙĪÙĨ
ĠØªØ± Ø³ÛĮÙħ
ĠØ¯Ø³Øª ÙĪØ±ÛĮ
ĠØ¯Ø³Øª Ø®ÙĪØ´
Ø¢ Ø´ÙĨ
Ø¢ Ø²Ùħ
Ø¢ ÙĬÙĨØ¯
ĠØ³Ø± ÙħÙĩ
ĠØ³Ø± Ú¯Ø±ÙĪÙĩ
ĠØ³Ø± ÙĬØ¹
ĠØ±ÙĪ Ø§ÛĮØ§Øª
ĠØ®ÙĪ Ø¨Ùĩ
Ú©Øª Ø±ÛĮÙĨ
ĠØº Ø¯Ùĩ
ĠØ³Ø§ÙĦ ÙħÙĨØ¯Ø§ÙĨ
ĠÙħØ¬ ÙĨ
ĠÙħØ¬ Ø§Ø±ÛĮ
ĠÙħØ¬ Ø§ÙĪØ±Øª
Ø§Ø³Øª Ø§Ø¯
ĠÙĤØ± Ø¹Ùĩ
Ú©Ø³ ÙĦÛĮ
ĠÙħÙĤ ØµØ¯
ĠÙħÙĤ ÙĪØ§
ĠÙħÙĤ ÙĪÙĦÛĢ
Ø§ÛĮØ´ ÛĮ
ĠÙħØ³ Ø§Ø¬Ø¯
ĠÙħØ³ Ø®Ø±Ùĩ
ĠØ¯Ùĩ ÙĦÛĮ
Ø§Ø±Ø¯ Ú©
Ø§Ú© ÙĪ
ĠÙĥ ÙĦØ§Ùħ
ĠÙĥ ÙĬÙģÙĬØª
ĠÙĥ Ø³Ùī
Ġ2 9
ĠØ¹Ùħ Ø±Ø§ÙĨÛĮ
ĠÙħÙĩ Ø§Ø±
Ùĥ Ø´
Ùĥ Ø±ÙĪ
Ø¹Ùĩ Ø¯Ùĩ
ĠÚ¯ÙĦ Ø¯ÙĪÙĨ
Ø§ÙĬ Ø¹
ĠÙĩØ³Øª ÙĨ
Ø±Ø³ ÙĨØ¯
Ø±Ø³ Ø§ÙĨØ¯
ĠØ±Ø³ Ø§ÙĨÙĬ
Ø§ÙĨØ¯ Ø±ÙĪÛĮØ¯
ÙĬÙĨ Øª
ĠØ§Ø¬ ÙĦØ§Ø³
ĠÙĨÙĤ Ø¯ÛĮÙĨ
Ú©ÙĦ Ø§Ùĩ
Ú©ÙĦ Ø§Ø³
ĠØ§Ø¨ ÙĪÙħ
Ø§ÛĮÙĨ Ø³
ĠØ§Ø¯ Ø§
ĠØ§Ø¯ Ø¹Ø§
ĠØ§ÙĪ Ø§Ø³
ĠÙħØ§ ÙĪØ±
ĠÙħØ§ ÚĺÙĪÙĦ
ĠØªØµ ØŃÛĮØŃ
ĠØªØµ Ø§ÙĪÙĬØ±
ĠØ§ÙĨØ¯ Ø§Ø®ØªÙĨ
ĠÚ©Ø´ÙĪØ± ÙĩØ§ÛĮÛĮ
ÙĨØ¬ Ø§ÙĨ
ĠØ§Ø´ Ø±Ùģ
ĠØ§Ø´ Ø±Ø§Ùģ
ÙĨØ§ Ú©ÛĮ
ÙĨØ§ ÙĪØ¨
ĠÚ¯ÙģØª ÛĮÙħ
ĠÚ¯ÙģØª Ú¯ÙĪÛĮ
Ø±Ø¨ ÛĮÙĨ
ĠÚ©ØªØ§Ø¨ Ø±Ø§Ùĩ
ĠØ´ÙĩØ± Ø¨Ø§Ø²ÛĮ
ÙģØ± ÙħØ§ÙĨØ¯Ùĩ
Ø§ÙĪØ± Ø²ÛĮ
ĠØ³Ø§Ø²ÙħØ§ÙĨ ÙĬ
ĠÚ¯ÛĮ ÙĦ
ĠÚ¯Ø±Ø¯ ÙĪ
Ø§ØªÛĮ ÙĪ
ĠØ±ÛĮ ÙĦ
ĠØ±ÛĮ Ø²Ùĩ
ĠØ§ØŃ ÛĮ
ĠØ§ØŃ Ø²Ø§Ø¨
ĠØ¹Ø§Ø´ ÛĮ
Ø§Ø¶ ÙĬ
ĠØ§ÙĪÙĦ ÙĬÙĨ
er v
ÙĨØª Ø²
ĠØ´ÙĨ ÙĪØ§ÛĮÛĮ
ĠØ¨ÙĦ Ø§Ø¯
ĠØ¨Ø®Ø´ ÛĮØ¯
ĠØ¨ÙĨ Ùī
ĠÙĨÙĪ Ú©
ĠÙĨÙĪ Ø¢ÙĪØ±
ĠØªØ´ Ùĥ
ÙĪÙĨÛĮ Ø³Ùħ
ĠÙĨÙĩ ÙģØªÙĩ
Ø´Ø¯ Øª
Ø´Ø¯ ÙĨØ¯
ĠØ¢Ø± Ø§ÙħÛĮ
ÙĬØ¯ ÙĬ
ĠØªÙĤ ÙĪØ§
ĠÙĩÙħÚĨ ÛĮÙĨ
Ø±ÙĪÙħ ÙĨØ¯
ĠØªÙĪÙĦÛĮØ¯ Ú©ÙĨÙĨØ¯Ú¯Ø§ÙĨ
in o
ĠØªÙĩØ±Ø§ÙĨ ØªØ´
ĠÙ¾Ø§Ø³ Ø§Ø±Ú¯
ĠØ¹ÙħÙĦ ÙĬØ§Øª
ĠØŃÙĤ Ø§ÛĮÙĤ
Ø³Ø§ÙĦ ÙĨ
ĠØ®ÛĮ Ø²ÛĮ
ĠÛ² Û·
ĠÙ¾Ø±Ø¯ Ø§Ø²Ùĩ
ĠØ®Ø· Ø§ÛĮ
ĠØºÛĮØ± Ø±Ø³ÙħÛĮ
ĠØ²ÙĨ Ø§Ø´ÙĪÛĮÛĮ
ĠP riv
ĠØ§ÙĬÙĨ ÙĥÙĩ
ĠÙħØŃØµÙĪÙĦ Ø§ØªÛĮ
Ú¯Ø° Ø±Ø¯
ĠÙħØ¹Ùħ Ø§Ø±Ø§ÙĨ
ĠØ¬ÙĪ Ø§ÛĮØ²
ĠC rus
ĠØ¢ÛĮ Ø§Øª
ĠØ³ÙĦ ÙģÛĮ
ĠØ§ÙĨÚ¯ Ø´ØªØ±
Ú¯Ø±Ø¯ ÛĮØ¯
ĠÚ¯Ø±ÙģØª ÛĮÙħ
ĠÙĩÛĮÚĨ Ú¯Ø§Ùĩ
ĠÛ±Û³Û ¶
ĠØ®ØµÙĪØµ ÛĮØª
ĠØ·Ø¨ Ø§Ø·
ĠÙĦÛĮ ÙĪØ§ÙĨ
ĠØ²ÛĮØ¨ Ø¯
ĠÙĩÙħØ§ÙĨ Ø§
ĠØ¯Ø§Ø® ÙĦÙĬ
ĠB and
ĠØ±ÙħØ¶ Ø§ÙĨÛĮ
ĠØ³Ø§ÛĮ ØªÛĮ
Ġ4 5
ĠØªÛĮ Ø±ÛĮ
ĠØªÛĮ Ø²Ùĩ
ĠÙħÚ© Ø§ÙĦÙħ
ĠÙĦÙĪ Ø¨ÛĮØ§
ĠÙ¾Ø° ÛĮØ±Ø¯
ĠØ³Ùģ Ø±ÛĮ
20 19
Û² Û²
ĠÙħÙĩØ± ÙħØ§Ùĩ
ĠØ¹ÙħÙĦÚ©Ø±Ø¯ ÛĮ
ĠØ¬Ø§ÙĨ Ø¨Ø§Ø²Ø§ÙĨ
ĠØ¹ÙĦÛĮÙĩ Ùħ
ĠÙģØ±Ùħ ÙĪØ¯Ùĩ
ĠÙĪØ³ Ø§ÙĬÙĦ
ĠÙĪØ³ ÙĬÙĦÙĩ
ĠØ¯ÙĩÙĨØ¯ Ú¯Ø§ÙĨ
Ø¨Ø¹ Ø¯ÛĮ
ĠG ame
ÙĪÙĦÙĪ Úĺ
ĠÙ¾ÙĨØ¬ Ø´ÙĨØ¨Ùĩ
ØªØŃ ÙĦÛĮÙĦ
ĠÙĨÛĮØ±ÙĪ Ú¯Ø§Ùĩ
ag na
ĠÙħØ³ØªÙĤ Ø±
ĠØ§ÙĨØªÙĤ Ø§Ø¯ÛĮ
ro w
ĠØ´Ø¹ ÙĦÙĩ
ĠÙ¾Ø§Ø± ÙĦÙħØ§ÙĨÛĮ
lo w
ĠØ®ÙĪØ´ Ú¯ÙĦ
Ġt h
it ion
ĠØªØ§Ø« ÛĮØ±ÛĮ
ĠÙħÙĪØ³ Ø³
Ø±ÙģØª Ùħ
ĠN a
ĠØ´ÛĮØ± Ø®ÙĪØ§Ø±
ĠØ¯Ø§Ùħ Ø§Ø¯ÛĮ
ĠØ¬ÙĦÙĪ ØªØ±
ĠØ±Ø§ÙĩÙĨÙħ Ø§ÙĬ
ĠÙĨØ§ Ø§ÙħÛĮØ¯
ĠÙĩÙĨØ± ÙĬ
Ø²ÙĨØ¯ Ú¯ÛĮÙĨØ§ÙħÙĩ
ĠÙĤÙĦ Ø¹
ĠØ±ÙģØªØ§Ø± ÙĩØ§ÙĬ
ĠÚ©Ø±ÛĮ Ø³ÙħØ³
ÙģÙĦ Ø§Ø´
ĠØ¬Ø± Ø§ÛĮÙħ
ĠE n
ĠØ³Øª Ø§ÛĮØ´
Ġb e
Ġb oy
ĠØ±Ø² Ùħ
ĠØ±Ø² ÙħØ§ÛĮØ´
ĠØ´ÙĨØ§Ø³ Ø§ÙĨ
ĠÙ¾Ø±Ø³Ø´ ÙĩØ§ÛĮ
ĠØ¨Ø³ ÙĬØ§Ø±ÙĬ
ĠØ³Ø¹ ÛĮØ¯ÛĮ
ĠØ¯Ø¹ Ø§ÛĮ
ĠØ¯Ø¹ Ø§ÙĬ
om p
ĠÛ´ Ûµ
ĠØ¢Ø³ Ø§ÛĮØ´
ĠØ§Ø³Ù¾ ÛĮØ¯
ĠØ§Ø³Ù¾ ÙĪØ±Øª
Ġon line
ÙħÙĪ Ø¶ÙĪØ¹
ĠØ¯ÙĬ Ø¯Ø§Ø±
ĠØ¯ÙĬ Ú¯Ø±Ø§ÙĨ
ĠØ¶Ø± Ø¨Ø§ÙĨ
ĠØŃÛĮ ÙĪØ§ÙĨÛĮ
ĠØ¨ÛĮØª ÙĪØªÙĩ
ĠØ¨Ø±ÙĪØ² Ø±Ø³Ø§ÙĨÛĮ
ĠÙħØ®Ø§Ø· Ø¨ÛĮÙĨ
ĠØ§Øº Ø§ÙĨÙĬ
Ø¨Ø§Ø²ÛĮ Ú¯Ø±Ø§ÙĨ
ĠØ¯Ø§ÙĨØ³Øª ÙĨØ¯
Ø³ÙĦ ØŃØ´ÙĪØ±
ĠØ§ÙĨØªØ¸ Ø§Ø±Ø§Øª
ĠØ®ÙĪØ§Ø³Øª ÙĨØ¯
ĠØªØŃØ±ÛĮÙħ ÙĩØ§ÛĮ
ĠØ¢ÙĪØ±ÛĮ ÙĦ
ĠÙĩÙĨØ¯ Ø¨Ø§ÙĦ
ĠØ®Ø§Ú© Ø³ØªØ±ÛĮ
ĠØ²ÙĨØ¯ Ú¯ÛĮÙĨØ§ÙħÙĩ
ĠÙģØ±ÙħÙĪØ¯ ÙĨØ¯
ol or
ĠÙĨÚ©Ø±Ø¯ ÙĨ
ĠØ³Ú© Ø³ÛĮ
ĠÙħØ±Ú¯ Ø¨Ø§Ø±
ĠÛĮØ²Ø¯ Ø§ÙĨÛĮ
ĠØ¢ÙĬØ§Øª ÙĬ
ĠJ acobs
ĠÙħØ§ÙĦ Ú©
ĠÙħØ§ÙĦ Ú©ÛĮØª
Ø§ÛĮØ± ÙĨØ§
ĠØ¬Ø§ ÙĪØ¯
ĠØ®ÙĦØ§ÙĤ Ø§ÙĨÙĩ
Ù¾Ø±Ø¯Ø§Ø² ÙĬ
Ġv ide
ĠÙħÚ©Ø§ÙĨÛĮ Ø³Ùħ
ĠÙħØ§Ø¯ Ø§Ùħ
ĠØ§Ø±Øª ÙĪØ¯ÙĨ
ĠK ar
ĠØ§ÛĮØ± Ø§Ø¯Ø§Øª
Ù¾Ø²Ø´ Ú©Ø§ÙĨ
ÙĪØ³ÛĮ ÙĦÙĩ
ĠÛĮÙĪ Ø§Ø´
ĠÙĨØ¸Ø§ÙħÛĮ Ø§ÙĨ
ĠØ§ÙĪØ± ÚĺØ§ÙĨØ³
ĠØ²ÙĬ Ø³Øª
ĠØ²ÙĬ Ø±Ø§
ĠÛĮØ§Ø± ÛĮÙħ
ĠÚ¯ÙĪÙĨØ§ Ú¯ÙĪÙĨÛĮ
ĠØ§ÛĮØ³Øª Ø§Ø¯Ùĩ
ĠÙ¾Ø¯ ÙĬØ¯Ùĩ
ĠÙħØ±Ø² ÙĩØ§ÛĮ
ĠÚ©Ø§Ø´ ÛĮÙħØ§
ĠÚ¯Ø±ÛĮ ÙĦ
ĠÙģØ±Ø§Ùħ ÙĪØ´ÛĮ
ĠØ§Ø´ØªØ¨Ø§Ùĩ Ø§Øª
ĠÚ©ÙĦØ§Ùħ ÛĮ
ĠØªØ¯ Ø§Ø¨ÛĮØ±
Ø¢Ø¨ Ø§Ø¯ÛĮ
ĠY ong
ĠÐ ¿
ĠØ·Ø¨ÛĮØ¹Øª Ø§
ĠØ§ÙĦÚ¯ÙĪ ÙĬ
ĠØ§Ø³ØªØ¹ ÙĦØ§Ùħ
ĠØµØ¨ØŃ Ø§ÙĨÙĩ
ĠØ¯Ø§Ø¦ ÙħØ§
ĠÚĺÙĨ Ø±Ø§ÙĦ
ĠØªØ§Ø¬ Ú¯Ø±Ø¯ÙĪÙĨ
ĠØ´Ø³Øª Ø´ÙĪÛĮ
Ø¯Ø§ÙĨØ´ Ú¯Ø§ÙĩÛĮ
Ġin fo
ĠØ¢ÙĪ Ø§ØªØ§Ø±
ĠÛ²Û°Û± Û¸
Ġâ ĩĲ
ĠÙģØ±Ø³Øª ÙĨØ¯Ùĩ
ĠÙħØ¬ÙĪØ² ÙĩØ§ÛĮ
ĠÚ©Ø§ØºØ° ÛĮ
ĠÙĤÛĮÙħ Ùĩ
ĠØ¨Ø§Ùħ Ø¯Ø§Ø¯
ØµØ¯ÛĮ ÙĤÛĮ
ĠÙ¾ÛĮÙĪÙĨØ¯ ÛĮ
Ð¾ ÑĢ
Ġn ew
ĠÙģÙĪ Ø§ØµÙĦ
ĠØªÙĪÙĨ ÙĦ
Ú©Ùģ Ù¾ÙĪØ´
ĠÚ¯Ùħ Ø±Ú©
Ñģ ÑĤ
ĠÚ©ÙĦØ§Ùĩ Ø¨Ø±Ø¯Ø§Ø±ÛĮ
ÙħØ· Ø§ÙĦ
ĠØ±Ø¨ Ø§Ø·
ĠØ³ÙĪØ¡ Ø§Ø³ØªÙģØ§Ø¯Ùĩ
ĠØ²Ø§Ø¦ Ø¯
ĠØ¯Ø³Ø± ÙĩØ§ÛĮ
ĠÙħØ¯Ø§Ø± Ø¨Ø³ØªÙĩ
Ø³Ø±ÛĮ Ø§ÙĦ
ĠØ§Ø´Ø®Ø§Øµ ÛĮ
ĠØ§Ø° ÛĮØª
Ø²ÛĮØ± ÙĨÙĪÛĮØ³
ĠØ§ÙĦØªÙĩ Ø§Ø¨ÛĮ
ĠØ¨Ú© Ø´Ø¯
ĠØ§Ú©Øª Ø¨Ø±
ĠØ¶Ø® ÛĮÙħ
end er
ĠÙĨØ±ÛĮ ÙħØ§ÙĨ
ĠØ³Ø§Ø± Ø§ÙģÙĪÙĨ
ĠØ¨Ø±Ø³Ø§ÙĨ ÛĮØ¯
ĠÙĥÙħ Ùĥ
ĠØ®ÙĪØ¯Ø±ÙĪÛĮ ÛĮ
ðŁ Ķ
ĠÚ¯ÙĪØ§Ø± Ø´ÛĮ
ĠØ²Ø¨ Ø§ÙĨÙĩ
ĠØ§ÙĨØŃ Øµ
ĠÙħØŃØµ ÙĪØ±
ĠÙĨÙħØ§ÙĬ ÙĨØ¯
ĠØ³ÙĦØ· ÙĨØªÛĮ
ĠÙģÙĦØ³Ø· ÛĮÙĨ
ndro id
ĠØ§ÙĨØµ Ø§Ø±
ĠØ¢ÙģØ±ÛĮÙĤ Ø§ÛĮ
ĠÙĩÙĪØ§Ù¾ÛĮÙħ Ø§ÛĮÛĮ
ĠØ¯ÙĨØ¯ Ø§ÙĨÛĮ
ĠÚ©Ø±ÙĪ Ø¨ÛĮ
ĠØ¹Ø¬ ÙĦÙĩ
ĠØ¨Ø§Ø²Ú¯Ø±Ø¯ Ø§ÙĨØ¯ÙĨ
ĠØ¢Ø±Ø² ÙĪÛĮ
ĠØªÙĤÙĦ Ø¨ÛĮ
ĠÙ¾Ø§Ø±Ø§ÙħØªØ± ÙĩØ§ÛĮ
ĠÙħØŃØ§Ø³Ø¨ Ø§Øª
ĠAr t
ĠÙħØ¨Ø§Ø¯ ÙĦØ§Øª
ĠÙħØ·Ø¨ÙĪØ¹ Ø§Øª
ĠØ§ÛĮÙĪØ§ÙĨ Ú©
ĠÚ¯ÙĦÛĮ Ø±
ĠÙĦØ§Ø³ØªÛĮ Ú©ÛĮ
ĠØ´Ø±Ú© ØªÛĮ
ĠØªØµÙĪ ÙĬØ¨
ĠØ§ÙĤØ§Ùħ ØªÛĮ
Ø¯ÙĬ Ú¯Ø±
ĠØ¨ÛĮØ± Ø¬ÙĨØ¯
ĠÙħØ£ Ùħ
ĠÙĦØ¨ÙĨÛĮ Ø§Øª
ĠØ¨Ø³Ù¾Ø§Ø± ÛĮØ¯
nu o
ĠÙ¾Ø´ ØªÙĪØ§ÙĨÙĩ
ØŃØ¬ Ø§Ø¨ÛĮ
ĠÙ¾Ø±Ø§Ú© ÙĨØ¯Ùĩ
ĠÙħØ²Ø§ÛĮ Ø¯Ùĩ
ĠØ¨Ø· Ø±ÛĮ
ÙģØ§Ø± Ø³ÛĮ
ĠØºØ±ÛĮ Ø¨Ùĩ
ĠBal im
ĠÙħÛĮØªÙĪÙĨ ÛĮØ¯
ĠØŃØ§Øª Ùħ
ĠÙĤØ§Ø± ÚĨÛĮ
ĠÙĤÙģ Ø³Ùĩ
ĠÚ©Ø§Ø±Ø¢Ùħ ÙĪØ²ÛĮ
ĠØºÙĬ Ø¨Øª
ĠDriv ing
ĠÙħÚ¯Ø§Ø¨ Ø§ÛĮØª
Ú©Ø§Ø±Ø¯ Ø³ØªÛĮ
ĠÙĨØ· ÙģÙĩ
ĠÙħØµÙĦØŃ Øª
ĠMon st
rypt o
ĠÙĩÙħØ³Ø±Øª ÙĪÙĨ
ĠStrong hold
ĠØ¹Ø§Ø± Ø¶Ùĩ
ĠØ§Ù¾ØªÛĮ Ú©ÛĮ
ĠØ¯Ø§Ø±ÙĪØ³ Ø§Ø²
ĠØ§ÙģÙĦØ§Ø· ÙĪÙĨ
ĠØºÛĮØ±Ø¯ ÙĪÙĦØªÛĮ
Ø¨Ø§Ø²Ø§Ø±ÛĮ Ø§Ø¨ÛĮ
Ġgal et
ØªÙĪØµ ÛĮÙĩ
ĠÙĪÙħØ¹ ÙĦÙħ
ĠÙĩØ§Ø±Ùħ ÙĪÙĨÛĮ
ĠØ¢ØªÙĪØ± ÙĪØ§Ø³Øª
ĠØ®Ø±Ø¨ Ø²Ùĩ
ĠÙģØªØ§ÙĦÛĮ Ú©
Ù¾Ø±Ø® Ø§Ø´
ĠÙħØŃØ§Ú© ÙħÙĩ
ĠØ§ÙĦØŃØ³ ÙĨÙĩ
ĠÙħØ±ØªÚ© Ø¨
ĠÙĨÙĤØ¯ÛĮÙĨ Ú¯ÛĮ
ĠØªÙĩØ±Ø§ÙĨØªØ´ Ø±ÛĮÙģØ§Øª
ĠÙ¾Ø§Ø³Ø§Ø±Ú¯ Ø§Ø¯
ĠÙħÚ©Ø§ÙĦÙħ Ø§Øª
ĠØ§Ø±ØªÙĪØ¯ÙĨ Ø³ÛĮ
ĠYong nuo
) ÂŃÂŃ
. (
3 8
4 4
7 0
= "
E T
G o
I E
I N
R S
S i
T A
T L
a j
b an
b um
d ol
f il
l or
l and
t elegram
u e
u x
y ric
Ã Ĺ
Ñ Į
Ñ ĸ
Ù §
Ġ %
Ġ ;
Ġ @
Ġ lo
Ġ it
Ġ 0912
Ġ all
Ø§ ÚĨÙĩ
ÛĮ ÙĪ
ÛĮ Ø§Ø¨ÛĮ
ÛĮ ÛĮØ¹
Ø± Ø¨ÛĮ
Ø± Ø´Ø¯
Ø± Ø§ÙģÛĮ
ÙĨ Ø§ÙĦ
ÙĨ Ø§Ø¹
Ùĩ ÙģØª
Ø¯ Ø®
ÙĪ Ø§Øª
ÙĪ Úĺ
ÙĪ Ø§ÛĮØª
ÙĪ Ø§ÙĤ
ÙĪ Ø§ÙĤØ¹
Ú© Ø§Ùģ
Ú© Ø±Ø¨
Ú© ÙĪÙ¾
ĠØ¨ ÚĨ
ĠØ¨ Ø´ÙĨ
ĠØ¨ Ø¯ÛĮØ¯
ĠØ¨ Ø§ÛĮÙĨ
ĠØ¨ ÙģÙĩ
ĠØ¨ Ú¯Ùħ
ĠØ¨ ÚĨØ±Ø®
ĠÙħ Ø§Øª
ĠÙħ ÙģØ±
ĠÙħ Ø¨Ø§ÙĦ
ĠÙħ Ø²Ø¯
ĠÙħ Ø§Ø¡
Ø§ÙĨ ÛĮØª
Ø§ÛĮ Ø±Ø§ÙĨÛĮ
ĠØ¯ ÙĦÛĮ
ĠØ¯ ÙĬØ¯
ĠØ¯ Ø§ÛĮØ±
Ø³ Ø±Ø¯
Ø³ Ø§ÙĨÙĩ
Ø³ ÙĦÙħ
Ø³ Ø·ÙĦ
ĠÙĪ Øº
ĠÙĪ Ø¨Ùĩ
ĠÙĪ Ø§ÙĦÛĮ
ĠÙĪ Ø±Ø§
Ø´ Ø§Ø®
ĠÚ© Ø¯ÛĮ
ĠÚ© Ø¯Ø±
ĠÚ© Ø§Ø³Øª
ĠÚ© Ø§Ú©
ĠÚ© ÙģÛĮ
ĠÚ© Ø¯ÙĪ
ĠÚ© Ø§Ø³ØªÙĩ
Ø§Ø± Ø§
Ø§Ø± ÛĮÙĨ
Ú¯ Ø³Øª
Ú¯ Ø´Øª
Ø¨ Ø§Ø¯
Ø¨ ÙĬÙĨ
ĠØª Ø§Ùħ
ĠØª Ø§Ø³
Ùģ Ø³ÛĮ
Ùģ ÙĪØ±Ø¯
Ùģ Ø´Ùĩ
ĠØ± ÛĮÙħ
ĠØ± Ø®Øª
ĠØ± ÛĮÙħÛĮ
ĠØ± ØµØ¯
ĠØ± ÙĨØ¯Ø±
ĠÙĨ ÙĪØª
ĠÙĨ ØªÙĪØ§ÙĨØ¯
ĠÙĨ Ø§Ø¦ÙĦ
ĠÙĨ Ú¯Ø±Ø¯Ø¯
ĠÙĨ Ø®ÙĪØ§ÙĩÙĨØ¯
ĠÙĩ ÙĪØ§ÙĨ
Ø§Ùħ Ø¬Ø¯
ĠØ¯Ø± Ùĩ
ĠØ¯Ø± ÛĮÙĨ
ĠØ¯Ø± Øµ
ĠØ¯Ø± ÙĨÚ¯
ĠØ¯Ø± Ú¯Ø§Ùĩ
ĠØ¯Ø± Ø¢ÙħØ¯Ùĩ
ĠØ³ Ø¬
ĠØ³ Ø§Ø¨
ĠØ³ Ø¯Ùĩ
ĠØ³ ÙĦØ¨
ĠØ³ ÛĮÙĨÚ©
ĠØ³ Ø§Ø¹ÛĮ
ĠØ³ Ø±Ø¯Ùĩ
ĠØ³ Ø§ÙĬØ±
ĠØ´ Ø§ÙĦ
ĠØ´ ÙĪÙĨ
ĠØ´ Ú©Ø§Ø±
ĠØ´ ÙĪÙĤ
ĠØ´ Ø§Ø¡
ĠØ´ ÙĬØ±ÙĬ
ĠØ¢ Ø«
ĠØ¢ Ø±Ø³
ĠØ¢ Ú©ÙĪ
ĠØ¢ ÙĪØ§
ÙĤ ÙĪÙĩ
Ø¹ Ø¯Ùħ
ĠØ¨Ùĩ Ø§
ĠÙ¾ ÙĪÛĮ
ĠÙ¾ ÙĦØ§Ú¯
ĠÙ¾ Ø®ØªÙĩ
ĠØ® ÙĨ
ĠØ® ÛĮØ³
ĠØ® Ø§Ùĥ
Ø¬ ÙĪØ§ÙĨÛĮ
ĠÙħÛĮ Ú¯ÙĪÛĮØ¯
ĠÙħÛĮ ÙĨÙħØ§ÛĮØ¯
ĠÙħÛĮ ÙĥØ±ÙĪ
ĠØ§ÛĮ Ø³
ĠØ§ÛĮ Ø§ÙĦØª
ÙĪØ± Ø³
ÙĬ ÙĬØ¯
ÙĬ Ø§Ø¡
ÙĬ ÙĪØªØ±
ÛĮØ¯ Ø§
Ø³Øª Ø¯
Ø³Øª Ø§Øª
Ø³Øª ÙĦØ§
Ø® Ø·ÛĮ
Ø® Ø§ÙĨÙĪ
ĠÙģ ØªÙĪ
ĠÙģ ØµÙĪÙĦ
ĠÙģ Ø·Ø±
ĠÙģ Ø³ÙĨØ¬Ø§ÙĨ
ĠØ¨Ø± ØŃ
ĠØ¨Ø± Ø²ÛĮ
ĠØ¹ Ø§ÙħÙĩ
ĠØ¹ Ø§Ø²Ùħ
ĠØ¹ Ø²Ùħ
ĠØ¹ Ø§ÙĦÙĬ
Ø§Øª ÙħÙĨØª
ØŃ Ø§Ø¬
ĠØ§Ø³Øª Ø±ÛĮ
ĠØ§Ø³Øª Ø§ØªÛĮÚ©
ĠØ§Ø³Øª ÙĪØ§ÙĨÙĩ
ĠÚ¯ Ø±ÛĮÙĨ
ĠØ¬ Ø§ÙĨØ¯
ĠØ¬ Ø§ÙħÛĮ
ĠØ¬ Ø§Ø¯ÙĪ
ĠØ¬ Ú©Ø³ÙĪÙĨ
Øµ Ø¯Ø§
Ø§Ø¨ ÙĪÙĨ
Ø§Ø¨ Ø¹ÛĮ
ĠÛĮ Ø§ÙĦ
ĠÛĮ Ø§Ø¦
ĠÛĮ ÙĪØ³
ĠØ§ÛĮÙĨ Ø·ÙĪØ±
ĠØ§ÛĮÙĨ Ø·ÙĪØ±ÛĮ
Ø· Ø¦Ùĩ
Ø§Ø³ Ø±
Ø§Ø³ Ø¨ÛĮ
Ø§Ø³ Ø§Ø²ÛĮ
Ø±ÙĪ ÙĦ
Ø±ÙĪ Ø¦ÛĮØ¯
Ø§Ø´ ÛĮØ±
ĠÙĤ Ø§Ùģ
ĠÙĤ ÙĪÙħÛĮ
ĠØ² Ø§Ø¯
ĠØ² ØŃÙħ
Ù¾ Ø¯Ø±
Ù¾ ÙĨØ¬
Ù¾ Ø§ÛĮØ§ÙĨ
Ù¾ ÙħÙ¾
Ù¾ Ø±ÛĮÙĨØªØ±
ÛĮØ± Ø§
ĠÚĨ ÛĮÙĩ
ĠÚĨ ÙĨÙĬÙĨ
ĠØ¯Ø§ÙĨ Ø§
ÙĪÛĮ ÚĨ
ĠÙĩÙħ Ú¯Ø§ÙĨ
ĠÙĩÙħ Ø±ÙĨÚ¯
ĠÙĩÙħ ÙĪØ±ÙĪ
ĠØ¨Ø±Ø§ÛĮ ÙĨ
ĠÙĦ Ú©
ĠÙĦ ÛĮÙĨ
ĠÙĦ Ú©Ùĩ
ĠÙĦ Ø§ÙĦÛĮ
ĠØ§Ùħ Ø±ÛĮÚ©
ĠØ§Ùħ ÛĮØ±ÛĮ
ĠØ§Ùħ ÙĥØ§ÙĨ
ĠØµ ÛĮ
ĠØµ ÛĮØ§Ø¯
ĠØµ ÙħÛĮÙħÛĮ
ĠÚ©ÙĨ ØªØ±Ø§Ø³Øª
Ø° Ùĩ
ĠØ· Ø¹
ĠØ· Ø§Ø³ÛĮ
ĠØ· ÙĨØ§Ø¨
ĠÙħÙĪ Ø§Ø²ÛĮ
ĠÙħÙĪ Ø³ØªÙĦØ§
ĠÚ©Ø§Ø± Ø§ÙĨ
ĠÚ©Ø§Ø± Ø´
ĠÚ©Ø§Ø± ÙĪÙĨ
ĠÚ©Ø§Ø± Ø¯Ø§ÙĨ
Ġ( Â«
ĠØ¯Ø§Ø± ÙĨ
ĠÙħÙĨ Ø³
ĠÙħÙĨ Ø¬
ĠÙħÙĨ ÚĨ
ĠÙħÙĨ Ø§Ø¨Ø¹ÛĮ
Ú¯Ø± Ø§ÛĮØ´
ĠÙħØŃ ÙĦØ§Øª
ĠÙħØŃ Ø§ÙģØ¸Ùĩ
ĠÙħØŃ ÙĪØ±ÛĮØª
ĠÙĨÛĮ Ø³ØªÙħ
ĠÛĮÚ© Ø³Ø±ÛĮ
ĠØ®ÙĪØ¯ Ø±Ø§
ĠØ¢Ùħ Ø¯Ùħ
ĠØ¨Ø§Ø² ÙĨ
ĠØ¨Ø§Ø² Ùĩ
ĠØ¨Ø§Ø² ÙĪ
ĠØ¨Ø§Ø² ÙĨØ¯Ùĩ
ĠØ¨Ø§Ø² Ú©Ø±Ø¯ÙĨ
ĠØ¨Ø§Ø² Ø¯ÙĬØ¯
ĠØ¨Ø§Ø² Ù¾Ø±Ø¯Ø§Ø®Øª
ĠØªÙĪ Ø§Ùħ
ĠØ§ÙĦ Ú©
ĠØ§ÙĦ Ø¨ÙĦ
ĠØ§ÙĦ ÙħØ¹
ĠØ¨ÛĮ Ø§Øª
ĠØ¨ÛĮ Ø¹Øª
Ø§ØŃ ØªÙħ
Øº ÛĮØ¨
Ø§Ø® ØªÙħ
ĠÙģØ± Ø®
ĠÙģØ± Ø§Ø±ÛĮ
ĠÙħØ± Ø³
ĠÙħØ¹ Ø§Ø´
ĠÙħØ¹ Ø¯ÙĦ
ĠÙħØ¹ Ø§ÛĮØ¨
ĠØ´Ùħ Ø§Ø±Ø´
ĠÙħØ¯ ÛĮÙĨÙĩ
Ú©ÙĨ Ø§Ø±
ĠØªØ§ ÙĪÙĨ
Ø§ÛĮØª Ø§ÙĨ
ĠØ§Ùģ ÙĤ
ĠØ§Ùģ Ø´Ø§
ĠØ§Ùģ ØºØ§ÙĨÛĮ
ĠÙħØª ÙĪ
ĠÙħØª ÙħÙħ
ĠØ¯Ø³Øª Ø§ÙĪØ±
ĠØ¯Ø³Øª Ø¨ÙĨØ¯
ĠØ¨ÙĪØ¯ ÛĮÙħ
ĠØ³Ø± ÙĪØ¯Ùĩ
ĠØ³Ø± Ø¨Ø§Ø²ÛĮ
ĠØ±ÙĪ Ø§ÙĦ
ĠØº Ø§Ø±
ĠØº Ø±ÙģÙĩ
Ø¯Ø± Ø¬
ĠØ³Ø§ÙĦ Ø§Ø±
ĠÚ©Ø´ Ø¯
ĠÙħÙĤ Ø¯
ĠÙħØ³ Ø§ÙĪÛĮ
Ø§ÙĤ ÙĦÛĮ
ĠØ³Ø§Ø² Ø§ÙĨ
ĠØ³Ø§Ø² ÙĨØ¯Ú¯Ø§ÙĨ
ĠØ³Ø§Ø² Ú¯Ø§Ø±ÛĮ
ĠØ´Ø± Ø¨
ĠØ´Ø± Ø§Ø±Ùĩ
Ø§Ú© Ø§ÙĨ
ĠØªØŃ ÙĤ
ĠØªØŃ ÙĤÛĮÙĤÛĮ
ĠØªØŃ Ø³ÛĮÙĨ
ĠØªØŃ ØµÙĬÙĦ
ĠØªØŃ ÙĦÙĬÙĦ
ĠÙĥ ÙĪ
ĠÙĥ Ø§Ùħ
Ø§Ø· Ùħ
Ġ2 50
ÙĪØ±Øª Ø§ÙĨ
ÙĪØ±Øª Ø±ÛĮÙĨ
ĠØ²ÛĮ Ø§ÙĨ
Ùĥ Ø§Ø±ÙĬ
Ø§Ø¬ Ø§Ø±Ùĩ
ĠÚ©Ùħ ÛĮÙĨ
Û° Û³
Ø§Ø¦ Ø¯
Ø§Ø¦ ÙĬ
ĠØ³ÛĮ Ú©ÙĦ
ĠÚ¯ÙĦ Ú©Ø³ÛĮ
ĠØ¨Ø¯ ÙĪ
ĠØ¨Ø¯ ÙĦ
Ø§ÙĬ Ø§Øª
Ø±Ùħ Ø²
ĠÚ©ÙĨØ¯ ÙĨ
ĠØªØ¹ Ø±ÙģÙĩ
ĠÙģÛĮ Ø¶
ĠØ§Ø¬ Ø§Ø¨Øª
ĠØ§Ø¬ Ø¨Ø§Ø±ÛĮ
ĠØ§Ø¬ ÙĨØ§Ø³
ĠØªÙħ Ø§ÛĮØ²
ÙĢ Ø§ÙĨ
ĠØ§Ø¨ Ø§ØªÙħÙĨØª
Ø¨Ø§ÙĨ Ø§ÙĨ
Ø§ÛĮÙĨ Ø¬Ø§
ĠÙĨØ§Ùħ ÛĮØ¯
ĠÙĨØ§Ùħ ÙĨØ¸
ĠØ§Ø¯ ÙħÛĮÙĨ
ĠÚ©ÙĦ Ø§ÙĦÙĩ
ĠØªÙĩ Ø´
ĠØªÙĩ ÙħØª
ĠÚ©Ø´ÙĪØ± ÙĩØ§ÙĬ
ĠÙħØ§Ùĩ Ø§ÙĨÙĩ
ĠÙ¾Ø§ÛĮ Ø¨ÙĨØ¯ÛĮ
ĠØ§Ø· ÙģØ§ÙĦ
ĠØ§Ø´ Øª
ĠØ§Ø´ ØºØ§ÙĦ
ĠØ¶ ÛĮ
ĠÙ¾Ø±ÙĪ ÛĮØ²
ĠÙ¾Ø±ÙĪ Ø³ØªØ§Øª
ĠØ§ÙĤ Ø³Ø§Ø·
ĠÙ¾ÛĮØ´ Ø§ÙĨÛĮ
ĠÙ¾ÛĮØ´ Ú¯ÙĪÛĮÛĮ
ĠÙ¾ÛĮØ´ Ú¯Ø§Ùħ
ĠØ¨Ø§ÙĦ Ø§Ø³Øª
ĠØ¨Ø§ÙĦ ÙĤÙĪÙĩ
ÙĦØ¨ ÙĪØ±Ø¯
ĠÙ¾Ø³ ÙĪØ±Ø¯
ĠÙ¾Ø³ ÙĪÙĨØ¯
ĠÙ¾Ø³ Ø±Ø´
Ø®ÛĮ ÙĦ
Ø®ÛĮ ØµÛĮ
Ø¯Ø§ÙĨ Ø§ÙĨ
ÙħÙĩ Ùħ
Ú©Ø§Ø± Ø´ÙĨØ§Ø³Ø§ÙĨ
ĠØ¨Ø¹ Ø¯ÙĩØ§
ĠØ³Ø§Ø®Øª Ø§Ø±ÛĮ
ĠÚ¯ÛĮ Ø¬
ĠØ´ÛĮ ÙĪØ¹
ĠØªÙĨ ÙģØ³ÛĮ
ĠÚ¯Ø±Ø¯ Ø¢ÙĪØ±ÛĮ
ĠØ§Ø·ÙĦØ§Ø¹ ÙĬÙĩ
ĠØ¨ÛĮÙĨ ÙĨØ¯Ú¯Ø§ÙĨ
ĠÙ¾Ø± ÙĪØ±Ø¯
Ø¯Ø§Ø± Ø§ÛĮ
ĠØ¹Ø§Ø´ ÙĪØ±
ĠØ« Ø§ÙĦØ«
ĠÙħÙĬ ÙĪÙĩ
ĠÙħÙĬ ÙĦÙĬ
ĠÙĪØ± ÙĤ
Ù¾ÛĮ Ø§Ùħ
ĠÙĩÛĮ ÙĪÙĦ
ĠÙĩÛĮ Ø¨Ø±ÛĮØ¯
ĠÙħØµ Ø§Ø¯
ĠÙħØµ ÙĪÙĨ
ĠØ¨ÙĦ ÙĨØ¯ÛĮ
ĠÙģØ¹ ÙĦ
ĠØ¨ÙĨ Ø§Ø¯Ø±
ĠØ¨ÙĨ Ø²ÛĮÙĨ
ĠÙĨÙĪ Ø¬ÙĪØ§ÙĨÛĮ
Ġ) ØĮ
ĠØªØ´ Ú©
ĠØªØ´ Ø§Ø¨Ùĩ
ĠØªØ´ ÛĮÛĮØ¹
ĠØªØ´ Ø®ÛĮØµÛĮ
ĠØ§ÙģØ± Ø§Ø·
Ġ3 3
Ġ3 000
ĠÙĨÙĩ Ø§Ø¯ÙĩØ§
ĠØ° ÙĪÙĤ
ĠØ° ÙĬÙĦ
Ø´Ø¯ Ú¯Ø§ÙĨ
ĠØ¨Ø²Ø±Ú¯ ÙĪØ§Ø±
ĠØ¢Ø± ÙĨØ¬
ar m
Ø¨Ø§ÙĦ Ø´ÛĮ
Ø¨ÙĦ ÙĨØ¯
ĠØ¯Ø§Ø´Øª ÙĨÛĮ
ĠÙħØ®Øª Ø§Ø±ÛĮ
ØªÙĪ Ø«
ĠS ub
ĠÙħØ« Ø§Ø¨Ùĩ
ĠÙħØ« Ø¨ØªÛĮ
Ø¬ÛĮ ÙĦ
ÙĦÙģ Ùĩ
Ø´ÛĮ ÙĪÙĩ
ĠØ·Ø±ØŃ ÙĩØ§ÛĮ
ĠØ¹Ø± Ø¶ÛĮ
ĠA ndroid
ĠØ¯ÙĦ Ø§ÙĦØª
ĠÚ©ÙĪ Ú©
ĠÚ©ÙĪ ÛĮØ±
ĠÚ©ÙĪ ÙĦÛĮØª
ĠÙ¾Ø±Ø¯ ÛĮØ³
ĠØ¯Ø±ÙħØ§ÙĨ ÙĩØ§ÛĮ
ĠP o
ĠP lan
ĠÚ©Ø§Ùħ ÙĦÛĮ
ĠØ§ÙĬÙĨ Ú©Ùĩ
ĠØ¬Ø§Ùħ Ø¹ÛĮ
ĠØ®Ø¨Ø± Ùĩ
ĠØ®Ø¨Ø± ÙĩØ§
ĠØ³ÛĮØ³ØªÙħ Ø§ØªÛĮÚ©
Ø¯Ø§Ø¯ ÙĨØ¯
ĠÙħØ¹Ùħ Ø§Ø±
ĠÙĨÙĪØ¹ ÙĬ
ĠÙĨØ±Ùħ Ùĩ
ĠÙĪÙĤ Ø§ÛĮØ¹
ĠM il
ĠD r
ĠD el
ĠD ec
ĠD OA
ĠC ar
Û± Û¹Û
Ú¯Ø±Ø¯ ÙĨØ¯
al i
Ú¯ÛĮØ± Ø§ÙĨÙĩ
Ø§Ø¹Øª Ø¨Ø§Ø±
ad eh
ĠÚ©Ø§ÙħÙĦ ØªØ±ÛĮÙĨ
en er
ĠØ¹ÙĦÛĮ ÙĩØ§
ĠØ¨Ø§ÙĨÚ© ÙĩØ§ÛĮ
ĠØ³Ø· ÙĦ
ĠÙħÛĮÙĦÛĮ ÙħØªØ±
ĠØ®Ø§Øµ ÙĬ
Ġ5 6
ĠB ar
ĠØ³Ø§ÛĮ Ø¨Ø±ÛĮ
ĠØ³ÙĨÚ¯ ÙĩØ§ÛĮ
at or
Ġ4 00
ĠØªÛĮ ÙĪØ±ÛĮ
ĠØªÛĮ Ú©Ùĩ
ĠØ¬ÙĦ Ø§ÙĦ
ĠØ¢Ø® Ø±Øª
ĠØ¨ÛĮØ§ÙĨ Ú¯Ø±
20 15
ĠØªÙģ Ø§ÙĪØªÛĮ
ĠI T
ĠØ´Ú© Ø³ØªÚ¯ÛĮ
ØªÙĦ Ø§Ø´
ØªÙĦ Ú¯Ø±Ø§Ùħ
ĠØ§Ú© Ø±ÛĮ
ĠØ¬Ø§ÙĨ Ùħ
ĠØ¬Ø§ÙĨ ÙĪØ±Ø§ÙĨ
ĠØ¹Ø´ ÙĤÛĮ
ĠÙĨØ® ÙĪØ±ÛĮØ¯
ÙĤØ§ÛĮ ÙĤ
ĠØŃØ¬ Ø§ÙħØª
ĠØ®ÙĪØ§ÙĨ ÙĨØ¯Ú¯Ø§ÙĨ
ĠÚ©Ø± Ø²ÛĮ
oo z
ĠØ¨Ø¯ÙĨ Ø´
ĠØªØ§Ø¨ Ø³ØªØ§ÙĨÙĩ
ĠØ§ÙĨØ³Ø§ÙĨ ÙĬ
ĠF ir
ĠF ree
Ø¬Ø± Ø¨Ùĩ
ĠÚ¯ÙĪ Ù¾Ø±ÙĪ
ĠØ¢ÙĦ ÙĪÙħÛĮÙĨ
ĠØ³ÙĨ Ø§Ø±ÛĮ
Ġ7 50
Ġs p
ĠÙħØ¯Øª Ùī
ĠÙĤØ§Ø¨ ÙĦÙħÙĩ
ĠØ´Ø¹ Ø¨Ø§ÙĨ
ĠØ´Ø¹ Ø§Ø±ÙĩØ§ÛĮ
ĠØ®ÙĪØ´ ÛĮ
ĠØ§ÙĬ Ø¯Ùĩ
ĠÙĨÚ¯Ùĩ Ø¯Ø§Ø±ÙĨØ¯Ùĩ
ÙħØ± Ø§Ø±
ÙħØ± Ø¬Ø¹
ĠÚĨÚ© ÛĮØ¯Ùĩ
ĠÙ¾ÙĬ Ø¯Ø§
ĠÙ¾ÙĬ Ø§ÙħØ¨Ø±
ĠÚ©Ùģ Ù¾ÙĪØ´
ĠØŃÙģ Ø±Ùĩ
ĠÙħØªØ¹ Ø§Ø¯ÙĦ
ĠÙ¾Ø§Ø´ Ø§ÛĮÛĮ
ĠØ²ÙħØ§ÙĨÛĮ Ú©Ùĩ
ĠÛµ Û°Û°
Ġ8 9
ĠÙĨØ¨ Ø¶
ĠØ¢Ø´ ØªÛĮ
ĠÙģÙĪÙĤ Ø§ÙĨÛĮ
Ø³Ø§Ø² ÙĬ
os h
ay e
ay at
ĠØ§ÙħÙĨ ÙĬØª
ĠØ¨Ø±Ø¯ Ø§Ø±Ø¯
ĠØ¨Ø§ÛĮ Ø±ÙĨ
ĠØ±Ø¶ Ø§ÛĮÛĮ
ĠØ¹Ø¶ ÙĦØ§ÙĨÛĮ
is e
ĠÙĨÛĮÙħ Ø§Ø±
Ġc on
ĠÚ¯Ø±Ø¯Ø´ Ú¯Ø±
ĠÙģÙĪØª Ø³Ø§ÙĦ
ĠØ·ÙĦ Ø§ÛĮ
Ø¬ÙĪ Ø§Ø¯
ĠØŃØ¯ÙĪØ¯ Ø§
ĠØ¬Ø± Ø§Ø¦Ùħ
ĠÙ¾ÙĦÛĮ ÙħØ±
Ġb est
ĠØ±Ø² ÙĪÙħÙĩ
ĠÙĩÙħÛĮ Ø´Ú¯ÛĮ
ĠØ´ÙĨØ§Ø³ Ùĩ
ĠÚ©ÙĦÛĮÚ© Ù¾Ø±ÙĪÙģ
ĠØ³Ø¹ ÙĪØ¯
ĠØ¯Ø´ ÙĪØ§Ø±ÛĮ
ĠØ¨ÙĦÙĪ ØªÙĪØ«
ĠØ§Ø³Ù¾ Ø§ÙĨÛĮØ§ÛĮÛĮ
ĠØ¨Ø§Ø¨ ÙĪÙĨÙĩ
ĠÙģÙĨ ÙĪÙĨ
ĠÙģÙĨ ÙĦØ§ÙĨØ¯
ĠØ¨Ø§Ø²Ø¯ÛĮØ¯ Ú©ÙĨÙĨØ¯Ú¯Ø§ÙĨ
ĠØ¯ÙĬ Ø¯Ùĩ
Ġ0 20
ĠØ¯Ø§Ø±ÙĪ ÙĩØ§
ĠÚ¯Ø±Ùħ Ø§ÛĮ
ĠÙģØ§ÙĨØª ÙĪÙħ
ĠØ¨ÛĮÙħØ§Ø± Ùī
ĠØ±Ø§ÙĨ ÙĨØ¯Ú¯ÙĬ
ĠÙ¾ÙĨ ÛĮØ±
ĠÙ¾ÙĨ Ø§ÙĩÛĮØ§ÙĨ
ĠÙħØªÙĤ Ø§Ø¹Ø¯
ĠØ§Ù¾ Ø±Ø§ØªÙĪØ±
ĠØ¨Ø±Ø³ ÛĮØ¯
ØªØ¹ Ø±ÛĮÙģ
ĠØ±Úĺ ÛĮÙħÛĮ
ÙĨÙĪ ØªÛĮ
ĠÙħÛĮØ¯Ø§ÙĨ ÛĮØ¯
ĠØ¨Ø¨ Ø®Ø´
ĠÙģØ±ÙħØ§ÙĨ Ø¯Ø§Ø±ÛĮ
ĠØ®ÙĪØ§Ø³Øª Ú¯Ø§Ø±ÛĮ
ĠØ§Ø¹ØªØ¨Ø§Ø± Ø§Øª
ĠØ§Ø±ÙĪÙ¾ Ø§ÛĮ
ĠØ§Ø¹ØªÙħ Ø§Ø¯ÛĮ
ĠØªØ¯Ø±ÛĮ Ø¬ÛĮ
Ġ15 0
ĠÙģÛĮØ²ÛĮ ÙĪØªØ±Ø§Ù¾ÛĮ
ol id
ĠÙĨÚ©Ø±Ø¯ Ùħ
ĠØ§Ø±Ø² Ø§ÙĨÛĮ
ĠÙħØ³Ø§Ùģ Ø±
ĠØºØ± ÙĤ
ĠØ³ÛĮÙħ Ø±Øº
ĠØ¢Ùģ Ø±ÛĮØ¯
ĠU V
ĠØ¹Ø±ÙĪØ³ Ú©ÛĮ
ĠØŃØ° ÙģÛĮ
ĠØ±ÙħØ² ÙĨÚ¯Ø§Ø±ÛĮ
ĠÙĪØ§ÙĦ ÙħØ³ÙĦÙħÛĮÙĨ
ĠØ¯Ø±ÛĮ ÚĨÙĩ
ĠO n
ĠØ¯ÛĮÙĪ ÙĪÙĨÙħ
ĠØŃÙĪ Ø§Ø³
ĠØŃÙĪ Ø§Ø´ÛĮ
ĠÙħÚ©Ø§ÙĨÛĮ Ø²Ùħ
ĠÙħØ§Ø¯ Ø±Ø§ÙĨ
ï» ¿
ĠØ§ÙĦÙħ Øµ
ĠØ§ÙĦÙħ Ù¾ÛĮÚ©
ĠØ¬Ø¯ÛĮ Øª
ĠØ¯Ø§Ø±ÛĮ ÙĪØ´
ĠÙĪØ§ÙĤØ¹ÛĮ Ø§Øª
ĠÙĪÛĮÙĨØ¯ÙĪØ² ÙģÙĪÙĨ
ĠØ¨Ø¨ÛĮÙĨ ÙĨØ¯
ĠÙħØ§Ú© Ø±ÙĪ
ĠÙĪÛĮØ± Ø§ÙĨ
ĠÙħØ¹ÛĮ Ø´Øª
15 6
ĠØ¨Ú¯Ø°Ø§Ø± ÛĮÙħ
Ø³ÙĪ Ø§Ø±ÛĮ
Ú©ÙĦÛĮ Ù¾
ĠÙĨØ§Ø® ÙĪØ¯
ĠÙħÛĮØ² ÙĨÙħ
ĠØ³ÙĦÙĪÙĦ ÙĩØ§ÛĮ
ĠØªØ² Ø¦ÛĮÙĨÛĮ
ĠØŃØ±Ùħ Øª
ĠØ¯Ø±ÙĪ Ø§ÙĤØ¹
ĠY N
ĠÐ ²
Ø®Ø± Ø§Ø³Ø§ÙĨ
ĠX PS
ĠØ¨Ø§ÙĪØ± ÙĨØ¯
ĠÚ©ÙĪÙĨ ØªÙĩ
Ø®ÙĪØ§ÙĨ ÙĨØ¯
ĠØ§ÙĨØ³ ÙĪÙĦÛĮÙĨ
ĠÙĩÙħØ³ Ø±Ø§ÙĨ
ĠÛ³Û ±
Ø§ÙģØ² Ø§Ø±ÛĮ
ĠÙħÙĩØ¯ ÙĪÛĮ
ĠÙģØ±ÙĪ Øª
ĠØ·Ø§Ùĩ Ø±Ùĩ
ran sl
Ø§ÛĮÙĦÛĮ Ø§
ĠØ¢ÙĪ Ø§ÙĩØ§ÛĮ
Ø¨Ø§ÛĮ Ø³Øª
Ø¨Ø§ÛĮ Ú¯Ø§ÙĨÛĮ
ĠØ§ÙħØªØŃØ§ÙĨ Ø§Øª
ĠØ§ÙĦÙĩ Ùī
ĠÙĤØµ Ø§ÛĮØ¯
ĠÙģØ±Ø¶ ÛĮÙĩ
ĠÙħÛĮØ¯ ÙĪÙĨÙħ
ĠØ±ÙĪØ¨ ÙĪØª
ĠÙģØª ÙĨÙĩ
ĠØ§ÙģØ³ Ø±Ø¯Ú¯ÛĮ
ĠAl l
ĠAl ive
ĠÙ¾Ø±ÛĮ ÙĪ
ĠØ¨Ø±Ú¯Ø² ÛĮØ¯
ĠØªÙĤÙĪ ÙĬÙħ
ĠII I
ĠØ´Ø§ÛĮ Ø¹Ø§Øª
ĠØ§Ø³Ø± Ø¹
Ø³Ø±ÙĪ ÛĮØ³
ÙĤØ§ÙĨ ÙĪÙĨ
Ù¾ÛĮØ´ Ú¯ÛĮØ±ÛĮ
ĠØ¨Ù¾Ø±Ø¯Ø§Ø² ÛĮÙħ
ĠØ§Ú©Ø³ÛĮØ¯ Ø§ÙĨ
ĠÙĦØ²ÙĪÙħ Ø§
Ġ138 8
ĠØ¬Ø³ ÙħØ§ÙĨÛĮ
ĠØ¬ÙĪÛĮ Ø§ÙħØ¬Ø¯
ĠØ§ÙĦÙģ Ø§Ø¸
ĠØ§ÙĦÙģ Ø¨Ø§ÛĮ
ĠØ¨Ø§ÙĨÙĪ Ú¯Ø´
ĠØ®Ø³ Ø§Ø±Ø§Øª
ØªÙĪØ¬Ùĩ ÛĮ
Ú©ÙĪØ¯ Ú©
ĠØ¯ÙĪÙĨ Ø§ÙĦØ¯
ĠÙĨØªÙĪØ§ÙĨ Ø³ØªÙĩ
ĠØ§ÙĦØ² ÙĩØ±Ø§
Ú¯ÙĪØ´ Øª
Ú¯ÙĪØ´ ÙĪØ§Ø±Ùĩ
ĠØ¬Ø§Ø³ ÙĪØ³
ĠØ¨Øª ÙĨÛĮ
ĠÙĩÙĬ Ø¦Øª
ĠØ¯ÛĮØª Ø§
ĠØ³ÛĮØ²Ø¯Ùĩ Ùħ
ĠÚĺÙĨØªÛĮ Ú©
ĠØªÙĥ ÙĨÙĪ
ĠØ¨Ø±Ø³Ø§ÙĨ ÙĨØ¯
ĠÚ¯Ø±ÙĪ ÙĩØ§ÛĮ
ĠØ¨ÛĮØ³ ÙģÙĪÙĨ
ĠÚ©Ø§ÙħÛĮ Ø§Ø¨ÛĮ
ĠØ±Ø§Ø²ÛĮ Ø§ÙĨÙĩ
ØŃØ¯ Ø§ÙĤÙĦ
ĠØ§Ø³ØªÛĮ Ø´ÙĨ
ĠØªÙĪØª Ø§ÙĦ
ĠÙħØ¹Ø±Ùģ ÙĬ
ĠØ§Ø³Ú© ÙĦÙĩ
ĠÚ¯ÙĪØ§Ø± Ø´
ĠÙħØŃØµ ÙĪÙĦÛĮ
ĠÙħØ¹ÙĦ ÙħÛĮ
ĠØ®Ø¯Ø§ØŃØ§ÙģØ¸ ÛĮ
ĠØªØ·Ø¨ÛĮ ÙĤÛĮ
ĠÙģØ±Ø§Ú¯ÛĮØ± ÙĨØ¯Ú¯Ø§ÙĨ
ĠÙ¾Ø±Ø·Ø±ÙģØ¯Ø§Ø± ØªØ±ÛĮÙĨ
ci ence
ĠØ¯Ø§ÙĨÙħ Ø§Ø±Ú©
ĠØ¹ÙĦØ§ÙĤ ÙħÙĨØ¯Ø§ÙĨ
Ġï» £
ĠØ¯ÙĨØ¯ Ø§ÙĨÙĩ
ĠÙ¾ÛĮÙħ Ø§ÙĨÙĩ
ĠUn iversity
ĠØ¨Ø³Ø§Ø² ÛĮØ¯
ĠØ¨Ø³Ø§Ø² ÛĮÙħ
ĠÙĨØ§Ø±Ø³ Ø§ÛĮÛĮ
ĠÙħØŃØ§Ø³Ø¨ Ø§ØªÛĮ
ĠÙ¾ÙĩÙĦÙĪ Ú¯ÛĮØ±ÛĮ
Ø¨Ø¨Ø¨Ø¨ Ø¨Ø¨Ø¨Ø¨
TM L
ĠÚ©ÙĪØ´ Ø´
ĠØ§ÙħØª Ø¯Ø§Ø¯
ĠÙħØ¯ÙĬ Ø±Ø§ÙĨ
ÙĥØ±Ø¯ Ùħ
ĠØªÙĩØ§Ø¬ Ùħ
ĠTe am
ĠØ§ÙħÙ¾Ø±Ø§Ø· ÙĪØ±
ĠØ§ÙħÙ¾Ø±Ø§Ø· ÙĪØ±ÛĮ
ĠØ¯Ø±Ø§ÛĮ ÙĪØ±
ĠÙĦØ§Ø² ÙħÙĩ
Ø®Ø§Ø· Ø±Ø§Øª
ĠØ¬ÛĮÙħ Ø²
ĠØ«Ø±ÙĪ Øª
ĠCat ia
ĠÙħØŃØ¯ÙĪØ¯ÛĮ ØªÛĮ
ĠEx p
ĠÙĦÙģØ¸ ÙĬ
ĠÙĤØ¯Ø±Ø¯ Ø§ÙĨ
ĠÙ¾ÙĬØ´Ø± ÙģØª
ĠUS B
ĠØ§Ø¯ÛĮ Ø§ÙĨ
ĠØªØ§ÛĮÙħ Ø²
ĠÙħÛĮØª ÙĪÙĨÙĩ
ĠSpeed lite
iew er
Ø±Ø³Øª ÙĪØ±Ø§ÙĨ
ĠÙĨØ§ÙĤ Øµ
ĠÚ©Ø§Ø±Ú¯Ø±Ø¯ Ø§ÙĨÛĮ
ãĢ ģ
ĠØ¨Ø®ÙĪØ§Ø¨ ÛĮØ¯
ĠØ¢ÙĬ ÙĨØ¯Ùĩ
ĠØ¬Ø¹Ùģ Ø±ÛĮ
ĠØ·Ø±ÛĮ ÙĤÙĩ
âľ ĵ
ĠÙħÙħØª Ø§Ø²
ĠØ¨Ø±Ø§Ø¯ Ø±Ø§ÙĨ
ÙĨÛĮÙĪØ³ ÙĨØªØ²
ĠØºÙĨ ÚĨÙĩ
ĠÙ¾Ø±ÙĪÙ¾ ÙĪØ²Ø§ÙĦ
ĠÙ¾Ø±Ø³Ø± Ø¹Øª
Ø§Ø³ÙħØ§Ø¹ÛĮ ÙĦÛĮ
ĠØªØ« Ø¨ÛĮØª
ĠÙĨØ¯Ø± Øª
ĠÙ¾Ø§ÙĨØ³ ÙħØ§ÙĨ
Ø§Ø±Ø¯Ú© Ø§ÙĨÛĮØ§ÙĨ
ĠCrus ader
ĠØªÛĮØ²Ùĩ ÙĪØ´
ĠØ§Ø³Ù¾ÛĮØ¯ ÙĦØ§ÛĮØª
Ġvide os
Ù¾Ø±Ø®Ø§Ø´ Ú¯Ø±ÛĮ
)ÂŃÂŃ ÂŃÂŃ
ĠØ±ÛĮÙħÛĮ Ú©Ø³
ĠÙĩÙĪØ§ÙĨ ÙĪØ±Ø¯ÛĮ
ĠØ´ÙĬØ±ÙĬ ÙĨÚ¯
Ø®Ø§ÙĨÙĪ Ø§Ø¯Ùĩ
ĠÙĩÙħÙĪØ±ÙĪ Ø¦ÛĮØ¯
ĠÙĦØ§ÙĦÛĮ Ú¯Ø§
ĠÚ©ÙĦÛĮÚ©Ù¾Ø±ÙĪÙģ Ø§ÛĮÙĦ
, ØĮ
. âĢ¦
7 8
9 9
: "
A D
A V
B C
G A
I A
O N
O P
P ower
T P
[ .
b o
c d
e lo
f e
f g
f ender
g or
l l
m b
o on
o log
p p
r ad
r en
r as
r ip
r ary
s p
t e
u g
w ork
z ar
z can
Ù ª
Ġ ?
Ġ us
Ġ ab
Ġ up
Ġ att
Ġ Qu
Ø± Ø§Ø²
Ø± Ø¦
ÙĨ Ø§ÙĨÛĮ
ÙĨ Ø§ÛĮÛĮ
ÙĨ ÙģØ³
ÙĨ ØµØ¨
Ùĩ ÙģØªÙĩ
Ø¯ Ø§ÙĦ
Ø¯ ÙĪØ³Øª
Ø¯ ÙĤØª
Ø¯ ÙĬÙĦ
ÙĪ Ú©Ø³
ÙĪ ÙĤÙĩ
ÙĪ ÙĬØª
ÙĪ ÙĬÙĨØª
Øª Ø§Ø²
Ùħ ÙĦÛĮ
Ùħ ÙĩØ±
Ùħ Ø¨Ø§Ø±
Ùħ Ø´Øª
Ùħ Ø§ÙĬÙĬ
Ùħ ØªÙĩÙħ
Ú© Ø³Øª
Ú© ÙĦØ§Ùħ
ÙĦ ÙĨØ²
ĠØ¨ Ù¾
ĠØ¨ Ú¯ÛĮ
ĠØ¨ Ø®Øª
ĠØ¨ Ø´Ùħ
ĠØ¨ Ù¾Ø°
ĠØ¨ Ú©ÙĨÙĩ
ĠØ¨ Ø®ÙĪØ§ÙĩÙĨØ¯
ĠØ¨ Ø¬Ø²
ĠØ¨ Ø·ÙĪØ±ÛĮ
ĠÙħ Ø¯Ùĩ
ĠÙħ ÙĨØ¯ÛĮ
ĠÙħ ÙĥÙĩ
ĠÙħ ÙĢÛĮ
ĠØ¯ Ø§Øª
ĠØ¯ Ø§ÛĮÛĮ
Ø³ ÛĮØ¯
Ø³ Ø§Ø³
Ø³ Ú¯ÛĮ
Ø³ Ø¨Ø§ÙĨ
Ø³ Ø±Ø§
Ø³ Ø§Ø²ÙĨØ¯
ĠÙĪ Ø§Ú©
ĠÙĪ Ø²Ø±
ĠÙĪ Ú¯ÙĪ
ĠÙĪ Ù¾Ø±
ĠÙĪ ØµÙģ
ĠÙĪ Ø§Ø¬Ø¯
Ø´ Ø§ÛĮÛĮ
Ø´ ÛĮØ¯Ùĩ
ĠÚ© ÛĮÙħ
ĠÚ© ÙĪÛĮ
ĠÚ© Ø§Ø¬
ĠÚ© ØªØ§ÙĨ
ĠÚ© Ø§ÙĪØ´
ĠÚ© Ø§Ø¯Ø±ÛĮ
ĠÚ© ÙĢÙĩ
Ú¯ Ø¯
Ú¯ ÙĬØ±
Ø¨ Ø§Ùħ
Ø¨ ÙĬ
Ø¨ ÙĩØ§ÛĮ
Ø¨ Ø§ØŃ
Ø¨ ÙĪØ±Ø¯
Ø¨ ÙĨØ§
ĠØª Ø§ÛĮÛĮ
ĠØª Ø§ÙħÙĦ
ĠØª ÙĪØ¯Ùĩ
Ùģ Ú©Ø±
Ø² Ø§ÙĦ
Ø² ÙĦÛĮ
ĠØ± ÛĮÙĨ
ĠØ± Ø§ÛĮØª
ĠØ± Ø§ÙĨØ¯
ĠØ± ÙĤÛĮÙĤ
ĠØ± Ø¤
ĠØ± ÙģÛĮÙĤ
ĠØ± ÙģÛĮØ¹ÛĮ
ĠÙĨ Ø§Ø±ÛĮ
ĠÙĨ Ø´ÙĨ
ĠÙĨ Ø²ÙĨ
ĠÙĩ Ø§ÙĦÛĮ
ĠÙĩ ÙĦÙĪ
ĠÙĩ Ø§Ø±ÙĪ
ĠØ¯Ø± Ø²
ĠØ¯Ø± ÙĩØ§ÛĮ
ĠØ¯Ø± ÙħÛĮ
ĠØ¯Ø± Ø¯ÛĮ
ĠØ³ ÙĦÙģ
ĠØ³ ÙħÛĮÙĨØ§Ø±
ĠØ´ Ø§ÛĮØ§ÙĨ
ĠØ¢ Ø¨Ø±
ĠØ¢ Ø¦ÛĮÙĨ
ĠØ¢ ØµÙģ
ĠØ¢ ÙĬØ§
ĠØ¢ ÙħÛĮØ²ÛĮ
Ø¹ Ø¨ÛĮ
Ø¹ Ø¨Ùĩ
Ø¹ ÙĦØª
Ø§ÙĦ ÙĨ
Ø§ÙĦ Ú©ØªØ±ÙĪ
ĠØ¨Ùĩ Ø´
ĠØ¨Ùĩ Ø§Ø¯Ø±
ĠØ¨Ùĩ Ø³Ø§Ø²ÛĮ
Ø±ÛĮ Ø§ÙĦ
Ø±ÛĮ ÙģÛĮ
ĠÙ¾ ÛĮØª
ĠÙ¾ Ø§Ø³Øª
ĠÙ¾ Ø³ØªÙĩ
ĠØ® Ø§Ø²
ĠØ® ÙĦÛĮÙĦ
Ø¬ Ø§Ø±ÛĮ
ĠØ§Ø² Ø¯
ĠØ§Ø² Øª
ĠÙħÛĮ Ø±ØŃ
ĠÙħÛĮ Ú¯ÛĮØ±ÙĨØ¯
ĠÙħÛĮ Ø±Ø³Ø¯
ĠÙħÛĮ Ø¨ÛĮÙĨÛĮØ¯
ĠØ§Ø³ ÙĦØ§
ĠØ§Ø³ Ú©ÙĪ
ĠØ§Ø³ Ú©ÛĮØª
ÙĪØ± Ú©Øª
ÙĪØ± Ø§Ø³ÙĬÙĪÙĨ
ÙĬ Ø§ÙĬ
ÙĬ ÙĤÙĩ
ÛĮØ¯ Ø¨Ú©
Ø³Øª Ø±ÙĨ
Ø® Ø±Ùħ
Ø® ÙĪØ¨
Ø® ÙĬØµ
ĠÙģ ÛĮØ¯
ĠÙģ Ø¶ÛĮ
ĠØ¨Ø± ÚĨ
ĠØ¨Ø± ÙĨØ²
ĠØ¨Ø± Ø±ÙĪÛĮ
ĠØ¨Ø± Ø¯ÙĩØ§
ĠØ¨Ø± Ø¹ÙĩØ¯Ùĩ
Ø§Ùĩ Ø§ÙĨ
Ø§Ùĩ ÛĮØ¯
Ø§Ùĩ Ø¯ÛĮ
ĠØ¹ ÙĪØ¯
ĠØ¹ Ø«
ĠØ¹ ÙĩØ¯
ĠØ¹ Ø§ÙħÙĦÛĮ
ĠØ¹ Ø±Ø§ÙĤÛĮ
Ø§Øª Ùĩ
ØŃ ÙĪÙĨ
ØŃ ØªÙħØ§
ØŃ ÛĮØ¯Ø±ÛĮ
ÚĨ ÛĮÙĨÚ¯
ĠØ§Ø³Øª ÙĨØ¯
ĠØ§Ø³Øª ÙĪØ±
ĠØ§Ø³Øª ÙĪÙĨ
ĠØ§Ø³Øª ÙĪÚ©
ĠÚ¯ ÙħØ´
ĠØ¬ Ø§Ùĩ
ĠØ¬ Ø§ÙĨÛĮ
ĠØ¬ ÙħÛĮÙĦ
ĠØ¬ Ø§ÙĩØ§ÛĮÛĮ
Ø±Ø¯ Ø§Ø±
Ø§Ø² ÙĪÙĨ
Øµ ØŃ
ĠØ¨Ø§ Ú©Ø³
ĠÛĮ ÙĪØ±
ĠÛĮ ÙĢ
ĠØ§ÛĮÙĨ ÙĤØ¯Ø±
Ø· ÙĪÙģ
Ø§Ø³ Ú©ÛĮ
Ø±ÙĪ Ú©Ø´
ĠØŃ ÙĦÛĮ
ĠØŃ Ø¯Ø§
ĠØŃ Ø±ÛĮÙħ
ĠÙĤ ØŃ
ĠÙĤ ÙĪÙħ
ĠÙĤ ÙĦÙĩ
ĠÙĤ Ø§Ø¦
ĠÙĤ ÙĢ
ĠÙĤ Ø´Ùħ
ĠÙĤ ÛĮØ·
ĠÙĤ Ø§Ø¶ÛĮ
ĠÙĤ ØµØ±
ÙĦÛĮ Ø¸
ĠØ² Ø§
ĠØ² Ùĥ
ĠØ² Ø§ÙĩØ¯
ĠØ² Ø±Øª
Ù¾ ÙĬ
Ù¾ Ø§ÙĪØ±Ù¾
Ù¾ ÙĦÛĮØ³
ÛĮØ± Ø²Ø§
ĠÚĨ ØªØ±
ĠÚĨ Øº
ÛĮÙħ Ø±Ú©Ø²
ĠØ§ÙĨ ÛĮ
ĠØ§ÙĨ ÙĤØ¨
Ø¯Ùĩ ÙħÛĮÙĨ
ÙĪÛĮ ØªÛĮ
ÙĪÛĮ Ø²Ø§ÙĨ
ĠÙĩÙħ ØªÛĮ
ĠÙĩÙħ Ø¯ÛĮÚ¯Ø±
ĠÙĩÙħ Ú¯ÙĨ
ĠÙĩÙħ Ø§ÛĮÙĪÙĨ
ĠØ¢ÙĨ Ø¬ÙĦ
ÙħØ§ÙĨ Ùī
ØªØ± Ø´
ØªØ± Ø¶
ØªÛĮ ÙĪ
ĠÙĦ ÙĩØ±
ĠÙĦ ÙĬÙĨ
ĠÙĦ Ø§ÙĪ
ĠØ§Ùħ ÙĬØ±
ĠØ§Ùħ Ø§ÙĨØª
ĠØµ ÙģØª
ĠØµ ÙħÛĮÙħ
ĠØµ Ø§Ø¨ÙĪÙĨ
ĠÚ©ÙĨ Ø§Ø±ÛĮ
ĠÚ©ÙĨ Ø¬Ú©
Ú©ÛĮ Ø§
Ø° ÙĪØ¨
Ø° Ú©Ø±
ĠØ· ÙĪ
ĠÙħÙĪ Ú©ÙĪÙĦ
ĠÙħÙĪ Ø«Ø±ÛĮ
Ø¯ÛĮ ÙĪØ§Ø±
ĠÚ©Ø§Ø± Ø§Ø¦ÛĮ
Ø§Ø¹ ÙĦÛĮ
Ø§Ø¹ Ø¶Ø§ÛĮ
ĠØ¯Ø§Ø± ÙĬØ¯
ĠÙħØŃ ÙĪØ±ÛĮ
ĠÙħØŃ ÙĥÙħ
ĠÙĨÛĮ Ø´Ø§Ø¨ÙĪØ±
ĠÛĮÚ© Ø¯Ø³Øª
ĠØ®ÙĪØ¯ Ø¢ÙħÙĪØ²
ĠØ¢Ùħ ÙĪØ²ÛĮ
ĠØ¢Ùħ ÛĮØ±Ø²Ø§
ĠØ§Ø± ØªÙĪ
ĠØ§Ø± ØªØ¹
ĠØ§Ø± Ø«ÛĮ
ĠØ¨Ø§Ø² ÙĨØ´Ø³Øª
ĠØªÙĪ Ø¦ÛĮ
ĠØªÙĪ ÙģÛĮÙĤ
ĠØªÙĪ Ø§Ø²ÙĨ
ĠØªÙĪ Ø·Ø¦Ùĩ
ĠØ§ÙĦ ÙħØ³ÙĦÙħÛĮÙĨ
ĠØ§ÙĦ ØºØ¯ÛĮØ±
ĠØ¨ÛĮ ÙĦ
ĠØ¨ÛĮ Ùģ
ĠØ¨ÛĮ ÚĺÙĨ
ĠØ¨ÛĮ ÙĦØ¨ÙĪØ±Ø¯
Øº ÙĦØ§Øª
Ø§Ø® ÙĦØ§ÙĤÛĮ
ĠÙģØ± ÙĤÛĮ
ĠÙģØ± Ø´ØªÙĩ
ĠÙħØ± Ø²ÛĮ
ĠØ¯Ø§ÙĨÙĦÙĪØ¯ ÙģÙĪÙĦ
ĠÙħØ¹ ØªÙħ
ĠÙħØ¹ ØªØ±Ø¶
ĠØ´Ùħ Ø§Ø±ÛĮ
ĠÙĨÙħ ÛĮØ¯
ĠÙĨÙħ Ø§ÙĬØ¯
ĠÙĨÙħ Ø§ÙĩÙĨÚ¯
Ø« Ø§ÙĨ
ĠÙ¾ÛĮ Ø´Ùĩ
ĠÙħØ¯ Ø±
ĠØªØ§ Ú©Ø³
ĠØ§Ùģ Ø´Ø§Ø±
ĠÙħØª Ùħ
ĠÙħØª Ø´Ø§Ø¨Ùĩ
Ø§Ùģ ÛĮØª
Ø§Ùģ Ø³Ø§ÙĨÙĩ
ĠØªØ± ØºÛĮØ¨
Ø¢ Ø°
Ø¢ ÙĨØ¬
Ø¢ Ø¬Ø±
ĠØ³Ø± Ø¨Ø§Ø²Ø§ÙĨ
ĠØ±ÙĪ Ùī
ĠØ±ÙĪ Ø¨Ø§ÙĦØ´ÛĮ
ĠØ®ÙĪ Ø§Ø¬Ùĩ
Ø²ÛĮ Ú©
ĠØ¯ÛĮ Ùĩ
ĠØ¯ÛĮ Ø§Ø±
ĠØ¯ÛĮ Ø±ÛĮÙĨ
Ú©Øª Ø§ÙĨ
Ø¯Ø± Ø®ÙĪØ§Ø³Øª
ĠØ¢Ø² Ø§Ø¯Ùĩ
ĠÙħØ¬ Ø§ÙĨÛĮ
ĠÙħØ¬ Ø±Ùħ
ĠÙħØ¬ Ø°ÙĪØ¨
ĠÚ©Ø´ ØªÙĨ
ĠØ¯ÙĪ ÛĮØ¯ÙĨ
ĠØ¯ÙĪ Ø§Ø²Ø¯Ùĩ
ĠÙħÙĤ Ø±ÙĪÙĨ
ĠÙħØ³ Ø¤
ĠÙħØ³ Ø§ÙģØª
ĠØ¯Ùĩ ÙĨ
ĠØªØŃ Ø±Ú©
ĠØªØŃ ÙħÛĮÙĦÛĮ
ĠÙĥ ÙħØªØ±
ØªÙħ Ø¯Ø§Ø±ÛĮ
ĠÂ Ń
ĠÙĩØ± Ú©Ø³
ĠÙĩØ± Ú©Ø³ÛĮ
ĠØ¹Ùħ ÙĪØ¯
ĠÙħÙĩ ÛĮ
ĠÙħÙĩ ØªØ§Ø¨
ĠØ²ÛĮ ÙĪØ±
Ùĥ Ø¯Ùĩ
Ùĥ Ø«Ø±
ĠÚ©Ùħ Ø§Ú©Ø§ÙĨ
Ø®Øµ ÛĮ
Ø§Ø®Øª ÙĨØ¯
ÙĪÙĩ ÛĮØ¯
Ø§ÙĬ Ùģ
ĠØ³ÙĪ ÙĤ
ĠØ³ÙĪ Ø§Ø¨ÙĤ
Ø±Ùħ Ø§Ùĩ
ĠØ¯ÙĪØ± ÙĨ
ĠØªØ¹ Ø§Ø±Ø¶
ĠØ±Ø³ ÙĬ
ĠØ¢Ø²Ø§Ø¯ Ø§ÙĨÙĩ
ĠÙģÛĮ Ø±ÙĪØ²
ØªÙĪØ§ÙĨ Ø³Øª
Ø§ÙĨØ¯ Ø§Ø²Ùĩ
ĠØ±ÙĪÛĮ Øª
ĠÙħØ±Ø¯ ÙħØ§ÙĨ
Ú©ÙĦ Ø§Ø¨
ÙĢ Ø±
Ø§ÙĩØ¯ Ùģ
ĠØ§Ø¨ ÙĪØ¨
ĠÙĨØ§Ùħ Ø·
ĠØ§Ø¯ ÙĪØ§Ø±
ĠØ§ÙĨØ¬ ÛĮØ±
ĠÚ©ÙĦ ÙĨ
ĠØªÙĩ Ú©
ÙħÛĮÙĨ Ùĩ
ĠØªØµ ÙħÛĮÙħÛĮ
ÛĮÚ© Ø±
ĠÙĨØ´ Ø³ØªÙĩ
ĠÙĨØ´ ÙĪÛĮØ¯
ĠÙħØ§Ùĩ Ø±
ĠÙ¾Ø§ÛĮ Ø¨ÙĨØ¯
ĠØ§Ø´ ÛĮØ§
Ø±Ø¨ Ø§Ø²
ĠØ´ÙĩØ± Ø³Ø§Ø²ÛĮ
ĠØ¨Ø§ÙĦ Ø´
ĠØªÙĦ Ø§Ø·Ùħ
Ġ9 60
Ø§Ø±Øª Ø²
ĠÙ¾Ø³ Ø±ÛĮ
ÙħØ¯ ÙĬØ±
Ø¯Ø§ÙĨ ÛĮØ¯
ØŁ /
Ú©Ø§Ø± ÙĩØ§
Ú©Ø§Ø± Ú¯ÛĮØ±ÛĮ
Ú©Ø§Ø± Ø´ÙĨØ§Ø³ÛĮ
ĠØ¨Ø¹ Ø¯Ø§
ĠØ¨Ø¹ ÙĦØ§ÙĪÙĩ
ĠÚ¯ÛĮ ÙģØª
ĠØŃØ§ÙĦ Ø§Øª
ĠØ´ÛĮ Ø·
ĠØ´ÛĮ Ø·Ø§ÙĨÛĮ
ĠØ²ÙħØ§ÙĨ ÙĬ
ĠÙĨØ¸Ø± ØªØ§ÙĨ
ĠÚ¯Ø±Ø¯ ÙĬØ¯Ùĩ
Ø®ÙĪ Ùģ
Ú©Ø± ÙħØ§ÙĨ
ĠØ¯Ø§Ø¯ ÛĮØ¯
ĠØ§ÙģØ² Ø§ÛĮÛĮ
ĠØ§ØŃ ÛĮØ§
ĠÙ¾Ø± Ø´ÛĮÙĨ
ĠÙ¾Ø± Ú©Ø§Ø±Ø¨Ø±Ø¯
Ø¨Ø±ÛĮ Ø²
ĠØ¨Ø§Ø± ÙĩØ§ÛĮ
ĠØ¨Ø§Ø± ÙĨØ¯Ú¯ÛĮ
ĠØ¨Ø§Ø± Ø³ÙĦ
Ø¨ÛĮÙĨ ÛĮÙħ
Ø¨Ø§ Ú©Ø³
Ø§Ø¶ ÙħÙĩ
ĠÙħØ§ÙĨ ÛĮØªÙĪØ±
ĠØ§ÙĪÙĦ Ø§
ĠØ´Ø¨ ÙĨÙħ
ĠØ²ÛĮØ± Ùĩ
ĠØ²ÛĮØ± ÙħØ¬ÙħÙĪØ¹Ùĩ
ĠØ²ÛĮØ± Ø²ÙħÛĮÙĨÛĮ
ĠØ¨Ø³ÛĮØ§Ø± Ùī
Ù¾ÛĮ ÙĦÙĨ
ĠØªØ¬ ÙħØ¹
ĠÙĩÛĮ Ø±ÙĪ
ĠÙĩÛĮ Ù¾
Ø´Ùħ Ø§Ø±Ùĩ
Ø´Ùħ ÙĨØ¯Ø§ÙĨ
ĠØ´ÙĨ ÛĮØ¯
ĠØ¨ÙĦ ÙĪØ²
ĠØ¨ÙĨ Ø´ÛĮÙĨ
ÙĲ Â»
ĠÙĨÙĪ Ø§ØŃÙĬ
Ø§Øº ÛĮ
Ø¨Ø±Ø¯ Ø§Ø±Ø§ÙĨ
ĠØªØ´ ÙĨÚ¯ÛĮ
ĠØªØ´ Ø®ÙĬØµ
Ġ3 8
ĠÙĨÙĩ Ø§ÙĦ
ĠÙģØ§Ø± Ú©Ø³
ĠØ° Ø±Øª
ĠØ° Ø±Ø§Øª
ĠØ¢Ø± Ø§ÛĮ
ĠØ¢Ø± Ø§ÛĮÛĮ
ĠÚ¯Ø±ÙĪÙĩ Ú©
ĠØªÙĤ Ø§Ø¨ÙĦ
ĠØªÙĤ ÙĦÛĮÙĦ
ĠS an
ĠS up
ĠS ina
ĠÙĨÛĮØ§Ø² ÙĩØ§
ĠØªÙĪÙĦÛĮØ¯ Ú©ÙĨÙĨØ¯Ùĩ
ĠÙ¾Ø§Ø³ Ø¯Ø§Ø±
ĠÙ¾Ø§Ø³ Ø¯Ø§Ø±Ø§ÙĨ
ĠA P
ĠØµÙĨ Ùģ
Ø±Ø³ÛĮ ÙĪÙĨÛĮØ³Ùħ
ĠØ¯ÙĦ ØªØ§
ĠØ¯ÙĦ ÙĨÙĪØ´ØªÙĩ
ĠØºØ° Ø§ÙĬÙĬ
Ú¯ÙĪ ÛĮÙħ
Ú¯ÙĪ Ø§Ø±ÛĮ
ĠØ³Ùĩ ÙĦ
ĠÙħØ³Øª Ø±
ĠÙħØ³Øª Ø¹Ø¯
ĠÙħØ³Øª Ø±Ø¨ÛĮÙĨ
ĠØªØ¨ Ø¹
ĠØªØ¨ Ø¯ÙĬÙĦ
ĠÙĩÙħØ±Ø§Ùĩ Ø§ÙĨ
ĠØºÛĮØ± Ø§ÙĨ
ĠØºÛĮØ± ÙħÙħÚ©ÙĨ
ĠØ²ÙĨ ÙĨØ¯Ùĩ
ĠP er
ĠØ§ÙĬÙĨ Ø¬Ø§
ĠÙħØ¯ÙĦ Ø³Ø§Ø²ÛĮ
Ú¯Ø° Ø§Ø´Øª
ÙĢÙĢ Ùĩ
Ø¨ÙĪ Ù¾Ø±ÙĪÙģ
ĠÚ¯Ø²Ø§Ø±Ø´ Ø§Øª
ĠØ§Ùĩ Ùħ
ĠØ§Ùĩ ØªÙħØ§Ùħ
ĠØ§Ø¬ØªÙħ Ø§Ø¹Ø§Øª
ĠØ®Ø§Ø± Ø´
ĠM an
ĠM ay
ĠM af
ĠÙĨÙĪØ± Ø§ÙĨÛĮ
ĠÙĨÙĪØ± Ù¾Ø±Ø¯Ø§Ø²ÛĮ
ĠÙĨÙĪØ± Ù¾Ø±Ø¯Ø§Ø²ÙĬ
ĠD en
ĠÙĨÙĪØ´ Ø§Ø¨Ùĩ
ĠC on
ĠC lash
ĠØ¢ÛĮ Ù¾Ø§Ø¯
al an
or e
or m
ĠÙĩÛĮÚĨ Ú©Ø³
ĠÛĮØ§Ø¯ Ùħ
ĠÛĮØ§Ø¯ Ø¨ÙĪØ¯
ĠÚ©ÙĪØ¯Ú© Ø§ÙĨÛĮ
en n
âĢ¦ .
ĠØ¹ÙĦÛĮ Ø®Ø§ÙĨÛĮ
ĠÙĦÛĮ Ù¾
ĠÙģØ§ÛĮÙĦ ÙĩØ§
ĠÙħÙĦ Ø§ÛĮØ±
ĠÙħÙĦ ØŃÙĤ
Ġ5 8
ĠÚĺ Ø§ÙĪÙĬ
ĠÙĩÙħÛĮÙĨ Ø·ÙĪØ±
ĠÚ©ÛĮ Ø§ÙĨÛĮØ§ÙĨ
ĠÙģÙĤ Ø¯Ø§ÙĨ
ĠØ¬ÙĦ Ø§Ø¯
ĠÙħÙĨØª Ø³Ø¨
ĠÙħØ·Ø§ÙĦ Ø¨Ùĩ
ĠØ¢Ø® Ø±Ø´
ĠØ§Ø³Ø§Ø³ ÙĬ
Ø¢ÙĨ ÙĦØ§ÛĮÙĨ
ĠØ¯Ø®ØªØ± Ø´
am in
Ġ/ /
ĠØ¨Ø§Ø²Ø§Ø± ÚĨÙĩ
ĠÙĪØ§ Ú¯Ø°Ø§Ø±ÛĮ
ĠØ¨ÙĪ ØªÙĩ
Û² Û´
ĠØªÙģ ØµÙĬÙĦ
ĠØ¯Ø±ØµØ¯ Ø¯
ĠÙħÙĩØ± Ø§Ø¯
ĠØµØŃ ÙĨ
ĠØµØŃ ÙĬØŃ
Ø¬ÙħÙĩ ÙĪØ±ÛĮ
ĠØ®ÙĪØ¯Ø±ÙĪ Ø³Ø§Ø²Ø§ÙĨ
ĠØ¹Ú© Ø³ÛĮ
ĠØµØ¯ Ø§ÛĮÛĮ
ĠØµØ¯ Ø§ÙĤØª
ĠÙĪØ² ÙĬØ±
ĠØ¬Ø§ÙĨ Ø´ÛĮÙĨ
ĠÙĩØ¯Ùģ ÙĪÙĨ
ĠÙĩØ¯Ùģ ÙĩØ§ÛĮ
ĠØ¢Ø° Ø±ÙħØ§Ùĩ
Ø¬Ø§ÙĨ Ø³
ĠÙĩØ§ÙĬ ÙĬ
ĠØ¯Ùģ ÙĨÙĩ
ĠÙĤØ§ÙĨ Ø¹
ĠG o
ĠØ³Ø§Ø®ØªÙħØ§ÙĨ ÙĩØ§ÛĮ
ĠØªØ§Ø¨ Ø¹Ùĩ
ĠÙĨÙģØ± Ø§Øª
ĠØ±Ùĩ ÙĨÙħ
ĠØ±Ùĩ ÛĮØ§ÙģØª
ĠØ·Ø±Ùģ Ùĩ
ĠF e
ĠF AT
ĠÚ©ÙħÛĮ Øª
ĠØ¢ÙĦ ÙĪÙħ
ĠØ¹Ø±Ø¶ ÙĥØ±Ø¯Ùħ
ĠØ§ÙĨØªÙĤ Ø§Ø¯Ø§Øª
ĠØ¹Ú©Ø§Ø³ÛĮ Ø¨Ø±ÚĨØ³Ø¨
as n
ĠØ¨ØŃ Ø§ÙĦ
ĠØ¨ØŃ Ø±Ø§ÙĨÛĮ
ĠH aj
ĠØ±ÙĪØ´ÙĨ ÛĮ
ØªØ§ Úĺ
Ġt e
Û´ Û°
ĠÙ¾ÚĺÙĪÙĩØ´ ÙĩØ§Ùī
it de
ĠÙħØ«ÙĦ Ø«
ĠØ±Ùģ Ø³ÙĨØ¬Ø§ÙĨ
ĠÙħÙĩØ§Ø±Øª ÙĩØ§ÛĮ
ĠÙģØ´Ø§Ø± Ø³ÙĨØ¬
ĠØ¬ÙĩØ§ÙĨÛĮ Ø§ÙĨ
ĠØ¨ÙĨØ§Ø¨Ø± Ø§ÙĬÙĨ
ĠØ±Ø§Ø¨ Ø±Øª
ĠØ³Ø±Ùħ Ø§Ø®ÙĪØ±Ø¯
ĠØ®ÙĪØ§Ø¨ ÛĮØ¯Ùĩ
ĠÙĨØ§ ÚĨÛĮØ²
ĠÙħÙĪØ¬ Ø¨Ø§Øª
ĠÙĩÙģØª ÙħÛĮÙĨ
ĠØ¨Ø±Ø¯ ÙĨØ¯
ĠØ¨Ø§ÛĮ Ú¯Ø§ÙĨ
and an
ĠâĢ¦ .
is m
ĠÙĨÛĮÙħ Ú©Ø±Ùĩ
ĠL ive
ĠL ib
Ġc o
Ġc rypto
ĠÙĪØ¶ Ø¹ÛĮØªÛĮ
Ú¯Ø°Ø§Ø± ÛĮØ¯
ĠØ±ÙĤ Ø¨Ø§
ĠØ±ÙĤ Ø§Ø¨ØªÛĮ
ĠØ³Ø±ÛĮØ¹ Ø§
ĠÚĨØ± ÙħÛĮ
ĠØ¯Ú©ØªØ± Ø§ÛĮ
ĠE D
ĠE ng
ĠØ¨Ø³ Ø§
ĠÚ©Ø¯ ÙĩØ§ÛĮ
ĠÙĦØ· ÙħÙĩ
ĠÙĦØ· ÙģÛĮ
ĠÙĪÙĦ Ùī
Ġ139 0
Ġ139 1
Ġ139 6
ĠØ¢Ø³ ÙĬØ§
ĠÙħÚ¯ ÙĨØ§Ø±
ĠØ¨Ø§Ø¨ Ø§
ĠÙħØ±Øº ÙĪØ¨
ĠÙĪÙĤØª ÙĬ
ĠØ±ÙĪØ¯ Ø¨Ø§Ø±
Ù¾Ø±Ø³ Ø´
Ù¾Ø±Ø³ Ú©ÛĮ
ÙĨØ¸ Ø§Ùħ
ĠØŃÛĮ Ø·Ùĩ
Ġ0 1
ĠØ§Ø®ØªÛĮ Ø§Ø±Ø§Øª
ĠØ´Ø®ØµÛĮ ØªÛĮ
ĠØ¨ÛĮÙħØ§Ø± Ø³ØªØ§ÙĨÛĮ
ĠØ§Ø¨ØªØ¯ Ø§ÙĬÙĬ
Ø¨Ø§Ø¨ Ú©
ĠØ¨Ø§ÙģØª ÛĮ
Ø´ÙĪ ÛĮÙħ
ĠÙ¾ÙĪÙĦ Ø´ÙĪÛĮÛĮ
ĠØ§ØªÙģØ§ÙĤ Ø§ØªÛĮ
ĠØ¨Ø±Ø³ ÙĨØ¯
ÙĪØ§ ÚĺÙĩ
ĠÙħØ´ØªØ± Ú©ÛĮ
ÙĨÙĪÛĮØ³ ÙĨØ¯
ĠÚ©Ø±Ø¨ ÙĪÙĩÛĮØ¯
ĠØ³ÛĮØ§Ø³Øª ÙĩØ§ÛĮ
ĠÚĨÛĮØ² ÙĩØ§ÛĮÛĮ
ĠØ¯ÛĮÙĨ Ø§ÙħÛĮÚ©
ĠØ®Ø±Ø¯ Ø³Ø§ÙĦ
ĠÛĮØ²Ø¯ Ú¯Ø±Ø¯
ĠÙħØ±Ø¬ Ø¹ÛĮØª
ĠØ¯ÙĪØ³ØªØ§ÙĨ ØªØ§ÙĨ
ĠÙģØ§Ø±Ø³ ÙĬ
ĠØ®Ø¨Ø±ÙĨÚ¯ Ø§Ø±ÛĮ
ĠØ±ÙħØ² Ú¯Ø°Ø§Ø±ÛĮ
Ú©Ùħ Ù¾
ĠÙĥÙĨ ÛĮØ¯
13 8
ĠØªØ¶ Ø¹ÛĮÙģ
ĠØ¯Ø±ÛĮ Ø§ÛĮ
ØŃØ³ ÙĬÙĨ
ïº ®
ïº ĺ
ĠØ¯Ø¨ÛĮØ± Ø³ØªØ§ÙĨÛĮ
ĠØ¢Ø¬Ø± ÙĩØ§
ĠÙħØ±Ø§Ú© Ø´
ÙĪÙģ ÛĮØ¯Ø¨Ú©
ĠÙĨØ¬ ÙĪÙħÛĮ
ĠØ¢ÙĨØªÛĮ Ú©
ĠÙĨÚ¯Ø± ÙģØªÙĩ
ĠÙħÙĪØ§Ø¬Ùĩ Ùĩ
Ø´ÙĩØ± Ø³ØªØ§ÙĨ
ĠÙħØ¹ÛĮ Ø´ØªÛĮ
ĠØ´Ø§ÙĨ Ø²Ø¯Ùĩ
ĠØ±ØŃ ÙĦØª
ĠØµÙĨØ¯ ÙĦ
ĠØ¨Ø§Ø²ÙĬ Ú¯Ø±
ĠÙħÙĤØ· Ø¹ÛĮ
ĠØ¬Ø³ØªØ¬ÙĪ Ú¯Ø±
ĠØ±Ø§ÙĩÙĨÙħØ§ÛĮ ÙĬ
Ġ200 5
Ġ---- ----
av y
ĠÙħØ§ÙĨØ¯ Ú¯Ø§Ø±ÛĮ
ĠÙĨØ§Ø® ÙĪØ´
ĠÙĨØ§Ø² ÙĨÛĮÙĨ
ĠØªØ£Ø«ÛĮØ± Ø§Øª
ĠØªØ³ Ø±ÛĮØ¹
ĠÚ¯Ø±ÛĮ Ù¾
ĠÙĤØ±Ø§Ø±Ø¯ Ø§Ø¯ÙĨ
han g
ĠØ±Ø³Øª ÙħÛĮ
ĠY alan
ĠØ±Ø§Ø¯ÛĮ ÙĪÛĮÛĮ
ĠÛ±Û¹Û µ
ĠÛ±Û¹Û ¶
ĠÚ¯ÙĨ Ø§Ø¨Ø§Ø¯
ĠÚ©ÙĪÙĨ Ú¯
Ġl yric
ĠÚĨØ§ÛĮ Ø®ÙĪØ±ÛĮ
ÙĬÙĥ ÙĬ
ĠØ§Ø±Ø¯ ÙĪÛĮ
ut o
Ø¢Ùģ Ø±ÛĮÙĨÛĮ
ĠØ´Ø³Øª ÙĨ
ØµØ§ÙĦ ØŃ
ĠÙĤÙĦÙħ Ø±ÙĪ
ĠÙĤÙĦÙħ Ø¯Ø§Ø¯
Ø§Ø·ÛĮ Ø³ÛĮ
Ø·Ø¨ ÙĤÙĩ
ĠÛ²Û°Û° Û¶
ĠÙħØŃÙĪØ± ÙĩØ§ÛĮ
ĠØ¨Ø§Ø±Ø¯ Ø§Ø±
ĠÙģØ±Ø³Øª Ø§Ø¯Ùĩ
ĠÙģØ´ Ø±Ø¯ÙĨ
ĠØ¨Ø²ÙĨ ÙĨØ¯
ĠÙĤØ¶Ø§ÛĮÛĮ Ùĩ
ĠÙĨØ²Ø¯ ÙĬÙĥ
ĠÙģÙĪ Ø§Ø¦Ø¯
Ø§Ø·ÙĦØ§Ø¹ Ø§Øª
ĠÚ©Ø§Ø±Ú©Ø±Ø¯ Ùĩ
ÙħØŃÙħØ¯ Ú©Ø¯Ø®
ĠÙĪÛĮØ¯Ø¦ÙĪ ÙĩØ§ÛĮ
ĠØ¨ÙĩÙħ Ø±Ø§Ùĩ
ĠÚ¯ÙĨØ¬ ÙĪÛĮ
ĠØ³Ø±Ù¾Ø± Ø³ØªØ§ÙĨ
ĠÙĪØ§Ø± Ø«Ø§ÙĨ
ĠÚ©ÙĪÙĦ ÙĪØ±Ú©Øª
od a
ÙĦØ± Ø²Ùĩ
ĠØŃÚ©Ùħ Ø±Ø§ÙĨÙĬ
ĠÚ©Ø±ÙĪÙħ ÙĪØ²ÙĪÙħ
ĠØ§ÙĨØ² ÙĦÛĮ
ĠÙħÙĩØ§Ø¬ ÙħØ§ÙĨ
ĠÙħÙĩØ§Ø¬ Ø±ÛĮÙĨ
ĠØªØ²ÛĮ ÛĮÙĨÛĮ
Ġht ml
ĠØ§Ø¹ØªÙĤ Ø§Ø¯ÛĮ
ĠØªÙĨÚ¯ Ùĩ
ĠÙģØ§ÛĮ Ø¯Ùĩ
ĠÚ¯Ø°Ø± ÙĨØ§ÙħÙĩ
ĠØ§Ø³Ø§Øª ÙĬØ¯
ĠÙħØ³ÙĦØŃ Ø§ÙĨÙĩ
ĠÙħØ®ÙģÛĮ Ø§ÙĨÙĩ
ĠØ³Ø¤ Ø§ÙĦØ§Øª
Ø§ÙĦÙħÙĦ ÙĦ
ĠØ¹Ø· ÙĪÙĨØ§
ĠÙĨØ¹ ÙĪØ¸
Ø§Ø§ Ø§Ø§
ÙħØµ Ø§ØŃØ¨Ùĩ
ĠÙħÛĮØ®ÙĪ Ø§Ø¯
ĠØ¨Ø§ÙĤ Ø§ÙĦÛĮ
ĠÙħØ·ÙĦ Ø¨ÛĮ
ĠØ³ÙĪÙĦ ÙģØ§Øª
ĠÙĥØ´ Ùģ
ĠØ´ÙĬ Ø¹Ùĩ
ĠÙģÙĤÙĩ ÛĮ
Ø¨Ø³ÛĮ Ø¬
ĠØ¢Ø¯ ÙħÛĮ
ĠØ§ÙĪÙħ Ø¯
ĠØ´ÙĨØ§ÙĪØ± ÙĩØ§
Ġu k
ĠÙģÙĦØ§ÙĨ Ùī
ĠØ³ÙģØ§ÙĦ Ú¯Ø±ÛĮ
ĠØ¨Ú¯ÙĪÛĮ ÛĮØ¯
ĠÙģØ±Ø³ Ø§Ø¯
ĠÙħØªØ¯ ÙĩØ§ÛĮ
ĠÙ¡Ù £Ù©
Ø´Ø¹ Ø±
ĠÙħÛĮÙĨ Ø±Ø§ÙĦ
ĠÙĨØ§ÙħØ²Ø¯ ÙĩØ§ÛĮ
ĠÙ¾Ø±Ø®Ø§Ø´ Ú¯Ø±ÙĬ
ĠÚ¯ÙĬ Ø±Ø¯
ĠØ§ÙĦØ³ Ø§Ø¨Ø¹
ver y
ĠØ±Ø§ÙĬ Ú¯Ø§ÙĨ
ĠÙĦÙĩ Ø¬Ùĩ
ĠØ¹ÙĦØ§ÙĤ ÙħÙĨØ¯
ĠØ¨Ú¯ ÙĬØ±
ĠØ¯Ùĥ ÙĪØ±Ø§Ø³ÙĬÙĪÙĨ
Ø¨ÙĨÛĮ Ø§Ø¯
ĠØ®Ø§Ø´ÙĤ Ø¬ÛĮ
ĠØ§Ø³ØªØŃ Ú©Ø§Ùħ
Ø§ÙĨØ¯Ø§Ø² Ø¯
âĻ«âĻ«âĻ«âĻ« âĻ«âĻ«âĻ«âĻ«
ĠØªØ±Ø§ÙĨ Ø³
ĠÙ¾ÙĪ Ú©ÛĮ
ĠØ¨Ø±Ø§ÙĨÚ¯ÛĮ Ø²
ĠØªÙĪØ§ÙĨÙħÙĨØ¯ Ø³Ø§Ø²ÛĮ
ĠÙħØ®ØªØµ Ø±ÛĮ
ĠØ²ÙĨØ¬ÛĮØ± Ø¨Ø§Ùģ
ĠØªÙĩØ§Ø¬ ÙħÛĮ
ĠØ§ØŃØª Ú©Ø§Ø±
ĠÙĨÙĬØ±ÙĪ ÙĬ
ĠØ±ÛĮØª Ùħ
ĠÙĦØ§Ø² Ø§ÙĨÛĮØ§
ĠÚ¯Ø±Ø§Ùħ Ø±
omm ent
Ġkh od
ĠØ¢ÙĦÙĪ Ø¦Ùĩ
ĠØ®ÙĦÛĮ Ø¬
ĠØ®ÙĦÛĮ ÙģÙĩ
ĠÚĨÙħ Ø±Ø§ÙĨ
ĠØµØ± Ø§ØŃØª
ĠÙħØŃØ± ÙħØ§ÙĨÙĩ
ĠÙħØ¹Ø§Ùģ ÛĮØª
ĠØºÛĮ Ø¨Øª
ĠØºÙĪ ØºØ§
ĠRoy ale
rag on
Ø¬Ø³Øª Ø¬ÙĪ
ĠØ§ÙĨØ¨Ø§Ø´ Øª
ĠØ§ÙĦØ±ØŃ ÙħÙĨ
Ø´Ø§Ø±Úĺ Ø±
ĠGam a
ĠÙ¾ÙĪØ´Ø§ÙĨ ÙĨØ¯Ùĩ
ØªÙģ Ø±ÛĮØŃ
ĠØ§ÙģØ´ Ø§Ø±ÛĮ
Ø±Úĺ ÛĮÙħ
ĠØ¯Ø§ÛĮÙĨ Ø§ÙħÛĮÚ©
ĠÙħØ´Ùĩ ÙĪØ¯
ĠØ§Ø³ÙģÙĨØ¯ÛĮ Ø§Ø±ÛĮ
ĠØ¯ÙĤ ØªÛĮ
ĠØªØ¯Ø§Ø± Ú©
ĠÙ¾Úĺ ÙĪ
ĠÙħÛĮÚ¯ÛĮØ± Ùĩ
ĠØ§ÛĮÙĨØ¯ Ú©Ø³
ĠÛĮÛĮ ÙĦØ§ÙĤÛĮ
ĠÙĦÙĪÙĦ Ø§ÛĮØª
ĠØ¨ÛĮØ§ÙĪØ±ÛĮ Ø¯
ĠØ¯Ø³ØªØ§ÙĪØ±Ø¯ ÙĩØ§ÛĮ
ĠÙħØ·Ø§ÙĦØ¹ Ø©
ĠØ¨ÙĪÛĮØ± Ø§ØŃÙħØ¯
Ġph p
ĠØ§Ú©ØªØ´ Ø§ÙģÛĮ
ĠØ¹Ø³Ú©Ø±ÛĮ ÛĮÙĨ
ĠØ¢ÙħØ±ÙĬÚ© Ø§
ÙĪÚ©Ø± Ø§Ø³ÛĮ
ĠØ§ÛĮØªØ§ÙĦÛĮ Ø§ÛĮÛĮ
ĠØ¨Ø±Ø´Ùħ Ø±Ø¯
ĠØ§ÙĦØ¬ ÙĪÙĦØ©
ĠØ«Ø§ÙĨ ÙĪÛĮÙĩ
ĠPH P
ĠPers ian
ĠØ¨Ø®ÙĪÙĨ ÛĮÙĨ
hed ul
indow s
Ġel se
ĠØ¨ÙħØ§ÙĦ ÛĮØ¯
ĠØ³ØªÛĮ Ø²ÛĮ
Ø¹Ø±Ùģ Ø§ÙĨ
ĠÙ¾Ø§Ø¦ ÛĮÙĨ
ĠØ§ÙĦÙĬ ÙĪÙħ
ĠØ§Ø¨ÙĪÙħ Ø³ÙĦÙħ
ĠØ±ÛĮÙĦ Ú©Ø³ÛĮ
ĠØ§ØŃÛĮ Ø§ÛĮ
ĠEn ter
ÙħØ·Ø§ÙĦ Ø¹Ùĩ
ĠMonst ers
ĠØ¨Ø§ÛĮÙĨ Ø±ÛĮ
ĠÙĪØ§ÙĦÛĮ Ø¨Ø§ÙĦ
ĠØ¢Ú©ÙĪ Ø§Ø±ÛĮÙĪÙħ
ĠØ¨Ø±ØŃ Ø³Ø¨
ĠÛĮØ§Ø¦ Ø³Ú¯ÛĮ
ĠØ²ØŃÙħ Ø§Øª
ĠØ§ÙħØ±ÛĮÚ© Ø§ÛĮÛĮ
ĠÙĨØ§ÙħÙĨØ¸ Ùħ
ĠÙĩÛĮØ¨Ø±ÛĮØ¯ Ø§Ø³ÛĮÙĪÙĨ
ĠMil ad
ĠØ§Ú©Ø±ÛĮ ÙĦÛĮÚ©
ĠØ³ÙĨØ§Ø±ÛĮ ÙĪ
ĠØ§ÙĦÙħØµ Ø·ÙģÛĮ
ĠÙĨØ§Ø®ÙĪØ¯ Ø¢Ú¯Ø§Ùĩ
ĠØªÛĮØ²ÙĩÙĪØ´ Ø§ÙĨ
ĠÙħÛĮØ±ØŃ Ø³ÛĮÙĨ
ĠØ§Ø³ÙĦØ§ ÙĬØ¯
ĠÚ¯ÙħØ´ Ø¯Ùĩ
ĠØŃØ¯Ø§ ÙĥØ«Ø±
ĠÙĤÛĮØ· Ø±ÛĮÙĩ
Ù¾Ø§ÙĪØ±Ù¾ ÙĪÙĬÙĨØª
ĠØ§ÙĨÙĤØ¨ Ø§Ø¶
ĠÙĦÙĩØ± Ø§Ø³Ø¨ÛĮ
ĠÚ©Ø§Ø±Ø§Ø¦ÛĮ Ø¨
ĠØªÙĪØ¦ÛĮ ØªØ±
ĠØ¨Ø§Ø±Ø³ÙĦ ÙĪÙĨØ§
Ø¨ÙĪÙ¾Ø±ÙĪÙģ ÙĨ
ĠMaf i
ĠDen iz
itde fender
ĠØ³Ø±ÙħØ§Ø®ÙĪØ±Ø¯ Ú¯ÛĮ
ĠLib rary
ĠÙħÚ¯ÙĨØ§Ø± Ú©Ø³
ĠÚ©ÙĪÙĦÙĪØ±Ú©Øª Ø§ÙĦ
" .
( (
. âĢĿ
0 40
3 7
3 9
6 5
8 10
: Â«
D E
D s
E N
F i
I S
I T
I n
K E
N ew
O L
O BS
Q L
R ay
R ip
S O
S S
T OS
U L
U n
V R
b ox
c are
d k
d ani
h op
h aye
l at
m in
m ent
m edu
r i
r it
r ess
r act
s is
t o
t y
u c
x x
y st
Ã ©
Ð ²
â ĸ
ï ¯
ï ¼
Ġ o
Ġ le
Ġ as
Ġ .........
Ġ eng
Ī Ĩ
Ø§ ÙĪØª
Ø§ Ú¯Ùĩ
Ø± ÙħØ§ÙĨ
Ø± Ø§Ø³Øª
Ø± Ø§Ú©
ÙĨ ÙĪÛĮ
ÙĨ Ùī
Ùĩ ÙĦ
Ø¯ Ø§Ø¹
Ø¯ Ø®Øª
Ø¯ ÙĪØ¯ÛĮ
Ø¯ ÙĪÙħÛĮÙĨ
ÙĪ Ø§Ø¯
ÙĪ Ø§Ø³
ÙĪ ÛĮÙħ
ÙĪ Ø¦
ÙĪ Ø®ØªÙĩ
Ùħ Ø³Øª
Ùħ Øº
Ùħ Ø¯Ø±
Ùħ ÙĪÙĨÙĩ
Ùħ Ø±Ø§Øª
Ùħ Ø§Ø²ÙĨØ¯
Ùħ Ø§ØªÙĪ
Ú© Ø´Ø§ÙĨ
Ú© Ø§ÙģÙĩ
ÙĦ ÙĦ
ĠØ¨ Ø¨Ø±
ĠØ¨ ÙĦØ¨
ĠØ¨ Ú©Ø±
ĠØ¨ Ø±ÛĮÙħ
ĠØ¨ ØªØ§
ĠØ¨ Ø´ÛĮØ¯
ĠØ¨ Ø®ÙĪØ¨ÛĮ
ĠØ¨ ÙĨÚ¯Ø§Ùĩ
ĠÙħ Ø§Ø¨
ĠÙħ Ø²Ø§Ø±
ĠÙħ ÙħØ¯
Ø§ÙĨ ØªÛĮ
Ø§ÙĨ ÙĦÙĪØ¯
Ø§ÙĨ Ø¯Ø±
Ø§ÛĮ Ú©
ĠØ¯ ÙĪÛĮ
ĠØ¯ Ø´Ùħ
ĠØ¯ ÙĤÙĬÙĤ
Ø³ ÙĨØ¯
Ø³ ÛĢ
Ø³ ÙĨÚ¯ÛĮ
ĠÙĪ Ú©
ĠÙĪ ÙĦØ§
ĠÙĪ ÙħÙĨ
ĠÙĪ Ø¨Ø§
ĠÙĪ Ø§ØªØ±
ĠÙĪ ÙĩÛĮ
Ø´ Ú©ÙĨ
Ø´ ÛĮÙħÛĮ
ĠÚ© Ø§Ø³
ĠÚ© ØªÛĮ
ĠÚ© ÙĨØ¯Ùĩ
ĠÚ© Ø§ÙĦØ¨
ĠÚ© Ø§Ø³ØªÛĮ
Ø§Ø± Ø²Ø´
Ø§Ø± Ø´Ø¯
Ø§Ø± Ø´ÛĮ
Ø§Ø± Ø§Ø¦Ùĩ
Ú¯ Ø§Ø¨
Ú¯ Ø²ÛĮ
Ø¨ Ø®
ĠØª Ø·
ĠØª Ø±ÙĪ
ĠØª Ø¬Ùĩ
ĠØª ÙĬØ±
ĠØª Ø±ÛĮØ¨
ĠØª Ø§ØªÙĪ
Ùģ Ùģ
Ùģ Ø§Ø²
Ùģ Ø§Ø·
Ùģ Ø§Ø¹ÛĮ
Ùģ Ø¸Ùĩ
Ùģ ÙĩØ±Ø³Øª
Ø² ÙĪÙĦ
Ø² ÙĨØ¯Ùĩ
ĠØ± ÙĨØ¬ÛĮ
ĠÙĨ ÙĪØ±Øª
ĠÙĨ Ø¬ÙĪ
ĠÙĨ Ø±ÙĪØ¯
ĠÙĩ Ø§ÙĨ
ĠÙĩ Ø¯Ø±
ĠÙĩ ÙĦÙĨØ¯
ĠÙĩ Ø§Ø³Ú©ÛĮ
Ø§Ùħ Ú©Ø§ÙĨ
ĠØ¯Ø± ÙĨØ¸Ø±
ĠØ¯Ø± Ú¯Ø°Ø´Øª
ĠØ¯Ø± ÙħØŃÛĮØ·
âĢ ¬
ĠØ³ ÛĮØª
ĠØ³ ÙĪÛĮÛĮ
ĠØ³ Ø§ÙĬÙĩ
ĠØ´ Ú©ÛĮ
ĠØ´ Ø¨ÛĮ
ĠØ´ Ø§Ú©
ĠØ´ ÙģØ§
ĠØ´ Ø§ÙĩÛĮ
ĠØ´ Ø±ÛĮØ§ÙĨ
ĠØ´ Ø¨ÙĩÙĩ
ĠØ´ Ø±ÙĪØŃ
ĠØ´ ÙĬÙħÙĬ
ĠØ¢ ÙĦÙģ
ĠØ¢ ÙĬÙĬÙĨ
ĠØ¢ ÙĪÛĮÚĺÙĩ
ĠØ¢ Ø¬ÛĮÙĦ
ÙĤ Ø§Ùħ
ÙĤ ÛĮÙĨ
ÙĤ Ø§Ø¨
ÙĤ ÙĪÙĦ
ÙĤ Ø§Ø¶ÛĮ
ÙĨØ¯ Ø¬
âĢĮ âĢı
Ø¹ Ø´
Ø§ÙĦ Ø±
Ø§ÙĦ Ú¯
ĠØ¨Ùĩ Ù¾Ø±Ø¯Ø§Ø²
ĠØ¨Ùĩ Ø±Ø§Ùħ
ĠÙ¾ ØªÛĮ
ĠÙ¾ ÙĦÙĩ
ĠÙ¾ Ø±Ùħ
ĠÙ¾ Ø§ÙĪØ±
ĠÙ¾ ÙĨØª
ĠÙ¾ Ø§ÙĩØ§ÛĮ
ĠÙ¾ Ø¯Ø±ÛĮ
ĠÙ¾ Ø±ÛĮØ¯ÙĨ
ĠØ® Ø§ÙħÙĩ
ĠØ® Ø±Ø³
ĠØ® ØµÛĮ
ĠØ® ÙģÙĩ
Ø¬ Ø§ÙĦ
Ø¬ ÙĪØ±ÛĮ
Ø¬ ÙĪØ§Ø±
ĠØ§Ø² Ø·
ĠØ§Ø² Ø¬ÙħÙĦÙĩ
ĠÙħÛĮ Ø´ÛĮ
ĠÙħÛĮ Ø¯ÙĨ
ĠÙħÛĮ ÙĦØ§ÙĨ
ĠÙħÛĮ Ú¯ÙģØª
ĠÙħÛĮ ÙħÙĪÙĨ
ĠÙħÛĮ Ø¯ÙĩÛĮÙħ
ĠØ§Ø³ Ø§Ø±Øª
ĠØ§Ø³ ÛĮØ§
ĠØ§Ø³ Ú©ÙĨØ¯
ÙĬ ÛĮ
ÙĬ Ø§ÙĦ
ÙĬ ÙģÙĩ
ÙĬ Ú¯Ø±ÙĪÙĩ
ÛĮØ¯ ÙĪØ³ØªÛĮ
Ø³Øª Ø±ÙĪÙĦ
Ø® ØªÙħ
Ø® Ø³Ø±ÙĪ
ĠÙģ ÙĦØ§
ĠÙģ Ø§Ø¬
ĠÙģ Ø§ÛĮÙĦÛĮ
ĠÙģ Ø§Ú©Ø³
ĠØ¨Ø± ÙĩÙħ
ĠØ¨Ø± Ø¹Ú©Ø³
ĠØ¨Ø± Ø¢ÙħØ¯
ĠØ¨Ø± Ø§Ø¯Ø±ÛĮ
ĠØ¹ Ø§Ø¬
ĠØ¹ Ø§Ø¯Ø§Øª
ĠØ¹ ÛĮØ¨
ØŃ ÙħØ¯
ÚĨ Ø§ÛĮ
ĠØ§Ø³Øª Ø§Ø¯ÛĮ
ĠØ§Ø³Øª Ø§Ø±Ùħ
ĠØ§Ø³Øª ÙĤØ±Ø§Ø±
ĠÚ¯ ÙĪØ±
ĠÚ¯ ÙĩØ±
ĠÚ¯ Ø³ÙĦ
ĠÚ¯ Ø´Ø§Ø¯
ĠØ¬ ÙĬ
ĠØ¬ ÛĮÙĨ
Ø§Ø¨ Ø§ÙĨ
Ø§Ø¨ ÙĪÙĦÛĮ
Ø§Ø¨ ÙĤØª
ĠÛĮ Ø²ÛĮØ¯
ĠÛĮ Ø¹ÙĤ
ĠÛĮ ÙħØ§ÙĨÙī
ĠØ§ÛĮÙĨ Ú©
ĠØ§ÛĮÙĨ ÙĥÙĩ
ĠØ§ÛĮÙĨ Ø´ØªÛĮÙĨ
Ø· Ø§Ø±
Ø· ÙĪÙĦ
Ø· Ø§ÙĦØ¨
Ø±ÙĪ Ø¬
Ø±ÙĪ ÙĩØ§
Ø±ÙĪ ØºÙĨ
ĠØŃ ÙĬ
ĠØŃ ÙĪÙĦ
ĠØŃ ÙĦÙħ
ĠØŃ Ø§ÙħÙĦ
ĠØŃ Ø±ÛĮÙĤ
ĠØŃ ØµØ±
ĠØŃ ØªØ§
ĠØŃ Ø¨ÙĪØ¨
ĠÙĤ ÙĨØ¯ÛĮ
ĠÙĤ Ø§ÛĮÙħ
ĠÙĤ Ø§Ø·ÛĮ
ĠÙĤ ÙģØ³
ÙĦÛĮ Ø§Øª
ÙĦÛĮ ØªÛĮ
ÙĦÛĮ ÙĤÙĩ
ĠØ² Ø§Ø¨
ĠØ² Ø§ÛĮÛĮ
ĠØ² Ø´Øª
ĠØ² Ø±Ø¯Ùĩ
ĠØ² ÙĬØ¨
ÙĪÙĨ Ø²
Ù¾ ÛĮÙħ
Ù¾ ÙĪØ³Øª
Ù¾ Ø§Ø±Ø³
Ù¾ ÛĮÙħØ§ÙĨ
ÛĮØ± Ùħ
ĠÚĨ Ø§ÙĦÙĩ
ĠÚĨ ÙĪÙ¾
ÛĮÙħ ØªØ±
ÛĮÙħ Ø¹Ø§ÙĪÙĨØª
ÙģØª ÙĨØ¯
ĠØ¯Ø§ÙĨ ÛĮ
ÙĪÛĮ ÙĦØ§
ĠÙĩÙħ Ø´
ĠÙĩÙħ ØªØ§
ĠÙĩÙħ ÙĪØ·
Ø¶ Ø±Øª
ÙĪØ§ÙĨ Øª
ĠØ¢ÙĨ ÛĮ
ĠØ¢ÙĨ Ø§Ùħ
ĠØ¢ÙĨ ØŃØ¶Ø±Øª
ĠØ¢ÙĨ ÚĨÙĨØ§ÙĨ
ĠØ¢ÙĨ Ø²ÛĮÙħ
ÙĪØ² ÙĨ
ÙĨÚ¯ Ø§Ø±
ÙĨÚ¯ Ø§Ùħ
Ø³ÛĮ ØªÙĩ
ØªØ± Ø²
ØªØ± Ø§Øª
Ø´ÙĨ ÙĪÛĮØ³ÛĮ
ĠÙĦ Ø§Ø±
ĠÙĦ ÛĮØª
ĠÙĦ ÛĮÙģ
ĠÙĦ Ø§ÙĩÛĮ
ĠÙĦ Ø§Ø¯ÙĨ
ĠÙĦ Ú¯Ø¯
ĠØ§Ùħ ÙĪØ§ÙĦ
ĠØµ ÙĢ
ĠÚ©ÙĨ Ø¬Ø¯
Ú©ÛĮ ÙģÛĮ
ÙħÛĮ Ú©
ÙħÛĮ ØªÛĮ
Ø° Ø¨
Ø° ÙĬÙĩ
ĠÚ©Ø§Ø± ØªÛĮ
ĠÚ©Ø§Ø± ÙĦÙĪ
ĠÚ©Ø§Ø± Ø´Ø§ÙĨ
ĠÙħÙĨ ÙĤØ¨
ĠÙħØŃ Ø±ÙĪ
ĠÙħØŃ ÙģØ¸Ùĩ
Ø¸ ÛĮ
ØªÙĩ ÛĮÙĩ
ĠÙĨÛĮ Ø§ÛĮØ´
ĠÙĨÛĮ ÙģØªØ¯
ĠÛĮÚ© Ø³Ø§ÙĦÙĩ
ĠØ®ÙĪØ¯ Ø¢
ĠØ¢Ùħ ÙĦ
ĠØ¢Ùħ Ø§ØªÙĪØ±
ĠØ¢Ùħ Ø§Ø²ÙĪÙĨ
ĠØ§Ø± ÙĪÙħ
ÙĦØ§ Úĺ
ĠØ¨Ø§Ø² Ø®ÙĪØ±Ø¯
ĠØªÙĪ Ú©Ø§Ø±
ĠØ§ÙĦ Ø«
ĠØ§ÙĦ Ùĥ
ÙĪØ´ ÛĮÙħÛĮ
ĠØ¨ÛĮ Ø§ÙĪØ±
ĠØ¨ÛĮ Ø§Ø¨Ø¯
ĠØ¨ÛĮ ÙĪØ´ÛĮÙħÛĮ
ÙĪÙħ ÛĮÙħ
ĠØ¨Ø§Ø´ Ú©ÙĪÙĩ
Ø§ØŃ Ø³Ø§Ø³
Øº Ø±Ø¨
ĠÙģØ± Ø§Ø®
ĠÙģØ± Ø´ÛĮØ¯
ĠÙħØ± Ø§Ø³ÙħÛĮ
ĠÙħØ± Ø³ÙĪÙħ
Ø¨ÛĮ ØŃ
Ø¨ÛĮ Ú¯ÛĮ
ĠÙħØ¹ Ø±ÙĪ
ĠÙħØ¹ Ø§Ø¨Ø±
ĠÙħØ¹ Ø§ÙĨÙĬ
ĠÙħØ¹ ÙĪÙĤÙĩ
ĠØ´Ùħ ÛĮØ±Ø§ÙĨ
ĠÙĨÙħ Ø§Ø¯ÙĩØ§
Ø« Ø±Ø§
ĠÙ¾ÛĮ ÙĦ
ĠÙ¾ÛĮ Ø±ÙĪØ²
ĠÙ¾ÛĮ ØºØ§Ùħ
ĠÙħØ¯ Ø§Ø®
ĠÙħØ¯ Ø¹ÙĪ
Ú©ÙĨ ÙĨ
ĠØªØ§ ÙĪØ±
ĠØªØ§ ÙĪØ§ÙĨ
ĠÙħØª Ø§Ø«Ø±
ĠÙħØª Ø§Ø¨ÙĪÙĦÛĮ
Ø§Ùģ Ø§Øª
Ø¨Ø± Ø§Ø¯Ø±
ĠØªØ± ÙĬÙĨ
ĠØªØ± Ø´ÛĮ
ĠØªØ± Ø§Ù¾ÛĮ
ĠØ¯Ø³Øª Ø´
ĠØ¯Ø³Øª Ø´ÙĪÛĮÛĮ
ĠØ¨ÙĪØ¯ ÛĮ
ÙĪØ±Ø¯ ÙĨ
Ø¢ ÙĨØªÛĮ
ĠØ³Ø± Ø¨
ĠØ³Ø± Ú©Ùĩ
ĠØ³Ø± ÙħØ±
ĠØ³Ø± ÙĦÚ©
ĠØ±ÙĪ ÙħÛĮ
ĠØ±ÙĪ ÙĨØ¯ÛĮ
ĠØ±ÙĪ Ø§ÛĮØªÛĮ
ĠØ±ÙĪ Ø§ÙĬØ§Øª
ĠØ®ÙĪ Ø§Ø¨Ùĩ
ĠØ®ÙĪ Ø´ÙĨÙĪÛĮØ³ÛĮ
ÙĪØ±ÛĮ Ùħ
ĠØº Ø§Ø±Øª
ĠØº ÙģÙĦ
Ø¯Ø± Ø§
Ø¯Ø± ÚĨÛĮÙĨ
ĠØ³Ø§ÙĦ ÛĮØ¯
ĠØ³Ø§ÙĦ Ø§ÙħÙĨÛĮØª
ÙĦØ§Ùħ Øª
ĠÙħØ¬ ØªÙĩ
ĠÚ©Ø´ ÙĪÛĮÛĮ
ĠØ¯ÙĪ ØªØ§ÛĮÛĮ
ĠØ¯ÙĪ Ø¬Ø§ÙĨØ¨Ùĩ
ĠÙħÙĤ Ø§ÙĬ
ĠÙħÙĤ Ø¹Ø¯
Ø¦ ÛĮØª
Ø¬Ùĩ Ø§ÙĨ
ĠÙħØ³ ÙĨ
Ø§ÙĤ Ø¯Ø§Ùħ
ĠØ´Ø± ÙĬÙģ
Ø§Ú© ÙĪÙģ
ĠØªØŃ ØµÙĬÙĦÙĬ
ĠÙĨØ¸ Ø±Ø§ÙĨ
ĠÙĨØ¸ Ø§ÛĮØ±
ĠÙĥ Ø§ÙĨ
ĠÙĥ Ø§ÙħÙĦ
ĠÂ ±
ĠÙĩØ± Ú©Ø¯Ø§Ùħ
ĠØ¹Ùħ Ø§Ø±
ĠØ¹Ùħ ÙĤÛĮ
ĠÚ¯Ø± Ø¬
ĠÚ¯Ø± Ú¯Ø§ÙĨ
ĠØ¨Ø§Ø²ÛĮ Ú©ÙĨÛĮ
ĠØ¯Ø§ÙĨØ´ ÙħÙĨØ¯
ĠÚ©Ùħ Ø±ÙĨÚ¯
ĠØ³ÛĮ ØªÛĮ
ĠØ³ÛĮ Ø§ÙĩÛĮ
ĠØ³ÛĮ Ø³Ùħ
ĠÚ¯ÙĦ Ø§Ø³
ÙħÙĨ Ø·
ĠØ¨Ø¯ ØŃØ¬Ø§Ø¨ÛĮ
Ø§ÙĬ Ø§ÙĨ
Ø§ÙĬ Ø¬Ø§ÙĨ
Ø¯Ùħ ÙĪÚ©Ø±Ø§Ø³ÛĮ
Ø®Øª Ú¯Ø§ÙĨ
ĠØ§Øµ Ø·
ĠØ§Øµ Ø·ÙĦ
ĠØ³ÙĪ ÙĬ
Ø±Ø³ ÛĮØ¯
Ø±Ùħ ÛĮÙĨ
ĠØªØ¹ Ø±Ø¶
ĠØªØ¹ Ø²ÛĮÙĩ
ĠØªØ¹ Ø¨ÙĬØ±
ĠØ±Ø³ ÙĬØ¯Ùĩ
ĠØ¢Ø²Ø§Ø¯ Ú¯ÛĮ
ØªÙĪØ§ÙĨ Ùħ
ĠÙħØ· Ø§Ø¨ÙĤØª
ĠØ±ÙĪÛĮ Ø´
ĠØ§Ø¬ Ø§ÙĤ
ÙĢ Ø³
ĠØ§Ø¨ Ø¯ÛĮ
ĠØ§Ø¨ ÙĪØ¹ÙĦÛĮ
ĠØ±ÙĪØ² Ø§ÙģØ²ÙĪÙĨ
Ø§ÛĮÙĨ Ø³ØªØ§Ú¯Ø±Ø§Ùħ
ĠÙĨØ§Ùħ Ø²
ĠØ³Ø§ÛĮØª ÙĩØ§ÛĮ
ĠØ¬Ùĩ Ø§Øª
ĠÚ©ÙĦ Ø§Ø±
ĠÚ©ÙĦ Ø§ÙĨÛĮ
ĠÚ©ÙĦ Ø³ØªØ±ÙĪÙĦ
ĠØªØµ Ø±Ùģ
ĠØªØµ Ø§ÙĪÛĮ
ĠØªØµ ÙħÙĬÙħ
ĠØ§ÙĨØ¯ ÙĬØ´Ùĩ
ĠØ®Ø±ÛĮØ¯ Ø§Ø±Ø§ÙĨ
ĠØ¹ÙĦ ÙĪÛĮ
ĠØ¹ÙĦ Ø§Ø¦
ĠØ¹ÙĦ Ø§ÛĮÙĤ
ĠØ¹ÙĦ ÛĮØ¯ÙĪØ³ØªÛĮ
ĠÙĨØ´ Ø¯ÙĨ
ĠÙ¾Ø§ÛĮ Ø§ÛĮÛĮ
ĠØ§Ø® ÙħØ§ØªÙĪ
ĠØ§Ø® Ø·Ø§Ø±
ĠØµÙĪØ±Øª ÙĬ
ĠØ§Ø´ ØªØ±
ĠØ§Ø´ Ùĥ
Ø±Ø¨ Ø§ÙĬØ¬Ø§ÙĨ
ĠÙ¾ÛĮØ´ ÛĮ
ĠÙ¾ÛĮØ´ Ø¨Ø±Ø¯
ĠØ´Ùĩ ÙĬØ¯
Ø§Ø²ÛĮ Ø§Ø±
ĠÚ©ÙĨÙĨØ¯ Ú¯ÛĮ
ÙģØ± Ø¶
Ø§Ø±Øª Ø¨Ø§Ø·
Ø§ÙĪØ± Ø¯Ùĩ
Ø®ÛĮ Ø²
ĠØªÙĪØ³ ÙĦÛĮ
Ø¯Ø§ÙĨ Ùħ
Ú©Ø§Ø± ÙĩØ§ÛĮ
ĠØ¨Ø¹ ÙħÙĦ
ÙģÛĮ ÙĪÚĺ
ĠÙĨÙħÛĮ Ø§Ø¯
ĠÚ¯ÛĮ Ø±ÛĮØ¯
ĠÚ¯ÛĮ Ú¯ÙĪÙĦ
ĠÚ¯ÛĮ Ú¯Ø§Ø¨
ĠÚ¯Ø° Ø§Ø´ØªÙħ
ĠØ´ÛĮ Ø±Ø¯Ùĩ
ĠÚ¯Ø±Ø¯ ÙĬØ¯
ĠØ¯Ø§Ø¯ Ú¯
ĠØ§Ø·ÙĦØ§Ø¹ ÛĮ
ĠØ±ÛĮ Ø®ØªÙĨ
ĠØ§ØŃ Ø³Ø§ÙĨÛĮ
ĠÙ¾Ø± ØªÙĤ
ĠÙ¾Ø± Ø§ÛĮÙħ
ĠØ¨Ø§Ø± ÙĪØ±ÛĮ
ĠØ¨Ø§Ø± Ø§Ú©
ĠØŃØ³ ÙĬÙĨ
Ø¨ÛĮÙĨ ÙĨØ¯
ĠØ§Øª Ú©Ø§
ĠØ§Øª ÙĪØ²ÙĪÙħ
ĠÙĪØ± Ø«Ùĩ
ĠØ¢Ø¨ ÙĨÙĪØ³
ĠØ¢Ø¨ Ú¯ÙĪØ´Øª
ĠØ§ÙĪÙĦ Ø´
Ø±Ø§Ùĩ Ø§ÛĮ
ĠØªØ¬ Ø¯Ø¯
ĠÙĩÛĮ Ø§
er o
ÙħÙĦ Ú©
ÙĨØª Ø§ÛĮØ¬
ĠØ´ÙĨ ÙĪØ¯
ĠØ¨ÙĦ ÙĪØ±ÛĮ
ĠÚĨÙĨØ¯ ØªØ§
ĠÚĨÙĨØ¯ Ø¹Ø§ÙħÙĦÛĮ
ĠØ¨ÙĨ Ø±
ĠØ¨ÙĨ Ø§ÛĮ
ĠØ¨ÙĨ Ø§ÙĩØ§ÛĮ
ĠØ¨ÙĨ ÙģØ´Ùĩ
ĠØªØº Ø°ÙĬÙĩ
ĠÙĨÙĪ Ø§
ĠÙĨÙĪ Ø§Ø²ÛĮ
ĠÙĨÙĪ Ø°Ø±
ĠØ¹Ø§Ø´ÙĤ ÙĪÙĨÙĩ
ĠØªØ´ Ø±ÛĮÙģ
ĠÙĨÛĮØ³Øª ÛĮÙħ
ĠØ³Ø±ÛĮ Ø§ÙĦÛĮ
Ġ3 50
on d
ĠØ° ÙĪØ§ÙĦ
ĠØ° ÙĦØª
ĠØ¢Ø± Ø§ÙĬØ´
ar is
Ø¨Ø§ÙĦ Ø§
ĠS l
ĠS n
ĠS ar
ĠS yndrome
Ġ201 0
Ġ201 1
Ø´ÛĮ Ø§ÙĨ
ĠØ²Ø¨Ø§ÙĨ Ø´ÙĨØ§Ø³
ĠØªÙĩØ±Ø§ÙĨ Ø±Ø³ØªÙĪØ±Ø§ÙĨ
ĠÙħÙĪØ¶ÙĪØ¹ Ø§ØªÛĮ
ĠÙ¾Ø§Ø³ Ø®ÛĮ
ĠØ³Ø¨ ÙĤØª
ĠØŃØ¯ Ø§ÙĤÙĦÛĮ
ĠA D
ĠØµÙĨ Ø§ÙĬØ¹
ĠÚ©ÙĪ ÙģØªÙĩ
ĠÚ©ÙĪ Ø§Ø±ØªØ²
Ú¯Ø² ÛĮÙĨÙĩ
ĠØºØ° Ø§ÙĩØ§ÛĮÛĮ
ĠØ¢Ø²Ùħ ÙĪÙĨÛĮ
ĠØ¢Ø²Ùħ Ø§ÙĬØ´Ú¯Ø§Ùĩ
ĠÛ² Û±Û°
ĠÙħØ® Ø§Ø²ÙĨ
ĠÙħØ³Øª ØºÙĦØ§Øª
ĠØªØ¨ Ø¹ÛĮØª
ĠØªØ¨ ÙĬÙĬÙĨ
ĠP h
ĠÙĪØ¨ Ø§Ø²
ĠØ®Ø¨Ø± Ú¯Ø§ÙĨ
ĠØ®Ø¨Ø± Ú¯Ø²Ø§Ø±
ĠØªÚ© Ø§ÛĮØ§ÛĮ
Ú¯Ø° Ø§Ø±Ø§ÙĨ
ĠØ¯ÛĮØ¯ ÛĮ
ĠØ¯ÛĮØ¯ Ø§Ø±ÛĮ
ĠØ¬ÙĨ Ø§Ø²Ùĩ
ĠÚĨÛĮ Ú©ÙĨ
ĠØ§ÙħØ§Ùħ Øª
Ø£ ÙĨ
Ú¯Ø±ÛĮ Ùħ
ĠÙĨØ±Ùħ Ø§Ø´ÛĮØ±
ĠØ§Ùĩ Ø±ÛĮ
ĠØ³Ù¾ ÛĮØ¯
ĠÙĪÙĤ Ùģ
ĠM S
ĠÙĨÙĪØ± ÙĪØ³
ĠÙĨÙĪØ± Ø³ÙĨØ¬ÛĮ
ĠD o
ÙĤÙĦ Ø§Ø¨
ĠØ¢ÙħØ±ÛĮÚ© Ø§Ø³Øª
ĠØ¯ÙĪØ±Ùĩ ÙħÛĮ
ĠC O
ĠC ou
ĠÙĦØ¨ Ø®ÙĨØ¯
ĠØ¢ÛĮ ÛĮÙĨÙĩ
Û± Û±
Û± Û·
ĠØµÙģ Ø§Øª
ÛĮÙĨÛĮ ÙĪÙħ
ĠÚ¯Ø±ÙģØª Ú¯ÛĮ
or n
ĠÙĩØ¯ ÙģÛĮ
ĠÛ±Û³Û ²
ĠØ¬ÙĩØ§ÙĨ Ú¯ÛĮØ±
ĠÙģØ¹Ø§ÙĦÛĮØª ÙĩØ§
ĠÙĦÛĮ Ø³ØªÛĮ
ĠØ²ÛĮØ¨ Ø§ØªØ±
ĠÙģØ§ÛĮÙĦ ÙĩØ§ÛĮ
ĠØ¨ÛĮÙħØ§Ø±ÛĮ ÙĩØ§
ĠB y
ĠB est
ĠB oom
ĠB ook
ĠB erlin
ĠÚ©ÛĮ Ø¨ÙĪØ±Ø¯
at eg
ĠÚĨÙĩØ§Ø± Ú¯Ø§ÙĨÙĩ
ir us
ir ke
ĠT ab
ĠT ool
ĠØªÛĮ Øº
ĠØªÛĮ Ø±ÙĪØ¦ÛĮØ¯
ĠÙħØµØ±Ùģ ÙĬ
ĠØ¢Ø® ÙĪÙĨØ¯ÛĮ
ĠÙħÚ© Ø³ÛĮ
ĠÙħÚ© Ø¹Ø¨ÛĮ
ĠØ¨ÛĮØ§ÙĨ Ø§Øª
Ø¢ÙĨ ÙĩØ§
ĠÚ©Ø§ÙĦ Ø±ÛĮ
ĠÙĪØ§ Ú©Ø³
ĠØ³Ùģ Ø§Ø±Ø´ÛĮ
ĠØ¬Ø² Ø§ÛĮØ±
Ø§ÙĨØª ÙĪÙħÛĮÙħ
ĠØ´Ú© ÙĪÙģ
ĠÙħØ§Ø´ ÙĬÙĨ
ĠÙħØ§Ø´ ÛĮÙĨÛĮ
ĠÙħØ§Ø´ ÙĬÙĨÙĬ
ĠØ´ÙĪØ± Ø´
ĠØ§Ú© Ø«Ø±ÛĮ
ĠØ§Ú© Ø«Ø±Ø§
ĠØ®ÙĪØ¯Ø±ÙĪ ÙĦÙĪØ§Ø²Ùħ
ĠØ®ÙĪØ¯Ø±ÙĪ ÙĪØ³Ø§ÛĮÙĦ
ĠØ¹ÙĦÙħÛĮ Ùĩ
Ø§Ø¨Øª Ø¯Ø§
st ance
ĠØ¢Ø° Ø±Ø¨Ø§ÙĬØ¬Ø§ÙĨ
ĠÙħÙĨØ¸ Ø±
ĠØ¯Ùģ Ø¹Ùĩ
Ø³Ø± Ø§ÛĮÛĮ
Ø³Ø± Ø¹Øª
Ø³Ø± Ù¾Ø±Ø³Øª
ĠØ¢Ø³ÛĮ Ø§ÛĮ
ĠÙħÙĪÙģÙĤ ÙĬØª
ĠÙħÛĮÙĦ ÙĪÙĨ
ĠØ¨Ø® ÙĪØ±ÛĮØ¯
ĠØªØ£ Ø«
ĠØ§ÙĦÚ©Øª Ø±ÙĪÙħ
ĠØªØ§Ø¨ Ø§
ĠØªØ§Ø¨ Ùĩ
ĠØ§ÙĨØ¬ÙħÙĨ ÙĩØ§ÛĮ
Ø§Ø¸ Ùĩ
ĠØ§ÙĨØ³Ø§ÙĨ ÙĩØ§ÛĮ
ĠÙħÙĪØ¬ÙĪØ¯ ÛĮ
Ø´ÙĪØ± Ø§ÛĮ
ĠØ±ÙĪØ§ÙĨ Ø´ÙĨØ§Ø®ØªÛĮ
ĠÙ¾ÙĨØ¬ Ø§Ùĩ
ĠÙĨÛĮØ±ÙĪ ÙĩØ§
ĠÚ¯ÙĪ ÛĮÙħ
ĠÚ¯ÙĪ Ø§ÙĩÙĬ
ĠÚ©ÙħÛĮ Ø§Ø¨
ĠØ¯ÙĪØ³Øª Ø§ÙĨÛĮ
ĠØ¯ÙĪØ³Øª Ø¯Ø§Ø±Ø§ÙĨ
ĠÙ¾ÙĪØ´ ÛĮ
ĠÙ¾ÙĪØ´ Ø§ÙĨØ¯ÙĨ
ĠÙ¾ÙĪØ´ Ø§ÙĨØ¯Ùĩ
Ġm o
Ġm agna
ĠØ³ÙĨ Ø§Ø¯
ĠØ³ÙĨ ÙĬ
ĠØ³ÙĨ ÙĨØ¯Ø¬
ĠØ¢Ø²ÙħÙĪÙĨ ÙĩØ§ÙĬ
Ġ7 4
Ġ7 6
ĠØ§ÙĨØªÙĤ Ø§ÙĦÛĮ
ro me
ĠR F
ĠR es
ĠR ed
ĠR et
ĠR ec
ĠR TOS
ĠH TML
Ġs yndrome
ĠÙħØŃÙħØ¯ Ø¬ÙĪØ§Ø¯
ØªÙĪÙĨ Ùħ
ĠÙ¾Ø§Ø± ØªÛĮ
ĠÙ¾Ø§Ø± ÙĦÙħØ§ÙĨ
Ġ6 5
Ġ6 8
ĠØ®ÙĪØ´ Ùĩ
ĠØ§ÙĬ ÙħÙĨ
ĠØ§ÙĬ Ø´Ø§ÙĨ
ĠÙħÙī Ø¨Ø§Ø´Ø¯
Ġt ab
ÙħØ± ÙĪØ±
ĠØ¨Ø±Ú¯Ø²Ø§Ø± ÙĬ
ÙħØŃ ØªÙĪ
ĠÙħØ´Ø§Ùĩ ÛĮØ±
ĠÙ¾ÙĬ ÙĨÚ¯
ĠÙ¾ÙĬ Ø´ÙĨÙĩ
ĠÚ©Ùģ Ø´ÛĮ
Ú¯ÙĪÛĮ ÛĮÙħ
ÙĦÙĬ Ø³
ĠÙĤØ¨ Ø¶
ĠÙ¾Ø§ Ú©ÛĮ
ĠØ¯ÙĨØ¨Ø§ÙĦ Ùĩ
Ġp l
ØªÙĤ ÙĪÛĮØª
ĠÙħØ° Ø§Ø¨
ĠN ame
ĠÙĦØŃ ÛĮÙħ
ĠÙĦØŃ Ø¸Ø§Øª
Ġ8 7
Ġ8 8
Ġ8 00
ĠØ¢Ø´ ÙģØªÙĩ
ĠØ¢Ø´ ÙģØªÚ¯ÛĮ
ĠÙģØ´Ø§Ø± ÙĬ
ĠØ´ÙĩØ±Ø³ØªØ§ÙĨ ÙĩØ§
ĠÙħØ¹ÙĨ ÙĬ
ĠÙħØ¹ÙĨ Ø§Ø³Øª
ot es
ot el
ĠÚ©Ø´Ø§ÙĪØ± Ø²ÙĬ
Ø¯Ø±ÛĮ Ø¬
Ø¯Ø±ÛĮ Ø§ÙģØª
ĠÙħØº ÙĦÙĪØ¨
ĠØ®ÙĪØ§Ø¨ Ú¯Ø§Ùĩ
ĠÙĩÙĨØ± Ø³ØªØ§ÙĨ
ÙĩÛĮ Ø§Øª
re t
re za
ĠØªÛĮØ± ÙħØ§Ùĩ
ĠØ¹Ø¶ ÙĦÙĩ
is ion
Û¸ Û°
âĢİ âĢİ
ĠØ§ÙĦØ¹ Ø¨Ø§Ø³
ĠÙĪØ¶ ÙĪØŃ
ÚĨÛĮ ÙĦ
ĠØ±ÙĤ Ø¨Ø§ÛĮ
ĠØ§ÙħÛĮØ¯ ÙĪØ§Ø±ÛĮ
ĠÙħØ² Ø¨ÙĪØ±
ĠÚĨØ± ÚĨÛĮÙĦ
ĠØ¯Ú©ØªØ± Ø§
ĠØ±Ø§ØŃ ÙĦ
ÙĩÙĨ Ø±
ĠØªÙĪØ¶ÛĮØŃ ÛĮ
ĠØªÙĪØ¶ÛĮØŃ Ø§ØªÛĮ
ĠE OS
ĠØ³Øª Ø§Ø±
ĠØ³Øª Ø§Ø¯ÛĮ
Ġb erlin
ĠÙħØªØ± Ø¬
Ø§Ú¯Ø± Ø³
ĠÚ©Ø§Ø±ÙħÙĨØ¯ÛĮ ÙĦÙĪØ§Ø²Ùħ
ĠÙħØ§ÙĦÛĮ Ø§ØªÛĮ
ĠØ®Ø§Ø±Ø¬ ÙĬ
Ø±Ø¨Ø§ÛĮ Ø¬Ø§ÙĨ
ĠØ¢Ø³ ÙĬØ¨
Û¶ Ûµ
ĠØ¨ÙĦÙĪ ÚĨÛĮ
ĠØ·ÛĮ ÙĪØ±
ĠØ§Ø³Ù¾ Ùħ
ĠØ¨ÙĦÚ© Ø§
Û· Û°
ĠÚ©Ø±ÙħØ§ÙĨ Ø´Ø§ÙĩÛĮ
ĠÙģÙĨ Ú©ÙĦØ§Ø¨
ĠÙĪØŃ Ø´
ÙĨØ¸ Ø§Ø±Øª
ÙĨØ¸ Ø±ÛĮÙĩ
ĠØ¯ÙĬ ÙĪØ§Ø±
Ġd a
Ġd own
Ġd riv
ĠØŃÛĮ ÙĪ
ĠØŃÛĮ Ø«
ĠW ar
Ú©Ø´ ÙĨØ¯
Ú©Ø´ Ø§ÙĪØ±Ø²ÛĮ
ĠÚ©Ø¯Ø§Ùħ ÙĨØ¯
ch n
iv irus
Ġf h
Ġf ree
ÙĪØ§ÙĦ Ø¯ÛĮÙĨ
ĠÙ¾ÙĨ Ø¬Ùĩ
ĠÚ¯Ø§Ùħ Ø§
ĠØ³Ø¨Ø² ÙĪØ§Ø±ÛĮ
ĠØ¬Ø§Ú©ÙĪØ¨ Ø³
ĠØ®ÙĦ Ø¹
ĠØ®ÙĦ Ø¨Ø§ÙĨ
ĠØ§ØªÙģØ§ÙĤ Ø§
ĠØ§Øº Ø±Ø§ÙĤ
ĠØ§ÙĪÙĨ Ø³
ØªØ¹ Ø¯Ø§Ø¯
ab y
ÙĨÙĪ ÙĪ
ĠÙħØ¤ ÙħÙĨ
ĠØ¬Ø¯Ø§ ÙĪÙĦ
ĠÚĨÛĮØ² ÙĩØ§
ĠÛĮØ§ÙģØª ÙĨØ¯
ĠÙĨØ§Ø± Ø§Ø¶ÛĮ
ĠØ³Ø®ÙĨ Ø±Ø§ÙĨ
ĠØ§Ø¹ØªØ¨Ø§Ø± Ø³ÙĨØ¬ÛĮ
ĠÙĤÙģÙĦ ÙĩØ§ÛĮ
ĠØ²ÙĨØ¬ Ø§ÙĨÛĮ
ĠØ²ÙĨØ¬ ÛĮØ±Ùĩ
ĠÙĬØ§ ÙģØªÙĩ
im e
im i
ĠØ±Ø¹ Ø§ÙĬØª
ĠÙ¾Ø¯Ø± Ùħ
ĠÙħÙĪÙĦ Ú©
ĠÙħÙĪÙĦ ÙģÙĩ
ĠÙĪÛĮØ¯ÛĮ ÙĪÛĮ
ĠÙĨÚ©Ø±Ø¯ ÙĨØ¯
ĠÙĨÚ©Ø±Ø¯ ÛĮÙħ
Ġw e
Ġw ord
Ġw ith
ÙĪØªÛĮ Ú©
ĠØ¢Ùģ ÙĦØ§ÛĮÙĨ
ĠÙģØ§Ø±Ø³ Ùī
ĠØ¢Ø²ÙħØ§ÛĮØ´ Ø§Øª
ĠJ peg
ĠØ±ÙħØ² Ú¯Ø´
ĠØ¬Ø§ÙĨØ¨ÛĮ ÙĪØ³Ø§ÛĮÙĦ
ou nd
ĠÙħÙħÙĨ ÙĪÙĨÙħ
ĠÙĥÙĨ ÙĨØ¯Ú¯Ø§ÙĨ
ĠÙħÙĨØ²ÙĦ ØªØ§ÙĨ
ĠO S
ĠO ff
Ù¾Ø° ÙĬØ±
ĠØ¯ÛĮÙĪ ÛĮØ¯
ĠØ³ÙĪØ®Øª ÙĨ
ĠØŃÙĪ Ø§ÙĦÛĮ
ĠÙħÚ©Ø§ÙĨÛĮ Ú©ÛĮ
ĠØ¨Ø§Øº Ø¨Ø§ÙĨÛĮ
ĠØªÙĩØ¯ÛĮØ¯ ÙĩØ§ÛĮ
ï» £
ï» ¨
ĠØ¯Ø¨ÛĮØ± Ø§ÙĨ
ĠÙģØ±Ø¢ÛĮÙĨØ¯ ÙĩØ§ÛĮ
76 93
ĠØ³ÙĨØ¬ Ø§ÙĤ
ĠIn f
ÙĨÙĤ Ø´
ĠÙħÙĪØ± ÚĨÙĩ
ÙģØ±Ùħ Ø§ÙĬØ¯
ĠØ§ÛĮØ± Ø§Ø¯ÛĮ
ĠØ§Ø´ØªØ¨ Ø§ÙĩÛĮ
ĠÙħØ¶ ÙħÙĪÙĨ
ĠØ´Ø¯ÛĮØ¯ Ø§
ĠÙĪÙģ Ø§Ø¯Ø§Ø±
ĠÙĪÙģ Ø§Ø¯Ø§Ø±ÛĮ
ĠÙ¾Ø§Ø¯ Ø§Ø´
ĠÙ¾Ø§Ø¯ Ú©Ø³Øª
ĠØ®Ø¯ Ø§Ø¨
ĠØ®Ø¯ Ø§ÛĮØ§
Ġ18 0
ĠØ³ÙģØ§Ø±Ø´ Ø§Øª
ĠÚ¯Ø±Ø§ÙĨ ÙģØ±ÙĪØ´ÛĮ
Ġ200 7
Ġ200 8
ÙĨÙħØ§ÛĮ ÙĨØ¯Ú¯ÛĮ
ĠZ oosk
Ø±ÙĪØ§ÙĨ Ø´ÙĨØ§Ø³
ig h
ÙħÙĤ Ø§Ùħ
ĠÙĪÛĮØ¯ ÙĦ
ĠÙĨØ§Ø® Ø§ÙĦ
ra w
ĠÙħØ§ÛĮ Ø¹Ø§Øª
ĠÙĨØ§Ø² Ùĥ
ĠØ´Ùģ Ø§Ø¹Øª
ĠÙ¾Ø¯ ÙĬØ¯
ĠØªØ³ ÙĪÛĮÙĩ
ĠØªØ³ ÙĦÛĮÙħ
ĠØ¢Ø³ÙħØ§ÙĨ Ùī
Ø¨ÙĨØ¯ Ø¯
Ø¨ÙĨØ¯ ÙĬ
ĠØ¹ÙĪØ§Ø± Ø¶ÛĮ
ĠÚ¯Ø§Ùĩ ÙĬ
ĠY e
ĠY az
ÙĪØŃ ÛĮØ¯
ĠØ±Ø§Ø¯ÛĮ ÙĪÙĦÙĪÚĺÛĮ
ĠØ³ÙĨØ¯ ÛĮÚ©Ø§
ĠSt art
ĠSt ill
Ø¬ÙĦ Ø¯
ĠÙģØ¶ Ø§ÙĬ
ĠÙħØ±ÛĮ Ø¶
ĠØ¨Ø§Ø²Ú¯ Ø´Ø§ÛĮÛĮ
ĠÛ³Û ²
ĠÛ³Û ³
ĠÛ³Û ¶
ĠØ¨ØªÙĪØ§ÙĨ Ùħ
ĠØ³ÙĪØ± ÙĨØ§
ĠØ®Ø´ Ùĥ
Ø¢Ùģ Ø±ÛĮÙĨ
Û³Û ·
ĠØªØ®Øª Ø®ÙĪØ§Ø¨
ĠÙĨØ§ØŃ ÙĬÙĩ
Ø³Ø§Ø®Øª ÙħØ§ÙĨ
ĠÚ©Ø³ Ù¾Ø±Ø³Ú©ÛĮ
ĠØªØ§Ù¾ ÛĮÚ©
ĠØ¯ÛĮÙĪØ§Ø± ÙĩØ§
ØªÚ© ÙĨÛĮÚ©
ĠØ´ÛĮÚ© Ø±
ĠØŃØ±Ú© ØªÙĩ
ĠÙĩÙĨÚ¯Ø§ÙħÛĮ Ú©Ùĩ
ĠÛ²Û°Û° Û±
ØªØ¹ÙħÛĮØ± Ø§Øª
ĠÙħÙģÙĩÙĪÙħ ÙĬ
Ġin stagram
ĠØªØ±ÛĮ Ú¯Ø±
ĠÙħØ¹ØªÙĤ Ø¯Ùħ
ĠÚ©Ø´Øª Ø§Ø±
ĠÛ²Û°Û± Ûµ
ĠÛ²Û°Û± Û´
ĠÛ²Û°Û± Û³
ĠÛ²Û°Û± Û·
Ġâ Ŀ¤
ÙĦÛĮÚ© Ø§Øª
ĠØ±Ø³Ø§ÙĨ ÙĨØ¯
ĠBl u
if e
ĠØ±Ú© ÙĪØ¯
ĠÙ¾Ø§ÙĬ Ú¯Ø§Ùĩ
ĠØ§Ø³ÙĦ Ø´
ĠÙħÙĨØµ ÙģØ§ÙĨÙĩ
Ù¾Ø°ÛĮØ± ÙĨØ¯
ĠØ´ÙģØ§Ùģ ÛĮØª
ak e
ĠØ¢Ø¨ÛĮ Ø§Ø±ÛĮ
ĠÙĨØ¯Ø§Ø´Øª ÙĨ
ĠÚ©ÛĮÚ© Ø§ÙĪÙĪØ³
ĠÙ¾Ø§ÙĨ ÙĦ
Ø¨ÛĮÙħ Ø§Ø±Ø³ØªØ§ÙĨ
ĠØ³ÙĨØª ÙĪØ±
ĠØ§ÙĦØŃ Ø±ÙħÛĮÙĨ
ĠØ±ÙĪØ¨ Ø±ÙĪÛĮ
ĠAl bum
ÑĢ ÐµÐ
ĠÚ©ÙĪÙĦ ÛĮÙĨÚ¯
Ø³Ø§Ø²ÙħØ§ÙĨ ÙĩØ§ÛĮ
ele ct
iz ed
Ù¾Ø±ÙĪ Ù¾ÛĮÙĦÙĨ
ĠØ±Ú¯ ÙĦØ§Úĺ
Ø¹ÙĦ ÙĬÙĩ
ĠÚĨÙĦ Ø³ÛĮ
ÙĢÙĢÙĢÙĢÙĢÙĢÙĢÙĢ ÙĢÙĢÙĢÙĢ
ĠÙħÛĮÚ©Ø±ÙĪ Ø¨ÛĮ
ÙħØ¬ ÙĦÙĩ
ĠÙ¾Ø±ØªØ§Ø¨ ÙĦ
ĠØ¨Ø² ÙĪØ¯ÛĮ
ĠØ´ÙĦÙĪ Øº
ĠÛĮÙĥ Ùī
ĠØ²Ø± Ø§Ø¹Øª
ĠÙħØ´Ø±ÙĪ Ø·Ùĩ
ĠÙħØ´Ø±ÙĪ Ø¹ÛĮØª
ĠÙħØ´Ø±ÙĪ Ø¨Ø§Øª
ĠÙ¾Ø§Ø±Ø³ÛĮ Ø§ÙĨ
ĠÙģØ§ÛĮ Ø¨Ø±
ĠÙħØ±Øª ÙģØ¹
ĠØªØ¹Ø§ÙħÙĦ Ø§Øª
ĠØ±ÙĪØ²ÙħÙĨ ÙĪÛĮÛĮ
ĠÙĩØ¬ ÙĪÙħ
ĠÚ¯Ø´ Ø³Ø¨
Ø·Ø¨ÛĮ Ø¹ÛĮ
ĠÙħØ®Ø§ÙĦÙģ Ø§ÙĨ
ord er
ĠÛ° Û¹Û
ĠÚ©Ø§Ø¨ ÙĪØ³
ØŃÙĤ ÙĪÙĤ
ĠØªØ´ÙĪÛĮ ÙĤÛĮ
ĠÙĩÙĪØ± ÙħÙĪÙĨÛĮ
ĠØŃÙĥ Ùħ
ĠØ²ÙĪ Ø¬
ĠØ³Ø§ÙĦÛĮ Ø§ÙĨÙĩ
Ø±ÙĬ ØŃ
Ø®Ø§ÙĨ Ùħ
ĠØ¹Ø±Ùģ Ø§ÙĨÛĮ
ĠÙħØ·ÙĦ ÙĤÙĩ
ĠØ§Ø´Ú© Ø§ÙĦÛĮ
ĠCh rome
ĠØ³ÙĪÙĦ Ø§Ø±ÛĮÙĪÙħ
ĠØ¹ÛĮ Ø§Ø±
ĠØªÙĪØ±ÛĮ Ø³ØªÛĮ
ĠÙħÚ¯Ø§Ù¾ÛĮ Ú©Ø³ÙĦÛĮ
ĠØªØ²ÛĮÛĮÙĨ Ø§Øª
ĠØ¨Øº Ø¶
ĠØ¬Ø§Ø¨ Ø¬Ø§
ĠÚĨØ§ÙĤ ÙĪ
ĠØ§ÙĨØ¨ Ø³Ø§Ø·
ĠÙ¾Ø±Ø³Øª Ø§Ø±ÛĮ
ĠÙ¾Ø±Ø³Øª Ø§Ø±Ùĩ
ĠØ¨ÙĤ Ø±Ùĩ
ĠØ¨Ø±Ø³Ø§ÙĨ ÛĮÙħ
ĠÙħØ±Ø¨ Ø¹ÛĮ
ĠÙħØ±Ø¨ ÙĬØ§ÙĨ
ĠÙħØ¹ÙĦÙĪÙħ Ø§Øª
ĠÙħØµØ¯ ÙĪÙħ
ĠØ§Ø³ÙĦØ§ÛĮØ¯ Ø´ÙĪ
ĠØ¨ÛĮÙĨØ¯ Ø§Ø²ÛĮØ¯
ĠÙ¾Ø°ÙĬØ± ÙģØªÙĩ
ĠÛĮØ¯ Ú©ÛĮ
ĠÙĪÙĥ Ø´ØªÙĩ
ĠØ²Ø¨ ÙĢØ§ÙĨ
ĠØ§ÙĨØŃ Ø±Ø§Ùģ
ĠÙģØ±Ø³ ÙĪØ¯Ùĩ
âĿ¤ ï¸ı
ĠÙĨØ§Ú© Ø§ÙħÛĮ
ĠÙ¾ÙĨØ¯ Ø§Ø±
ĠØªØ±Ø§Ø² ÙĪ
ĠØ¯Ø±ØŃØ§ÙĦÛĮ Ú©Ùĩ
ĠÙĤÙĦÛĮ Ø§ÛĮÛĮ
ĠØªØ®ÙĦÙģ Ø§Øª
ĠØ±Ø§ÙĬ Ø¬
ĠÙĦÙĨÚ¯ Ø±
ĠÙĦÙĨÚ¯ Ùĩ
ĠØ³Ø±Øª Ø§Ø³Ø±
ĠAb dol
ÙħØ« Ø§ÙĦ
ĠØ´Ø±ÛĮ Ø¹ØªÛĮ
ĠØ§ÙĦØ£ ÙĪÙĦÙī
ĠÙħØ¹Øµ ÙĪÙħÙĩ
ĠÙħØ¹Øµ ÙĪÙħÛĮÙĨ
ĠØªÙĤÙĦ ÛĮØ¯
ĠØ¢ÙģØ±ÛĮÙĨ Ø´
ĠØ¨Ø§Ùĩ ÙĪØ´
ĠØ¨Ú©Ø´ ÛĮØ¯
ĠÙħÚ©Øª ÙĪØ¨
ĠØ³Ø§ÙĤ Ø·
ĠÙħØ¨Ø§Ø¯ ÙĦÙĩ
Ð°Ð ²
Ġïº ĳ
Ø³Ø® ÙĨØ§ÙĨ
ĠÙħØ¯ÙĬ Ø±Ùĩ
ĠØ§ØŃØª Ø³Ø§Ø¨
ĠÙ¾ÙĪØ³ ÛĮØ¯Ú¯ÛĮ
ĠØªØ´Ú©ÙĦ ÙĩØ§ÛĮ
CO BS
ode l
pr ise
ĠØ¢Ø³Ùħ ÙĪÙĨ
Ù¾ÛĮØ± Ø§ÙĩÙĨ
ĠØ³ÙĪØ¦ÛĮÚĨ ÛĮÙĨÚ¯
rag ran
ĠØ§ÙĨØ¨Ø§Ø´ ØªÙĩ
ĠØ§ÙĦØ±ØŃ ÛĮÙħ
Ø§Ø³ØªØ§ÙĨØ¯ Ø§Ø±
ĠÙ¾Ø±ÙĪØ± Ø´ÛĮ
ĠÙħÙĦÛĮØª ÙĩØ§
ĠØ²ÙĨØ¯Ú¯ ÛĮÙħ
ĠØ²ÙĨØ¯Ú¯ ÛĮØªØ§ÙĨ
ĠØ¨Ø´Ø±ÛĮ Øª
ear ch
sy ch
ĠÙģÛĮØª ÙĨØ³
ĠØ¯ÙĦØª ÙĨÚ¯ÛĮ
ĠÚĺÙĪØ±ÙĨ Ø§ÙĦ
ĠÙħÙĪÙĦÙģ Ø§ÙĨ
ĠJAC OBS
ĠJAC COBS
ĠØªÚ©Ø³ ÚĨØ±
ĠØ¢ÙħÛĮ Ø®ØªÙĩ
ĠØ°Ùĩ Ø§Ø¨
ĠÚ©ÙĪØ¨ÛĮ Ø³Ùħ
ĠØ§ÙħÛĮØ±Ø§ÙĦÙħ Ø¤ÙħÙĨÛĮÙĨ
ĠØ³Ú©ÙĪÙĦ Ø§Ø±
ĠØ¬ØºØ±Ø§Ùģ ÛĮØ§
ĠØ¯Ø§ ÙĪØ¯
ĠÙĤØ¨Ø± Ø³ØªØ§ÙĨ
ĠÙ¾ÛĮØ§ÙħØ¯ ÙĩØ§ÛĮ
ĠÙħÚ©Ø§Øª Ø¨Ùĩ
ĠÙħØ§Ø¯Ø±Ø¨ Ø±Ø¯
ĠÙ¾ØªØ§Ø³ ÛĮÙħ
ĠÙĨØ§Ù¾Ø° ÛĮØ±
St ar
ĠØ·ÙĪÙģ Ø§ÙĨ
ÙħÙĩÙĨØ¯ Ø³
ĠØ§ØªØµ Ø§ÙĦØ§Øª
ĠBab ak
Ø§ÙĨØªÙĤ Ø§ÙĦ
oun t
ĠØ¨Ø§ÙĪØ±ÙĨÚ©Ø±Ø¯ ÙĨÛĮ
ĠÙħÚĺ Ø¯Ùĩ
ĠÙ¾Ø¯ÛĮ Ú©ÙĪØ±
ĠØ¬Ø²ÛĮÛĮ Ø§Øª
ĠÚ¯ÛĮÙĦ Ú©ÛĮ
ĠØªØ´Ùĥ ÙĬÙĦ
ĠØ·Ø¨Ø§Ø· Ø¨Ø§ÛĮÛĮ
ĠÙħØ£Ùħ ÙĪØ±ÛĮØª
Si O
ĠØ¯ÙĬØ¯ Ú¯Ø§Ùĩ
ĠØ±ÛĮÙħ ÙĪØª
ĠØ¯Ø±Øµ ÙĪØ±ØªÛĮ
ĠØ¢Ø±Ø³ ÙĨØ§ÙĦ
ĠØ®ÙĨ Ø«ÛĮ
ĠØ§ÛĮØ³ ÙĪØ³
ĠØ§ÙĦØ¨ÙĦ Ø§ØºÙĩ
ĠØ¯Ø³ØªØ§ÙĪØ± Ø¯ÙĩØ§
ĠØªØŃÙĤ ÛĮØ±
ĠÙ¾Ø±ÙĪØ±Ø¯ Ú¯Ø§Ø±
ĠÙĩÛĮÙĪÙĦ Ø§ÙĩØ§
ĠPo int
156 7693
Ġab out
ĠQu irke
ĠÙħØ¯Ùĩ Ø§Ùħ
ĠÙĩØ§ÙĦÛĮ ÙĪ
ĠÙģØ¶ÛĮ ÙĦØª
ĠØ§Ø³ØªÙĨØ¯ Ø¢Ù¾
ĠÙĤØŃ Ø·ÛĮ
ĠØ²Ùĥ ÛĮÙĩ
ĠØ²Ø§ÙĩØ¯ Ø§ÙĨ
ĠØ§Ø±ØªØ¹ Ø§Ø´
ĠØ¨Ø§Ø²ÙĨØ´Ø³Øª Ú¯Ø§ÙĨ
Ø¢Ø° Ø±Ø¨Ø§ÛĮØ¬Ø§ÙĨ
ĠÙĨØ§ÙħØ· ÙĦÙĪØ¨
ĠØ¨ÙĨØ´ÛĮÙĨ ÙĨØ¯
ĠØ§ÙĩÙħ ÙĬØª
ĠFe ast
ĠFAT F
ĠEng lish
ĠÚ©Ø±Ø¨ÙĪÙĩÛĮØ¯ Ø±Ø§Øª
ĠEnter prise
ÙħØ±Ø§Øª Ø¨
ĠØ¯Ø´Ùħ ÙĨÛĮ
ĠØ¨ÙĩÙ¾Ø±Ø¯Ø§Ø² Ø§ÙĨ
ĠØ®ØµÛĮ ØµÙĩ
ĠÙģØ§Ø¬ Ø¹Ùĩ
ĠØ§Ø³ØªØ§Ø±Ùħ Ú©Ø³
ĠÙħÙĨÙĤØ¨ Ø¶
ĠØ³Ø±ÙħØ± Ø¨ÛĮ
ĠØºÙģÙĦ Øª
ĠÙħÙĤØ§ÙĬ Ø³Ùĩ
ĠØ§ØµØ·ÙĦ Ø§ØŃÛĮ
ĠØªØµØ§ÙĪÛĮ Ø±ÛĮ
ĠÙ¾Ø±ØªÙĤ Ø§ÙĦ
Ġdriv er
ĠØ±ÙħØ²Ú¯Ø´ Ø§ÛĮÛĮ
ĠYaz dani
1567693 55
! )
. /
0 5
0 7
4 9
6 6
7 2
7 20
8 4
8 7
A m
C A
E F
I R
P h
P er
Q a
S p
T O
U S
V iewer
a Qa
b y
c ess
c olor
d er
f ps
i i
k in
m art
p g
p en
p lay
r c
s ite
t ion
t op
u aw
v al
w rap
¹ Û°
Â ¬
Ã ¡
Ã ³
Ã º
Ð ´
Ð ¼
Ñ ĩ
Ù ¦
Ù ¨
Ù į
Ù ¡Ù
â Ĺ
â ĪĨ
ç »
Ġ Ã
Ġ Ø§ØªÛĮ
Ġ ad
Ġ es
Ġ at
Ġ ac
Ġ !!
Ġ ram
Ġ un
ÛĮ ÛĮ
ÙĨ Ø·
ÙĨ ÛĮÙħ
ÙĨ ÙħÛĮ
ÙĨ Ø§Ø´ÙĨ
Ùĩ Ùĩ
Ùĩ Ø§Ø¦ÛĮ
Ø¯ ÙĪÙħ
Ø¯ ÙĪÙĦØª
ÙĪ ÙĪØ±
ÙĪ Ø³ØªØ§ÙĨ
ÙĪ Ø§ÛĮØ§ÙĨ
Øª Ø¯
Øª Ø±Ø¯
Øª Ø±ÙĪ
Øª ÙĪÛĮ
Øª Ú©Ùĩ
Øª Ø¹ÛĮ
Ùħ ÛĮØ¯
Ùħ ÙĪÙħ
Ùħ ÙĪØ±Ø¯
Ùħ ÙħÙĨ
Ùħ ÙĢ
Ùħ Ø§ÙĩÛĮ
Ùħ ÙĤØ§ÛĮ
Ùħ ÙĪÙĤØ¹
Ú© Ø§Ø±Ùĩ
Ú© Ø±ÛĮÙħ
Ú© Ø§ÙĩØ´
Ú© Ø´ÙĪØ±
Ú© Ø¨ÛĮØ±
ÙĦ Ø§ØªÛĮ
ĠØ¨ ÙĤÛĮ
ĠØ¨ Ùī
ĠØ¨ Ø®ÙĪ
ĠØ¨ Ø§ØªÙĪ
ĠØ¨ Ø¬ÙĪØ´
ĠØ¨ ØªØ±Ø³
ĠØ¨ Ù¾ÛĮÙĪÙĨØ¯
ĠØ¨ Ø¨Ø±ÛĮÙħ
ĠØ¨ Ø´Ø¯Øª
ĠÙħ Ú©ÛĮ
ĠÙħ ÙĪÙĨÙĩ
ĠÙħ Ø§Ø¦
ĠÙħ Ú©ÙĦ
ĠÙħ ÙģÙĤ
Ø§ÙĨ Ø³Ø§ÙĨ
Ø§ÛĮ Ø¨ÙĪÙ¾Ø±ÙĪÙģÙĨ
ĠØ¯ Ø§Ø¯ÛĮ
ĠØ¯ Ø§ÙħÛĮ
ĠØ¯ ÙħØ´
Ø³ ÙĪØ¯
Ø³ Ú©ÛĮ
Ø³ Ø§ÛĮÙĦ
Ø³ ÙĪØ§Ø±
Ø³ Ø®ØªÛĮ
ĠÙĪ ÙĨØ¯
ĠÙĪ Ø³Øª
ĠÙĪ Ú¯Ø±
ĠÙĪ Ø«
ĠÙĪ Ø±Ùħ
ĠÙĪ Ø±Ùĩ
ĠÙĪ ÙģØ±
ĠÙĪ ØªÙĪ
ĠÙĪ ÙģÙĤ
ĠÙĪ Ú¯ÙģØª
ĠÙĪ Ø¯ÛĮÚ¯Ø±
ĠÙĪ ÛĮÙĨØª
ĠÙĪ Ø±ÙĪØ§Ø¨Ø·
ĠÙĪ Ø§ØªØ³
Ø´ Ø§Ùħ
Ø´ ÙĨØ¯
Ø´ Ú©ÛĮ
ĠÚ© ÙĬ
ĠÚ© Ø§Ùĩ
ĠÚ© ÙĪÙħ
ĠÚ© ÙĦÙĪ
ĠÚ© ÙĢ
ĠÚ© ÛĮØ§
ĠÚ© ÙĪØ²Ùĩ
ĠÚ© ÙĪÙĦÙĩ
ĠÚ© Ø§ÛĮØ§
ĠÚ© Ø§ÙĩÙĪ
Ú¯ ÙĪØ±
Ú¯ ÙĦÛĮ
Ø¨ Ø³Øª
Ø¨ ÙĦÙĪ
Ø¨ ÙĢ
Ø¨ Ø²Ø±
Ø¨ Ø§ØªÛĮ
Ø¨ Ø§Ø·ÛĮ
ĠØª ÙģØª
ĠØª Ø¸
ĠØª Ø§ÙĨØ¯
ĠØª ÙĨØ¬
ĠØª Ø§Ø±Øª
ĠØª Ø¶ÛĮ
ĠØª ÙĨØ¯Ø±
ĠØª ÙĦØ§ÙĤÛĮ
ĠØª ÙĢÙĢÙĢÙĢÙĢÙĢÙĢÙĢ
Ùģ Ø´Ø§Ø±
Ùģ ÙĨØ§ÙĪØ±ÛĮ
Ø² Ø±ÛĮ
Ø² ÙĪÙĨ
Ø² Ø§Ø¯ÛĮ
Ø² ÙĩØ±Ø§
ĠØ± ÙĪÙĦØª
ĠÙĨ Ø°
ĠÙĨ Úĺ
ĠÙĨ Ø¯ÛĮØ¯
ĠÙĨ ÙĤÛĮ
ĠÙĨ Ø§Ø¬
ĠÙĨ ÙĪØ³
ĠÙĨ Ø¯Ø§ÙĨ
ĠÙĨ Ø§Ø¨Ùĩ
ĠÙĨ Ø¨Ø§Øª
ĠÙĨ Ø¯ÙĩÙĨØ¯
ĠÙĨ Ø±ÙģØªÙĩ
ĠÙĨ Ú©ÙĨÙĩ
ĠÙĨ Ø¹Ùħ
ĠÙĨ ØªØ±Ø³
ĠÙĩ Ùģ
ĠÙĩ ÙĪØ¯
ĠÙĩ Ø®
ĠÙĩ Ø§Ø±Ø¯
ĠÙĩ ÛĮØ¯ÙĨ
ĠÙĩ Ø²ÙĦ
Ø§Ùħ ÙĪ
Ø§Ùħ Ú©
ĠØ¯Ø± ÙĩØ§
ĠØ¯Ø± Ø³Ø§ÙĦ
ĠØ¯Ø± ØµÙĪØ±Øª
ĠØ³ Ùĥ
ĠØ³ ÙĬÙħ
ĠØ³ Ø§Ú©Øª
ĠØ´ Ø§Øª
ĠØ´ Ø¨ÛĮØ±ÛĮ
ĠØ¢ ÙģÛĮ
ĠØ¢ Ø³ØªÛĮÙĨ
ÙĤ Ø§ÙĨÛĮ
ÙĤ ÙħÛĮÙĨ
ÙĤ Ø±Ø§
ÙĤ Ø§Ø¦Ùħ
Ø¹ Ø§ÙĨ
Ø¹ ÙĬ
Ø¹ Øµ
Ø¹ ÙĦØ§
Ø¹ Ø§Ø¯ÙĦ
Ø¹ ØªÙħØ¯Ø§Ø±ÛĮ
ĠØ¨Ùĩ Ø§ÛĮ
ĠØ¨Ùĩ Ø²Ø§Ø¯
ÙĪØ¯ Ú¯ÛĮ
Ø§Ø¯ Ø¹
Ø±ÛĮ ÙĪ
ĠÙ¾ Ø²
ĠÙ¾ ÛĮÙĨ
ĠÙ¾ ÙĪÙĨØ¯
ĠÙ¾ Ø§ÙĩØ§
ĠØ® Ø¨
ĠØ® Ø´Ùĩ
ĠØ® Ø¯Ø§Ø¯
ĠØ® Ø±ÙĪØ³
ĠØ® ÙģÛĮÙģ
ĠØ® Ø³Ø±ÙĪ
ĠØ® Ø§Ø¬ÛĮ
Ø¬ ÙħØ§ÙĦ
ĠØ§Ø² Ø§ÛĮÙĨ
ĠÙħÛĮ Ùĩ
ĠÙħÛĮ ÙĨØ¯
ĠÙħÛĮ Ø¯Ùĩ
ĠÙħÛĮ Ø´ÙĨ
ĠÙħÛĮ Ø±Ùĩ
ĠÙħÛĮ Ú©Ø±Ø¯
ĠÙħÛĮ ÙĨÙħ
ĠÙħÛĮ Ú¯Ø°
ĠÙħÛĮ Ø²ÙĨØ¯
ĠÙħÛĮ Ú¯Ùħ
ĠØ§Ø³ ÛĮ
ĠØ§Ø³ ÙĦØ§ÛĮ
ĠØ§ÛĮ Ø±ÙĪ
ĠØ§ÛĮ ØªØ§
ĠØ§ÛĮ Ø²Ø¯ÛĮ
ÙĪØ± Ø§Øª
ÙĪØ± ÙĦÙĪ
ÙĪØ± Ù¾ÙĪÙĦ
ÙĬ ÙĨÚ¯
ÙĬ Ø¨Ø§ÙĦ
ÙĬ ØªØ§ÙĨ
ÙĬ Ø©
ÙĬ Ø§Ø¨Ø¯
ÙĬ ÙĪØªØ§
Ø³Øª Ø§Ø¯
Ø® Ø§Ú©
ĠÙģ Ø§Øª
ĠÙģ ÙĪØ±Øª
ĠÙģ ÙĦÙĪ
ĠÙģ Ø§Ø¨Ø±ÛĮ
ĠÙģ Ø§Ø³Ø¯
ĠÙģ ÙĨØ¬Ø§ÙĨ
ĠØ¨Ø± Ø§Ø²
ĠØ¨Ø± ÙĪÙħ
ĠØ¨Ø± Ú©Øª
ĠØ¨Ø± Ø®ÙĪØ§ÙĩØ¯
ĠØ¨Ø± Ù¾Ø§
ĠØ¨Ø± Ø¹ÙĦÛĮÙĩ
ĠØ¨Ø± Ø§Ø¦Øª
Ø§Ùĩ Ø§ÙĨÛĮ
ĠØ¹ Ø¯ÙĨ
ĠØ¹ Ø¬Ø¨
Ø§Øª Ø²
Ø§Øª ÙĪØ±ÛĮ
Ø§Øª ÙĬØ³Øª
ØŃ Ø§Ø¨
ØŃ ÙĤÛĮÙĤØª
ØŃ Ø§Ø¬ÛĮ
ÚĨ Ø±ÛĮ
ÚĨ ÙĬ
ÚĨ Ø§Ù¾
ÚĨ ÙĨØ§ÙĨÛĮ
ÚĨ ÙĪØ±ÙĦÙĪ
ĠØ§Ø³Øª Ø¨
ĠØ§Ø³Øª Ø§ÙħÛĮÙĨ
ĠØ§Ø³Øª ÙĨØ¨
ĠÚ¯ Ø§Ø±
ĠÚ¯ Ø§ÛĮØ¯
ĠÚ¯ Ø§ÙħÛĮ
ĠÚ¯ ÙĪØ¯Ø±
ĠÚ¯ ÙĦÛĮÙħ
ĠØ¬ ÙĨÛĮ
ĠØ¬ Ø§Ø¨Ø±
Ø§Ø² ÙĬ
Ø§Ø² Ø§Ø¯Ùĩ
Ø§Ø² ØŃØ¯
ĠÚ©Ùĩ Ú¯ÛĮÙĦ
Ø§Ø¨ Ø±Ø§Ùĩ
Ø§Ø¨ Ø¯ÛĮÙĨ
ĠØ¨Ø§ Ú©Ø±Ø¯
ĠØ¨Ø§ Ú©ÙĪ
ĠÛĮ Ø³
ĠÛĮ Øº
ĠÛĮ ÙĤÙĩ
ĠÛĮ ÙĪÙĨÛĮ
ĠÛĮ ÙĤÛĮÙĨ
ĠØ§ÛĮÙĨ ØµÙĪØ±Øª
Ø· ÙĨØ²
Ø±ÙĪ ÙĩØ§ÛĮ
Ø±ÙĪ ÛĮÙħ
Ø±ÙĪ Ø´ÙĨ
Ø±ÙĪ ÙħÙĩ
ĠØŃ Ø±ÙģÛĮ
Ø§Ø´ Ø¯
ĠØ±Ø§ ÙĤÙħÛĮÙĨ
ĠØ§ Ú©Ø±
ĠØ§ Ù¾ÛĮ
ĠØ§ ÙĬÙħ
ĠÙĤ ÙĨØ§Øª
ĠÙĤ Ø§ÙĦØ¨ÛĮ
ĠÙĤ ÙĪØ§ÛĮ
Ù¾ Ø§Ø³
Ù¾ ÙĦÛĮ
Ù¾ ÙĨÙĦ
ĠÚĨ Ø§Ø±
ĠÚĨ Ø§Ùħ
ĠÚĨ Ø³Ø¨Ø§ÙĨ
ĠØ§ÙĨ ÙĪØ±ÛĮ
ĠØ§ÙĨ ÙģØ±
ĠØ§ÙĨ ÙģÙĪ
ÙģØª Ø§Ø¨
ĠØ¯Ø§ÙĨ ÛĮÙħ
ĠØ¯Ø§ÙĨ Ø§ÛĮÛĮ
ĠÙĩÙħ ÙĪØ§Ø±
ĠÙĩÙħ Ø³ÙĪ
Ø¶ ÙĪÛĮ
Ø¶ Ø§ØŃ
ÙĪØ§ÙĨ ÛĮÙĨ
ĠØ¢ÙĨ ÚĨÙĨØ§ÙĨÛĮ
Ø§Ø±ÛĮ Ùģ
ÙĪØ² ÙĬØ±
ÙĨÚ¯ Ø§Ø±Ø§ÙĨ
Ø³ÛĮ ÙĤÛĮ
Ø´ÙĨ Ø§
ĠØ¨Ø±Ø§ÛĮ Ùħ
ĠÙĦ Ø§Ùħ
ĠÙĦ ÙĬ
ĠÙĦ Ø§Øª
ĠÙĦ ÛĮÚ©
ĠÙĦ Ø¬ÙĨ
ĠÙĦ Ø¨ÛĮÚ©
ĠØ§Ùħ Ø§Ø¯Ùĩ
ĠØ§Ùħ Ø«
ĠØ§Ùħ ÙĬØ¯
ĠØ§Ùħ ÛĮØ¯ÛĮ
ĠÚ©ÙĨ ÙĬÙħ
ĠÚ©ÙĨ Ø³Ø±ÙĪ
ÙħÛĮ Ø±ÛĮ
ÙħÛĮ ÙĪÙĩ
ÙħÛĮ Ø´ÙĪØ¯
ÙħÛĮ Ø²Ø§ÙĨ
Ø° ÙĪÙĦ
Ø° ÙĪØ§ÙĦ
ĠØ· ÙĪØ³ÛĮ
ĠÙħÙĪ Ø¹
ĠÙħÙĪ Ø¹ÙĪØ¯
Ø¯ÛĮ Ú¯Ùĩ
ĠÚ©Ø§Ø± Ùħ
ĠÚ©Ø§Ø± Ø§ÙĨÙĩ
ĠÚ©Ø§Ø± ØªØ±ÛĮ
ĠÚ©Ø§Ø± ØªÙĨ
Ġ( +
Úĺ ÙĨÛĮÚ©
Úĺ ÙĪØ±ÙĨ
ĠÙħÙĨ Ùĩ
ĠÙħÙĨ Ø¹Ú©Ø³
ĠÙħÙĨ ÛĮØ²
ĠÛĮÚ© ØµØ¯
ĠÙĩØ§ ÙĪ
ĠØ®ÙĪØ¯ ÙħÙĪÙĨ
ĠØ®ÙĪØ¯ Ú©Ùģ
ĠØ®ÙĪØ¯ Ø²ÙĨÛĮ
Ú¯ÛĮ Ø²
ĠØ¢Ùħ ÙģÛĮ
ĠØ¢Ùħ ÙĨÛĮÙĪØ³ÙĨØªØ²
ĠØ§Ø± Ø¶Ø§
ĠÙĪÛĮ Ø³
ĠÙĪÛĮ Ø²
ĠÙĪÛĮ Ø²Ø§
ĠØ¨Ø§Ø² Ùī
ĠØ¨Ø§Ø² ØªØ§Ø¨
ĠØ¨Ø§Ø² Ú¯ÙĪ
ĠØ¨Ø§Ø² ÙĩÙħ
ĠØ¨Ø§Ø² Ø¯ÙĩÛĮ
ĠØªÙĪ Ø¶
ĠØªÙĪ Ø´Ùĩ
ĠØªÙĪ Ø£
ĠØªÙĪ Ù¾Ø±
ĠØªÙĪ ÙĬÙĪØªØ§
ĠØ§ÙĦ Ø§Ø³
ĠØ§ÙĦ Ø´ÙĨ
ĠØ§ÙĦ Ú©Ø³
ĠØ§ÙĦ Ø¢ÙĨ
ĠØ¨ÛĮ Ø§ÛĮ
ĠØ¨ÛĮ Ú¯
ĠØ¨ÛĮ Ú©ÙĦØ§Ùħ
Ø§ÙĨÛĮ Ø§ÙĩÙĪ
ÙĪÙħ ÙĪ
ÙĪÙħ Ú¯
ÙĪÙħ ÙĨØ¯
Øº Ø§Øª
Øº ÙĨÛĮ
Øº Ø§ÙĦÛĮ
Øº ÙĦÙĪ
Ø§Ø® Ø§ÙĨÙĩ
ĠÙģØ± ÙĪØ±
ĠÙģØ± Ø§Ø³
ĠÙģØ± Ø§Ú©
ĠÙģØ± Ø´ÛĮ
ĠÙģØ± Ø§ÛĮÙĨØ¯ÛĮ
ĠÙģØ± Ø§ÙĩØ§ÙĨÛĮ
ĠØ¯Ø§ÙĨÙĦÙĪØ¯ ÛĮ
ĠÙħØ¹ Ø·Ø±
ĠÙħØ¹ Ø·ÙĪÙģ
ĠØ´Ùħ Ø³ÛĮ
ĠÙĨÙħ Ø¯ÛĮ
ĠÙĨÙħ Ø§Ø¯ÛĮ
ĠÙĨÙħ Ø§ÙĬØ´Ú¯Ø§Ùĩ
ĠÙ¾ÛĮ Ø¬
ĠÙħØ¯ Ø§Ø¯
ĠÙħØ´ ÛĮ
ĠÙħØ´ ÛĮØ±ÛĮ
ĠÙħØ´ Ú©ÙĪÚ©
Ú©ÙĨ Ø´ÛĮ
ĠØªØ§ ÙģÙĦ
ĠÙħØª ÙĦØ¨
ĠÙħØª ÙĨØ§ÙĪØ¨
Ø¨Ø± Ø§ØªÙĪØ±
ĠØªØ± ÙĤÛĮ
ĠØªØ± ÙħØ²
ÙĩØ± ÚĨÙĨØ¯
Ø¢ Ø®Ø±
Ø¢ ÙģØªØ§Ø¨
ĠØ³Ø± Ø³ÛĮ
ĠØ³Ø± Ø®ÛĮ
ĠØ³Ø± ÙģÙĩ
ĠØ³Ø± Ø§Ø´ÛĮ
ĠØ³Ø± Ø¹ØªÛĮ
ĠØ±ÙĪ Ø³
ĠØ±ÙĪ Ø§ÙĬØª
ĠØ±ÙĪ ØºÙĨÛĮ
ĠØ®ÙĪ Ø§Ùħ
ĠØ¯ÛĮ Ø§Ø¨ØªÛĮ
Ø¨Ùĩ ØªØ±
Ø§ÛĮØ¯ Ø§Ø±ÛĮ
Ú©Øª Ø¨
ĠØº Ø±ÙĪ
ĠØº ØµØ¨
ĠØº ÙĦÛĮØ¸
Ø¯Ø± ØµØ¯ÛĮ
ĠØ³Ø§ÙĦ ÙħÛĮ
ÙĦØ§Ùħ ÙĢØª
Ø§Ø³Øª Ø§Ø±
ĠÚ©Ø´ ÙĨØ¯Ùĩ
ĠÚ©Ø´ Ø§ÙĨØ¯
ĠÙĤØ± Ø§Ø¦Øª
Ú©Ø³ Ø§ÙĨÛĮ
ĠØ¯ÙĪ Ø³
ĠØ¯ÙĪ ÙħÛĮ
ĠÙħÙĤ Ø¯ÙĪØ±
ĠÙħØ³ ÙĦ
ĠÙħØ³ Ú©ÙĪ
Ø§ÙĤ Ø¨
ĠØ³Ø§Ø² Ùħ
ĠØ³Ø§Ø² ÙĨØ¯Ú¯ÛĮ
Ø§Ú© Ø«Ø±ÛĮ
Ø§Ú© Ø§ÙĦØ±
Ġ1 20
ĠØªØŃ ÙĪ
ĠØªØŃ Ø±ÛĮØ±
ĠÙĥ Ø³Ø¨
ĠÙĥ Ø¯Ø§Ùħ
ĠÙĥ ÙĦÙĬ
ĠÙĥ Ø§Ø±ÙĬ
ĠÙĥ Ø§ÙħÙ¾
ĠÙĥ Ø§ÙģÙĬ
ØªÙħ ÙĦ
Ø§Ø³ÛĮ Ø³Ø§Øª
ĠØ¹Ùħ Ø§Ø¯
ĠÚ¯Ø± Ø§Ùģ
ĠÚ¯Ø± Ø§ÛĮØ§ÙĨÙĩ
ĠÙħÙĩ Ø§Ø¬Ø±
ĠØ²ÛĮ Ø±Ø¯
ĠØ²ÛĮ Ø§Ø¯Ùĩ
ĠØ¨Ø§Ø²ÛĮ Ø³Ø§Ø²ÛĮ
Ùĥ ÛĮ
Ùĥ ÙĦ
Û° Ûµ
ĠØ³ÛĮ Ø§Ø±
ĠÚ¯ÙĦ Ø®Ø§ÙĨÙĩ
Ø§Øµ ÛĮ
Ø§Øµ ÙĦØ§ØŃ
ÙħÙĨ Ø§Ùħ
ĠØ¨Ø¯ ØªØ±ÛĮÙĨ
Ø§ÙĬ Ø³ÙĨØ§
ĠØ¬Ùħ Ø¬ÙħÙĩ
Ø®Øª Ú¯ÛĮ
ĠØ³ÙĪ Ú¯ÛĮØ±ÛĮ
ĠØ³ÙĪ Ø³ÙĨ
ĠØ³ÙĪ Ú¯ÙĪØ§Ø±ÛĮ
Ø±Ø³ ÙĪÙĨ
Ø±Ø³ ÙĪÙĦ
Ø±Ø³ Ø§ÙĨÙĬ
Ø±Ùħ Ùĩ
ĠØªÙĪØ§ÙĨ ÙĬØ¯
ĠÚ©ÙĨØ¯ ÙĦ
ĠØªØ¹ Ø±ÛĮÙĤ
ĠØªØ¹ Ø±ÛĮÙģÛĮ
ĠØ±Ø³ ÙĪØ§ÛĮÛĮ
Â» (
Â» /
ÙĦÙĪ Ø¨ÛĮ
Ø§ÙĨØ¯ Ø§ÛĮ
ĠØ§Ø¬ Ùħ
ĠØ§Ø¬ Ø¯Ø§Ø¯
ĠÙħØ±Ø¯ Ùī
ĠÙħØ±Ø¯ Ú¯Ø§ÙĨ
Ø§Ø¨ÛĮ Ø³
ÙĢ Ø§Øª
ÙĪØª ÙĪØ±
ØªØ§Ø¨ Ø§Ø±
ØªØ§Ø¨ ÙĨØ§Ú©
ĠÙĨØ§Ùħ ØªØ¹
ĠØ§Ø¯ Ø§Ø±ÙĬ
ĠØ§Ø¯ ÙĪÛĮÙĩ
ĠØ³Ø§ÛĮØª ÙĩØ§
ĠØ§ÙĪ ÙĤ
ĠØ§ÙĪ ØªÛĮ
Ġ: ))
ĠÙĤØ±Ø§Ø± Ú¯Ø§Ùĩ
ĠØªØµ Ø¯ÛĮ
ĠØ§ÙĨØ¯ ÙĪÙĨ
ĠØ§ÙĨØ¯ ÙĪÙĩ
ĠÚ©Ø´ÙĪØ± ÙĬ
ÙĤÙĩ ÙĪÙĩ
ÛĮÙģ ÛĮ
ĠÙĨØ´ Ùĩ
ĠÙĨØ´ ÙĪÙĨ
ĠÙħØ§Ùĩ Ø§ÙĨ
ĠØ§Ø® ÙĬØ±
ÙĪØ³ Ø§Ø®Øª
ĠØ§Ø· Ø§Ø¹Øª
ĠØ§Ø´ Ù¾Ø²ÛĮ
Ø´Ùĩ ÛĮØ¯
ĠÚ¯ÙģØª Ø§Ø±ÛĮ
ĠØ§ÙĤ ÙĦÛĮØª
Ø±Ø¨ Ø§Øª
Ø±Ø¨ Ø·
ĠÚ©ØªØ§Ø¨ ÙĩØ§
ĠÙ¾ÛĮØ´ ÙĪÙĨØ¯
ĠÙ¾ÛĮØ´ ØªØ§Ø²
ÙħØª Ø§Ø³ÙģØ§ÙĨÙĩ
ĠØ¨Ø§ÙĦ Ø¹Ú©Ø³
Ġ9 8
Ø§Ø±Øª Ø§
ĠÙ¾Ø³ Ø±ÙĪÙĨÙĩ
ĠØ±Ø§Ùĩ Ù¾ÛĮÙħ
Ø¯Ø§ ÙĪÛĮÙĨ
ØŁ ,
Ú©Ø§Ø± Ùħ
Ú©Ø§Ø± Ø¨Ø±
Ú©Ø§Ø± Ø´ÙĨØ§Ø³
ĠÙĨÙħÛĮ Ø´ÙĪØ¯
ĠÚ¯ÛĮ ÙĪ
ĠÚ¯Ø° Ø§Ø±ÙĬ
ĠØ´ÛĮ Ø§Ø±
ĠØ´ÛĮ Ø¨
ĠØ´ÛĮ Ø¨Ø§ÙĨÛĮ
ĠØ²ÙħØ§ÙĨ Ùĩ
ĠØ¯Ø§Ø¯ Ø±Ø³ÛĮ
ĠØ§ÙĨØ¬Ø§Ùħ Ø¯
Ø§ØªÛĮ Ú©ÛĮ
ĠØ¨ÛĮÙĨ Ø§ÙĨÙĩ
ĠØ¨ÛĮÙĨ ÙĪØ§ÛĮØ§ÙĨ
ĠØ±ÛĮ Ø§ÙĦÛĮ
ĠÙ¾Ø± Ø§ÛĮØ¯
ĠÙ¾Ø± Ø§Ø¯Ø§
Ø¯Ø§Ø± ÙĨØ¯
ÙĪØ³Øª Ø§ÙĦ
ÙĪØ³Øª Ø±ÙĪÙĨ
Ø¨Ø§ ÙģØª
Ø¨Ø§ ÙĪØ±ÛĮ
ĠØ« ÙħØ±
ĠØ§Øª ÙĪ
Ø§Ø¶ ÙĬØ§ÙĨ
ĠÙĪØ± ÙĤÙĩ
ĠÙĪØ± Ø´Ú©
ĠØ§ÙĪÙĦ Ùħ
ĠØ§ÙĪÙĦ ÙĪÙĬØª
an g
ĠÚ©ÙĪØ¯ ØªØ§
ĠÚ©ÙĪØ¯ ØªØ§ÛĮ
ĠÚ©ÙĪØ¯ Ú©ØªØ§ÙĨ
ĠØªØ¬ Ø±Ø¨
ĠØªØ¬ ÙĦÛĮÙĦ
ĠØªØ¬ Ø§Ø±ØªÛĮ
ĠÙĩÛĮ ÙĪÙħÙĨ
ĠÙĨØ³ ÙĪØ²
ĠÙħØµ Ø§Ùģ
Ø´Ùħ ÙĨØ¯
ĠØ¨ÙĦ Ø¯
ĠØ¨ÙĦ ÙĥÙĩ
ĠØ¨ÙĦ Ø¯Ø±ÚĨÛĮÙĨ
Ùĭ "
ĠØ¨Ø®Ø´ Ø´
ĠØ¨Ø®Ø´ ÛĮØ¯Ùĩ
ĠÙĨÙĪ ÛĮØ¯
ĠÙĨÙĪ Ø§Ø¨
ĠÙĨÙĪ Ø§Ø®ØªÙĨ
ĠØ¹Ø§Ø´ÙĤ Ùħ
ĠØ¹Ø§Ø´ÙĤ Ø§ÙĨ
ĠØªØ´ Ø±ÛĮÙģØ§Øª
ĠØ° Ø§Øª
ĠØ° ÛĮØ±
Ø´Ø¯ Ú¯ÛĮ
Ø¨Ø§ÙĦ ÙĨ
ĠÙħØ®Øª Ø§Ø±
ÙĬØ¯ Ú¯ÙĬ
ĠÚ©ÛĮÙģ Ø±ÛĮ
ØªÙĪ ÙħØ§ÙĨ
ĠÙģØ±ÙĩÙĨÚ¯ ÙĬØ§ÙĨ
ĠØªÙĤ Ø¯
ĠS e
ĠS on
Ú¯Ùĩ ÛĮ
in k
in ess
ÛĮØ³ Ø±
ĠÙ¾Ø§Ø³ Ú©Ø§ÙĦ
ĠÙĨØ¯ ÙĪÙĦ
ĠØ³Ø¨ ÙĪØ³
ÙĦØ§Øª Ø§ÙĨ
ĠA nd
ĠA ss
ĠØŃÙĤ ÙĬÙĤÙĬ
ĠØŃÙĤ Ø§ÙĨÛĮØª
ĠØ¯ÙĦ Ø§ÛĮÙĦÛĮ
ĠØ¯ÙĦ Ú¯Ø±Ùħ
ĠØ¯ÙĦ Ø³ÙĪØ²
ĠÚ©ÙĪ Ú©Ùĩ
ĠØ¢Ø²Ùħ Ø§ÙĬØ´
ĠÙ¾Ø±Ø¯ Ø§Ø²ÛĮ
ĠØ®Ø· Ø±ÛĮ
ĠÙħØ® Ø¯
ĠÙħØ® Ø¯Ø±
ĠØ³Ùĩ ÙĨØ¯
ĠØªØ¨ Ø¹ÛĮ
ĠØºÛĮØ± Ø¹
ØµØ¯ Ø§ÛĮ
ØµØ¯ ÙĪØ±
ĠP L
ĠP in
ĠP ain
ĠØ¯Ø³ØªÚ¯Ø§Ùĩ ÛĮ
ĠØªÚ© ÙĪÙĨ
ĠØªÚ© ÙĪØ§ÙĨ
ĠØªÚ© Ø§ÛĮØ§
ĠØ¯ÛĮØ¯ ÙĪÚ¯Ø±Ø§Ùħ
ÙĢÙĢ ÛĮ
ĠØ¬ÙĨ Ø§ØŃÛĮ
ĠØ¬ÙĨ Ø§ÛĮØ§Øª
ĠÚĨÛĮ ÛĮÙĪ
Ùĳ Ùı
ĠØ¸ Ø±Ø§ÙģØª
Ø¨ÙĪ Ú©
Ø£ ÙĨÙĩ
ĠØ§Ùĩ Ø±
ĠÙģØ±Ø¯ Ø§ÛĮ
ĠÙģØ±Ø¯ ÙĬ
ĠÙħÙĩÙħ ØªØ±
ĠÙħÙĩÙħ ØªØ±ÙĬÙĨ
ĠØ¨Ø¯ÙĪÙĨ Ùħ
ĠØ±ÙģØª ÛĮÙħ
ĠÙĨÙĪØ± Ø¯ÙĩÛĮ
ĠD P
ĠD i
ĠØ¢ÙħØ±ÛĮÚ© Ø§ÛĮ
ĠC al
ĠC ry
ĠC NG
Ø¯ÙĪ Ø³ØªØ§ÙĨ
Ø¯ÙĪ Ø´ÙĨØ¨Ùĩ
ĠØ¢ÛĮ Ú©ÙĨ
Û± Û³
Û± Û¹
ĠÙ¾ÛĮØ§Ùħ Ø±Ø³Ø§ÙĨ
ĠÚ¯Ø±ÙģØª Ú¯Ùī
al oo
or ld
Ú¯ÛĮØ± Ø´Ø¯ÙĨ
ĠÛĮØ§Ø¯ Ø¢ÙĪØ±ÛĮ
ĠØ¬ÙĩØ§ÙĨ Ú¯Ø±Ø¯ÛĮ
ad off
ĠØ¯Ø±Ø³ ÙĬ
ĠÙħÙħÚ©ÙĨ Ùĩ
ĠÚĨØ´Ùħ Ú©
ĠÚĨØ´Ùħ Ú¯ÛĮØ±
ĠÙĦÛĮ ÚĨÛĮÙĨÚ¯
ĠÙģÙĦ Ø§ØŃÛĮ
ĠÙħÛĮÙĦÛĮ Ø§Ø±
ĠÙħÛĮÙĦÛĮ Ø§Ø±Ø¯ÛĮ
ĠÙħÙĦ Ø²Ùħ
ĠÙĩÙħØ§ÙĨ Ú¯ÙĪÙĨÙĩ
ĠB agh
ĠÚĺ Ø±
ĠÙ¾Ø±Ø³ Ø¯
ĠÙ¾Ø±Ø³ Ø´ÛĮ
ĠÙ¾Ø±Ø³ ÛĮØ¯Ùħ
ĠÚ©ÛĮ Ø§ÙĨ
ĠÚ©ÛĮ Ø§ÙĨÛĮ
ĠÙĨØ´Ø§ÙĨ Ú¯Ø±
Ø¨ÙĪØ¯ ÙĨ
ĠÙģÙĤ ÛĮØ±
ĠÙģÙĤ Ø±Ø§Øª
at er
at aloo
Ġ4 1
ĠÚĨÙĩØ§Ø± Ø±Ø§Ùĩ
ĠÚĨÙĩØ§Ø± Ø¯ÙĩÙħ
ĠT ur
ĠT hat
ĠT ataloo
ĠØªÛĮ Ø²
ĠØªÛĮ ÙĦÙĩ
ÙģÙĤ Ø§Ø±ÛĮ
ĠÙħÚ© Ø§
ĠØ´Ø§Ø¯ Ø§Ø¨
ĠØ¯Ø®ØªØ± Ùħ
ĠÙĪØ§ Ú©ÙĨØ´ÛĮ
ĠØ³Ùģ ÛĮØ±
ĠØ¨ÙĪ ÙĪ
ĠØ¬Ø² Ø§
20 14
Û² Û±
Û² Ûµ
Û² Û¸
ĠØ¯Ú© ÙĦÙħÙĩ
ĠÙĨØµ Ø±
ĠÙħØ´Ø§ÙĪØ± ÙĬÙĨ
ĠI D
ĠØ§ÙģØª Ø±Ø§ÙĤ
ĠØ´ÙĪ Ú©
ĠØ´ÙĪ ÙĨØ¯Ùĩ
ĠØ´ÙĪ Ø§ÙĩØ¯
ĠØ´ÙĪ Ø§ÙĩØ¯ÛĮ
ĠÙĦØ¨Ø§Ø³ Ø´ÙĪÛĮÛĮ
ĠÙĪØ² ÙĨÙĩ
ĠÙħØ¨ ÙĨØ§
ĠÙħØ¨ Ø¯ÙĦ
ĠÙħØ¨ Ø°ÙĪÙĦ
ĠØ¹ÙħÙĦÚ©Ø±Ø¯ ÙĩØ§ÛĮ
ĠØŃØ± Ø§Ø³Øª
ĠØŃØ± Ø§Ø¬
ĠØŃØ± ÙĥØª
ĠÙĩÙĨÚ¯ ÙģØª
ĠØ¹Ø¨ ÙĪØ±ÛĮ
ĠØ§Ø¬Ø± Ø§Ø³Øª
ĠÙĨØ® Ø§Ø¹ÛĮ
Ø³Ø± Ø§ÛĮ
ĠØŃØ¬ Ø¬ÛĮ
ÙĩÙħ Ø§Ùĩ
ÙĩÙħ ÚĨ
ØµØ± Ø§Ùģ
ĠÚ©Ø± Ø§Ø³
ĠÚ©Ø± Ø§ÛĮÙĩ
ĠØ¨Ø® Ø±ÛĮØ¯
ĠØ¨Ø® Ø´ÙĨØ§ÙħÙĩ
ĠØ¨Ø® Ø¯Ø§
ĠØªØ£ ÙħÙĦ
ĠØªØ£ ÙĦÛĮÙģ
ĠØ¨Ø¯ÙĨ Ø¨Ø§ÙĦ
ĠÙģØ±ÙĪØ´Ú¯Ø§Ùĩ ÙĩØ§ÛĮ
ĠØ³Ø§Ø®ØªÙħØ§ÙĨ ÙħØ´Ø§ØºÙĦ
Ø³ÙĦØ§Ùħ Øª
ĠØªØ§Ø¨ ÛĮØ¯Ùĩ
ĠÙħØ¯Ø±Ø³ Ø§ÙĨ
ac h
ac he
ic k
ic es
ĠF u
ĠF ort
ĠF lu
ĠÙĤØ¯Ø± ØªÛĮ
Ø¢Ùħ Ø§Ø±
Ø¢Ùħ Ø¯ÛĮ
-- >>
ĠØ¯ÙĪØ³Øª Ø¯Ø§Ø±
ĠØ´Ú©ÙĦ Ú©
ĠÙ¾ÙĪØ´ Ø´ÛĮ
ĠÙħØ³ØªÙĤ ÛĮÙħÛĮ
Ġm usic
Ġm ark
ĠØ³ÛĮÙĨ Ùħ
ĠØ³ÛĮÙĨ ÙĪØ³
ÙħÙĨØ¯ Ú¯Ø§ÙĨ
ÙħÛĮÙĦ Ø§Ø¯
ĠØ¢Ø²ÙħÙĪÙĨ ÙĩØ§ÛĮ
Ġ7 7
ro s
ĠØ¯ÙĨ ÙĬØ§
ĠÙ¾Ø°ÛĮØ± Ø§ÛĮ
Ù¾Ø± ÙĪØ±
ĠØ¹Ø´ÙĤ ØªØ§ÙĨ
ĠR em
ĠØ¨ØŃ Ø±
ĠH d
ĠH al
ĠH am
ĠH ow
Ġs c
Ġs he
Ġs up
Ġs ory
Ġs olid
ĠÙħØ¯Øª ÙĩØ§
ĠØªÙĪØ± Ø§ÙĨÛĮØ§ÙĨ
ĠÙħØŃÙħØ¯ ØŃØ³ÛĮÙĨ
lo ck
ĠØ®ÙĪØ´ Ø¨ÙĪ
ĠØ®ÙĪØ´ Ø§ÛĮÙĨØ¯
ĠØ®ÙĪØ´ ØŃØ§ÙĦÛĮ
Ġt hat
ĠÙ¾ÙĬ ÚĨ
ĠÙ¾ÙĬ Ø§Ø¯Ùĩ
ĠØ§Ø±Ø²Ø´ ÙħÙĨØ¯ÛĮ
09 120452406
ÙĦÙĬ Ø²ÙĬ
ĠØ¨Ø±ÛĮ Ø¯Ùĩ
ĠØ´Ø§Ùĩ Ø±ÙĪØ¯
ĠØ¢Øº ÙĪØ´
ĠÙħØªØ¹ Ø§Ø±Ùģ
ĠÙ¾Ø§Ø´ Ø´
ĠÙ¾Ø§ Ú©Øª
ĠÙħØŃÙħ ÙĪØ¯ÛĮ
ĠØ²ÙħØ§ÙĨÛĮ ÙĥÙĩ
Ġp a
Ġp ar
ĠØ¹Ø§ÙĦÛĮ Ø¬ÙĨØ§Ø¨
ĠÛµ Ûµ
ĠÙħØ«ÙĦ Øª
Ġ8 5
ĠØ±Ùģ Ø³ÙĨØ¬
ĠÙĨØ¨ ÙĪØª
ĠÙĨØ¨ Ø§ØªÛĮ
ĠØªØŃØª Ø§ÙĨÛĮ
ĠÙģØ´Ø§Ø± ÙĩØ§ÛĮ
ĠØ±Ø§ÙĩÙĨÙħ Ø§ÙĬÙĬ
us iness
ĠÙħØ®ØµÙĪØµ ÛĮ
ĠÙħØº ÙĨ
ĠÙħØº Ø±Ø¨
ĠØ³Ø±ÙĪ Ø±ÛĮ
ĠØ¢Ø´ÙĨ Ø§ÛĮ
ĠÙģØ±Ø§ Ú¯ÙĬØ±
ĠÙĩÙĨØ± ÙĩØ§
ĠÙĩÙĨØ± Ù¾ÛĮØ´
ĠÙĨÙĬ ÙħÙĩ
ĠÙĩÙģØª Ø§Ø¯
ĠØ§ÙħÙĨ Ø§Ø¡
ĠØ¨Ø±Ø¯ ÙĩØ§ÛĮ
ĠØ¨Ø±Ø¯ Ø¨Ø§Ø±
Ø±ØŃ ÙħØ§ÙĨ
ÙĩÛĮ Ø¦Øª
ĠØ¬ÙħØ¹ ÙĬØª
ĠØ§ÙĦØ¹ Ø§Ø¨Ø¯ÛĮÙĨ
ĠÙĨØª Ø§ÙĨÛĮØ§ÙĩÙĪ
ÚĨÛĮ Ø²ÛĮ
ĠÙħØ² ÙħÙĨ
ĠÙ¾ÛĮØ± ÙħØ±Ø¯
Ġb itdefender
ĠÙħÙĨØ¸ÙĪØ± Ùĩ
ĠØ³Ø¹ Ø¯
ĠØ¯Ø¹ ÙĪØ§ÛĮ
ĠÙĪÙĦ Ø±Ùħ
ĠÙĪÙĦ ØªØ§Úĺ
ĠØ®ÙĪÙĨ Ø±ÛĮØ²ÛĮ
ĠØ¢Ø³ ÙĪØ¯Ùĩ
ĠØ¨ÙĦÚ© Ø¨Ø±ÛĮ
el ss
ĠÙħØ§Ø²ÙĨØ¯ Ø´ÙĪØ±Ø§
ĠÚ©Ø§Ø±Øª ÙĪÙĨÛĮ
ĠÙĩÙĪØ´ Ø¨Ø±ÛĮ
ÙħÙĪ ÙģÙĤ
ÙħÙĪ Ø³ÛĮÙĤÛĮ
ĠØ¨Ø§Ø²Ø¯ÛĮØ¯ Ú©ÙĨÙĨØ¯Ùĩ
ĠÙħØ±Øº Ø¯Ø§Ø±ÛĮ
ĠØ³ÙĪÛĮ Ùĩ
12 46
ĠØ´Ø§Ø± ÙĦØ§ØªØ§ÙĨ
ĠØ¨ÙĦÙĨØ¯ ÙħØ¯Øª
ĠØ§ÙĩØ¯ Ø§
ĠØ§ÙĩØ¯ Ø§ÛĮ
ĠÙĪØŃ ÙĦ
ĠÙĪØŃ Ø¶Ø±Øª
ĠØ±Ø§Ø³Øª Ø§ÙĬ
ĠØ¸Ø±Ùģ ÙĬØª
ed ownload
et a
et s
ÙĪØ· Ø¨
ĠÙĪØ¸ Ø§ÙĬÙģ
ĠW i
ĠW indows
ĠØ±Ø³ÛĮØ¯ ÙĨØ¯
ĠÙħÙĪÙĤ ØªÛĮ
ĠØ§Ø®ØªÛĮ Ø§Ø±ÛĮ
ĠÙĨØ®Ø³Øª ÙĬÙĨ
ĠØ¯Ø³ØªÛĮ Ø§Ø±
ĠÚ¯Ø±Ùħ Ø§ÛĮØ´ÛĮ
Ġf rom
ĠØ¨ÙĨÛĮ Ø§Ø¯ÛĮ
ĠÙ¾ÙĨ Ú©Ùĩ
ĠØ§ÙħÛĮØ± ØŃØ³ÛĮÙĨ
ĠØ§ÙħÛĮØ± Ú©Ø¨ÛĮØ±
ĠØ§ÙħÛĮØ± Ø§ØªØ²
Ø´ÙĪ ÙĬÛĮ
ĠØ®ÙĦ Ø·
ĠØ®ÙĦ ÙĤØª
ĠÚ©Ø§Ø±Ø¨Ø± Ú¯
ĠØ§Ø¹Øª Ø¯Ø§ÙĦ
10 1
ĠØ¨Ø¯Ùĩ Ùħ
ÙĦØ² Ø¨ÛĮÙĨ
ĠØ§ØªÙĪÙħ Ø§Øª
ØªØ¹ Ø§ÙħÙĦ
Ø¬Ùħ Ø¹ÛĮØª
ab le
ĠÙħØ¨Øª ÙĦØ§ÛĮ
ĠÙĨØ§Ø± ÙĨØ¬ÛĮ
ĠÙģØ±ÙħØ§ÙĨ Ø±ÙĪ
ĠÙħØ¬Ø§Ø² ÙĬ
ĠØ³Ø®ÙĨ Ø§ÙĨÛĮ
ĠØ§ØµÙĪÙĦ Ú¯Ø±Ø§
ĠÙĬÙĥ Ø¯ÙĬÚ¯Ø±
im port
ĠØ³Ø±Ø¯ ÛĮ
ĠØ¢ÙĪØ±ÛĮ Ø¯
ĠØ¢ÙĪØ±ÛĮ Ùħ
ĠÙĩÙĨØ¯ ÙĪØ§ÙĨÙĩ
ĠÙĩÙĨØ¯ ÙĪØ³ØªØ§ÙĨ
ĠØ³Ø§ÙĦÙĩ Ø§Ø³Øª
ĠÙĤÛĮ Ø§ÙģÙĩ
ĠÙħÙĪÙĦ ØªÛĮ
ĠØ²ÙĨØ¯ Ú¯Ùī
ĠØ§ÙĨÚ¯ÛĮ Ø²Ø´
ĠÙħÙĤØ¯Ùħ Ø§Øª
ĠÛ¹Û ¶
ĠØ§Ø±Ø² ÙĬØ§Ø¨ÙĬ
ĠØ³ÙĪØ¯ ÙĩØ§ÛĮ
ĠØ¢Ùģ Ø±ÛĮØ¯Ùĩ
ĠÙħÙĪØ«Ø± ØªØ±
ĠÙħØ±Ø¬ Ø¹ÛĮ
ĠJ ost
Ø¨Ø§Ø² Ø¯ÛĮØ¯
ĠÚ¯ÙĪÛĮ ÙĨØ¯Ùĩ
ĠÛ±Û³Û¸ Û³
ĠÙĥÙĨ Ø§Ø±
ĠÙĥÙĨ ÙĬÙħ
ĠÙĥÙĨ ØªØ±ÙĦ
ĠØ´Ø¹Ø± ÙĩØ§ÛĮ
ĠÙĪØ§ÙĦ Ø¯
ĠÙĪØ§ÙĦ ÙĩÙĨÚ¯
ĠÙĪØ§ÙĦ ÙĬØ¨Ø§ÙĦ
ĠÙ¾Ø±Ø¯Ø§Ø² ÛĮÙħ
ĠØ¯Ø§ÙĨØ´Ø¬ÙĪ ÙĬÙĬ
Ù¾Ø±Ø¯Ø§Ø² ÛĮÙħ
Ġv a
ĠÙħØªØŃ ÙĪÙĦ
ĠØªÙĪØ§ÙĨØ§ÛĮÛĮ ÙĩØ§
ØŃØ³ ÛĮÙĨÛĮ
ĠØ¬ÛĮ Ø´ÛĮØ±
ï» ª
ï» ®
ĠÙĤØ±Øµ ÙĩØ§ÛĮ
ÙĪÙģ ÙĨ
ĠØ¢Ú¯Ùĩ ÙĬ
ÙģØ±Ùħ Ø§ÛĮØ¯
ĠÙ¾Ùĩ ÙĦØ§ÙĨ
ĠÙ¾Ùĩ Ù¾Ø§Ø¯
ĠÛ¸ Û°Û°
ĠÛ¸ Ûµ
ĠØ®Ø·Ø± Ø§ØªÛĮ
ĠØ®Ø·Ø± ÙĨØ§Ú©ÛĮ
ĠØ§ÙĦÚ¯ÙĪØ±ÛĮ Ø³Ùħ
ĠK OP
ĠÙħØ§Ú© Ø§Ø±
ĠÙĪÛĮØ± Ú¯ÙĪÙĦ
ĠÙģØ±Ø²ÙĨØ¯ Ø´
ĠÙĪÛĮØ¯ÛĮÙĪ ÙĩØ§ÛĮ
Ø´ÙĩØ± Ø²Ø§Ø¯
ÙĥÙĨ ÛĮØ¯
ÙĥÙĨ ØªØ±ÙĦ
ĠØ´Ú©Ø³Øª ÙĨ
ĠÙĪÙģ Ø§ÛĮÛĮ
ĠØ®Ø¯ Ø§ÛĮØ§ÙĨ
ĠØ§ÙĪØ± Ø³ÙĪØ¯
ĠØ¨Ø§Ø²ÙĬ Ø§ÙģØª
ĠØ´ÙĨØ§Ø®Øª ÙĨ
ĠØ¬ÙħÙĩÙĪØ± ÙĬ
up Star
Ø§Ø¬Ø± Ø§Ø¦ÛĮ
ĠÙĪÙĬ Ú©ÛĮ
ĠØ²ÙĬ Ø§Ø¯ÙĬ
ÙĨÙħØ§ÛĮ ÙĨØ¯Ú¯Ø§ÙĨ
ĠØ¯Ùħ Ù¾Ø§ÛĮÛĮ
ĠØªØ³Øª Ø±
ĠØªØ³Øª ÙĪØ³ØªØ±ÙĪÙĨ
un ny
ÙħÙĤ Ø§ÙĦØ§Øª
ĠØªØ±Ú© ÙħÙĨØ³ØªØ§ÙĨ
ĠÙĩÙĪØ´ÙħÙĨØ¯ Ø§ÙĨÙĩ
Ù¾ÙĪØ´ Ø´
ĠØ²Ø¯ ÙĨØ¯
ĠÙĨÛĮÚ© Ø¨Ø®Øª
ĠÙ¾Ø±ÙĪØª Ú©ÙĦ
Ġi os
Ø¨ÙĨØ¯ Ùī
ĠØ²ÛĮÙĨ Ø³Ø±
han de
ĠÙ¾ÙĪØ¯Ø± ÙĩØ§ÙĬ
ĠØ§Ø³ØªØ± Ù¾
ĠØ§Ø³ØªØ± Ø§ÛĮÚ©
ĠÐ ¾
ĠÙħØ´Ø§Ø¨Ùĩ ÛĮ
Ġa pp
Ġa hang
ĠØ³Ø¦ÙĪ Ø§ÙĦ
ĠSt ars
ĠSt udio
ĠØŃØ§Ú© ÙħØ§ÙĨ
ĠÙħÙĩÙĨØ¯Ø³ ÛĮÙĨ
ĠØ¨ÙĨÛĮØ§Ø¯ ÛĮÙĨ
ÙĬØ² Ø§Øª
ĠÙģØ¶ ÙĦ
ĠÙģØ¶ Ø§ÙĬÙĬ
Ġl a
Ġl ine
ĠØ¨Ø§Ø²Ú¯ Ø´ØªÙĩ
ĠØ³ÛĮÙĨÙħØ§ Ú¯Ø±Ø§ÙĨ
ĠØ§Ø³ØªØ¹ ÙħØ§ÙĦ
ĠØ§Ø³ØªØ¹ ÙħØ§Ø±
ĠØ§Ø±Ø¯ Ø¨ÛĮÙĦÛĮ
ĠØªÙĤØ±ÛĮ Ø¨ÛĮ
ØŃØ§ÙĦ Ø§
ĠØ§ÙħØªÛĮØ§Ø² Ø§Øª
ĠÙ¾ÛĮÙĪØ³Øª ÙĨ
ĠÛĮÙĪÙĨ Ø§ÙĨÛĮ
ĠØ¢Ø±Ø§Ùħ Ú¯Ø§Ùĩ
op yr
ĠÚ©Ø³ Ø§ÛĮÛĮ
ĠØªØ§Ø¬ ÛĮÚ©
ĠØªØ§Ù¾ Ú©
ĠØ¯ÛĮÙĪØ§Ø± ÙĩØ§ÛĮ
ĠÙħØ¹Ø§ÙĪÙĨ Ø§ÙĨ
ĠØ®Ø±Ø¯Ø§Ø¯ ÙħØ§Ùĩ
ĠØªØ§ÛĮ ÙĪØ§ÙĨÛĮ
Ø§ÙĩÙĨ Ø±
ĠØ¶Ø±Ø¨ Ø§Øª
ter est
ĠØ§Ø³ØªÙĤ Ø§ÙħØª
Ø¯Ø§ÙĨØ´ Ø¬ÙĪ
ĠØ°ÙĩÙĨ ÛĮØª
ĠÛ²Û°Û° Û°
ĠÙĪØ±Ø¯Ù¾Ø±Ø³ ÙĤØ§ÙĦØ¨
ĠÙĩØ´Øª Ø§Ø¯
ĠØ±ÙĪØ²ÛĮ Ø§ØªÙĪ
ĠÙ¾Ø±ÙĪØ§Ø² ÙĩØ§ÛĮ
ĠBl ade
if f
if t
ĠÙ¾Ø§ÙĬ ÙĬÙĨ
ak hs
ĠÙģØ´ Ø§Ø±ÛĮ
ĠÙħØ³ÛĮ ØŃÛĮ
ĠÚ©Ø§Ø±Ú¯Ø§Ùĩ ÙĩØ§ÛĮ
** *
ĠÙ¾Ø§ÙĨ Ø§
ĠØªØ±Ùħ ÛĮÙħÛĮ
ĠÙĨØ²Ø¯ ÙĬÚ©
ĠØ¯Ø±Ø®Ø´ Ø§ÙĨÛĮ
ĠØ±ÙĪÛĮÚ©Ø±Ø¯ ÛĮ
ĠÙĤÙĩØ±ÙħØ§ÙĨ ÙĬ
ĠØ¨ÙĬÙĨ ÙĬ
ĠØŃØ§Ø´ ÙĬÙĩ
ĠÙĤØµ ÛĮØ¯Ùĩ
Ø«ÛĮ ÙĤÙĩ
ĠØªÙĪÛĮ ÙĪØªØ§
ĠÙħÛĮØ¯ ÙĪÙĨÛĮ
ĠÙģØ±Ø§ÛĮÙĨØ¯ ÙĩØ§ÛĮ
ĠÙĩØ§Ø´ Ùħ
ĠÙĥØªØ§Ø¨ Ø®Ø§ÙĨÙĩ
ĠÙģØ±ÛĮ Ø§Ø¯
ĠÚ¯ÙĨØ¬ Ø§ÙĨØ¯Ùĩ
ĠØªØ±Ø´ ØŃØ§Øª
Ø¢Ø± Ø§Ùħ
ĠÙħØ³ØªÙĨØ¯ Ø§Øª
Û¹Û ·
ĠÙĪØ§Ø± Ø¯Ùĩ
ĠÙĨØ§ÙĨ ÙĪØ³Ø§Ø®Øª
ÙĦÛĮØ³ ÚĨÛĮ
ĠØ¯Ø§Ø±ÙĪÛĮ Ø§Ø¨
ĠØ§Ø¨ÙĦØ§Øº ÛĮÙĩ
02 1
02 156769355
ÙģØ±Ø§ÙĨ Ø³ÛĮØ³
ĠØ´Ø§ÛĮ Ø¹Ùĩ
ĠØ¨Ø±Ø¯Ø§Ø± ÙĬ
Ù¾Ø±ÙĪ Ø§ÙĨÙĩ
ĠØ§ÙĨÚ¯ÙĦ ÙĬØ³ÙĬ
ĠÚ©ÙĦØ§ ÚĺÙĨ
ĠÚĨØ±Ø¨ ÙĬ
ĠÚĨØ³Ø¨ Ø§ÙĨØ¯ÙĨ
ĠØ·ÙĦØ¨ Ø¯
ĠØ¬Ø¯ÙĬØ¯ ÙĬ
ĠØ¯ÙħÙĪÚ©Ø± Ø§Øª
ĠØ¢Ùĩ ÙĪ
ĠØ¢ÙħÙĪ Ø®Øª
ÙħØ¯ÛĮØ± Ø§ÙĨ
ev er
ĠØ§Ø³ÛĮØ¯ ÙĩØ§ÛĮ
ĠØ§Ø¹ØªØ± Ø§Ø¶ÛĮ
ĠØ³Ø®ÙĨØ§ÙĨ Ø´Ø§ÙĨ
ĠØ¨ÙĬØ´ØªØ± ÙĬ
ĠÙħØ³Ú©ÙĪÙĨÛĮ Ø§ÙħÙĦØ§Ú©
Ġ{ {
ĠØ¨Ø² ÙĨÙħ
ĠØ±Ø¨ ÙĪØ¯Ùĩ
Ø¬Ø² ÙĪÙĩ
ĠÛĮÙĥ Ø¯ÛĮÚ¯Ø±
ĠØ²Ø± Ø§Ø¹ÛĮ
ĠØ§Ø¹ØªÙĤ Ø§Ø¯Ø§Øª
ĠÛ±Û± Û°
ĠØªÙĨÚ¯ Ø§Øª
ĠÙģØ§ÛĮ Ø±Ùģ
Ġ138 6
Ø§ÙĨØ¯ÛĮ Ø´ÛĮ
ĠÙĩØ¬ Ø¯Ùĩ
ĠØ®Ø±Ùħ Ø§
ĠÚ¯Ø´ Ø§ÛĮØ´
ĠØ²Ø§Ø¦ Ø¯Ùĩ
ĠØ§Ø±Ø³ ÙĦØ§ÙĨ
ĠØ§ÙĦÚ©ØªØ±ÛĮ Ø³ÛĮØªÙĩ
ĠÙĨØ¨Ø§Ø´ ÛĮÙħ
ĠÛ° Ûµ
Ø§ÙģØ²Ø§Ø± ÙĩØ§ÛĮ
ĠØ¯ÙĪÙĨ ÙģØ±Ùĩ
ĠØ´Ø§Ùħ ÙĬ
Ġ09 120452406
ĠØ³Ø§ Ú©ÙĨØ§ÙĨ
Ú¯Ø±ÙģØª ÙĨ
Ú¯Ø±ÙģØª ÙĨØ¯
ĠØµÙĩÛĮÙĪÙĨÛĮ Ø³Øª
ĠØ¨ÙĢ Ø§
ĠØ¬Ø§Ø³ Ø§Ø²ÛĮ
ĠÙħØªØºÛĮØ± ÙĩØ§ÛĮ
ĠÙĤØ±Ø¨Ø§ÙĨÛĮ Ø§ÙĨ
ĠØ§Ø´Ú© Ø§ÙĦØ§Øª
ĠÚ¯Ø°Ø±Ø§ÙĨ Ø¯Ùĩ
ĠØ§Ø° Ø¹Ø§ÙĨ
Ø²ÛĮØ± Ø§
ĠÙĨØ§Ø´ ÙĬ
ĠÙħÙĨØ§Ø¸ Ø±
ĠØ³ÙĪØ§Ø¯ Ø±Ø³Ø§ÙĨÙĩ
Û±Û³Û ¶
ÙħØ¹Ùħ Ø§Ø±ÛĮ
Ø±Ø¯ÛĮ Ø§Ø¨
Ġ80 1246
ĠØ¯ÛĮØª Ø§Ø¨ÛĮØ³
ØŃÙħ Ø§ÛĮØª
Ø§ÙģØ± Ø§Ø¯
ĠÚ©ÙĦÛĮÙĨ ØªÙĪÙĨ
ĠRe de
ĠØ¥ ÙħØ¨Ø§Ø±
ĠÙħØ¸ ÙĩØ±
ĠØªÙĥ ÙĬÙĩ
ĠØ³Ø§Ø± Ø§ÛĮ
ĠØ¹Ø³ Ú¯Ø±ÛĮ
ĠØ¹Ø§Ø· ÙģÙĩ
ĠÙħØ§Ø± Ùĥ
ĠÙ¾Ø§ÙĦ Ø§ÛĮØ´Ú¯Ø§Ùĩ
ĠØ§Ø¹Ùħ Ø§ÙĤ
ars i
ĠØ¨ÙĪØ§Ø³ Ø·Ùĩ
Ð» Ðµ
ĠØ¢ÙĨØ¯ ÙĪØ³
ĠÙħØ¹ÙĦ ÙĪÙĦ
ĠÙĨÙħØ§ÙĬ ÙĨØ¯Ú¯ÙĬ
ĠÙħØ¯Ø§ÙģØ¹ Ø§ÙĨ
ĠÙģØ¹Ø§ÙĦÛĮ ØªÛĮ
âĿ¤ âĿ¤
ĠÙ¡Ù ł
ÙĩØ²Ø§Ø± ÙħÛĮÙĦÛĮØ§Ø±Ø¯
ĠÙ¾ÙĩÙĨ Ø§ÛĮ
ĠÙħØŃØ¶ Ø±
ĠØ¨Ø° Ø§Ø±Ùħ
ĠØ´Ø§ Ú¯Ø±Ø¯Ø§ÙĨ
ĠØ´Ø§ Ú¯Ø±Ø¯Ø´
ĠØ´Ú©Ø± Ú¯Ø²Ø§Ø±ÛĮ
ĠØ®Ø´Ùħ Ú¯ÛĮÙĨ
ĠØ§ÙĨØµ Ø§Ùģ
ĠØºÙĦØ§Ùħ ÛĮ
ĠØ¨Ø±Ú¯Ø±Ø¯ Ø§ÙĨØ¯
ĠØªÙĪÙħÙĪØ± ÙĩØ§
ĠAb elss
ith m
Ø¯ÙĪØ± Ø¨ÛĮÙĨ
ĠØ¨Ù¾Ø±Ø³ ÛĮØ¯
ĠØ´Ø±ÛĮ Ø¹ØªÙħØ¯Ø§Ø±ÛĮ
ĠÙ¾Ø°ÛĮØ±ÙģØª ÙĨ
ĠØ¨Ø±ÛĮØª Ø§ÙĨÛĮØ§ÛĮÛĮ
ĠUn wrap
86 6
ĠØ±Ø¬ Ø¹Øª
ĠÙĨØ± ÙħÛĮ
ĠÙĨØ§Ø±Ø³ Ø§Ø®ÙĪØ§ÙĨ
ĠØ§ÛĮØ«Ø§Ø± Ú¯Ø±ÛĮ
Ġ360 10
Ġïº ³
ĠØ¨Ú¯ÛĮØ± Ùĩ
ĠØ¨Ú¯ÛĮØ± Ùħ
Ø³Ø® ÙĨÚ¯ÙĪÛĮ
ĠÙģØªØŃ ÛĮ
ĠÙĦØ§Ø³ØªÛĮ Ú©
ĠÙģØ±Ø§Øª Ø§Ø¨
ĠØ¬ÙħØ´ÛĮØ¯ ÛĮÙĩ
ĠØªØ¹Ø·ÛĮ ÙĦÛĮ
ĠØ§ÙĪÙĦÛĮ Ø§Ø¡
ÚĨÙĩØ§Ø± Ø´ÙĨØ¨Ùĩ
ĠTe chn
ĠÙħØ§ÙĨÛĮ Ú©ÙĪØ±
ĠØ§Ø³ØªØ§Ø± Ø³Øª
ĠØµØ§ÙĦØŃ ÛĮ
ØºØ° Ø§ÙĩØ§ÛĮ
ĠAd obe
omm un
ult ip
ÛĮØ¯Ø§ÙĨ ÙĦÙĪØ¯
ĠÙħØ¯Ø¯ Ø¬ÙĪÛĮØ§ÙĨ
ĠÙ¾Ø±Ø§Ú© ÙĨØ¯Ú¯ÛĮ
ĠÙħØ²Ø§ÛĮ Ø§ÛĮÛĮ
Ġ02 14
ĠÛ±Û¹Û¸ Û°
mot ahar
ÙħÙĪØ³ Ø³Ùĩ
Ø³Ø· ØŃ
ĠÙĪØ® Ø±ÙĪØ¬
ĠÙĨØ§Ø¢ Ø±Ø§ÙħÛĮ
Ø§Ø³ØªØ§ÙĨØ¯ Ø§Ø±Ø¯
ĠØ´Ú©ÙĪÙĩ ÛĮ
ĠGam es
Ù¾Ø±Ø´ ÛĮØ§
ĠÙ¾ÙĬØ´Ø± ÙģØªÙĩ
ĠÙĥØ§Ø±Ø¨Ø±Ø¯ ÙĬ
ĠÙ¾Ø§ÙĨØ²Ø¯Ùĩ Ùħ
du ction
kh oda
ĠØªÙĨÛĮ Ø³
ĠØ³ÙĢ ÙĦØ§ÙħÙĢØª
ĠÙĦÙĨ Ø²ÛĮ
ĠMo hammad
ĠÚĺÙĪØ±ÙĨ Ø§ÙĦÛĮØ³ØªÛĮ
ĠØ®ÙĪØ§ÙĨØ¯ ÙĨØ¯
ĠØªØŃÙĤÙĬÙĤØ§Øª ÙĬ
Ġan g
Ġ** *
ĠØªÚ©Ø³ Ø§
ĠÙĨÛĮÙĨ ÙĪØ§
ĠØ®ÙĦÙĪ Øª
ĠÚ©Ø§Ø±ÙģØ±Ùħ Ø§
ĠDer akhs
ĠÙħÙĨØªØ¸ Ø±Ø§ÙĨ
ĠÙĨØ®ÙĪØ¯ ÚĨÙĬ
ĠØ§ÙħÛĮØ±Ø§ÙĦÙħ ÙĪÙħÙĨÛĮÙĨ
ĠØ³Ú©ÙĪÙĦ Ø§Ø±ÛĮ
ĠJav adoff
ĠØ®Ø¬ Ø§ÙĦØª
ĠØ¨Ø±Ø§Øª ÙĪÙĨ
ĠØ§ÙħÛĮ Ø±ÛĮØ§ÙĨ
ĠØµÙĦÙĪ Ø§ØªÛĮ
ĠÙħÙĨÙģ Ø¹Øª
ĠØ¨Ø§Ø²ÙĨØ´ Ø³ØªÙĩ
ĠØ¨Ø§Ø²ÙĨØ´ Ø³ØªÚ¯ÛĮ
ÙħØªØ®ØµØµ Ø§ÙĨ
aly sis
ĠØ¨Ø¨ÙĨØ¯ ÙĨØ¯
ĠØ¨Ú¯Ø°Ø±Ø§ÙĨ ÙĨØ¯
bas e
ĠÙħØ§Ø² Ø±Ø§ØªÛĮ
ĠÚ©ÛĮÙĩ Ø§ÙĨ
ĠØ®ÙĦØ§ ÙģØª
ĠØ¹Ø§ÙĦ Ùī
ĠØŃØ¨ÛĮ Ø¨ÛĮ
ĠØ§Úĺ Ø¯ÙĩØ§
ĠØ§ÙĨØ¶ Ø¨Ø§Ø·ÛĮ
ĠØ³ÛĮØ§ ÙĪØ´ÛĮ
ĠPhot o
irat motahar
ĠÙĨØ§Ø§Ùħ ÙĨÛĮ
ØªÙĪØ³ Ø¹Ùĩ
ĠÙħÚ©Ø± Ø±
ĠÙĪØ²ÛĮ Ø¨Ø§ÛĮ
ĠØ±Ø¦ÛĮ Ø³ÛĮ
ĠØ³ÙĬÙĨ ÙħØ§ÙĬÙĬ
Ø¹ÙħÙĦ Ú©Ø±Ø¯
Ø§ÙĦØªØŃØµÛĮ ÙĦØ§ÙĨ
ĠØ¹Ø§Ø¨ Ø±Ø§ÙĨ
ĠØ¹Ø°Ø± Ø®ÙĪØ§ÙĩÛĮ
ĠØ¬ÙĩØ± Ùħ
ĠÚ©Ø§Ø±Ú¯Ø²Ø§Ø± Ø§ÙĨ
Ø§Ø¹ØªÙħ Ø§Ø¯
ĠØ§ÙĦØ²Ø§Ùħ Ø§Øª
ĠÙħØ±Øµ Ø¹
ĠÙħØ´Ùĥ ÙĦØ§Øª
Ø¢Ø´ÙĨ Ø§ÛĮÛĮ
ĠÙħØ¬ÙĨ ÙĪÙĨ
ĠØ¹Ø§Ø´ÛĮ ÙĤ
ĠÙĨÙĪØ¢ÙĪØ± Ø§ÙĨÙĩ
ĠÛ±Û³Û¶ Û²
ĠØ¬Ø§ÙĪØ¯ Ø§ÙĨ
ĠØ§Ø³ØªØ¹ÙĦØ§Ùħ ÛĮ
ðŁĶ ¸
ĠØ§ÙĨØŃØµ Ø§Ø±ÛĮ
ĠØ¢ØªÙĪØ±ÙĪØ§Ø³Øª Ø§ØªÛĮÙĨ
ÙĪØ§ÙĤ Ø¹ÛĮØª
Ú©Ø§Ùģ Ø¦ÛĮÙĨ
ĠØ¨ÚĨØ±Ø® Ø§ÙĨÛĮØ¯
ĠÙħØ²Ø¯ ÙĪØ±Ø§ÙĨ
ĠØ¯Ø§ÛĮØ± Ú©Øª
ĠØ¢Ø« Ø§Ø±ÛĮ
ĠÙ¾ÙĦØ§Ú¯ ÛĮÙĨ
ĠÙħÛĮÙĥØ±ÙĪ ÙĥÙĨØªØ±ÙĦ
ĠØµÛĮ ØŃÙĩ
ĠØ¨Ø§Ø²ÙĨ Ø´Ø±
ĠÙħØ±Ø³ Ø¯Ø³
ĠÙĥØ§Ùħ ÙĦØ§
ĠÙ¾ÛĮØ´Ú¯Ø§Ùħ Ø§ÙĨ
ĠÙħØµØ§Ø¯ ÙĬÙĤ
ĠØªØ´Ú© ÙĬÙĦ
ĠSub stance
ĠOn line
ransl ation
ĠTeam Viewer
rip t
Ġatt ack
Ø±Ø¦ ÙĬØ³
ĠÙĪØ²Ø± Ø§ÛĮ
ĠÚ©ÛĮÙħ ÛĮØ§
ĠØ±Ø§ÙĨØ¯ ÙħØ§ÙĨ
Ø§ÙĦÚ©ØªØ±ÙĪ ÙĨÛĮÚ©
ĠØ®Ø§Ø² ÙĨØ§ÙĨ
ĠØ¹ÙĪØ¯ Øª
ĠÛĮÙĪØ± ÙĪÛĮÛĮ
ĠÚĨØº ÙĨØ¯Ø±
ĠØµÙħÛĮÙħ Ø§ÙĨÙĩ
ĠØ·ÙĪ Ø§ÛĮÙģ
ĠØ§Ø±ØªÙĪ Ù¾Ø¯ÛĮ
ĠÙħÙĩÛĮ Ø¬
asn im
Ú©ÙħÙ¾ Ø§ÙĨÛĮ
Ġlyric s
Ġkhod khoda
hedul ing
ï¼ Į
ĠÙĪÙĦØ§ ÙĬØª
ĠØªØ· Ø§Ø¨ÙĤ
ĠØªØ±ÛĮØ¨ ÙĪÙĨ
ÙģØ§Ø· ÙħÙĩ
ĠÙ¾ÙĨØª Ø§
ĠØŃØ¨ÙĪØ¨ Ø§Øª
ĠÙĩÙħÙĪØ· ÙĨØ§ÙĨ
ĠÙĦØ§ÙĩÛĮ Ø¬Ø§ÙĨ
ĠØ³ÛĮØ³Ùħ ÙĪÙĨÛĮ
ĠØ§ØµØ· Ú©
ateg or
ĠÙĪØ§Ú©Ø³ ÙĨ
ĠØ§Ú©Ø«Ø±ÛĮ Øª
Ġmo hammad
ĠRet reat
ĠØ§ÙĬÙħÙĨ ÙĬ
Ġfh cd
ĠInf in
ĠStart upStar
ĠÙĦÙĨÚ¯Ø± Ú¯Ø§Ùĩ
ĠAbdol reza
uaw ei
ÙĨØ§Ø´ÙĨ Ø§Ø³
ØªØ¹ÛĮ ÛĮÙĨ
ÙħÙĤØ§ÛĮ Ø³Ùĩ
ĠØ¨Ø§ØªÙĪ Ø¬Ùĩ
ĠØ¯ÙħØ´ ÙĤ
ĠØªØ§ÙĨØ¯ ÙĪÙĨ
ĠØªØ¶ÛĮ ÛĮØ¹
ĠÙĩØ® Ø§ÙħÙĨ
ĠØ¢ÙģÛĮ Ø³Ø±
ÙĤØ±Ø§ ÚĨÙĪØ±ÙĦÙĪ
Ø¹ÙĦØ§ ÙĤÙĩ
ĠØ¹Ø¯ÙĨ Ø§ÙĨ
ĠØ§Ø³ØªØ§ÙħÛĮÙĨ ÙĪÙģÙĨ
ĠÚ©ÙĩÚ¯ÛĮÙĦ ÙĪÛĮÙĩ
Ø§Ø¨Ø±Ø§Ùĩ ÛĮÙħ
ĠØ¨Ø§Ú©Ø±Ø¯ Ø§Ø±
ĠØ§ÙĨÙģØ± Ø§Ø¯ÛĮ
ĠÙĦÛĮÚ© Ø±Øª
ĠØ§ÙħØ« Ø§ÙĦ
ĠÚ©Ø§Ø±ØªØ±ÛĮ Ø¬
ĠÙħÙĨÛĮØ² ÛĮÙħ
ĠØ®ÙĪØ¯Ú©Ùģ Ø§ÛĮÛĮ
ĠÙģØ±Ø§Ú© Ø³ÛĮÙĪÙĨ
ĠØ³Ø±Ø§Ø´ÛĮ Ø¨ÛĮ
ĠÙĥØ§ÙħÙ¾ ÙĬÙĪØªØ±
ĠØ±Ø§ÙĩÙ¾ÛĮÙħ Ø§ÛĮÛĮ
Ø¯Ø§ÙĪÛĮÙĨ ÚĨÛĮ
ĠPain ter
-->> >
Ġsory a
ĠØ±ÙģØ³ÙĨØ¬ Ø§ÙĨÛĮ
ĠÙħØ¨ØªÙĦØ§ÛĮ Ø§ÙĨ
import ant
ĠJost ar
opyr ight
ÙģØ±Ø§ÙĨØ³ÛĮØ³ Ú©ÙĪ
ĠØ¥ÙħØ¨Ø§Ø± ØŃ
ĠAbelss oft
ĠDerakhs hande
Ġkhodkhoda ie
) "
) +
- ØĮ
1 92
3 3
6 7
7 15
7 200
8 9
: ...
C D
C o
C ont
D is
D irect
E mb
F act
G G
H K
I M
M en
N O
N a
N ET
O ps
P DF
P ress
Q M
R I
R L
R O
S P
S c
S QL
T C
U B
V D
V IE
X EL
a e
a u
a it
b le
c le
c ount
d d
e uro
g h
g i
g ed
h a
h o
h ad
j ect
j pg
l a
l ass
m o
m ax
m odel
n al
n ame
o h
p e
p ers
p ect
p ly
r l
r ing
s ay
s ung
t on
t ro
t ps
u h
v id
w it
w are
y le
} }
Å Ł
Ð ±
Ù ¡
Ú ¾
ä º
æ ľ
ï ®
ï ģ
ć ć
Ġ Q
Ġ ........
Ġ ag
Ġ ol
Ġ em
Ġ ra
Ġ op
Ġ ey
Ġ eb
Ġ ant
Ġ ðŁ
ĺ ī
Ø§ ÚĺÛĮ
ÛĮ Ø±ÙĪ
ÛĮ ÙĦØ§
ÛĮ Ú©Ø³
Ø± Ú©ÛĮ
Ø± Ø§ÛĮÛĮ
Ø± Ø²ÛĮ
Ø± Ø§Ø¯ÛĮ
Ø± ØµØ¯
Ø± ÙĨÚ¯ÛĮ
ÙĨ Ø§Ø²
ÙĨ ÛĮØª
ÙĨ ÙĪØ±ÛĮ
ÙĨ Ø§ØµØ±
Ùĩ Ø§ÙħÛĮ
Ø¯ Ø´
Ø¯ Ø¨
Ø¯ Ø±Ø¯
Ø¯ Ø§ÙĨÙĩ
Ø¯ Ø³ØªÛĮ
Ø¯ Ø³Ø±
ÙĪ Ø¶
ÙĪ Ú©ÛĮ
ÙĪ Ø§Ø²ÛĮ
ÙĪ Ø·Ùĩ
ÙĪ ÛĮÙĨÛĮ
ÙĪ ÛĮØ¯ÛĮ
ÙĪ Ù¾Ø±
ÙĪ Ú¯ÙĪÛĮ
Øª Ø§Ø±
Øª ÛĮØ±
Øª ÙħÛĮ
Øª ÙĬÙħ
Øª ÙģØ³
Ùħ ÙĪØ¯
Ùħ Ø§Ø¯
Ùħ Ø²ÛĮ
Ùħ ÙĪÙĤ
Ùħ Ø§Ø¯Ø±
Ùħ Ø¬ÙĦ
Ùħ Ú©Ø§ÙĨÛĮ
Ùħ Ø§Ø´ÛĮÙĨ
Ú© Ø¨
Ú© ÛĮÙħ
Ú© ØªØ±
Ú© Ø§ÛĮÛĮ
Ú© Ù¾ÛĮ
Ú© Ù¾Ø³ÙĪÙĦ
ÙĦ Ø§Ø±ÛĮ
ÙĦ Ø³ÛĮ
ÙĦ Ø°
ÙĦ ÛĮÙĨØ§
ÙĦ Ø´Ú©Ø±
ĠØ¨ ÙĪÙĨ
ĠØ¨ Ø²Ø§Ø±
ĠØ¨ Ø±ÛĮØ¯
ĠØ¨ Ø§Ø®Øª
ĠØ¨ ÙģØ±
ĠØ¨ ÙĪØ³Øª
ĠØ¨ ÙĨØª
ĠØ¨ Ú©ÙĨØ¯
ĠØ¨ ÙĬØ±
ĠØ¨ ÚĨØ³Ø¨
ĠØ¨ Ø³Ùħ
ĠØ¨ ÙģØ±ÙĪØ´
ĠØ¨ Ú©ÙĨÙħ
ĠØ¨ Ø±ÛĮØ¯ÙĨ
ĠØ¨ Ø§ÙĩÙĨØ±
ĠÙħ ÙĦÙĪØ¯
ĠÙħ Ú¯ÛĮ
ĠÙħ ÙĦØ§Øª
ĠÙħ ÙĪÛĮÛĮ
ĠÙħ Ø²Ùĩ
ĠÙħ Ø§Ø±Ø´
ĠÙħ Ø§ÛĮÙĦÙĨØ¯
ĠÙħ Ø¨Ø§ÙĨÙĬ
ĠÙħ Ø§Ø²ÛĮØ§Ø±
Ø§ÙĨ Ú©
Ø§ÛĮ Øµ
Ø§ÛĮ ÙĨØ¯Ùĩ
Ø§ÛĮ Ú©Ø³
ĠØ¯ Ø§ÙĦ
ĠØ¯ ÙĦÙĩ
ĠØ¯ ÙĬÙĨ
ĠØ¯ ÙĪÙĨÛĮ
ĠØ¯ Ø²Ø¯ÛĮ
ĠØ¯ ÙħØ§ÛĮÛĮ
ĠØ¯ ÛĮØ±Ùĩ
ĠØ¯ Ø®ÛĮÙĦ
ĠØ¯ Ø¬Ø§ÙĦ
Ø³ ÙħÛĮ
Ø³ ÙĪØ±ÛĮ
Ø³ Ø³ØªÙĩ
Ø³ Ø±Øª
ĠÙĪ Ú¯
ĠÙĪ ÙĩØ±
ĠÙĪ Ø§Ø¬
ĠÙĪ Ø±Ø³
ĠÙĪ Ø´ÛĮ
ĠÙĪ ÙĨØªÛĮ
ĠÙĪ Ù¾ÛĮØ´Ú¯ÛĮØ±ÛĮ
ĠÙĪ Ø«ÛĮÙĤÙĩ
Ø´ Ø§Ø±ÛĮ
Ø´ ØªÙħ
Ø´ Ø§ÙħÙĦ
Ø´ Ø¨ÛĮÙĩ
Ø´ ÙĪÛĮÙĩ
Ø´ Ø§ØªØ³
ĠÚ© ÛĮÙĨ
ĠÚ© Ø¯Ùĩ
ĠÚ© Ø±ÛĮØ¯
ĠÚ© Ø±Ø§
ĠÚ© Ø±ÙĪØ²
ĠÚ© ØªÙĪ
ĠÚ© Ø¯ÙĨ
ĠÚ© Ø³Ø±
ĠÚ© Ø±ÙĪÙĨ
Ø§Ø± ÙĪÛĮÛĮ
Ø§Ø± ÙģÙĩ
Ø§Ø± ÙĪÙ¾
Ø§Ø± Ú¯Ø§ÙĨÛĮ
Ú¯ Ø³
Ú¯ ÛĮÙħ
Ú¯ ÛĮØª
Ú¯ Ø±ÛĮÙĨ
Ø¨ Ø±ÙĪ
Ø¨ Ø§Ø®
Ø¨ ÙĪØª
Ø¨ ÚĨÙĩ
Ø¨ Ø§ÙģÛĮ
Ø¨ Ø¯ÛĮÙĨ
Ø¨ Ø§ØºÙĩ
ĠØª Ø±ÛĮØ¯
ĠØª ÙĦÙĪ
ĠØª Ø´ÙĨÙĩ
ĠØª ÙĨÚ¯ÛĮ
ĠØª ÛĮÙĨØ§
ĠØª Ø§ÙĦÛĮÙģ
ĠØª Ø°Ú©Ø±
Ùģ Ø§ÙĨ
Ùģ ÙĬ
Ùģ ÙĪØ¹
Ùģ ÙĬÙĩ
Ùģ ÙĤÛĮÙĩ
Ùģ Ø§ÛĮÙĦÛĮ
Ø² Ú¯ÙĪ
Ø² ÙĪØ¯ÛĮ
ĠØ± ÙĤÛĮ
ĠØ± Ú¯ÙĦ
ĠØ± Ø§Ø³ØªØ§ÙĨ
ĠØ± Ø¨Ø·
ĠØ± ÙĬØ²
ĠÙĨ ÙĪÙĨÙĩ
ĠÙĨ ÙĪØ¨
ĠÙĨ ÛĮÙħÛĮ
ĠÙĨ ÙĨÙĩ
ĠÙĨ Ø§ÙĦÙĩ
ĠÙĨ Ø«Ø±
ĠÙĨ ØªÙĪÙĨ
ĠÙĨ ØªÙĪØ§ÙĨÙĨØ¯
ĠÙĨ Ú¯ÛĮØ±ÛĮØ¯
ĠÙĨ Ø®ÙĪØ§ÙĩÛĮÙħ
ĠÙĨ Ø®ÙĪØ§Ùħ
ĠÙĨ Ú¯Ø°Ø§Ø±ÛĮØ¯
ĠÙĩ Ø³
ĠÙĩ ÙĦØ§
ĠÙĩ ÙĪÙħ
ĠÙĩ ÙĦÙĩ
ĠÙĩ ÙĦØ§Ùĥ
Ø§Ùħ Ø±
Ø§Ùħ Ø§Øª
ĠØ¯Ø± Ú©ÛĮ
ĠØ¯Ø± Ø¨ÛĮ
ĠØ¯Ø± Ú©Ùĩ
ĠØ¯Ø± Ø¢ÙĨ
ĠØ¯Ø± Ø¢ÙĪØ±Ø¯Ùĩ
ĠØ¯Ø± Ø®ÙĪØ±
ĠØ¯Ø± ÙħØŃÙĦ
ĠØ¯Ø± Ú©ÙĦØ§Ø³
ĠØ³ ÙĬØ¯
ĠØ³ Ø§Ù¾
ĠØ³ ÙħØ§
ĠØ³ Ú©ÙĪ
ĠØ³ ÛĮØ±Ùĩ
ĠØ³ Ø§ÙĨØ³
ĠØ³ ÙħÛĮØ±Ùħ
ĠØ´ ÛĮØª
ĠØ´ Ø§Ø¦
ĠØ´ ÙĢ
ĠØ´ Ø³ØªÙĩ
ĠØ´ Ú¯Ø±Ø¯
ĠØ´ ÙĦØ§ÙĤ
ĠØ´ Ú©ÙĨÙĨØ¯Ùĩ
ĠØ´ ÙĤØ§ÛĮÙĤ
ĠØ´ Ø£ÙĨ
ĠØ¢ ÙĦØ§
ĠØ¢ Ø±ÛĮÙĨ
ĠØ¢ ÛĮÚ©
ĠØ¢ ÙĬØª
ĠØ¢ Ø³Ø±Ø§ÛĮÛĮ
ÙĤ Ùħ
ÙĤ Ø§Ø¯
ÙĤ Ø±ÛĮ
ÙĤ ÙĬ
ÙĤ ÙĦÙĪ
ÙĤ ÙĦØ¨
ÙĤ Ø§Ø·ÛĮ
ÙĤ Ø¨ÙĪÙĦÛĮ
ÙĤ ÙĪØ§ÙĨÛĮÙĨ
ÙĨØ¯ ÙĬ
âĢĮ )
Ø¹ Ú©
Ø¹ ÛĮØ±
Ø¹ Ø§Ø±Ùģ
Ø¹ Ø±Ø¨ÙĬ
Ø¹ ÙĨÙī
Ø§ÙĦ Ø²
Ø§ÙĦ ÙħØª
Ø§ÙĦ ÙħØ§ÙĨÙĩ
ĠØ¨Ùĩ ØªÙĪÙĨ
ĠØ¨Ùĩ ÙħÙĪÙĨ
ĠØ¨Ùĩ ÙĨØ§Ùħ
ÙĪØ¯ ÙĩØ§ÛĮ
ÙĪØ¯ Ø§ÙĨÙĩ
ÙĪØ¯ ÛĮÙģ
Ø§Ø¯ ÛĮÙĨ
Ø§Ø¯ ÙĦÙĩ
Ø§Ø¯ Ø§ØªÛĮ
Ø±ÛĮ Øª
Ø±ÛĮ Ø§Ø¯
Ø±ÛĮ ÙĪÛĮÙĪ
ØĮ ØĮ
ØĮ ...
ĠÙ¾ Ùģ
ĠÙ¾ Ø§Ø¨
ĠÙ¾ Ø±Ø§ÙĨ
ĠÙ¾ Ùī
ĠÙ¾ ÙĪÙĨÙĩ
ĠÙ¾ Ø§ÙĪ
ĠÙ¾ ÙĦØ§Øª
ĠÙ¾ Ø§ÙĦØª
ĠÙ¾ Ø§ÙĨØªÙĪÙħÛĮÙħ
ĠØ® Ø¯ÛĮ
ĠØ® Ø¨ÛĮ
ĠØ® Ø§Ø³Øª
ĠØ® ÙĨØ¬
ĠØ® ÙĬÙĦÙĬ
Ø¬ Ø±ÛĮ
Ø¬ ÙĪØ±
Ø¬ ÛĮÙħ
Ø¬ Ø´ÙĨ
Ø¬ ÙĦÙĩ
ĠØ§Ø² ÛĮÚ©
ĠØ§Ø² Ø¨Ú©
ĠÙħÛĮ Ø²ÛĮ
ĠÙħÛĮ Ø¯Ùħ
ĠÙħÛĮ Ù¾Ø±Ø³
ĠÙħÛĮ Ú¯ÙĪÛĮÙĨØ¯
ĠÙħÛĮ Ø¨Ø§Ø´ÙĨØ¯
ĠÙħÛĮ Ú©Ø±Ø¯Ùħ
ĠÙħÛĮ Ø®ÙĪØ§ÙĩÙħ
ĠÙħÛĮ Ø¨Ø§ÛĮØ³Øª
ĠÙħÛĮ ÙħÙĪÙĨÙĩ
ĠÙħÛĮ Ø±ÙĪÛĮÙħ
ĠØ§Ø³ ÙħÛĮ
ĠØ§Ø³ Ù¾ÛĮ
ĠØ§Ø³ ÛĮØ¯ÛĮ
ĠØ§Ø³ Ø§ÙĨØ³
ĠØ§Ø³ ÙĨÙĪ
ĠØ§ÛĮ Øª
ĠØ§ÛĮ Ú¯ÙĪÙĨ
ÙĪØ± ØªØ±
ÙĬ ÙĪ
ÙĬ Ø§Ø¯
ÙĬ ÙĪÙĨ
ÙĬ Ø³Ùĩ
ÙĬ Ø¹Øª
ÛĮØ¯ ÛĮÙĨ
Ø³Øª ÛĮØ¯
Ø® ÙĪØ±Ø´
ĠÙģ Ø³ÛĮ
ĠÙģ ÙĪÙħ
ĠÙģ Ø§Ø²ÛĮ
ĠÙģ Ø³ØªÛĮ
ĠÙģ ÙĬØ²
ĠØ¨Ø± Ú©
ĠØ¨Ø± Ø²
ĠØ¨Ø± Ù¾
ĠØ¨Ø± Ø³ÛĮ
ĠØ¨Ø± Ú¯Ø±
ĠØ¨Ø± ÙĪØ´
ĠØ¨Ø± Ø¯Ùħ
ĠØ¨Ø± ÙģÛĮ
ĠØ¨Ø± ÙĪÚ©
Ø§Ùĩ Ø¨
ĠØ¹ Ø§ÛĮØ´
ĠØ¹ Ø§Ø¨Ø±
ĠØ¹ Ø§ÙĤÙĦ
ĠØ¹ ÙģÙĪ
Ø§Øª ÙĪÙĨ
Ø§Øª Ø³ÙĪ
Ø§Øª Ø§Ø±ÛĮØ®
ØŃ Øµ
ØŃ ØªØ§Ø¬
ÚĨ ÙĨÚ¯
ÚĨ ÙĨØ¯Ø§ÙĨ
ĠØ§Ø³Øª Ú©Ø§ÙĨ
ĠØ§Ø³Øª Ø§Ø±Ú©
ĠØ§Ø³Øª Ø±ÛĮÙħ
ĠØ§Ø³Øª ÙħØ±Ø§Ø±
ĠÚ¯ ÚĨ
ĠÚ¯ ÙĨØ¬ÛĮ
ĠÚ¯ Ø§ÙĩØ§
ĠÚ¯ ÙħÙĨØ§Ùħ
ĠÚ¯ Ø³Ø³ØªÙĩ
ĠØ¬ ÙĪØ²
ĠØ¬ Ø§Ø³Øª
ĠØ¬ ÛĮÚ©
ĠØ¬ ÙĪÙĨÛĮ
ĠØ¬ ÙĦÙģ
ĠØ¬ Ø±Ø§Øª
ĠØ¬ ÙĪÛĮØ§
ÛĮÙĨ Ø§Ùģ
ÛĮÙĨ ÙģØ¹
Ø§Ø² Ø¯
ĠÚ©Ùĩ Ø±Ø§Ùħ
ĠÚ©Ùĩ Ú©Ø´Ø§ÙĨ
Øµ Ø¨ØŃ
Ø§Ø¨ ÛĮÙĨ
Ø§Ø¨ Ú©Ø§Ø±ÛĮ
ĠÛĮ Ø§ÙĨ
ĠÛĮ Ú¯Ø§ÙĨ
ĠÛĮ Ø¹ÙĨÙī
ĠØ§ÛĮÙĨ ÚĨ
Ø· ÙĦØ§
Ø§Ø³ Ú©
Ø§Ø³ ÙĦ
Ø§Ø³ ÙĪØ±
Ø§Ø³ ÛĮØ¯
Ø§Ø³ Ø§ÙĨÛĮ
Ø±ÙĪ Ø³Øª
Ø±ÙĪ Úĺ
Ø±ÙĪ Ø§ÛĮØª
ĠØŃ ØµÛĮ
ĠØŃ Ø±ÛĮØ±
Ø§Ø´ ÙĪ
Ø§Ø´ ØªÛĮ
Ø§Ø´ ÙĨÛĮ
ĠØ§ Ú¯Ø²ÛĮ
ĠÙĤ ÙĪØ§
ĠÙĤ Ø§ÙħØª
ĠÙĤ ÙĪÚĨ
ĠÙĤ Ø³Ø·
ÙĦÛĮ ÙĪ
ÙĦÛĮ Ø§Ùħ
ÙĦÛĮ ÙĤ
ĠØ² Ùĩ
ĠØ² Ø§ÙĨ
ĠØ² ÙĪÙĦ
ĠØ² Ø§ÛĮØ¯
ĠØ² ØºØ§ÙĦ
ĠØ² Ø§Ú¯Ø±Ø³
Ù¾ Ùĩ
Ù¾ Ø±ÛĮ
Ù¾ Ø§Ø´
Ù¾ ÙĪØª
Ù¾ Ø±Øª
Ù¾ Ø±ÙĪØ±ÛĮ
Ù¾ ÙĪØ³ØªÛĮ
Ù¾ ÙĨÙĪØªÛĮ
Ù¾ Ø±Ø³ÛĮÙĪÙĨÛĮØ³Ùħ
ÙĩØ§ÛĮ Ùħ
ÛĮØ± Ø³
ÛĮØ± Ø§ÙĨÛĮ
ĠÚĨ ÙĨ
ĠÚĨ Ø§Ùĩ
ĠÚĨ ÛĮØ¯Ùĩ
ĠÚĨ ÛĮØ¯ÙĨ
ÛĮÙħ Ø§ÛĮ
ĠØ§ÙĨ Ø´
ĠØ§ÙĨ Ø±Ø§
ĠØ§ÙĨ ÙģØ¹
ĠØ§ÙĨ ÛĮÙħÙĩ
ĠØ§ÙĨ Ø±Úĺ
ĠØ§ÙĨ ØµØ±Ø§Ùģ
ÙĪÛĮ Ø³Ùĩ
ĠÙĩÙħ ÛĢ
ĠÙĩÙħ Ø§ÙĬØ´
ĠÙĩÙħ Ú©Ùģ
ĠÙĩÙħ Ú¯Ø±Ø¯ÛĮ
ĠÙĩÙħ ÙĥØ§Ø±ÙĬ
Ø¶ Ø§Ø±
Ø¶ Ø¹Ùģ
ĠØ¢ÙĨ Øª
ĠØ¢ÙĨ ÚĺÛĮ
ĠØ¢ÙĨ ÙĩØ§Ø¦ÛĮ
Ø§Ø±ÛĮ Ø§
Ø§Ø±ÛĮ Ø²Ùĩ
Ø³ÛĮ Ø§
ØªØ± ÙĦÛĮ
ØªØ± ÙĩØ§
ØªØ± ÙģÙĨØ¯
ØªØ± Ø§ÙħÙ¾
ØªÛĮ Ùģ
ØªÛĮ Ù¾
ØªÛĮ Ø´ÙĨ
ØªÛĮ Ø´ÙĪ
ĠÙĦ ÛĮØ¯
ĠÙĦ Ø³Øª
ĠÙĦ Ú©Ø³
ĠÙĦ Ø§ÙĬ
ĠÙĦ ÙĪØª
ĠÙĦ Ø§ÛĮÙĨ
ĠÙĦ ÙħÛĮÙĨ
ĠÙĦ Ø§Ø¨Ø±
ĠÙĦ ÙĨÚ©
ĠÙĦ ÙĪØ±ÙĨ
ĠÙĦ ÙĨÙĪÙĪ
ĠØ§Ùħ Ø§ÙĨ
ĠØ§Ùħ Ø§Ø±
ĠØ§Ùħ Ø¶Ø§ÛĮ
ĠØ§Ùħ ØªÙĨ
ĠØ§Ùħ Ø§Ø¯Ú¯ÛĮ
ĠØ§Ùħ Ø¬Ø¯
ĠØ§Ùħ Ø¯Ø§Ø¯ÛĮ
ĠØµ ÙĪØ±
ĠØµ ÙĪØ±ÛĮ
ĠØµ Ø±ÛĮØŃ
ĠÚ©ÙĨ Ú©
ĠÚ©ÙĨ Ø´
ĠÚ©ÙĨ Ø§Ø±Ùĩ
ĠÚ©ÙĨ ØªØ±ÙĦÛĮ
Ú©ÛĮ Ùĩ
Ø° ÛĮØ¨
ĠØ· Ùĩ
ĠØ· ÙĪÙħ
ĠØ· ÙĦÛĮØ³ÚĨÛĮ
ĠÙħÙĪ ÙĪÛĮ
ĠÙħÙĪ ØªÛĮÙģ
ĠÚ©Ø§Ø± Ø¢
ĠÚ©Ø§Ø± Ùī
ĠÚ©Ø§Ø± Ú¯Ø§ÙĩÛĮ
Ø§Ø¹ ÙĦØ§Ùħ
Ø§Ø¹ Ø¨Ø¯Ø§ÙĦÙĦÙĩ
Úĺ Ú¯ÛĮ
ĠØ¯Ø§Ø± Ø§ÙĦ
ĠØ¯Ø§Ø± ÙĬÙħ
ĠÙħÙĨ Ø§
ĠÙħÙĨ Ø´ÙĪØ±
ĠÙħÙĨ ÙĤØ±
ĠÙħÙĨ Ø§ÙģÙĤ
ĠÙħÙĨ Ø³ÙĪ
Ú¯Ø± ÚĨÙĩ
Ú¯Ø± Ø§ÛĮØ§ÙĨÙĩ
ĠÙħØŃ Ø§ÙĦÙĩ
ĠÙħØŃ Ø§ÙģÙĦ
Ø¸ ÛĮØ±
Ø¸ Ø±ÛĮÙģ
ØªÙĩ Ø¨
ĠÙĨÛĮ Ø§ÙĪØ±Ø§ÙĨ
ĠÙĨÛĮ ÙĪÙħÙĨ
ĠÙĨÛĮ Ø±ÙĪÙħÙĨØ¯
ĠÙĨÛĮ ØªØ±Ø§Øª
ĠÛĮÚ© Ø§ÛĮ
ĠÛĮÚ© Ø³Ø§ÙĦ
ĠØ®ÙĪØ¯ ÛĮ
ĠØ®ÙĪØ¯ Ú©Ø´ÛĮ
ĠØ®ÙĪØ¯ Ø¨Ø§ÙĪØ±ÛĮ
Ú¯ÛĮ Ø§Ùĩ
ĠØ§Ø± Ùĩ
ĠØ§Ø± Ø«
ĠØ§Ø± Ø§Ø¦
ĠØ§Ø± Ø¯ÙĨ
ĠØ§Ø± Ø§Ø¶ÙĬ
ĠÙĪÛĮ Ú©ØªÙĪØ±
ĠØ¨Ø§Ø² ÙħØ§ÙĨØ¯
ĠØªÙĪ Ø®
ĠØªÙĪ Ø¨Ùĩ
ĠØªÙĪ Ø§Ø¨Ø¹
ĠØªÙĪ ÙħØ§Ø³
ĠØ§ÙĦ Ø·
ĠØ§ÙĦ Ø°
ĠØ§ÙĦ ÛĮØª
ĠØ§ÙĦ Ø§ÙħØ§Ùħ
ĠØ§ÙĦ Ø´Ø¹
ĠØ¨ÛĮ ÙĢ
ĠØ¨ÛĮ Ø§ÛĮÛĮØ¯
ĠØ¨ÛĮ Ø³Ú©
Ø§ÙĨÛĮ ÙĪØ²
ÙĪÙħ Ø§
ÙĪÙħ ØªØ±ÛĮ
ĠØ¨Ø§Ø´ ÙĨ
ĠØ¨Ø§Ø´ Ú¯Ø§ÙĩÛĮ
Øº ÙĦØ§Ùħ
Øº Ø§ÙĦÙĩ
Ø§Ø® ÙĦÛĮ
Ø§Ø® Ø¨Ø±
ÙĨÛĮ Ø§ÛĮ
ĠÙģØ± Ø§ÛĮ
ĠÙģØ± Ø§Ø¯
ĠÙģØ± Ø¬Ø§Ùħ
ĠÙħØ± ÙħØª
ĠÙħØ± Ø§ØŃÙĦÛĮ
ĠÙħØ± ÙĤØ¯
Ø¨ÛĮ ÙĪÚ¯Ø±Ø§ÙģÛĮ
ĠÙħØ¹ ÙĪÙĤ
ĠÙħØ¹ Ø¬Ùħ
ĠÙħØ¹ Ø¨Ø¯
ĠÙħØ¹ Ø§Ø±ÙģÙĩ
ĠÙĨÙħ Ø§ÛĮÛĮ
ĠÙĨÙħ Ø§Ø¦
ĠÙĨÙħ Ø±Ø§Øª
ĠÙĨÙħ Ø§ÙĩØ§ÛĮ
ĠÙĨÙħ ÛĮØ±Ùĩ
ĠÙ¾ÛĮ Ú¯ÛĮØ±
ĠÙ¾ÛĮ ÚĨÛĮ
ĠÙ¾ÛĮ Ø±ÙĪØ§ÙĨ
ĠÙħØ¯ ØŃ
ĠÙħØ¯ ÙĦÛĮ
ĠÙħØ´ Ú©
ĠÙħØ´ Ø§ÙĪ
Ú©ÙĨ Ú©
ĠØªØ§ ÙĬÙĬØ¯
ĠØ§Ùģ Ú©Øª
ĠØ§Ùģ Ø³Ø±
ĠÙħØª Ø§ÙĦ
ĠÙħØª Ø¶
Ø¨Ø± Ø§ÙĦ
Ø¨Ø± Ø§Ø¨Ø±
Ø¨Ø± Ø§Ø³Ø§Ø³
Ø¨Ø± Ø´Ø§ØªØ³
ĠØªØ± Ø§
ĠØªØ± ØŃ
ĠØªØ± Ø§Ùģ
ĠØªØ± ÙĨØ¬
ÙĩØ± Ø§Ùħ
ĠØ¯Ø³Øª ÙĬ
ĠØ¯Ø³Øª Ø´Ø§ÙĨ
ĠØ¯Ø³Øª ÙĬØ§Ø¨ÙĬ
ĠØ¯Ø³Øª Ø¨Ø§Ùģ
ĠØ¨ÙĪØ¯ ÛĮØ¯
ĠØ´Ø¯ Ú¯ÛĮ
ĠØ´Ø¯ ÙĨÛĮ
Ø¢ Øº
Ø¢ ÙĨØ§
Ø¢ ÛĮÙĨÙĩ
Ø¢ ÛĮÙģÙĪÙĨ
Ø¢ ÙģØ±ÙĬÙĨØ´
Ø¢ Ø±ÙħÙĩ
ĠØ³Ø± Ø¨ÛĮ
ĠØ³Ø± ÙĩÙĨÚ¯
ĠØ³Ø± Ø¨Ø§ÙĦ
ĠØ³Ø± ØªØ§ÙĨ
ĠØ³Ø± Ø´ÙĨØ§Ø³
ĠØ³Ø± Ø¨Ø§Ø²
ĠØ³Ø± Ø¨ÙĦÙĨØ¯
ĠØ³Ø± ÙĬØ§ÙĦ
ÙĤÛĮ Ø§ÙĨ
ĠØ±ÙĪ ÙħÛĮØ§ÙĨ
ĠØ®ÙĪ Ø¨Øª
Ø²ÛĮ Ø¨Ø§
ĠØ¯ÛĮ Ú©
ÙĪØ±ÛĮ ØŃØ§ÙĨ
ÙĦÙħ ÙĨ
ĠØº ÙĪØ±
ĠØº Ø§Øµ
ĠØº ÛĮØ¨
Ø¯Ø± Ø³Øª
Ø¯Ø± Ø¢ÙħØ¯
ĠØ³Ø§ÙĦ ÙħÙĨØ¯
ĠÙħØ¬ Ø¨
ĠÙħØ¬ Ø±Ø¯
ĠÙħØ¬ Ø§Ø¨
ĠÙħØ¬ Ø§ÙĩØ¯
ĠÙħØ¬ ÛĮØ¯ÛĮ
ĠÙħØ¬ Ø±ÛĮØ§ÙĨ
Ø§Ø³Øª Ø®Ø±
ĠÚ©Ø´ Ùħ
ĠÚ©Ø´ ÙĨØ¯
ĠÚ©Ø´ ÛĮØ¯Ú¯ÛĮ
ĠØ§ÛĮØ±Ø§ÙĨ Ú¯Ø±Ø¯ÛĮ
ĠÙĤØ± ÙĤ
ĠÙĤØ± ÙħØ²ÛĮ
Ú©Ø³ Ø§ÙĦÛĮ
ĠØ¯ÙĪ Ø³Ø±
ĠØ¯ÙĪ Ø·Ø±Ùģ
ĠØ¯ÙĪ Ø§Ø²Ø¯ÙĩÙħÛĮÙĨ
ĠÙħÙĤ ÙĬ
ĠÙħÙĤ ÙĪÛĮ
ĠÙħÙĤ ØµØ±
ĠÙħÙĤ ÙĪÙĦØ§Øª
Ø§ÛĮØ´ Ø§Øª
Ø¦ ÛĮÙĨÚ¯
ĠÙħØ³ Ø§ØŃØªÛĮ
Ø§ÙĤ Ø¶
Ø§ÙĤ Ø¨ÙĦ
ĠØ¬Ø¯ÛĮØ¯ ØªØ±
ĠØ³Ø§Ø² ÛĮÙħ
Ø§Ø±Ø¯ ÙĪ
Ø§Ú© Ø§ÙĨÛĮ
Ġ1 10
ĠØªØŃ Ú©ÛĮÙħ
ĠÙĥ Ø§Ø±Øª
ØªÙħ Ø±Ú©Ø²
Ø§Ø· ÙĤ
Ø§Ø· ÛĮÙĨ
ĠÙĩØ± Ú¯Ø§Ùĩ
ĠØ¹Ùħ Ø¯ÛĮ
ĠÚ¯Ø± Ø§ÛĮÛĮ
ĠÚ¯Ø± Ø§ÙĬØ´
ĠÚ¯Ø± Ø§ÙħÛĮØ¯
ĠÚ¯Ø± Ø³ÙĨÚ¯ÛĮ
ĠÙħÙĩ ÛĮØ§
ĠÙħÙĩ ÛĮØ§Ø±
ĠØ¯Ø§ÙĨØ´ ÛĮØ§Ø±ÛĮ
Ùĥ Ø§Ø±Ø§ÙĨ
ĠÚ©Ùħ Ù¾Ø±Ø³
ĠÚ©Ùħ ÙĬØ³ÙĬ
Û° Û±
Û° Û¸
Ø§Ø¦ ÙĪ
Ø§Ø¦ Ùī
Ø§Ø¦ ÙĤÙĩ
ĠØ³ÛĮ Ùĩ
ĠØ³ÛĮ ÙĦÛĮ
Ø§Øµ ÙĪÙĦ
Ø§Øµ ÙģÙĩ
ÙħÙĨ Ø´
ÙħÙĨ Ø´ÙĪØ±
ÙħÙĨ ØªÙĤ
ĠØ¨Ø¯ ÙĬÙĨ
ĠØ¨Ø¯ Ø®ÙĪØ§Ùĩ
ĠØ¨Ø¯ ÙĨØªØ§ÙĨ
Ø§ÙĬ Ø§
ĠØ¬Ùħ Ø§Ø¯Ùī
ĠØ¬Ùħ ÙĦØ§ØªÛĮ
ĠØ§Øµ Ø§Ø¨Øª
ĠØ§Øµ ØŃØ§Ø¨
ĠØ³ÙĪ Ø§ØŃÙĦ
ĠØ³ÙĪ Ø®ØªÛĮ
ĠØ¯ÙĪØ± ÛĢ
ĠØªØ¹ Ø§Ø±ÛĮÙģ
ĠØ±Ø³ ÙħÙĬ
ĠØ±Ø³ ÙĬØ¯ÙĨ
ĠØ¢Ø²Ø§Ø¯ ÙĬ
ĠØ¢Ø²Ø§Ø¯ Ø±Ø§Ùĩ
ĠÙģÛĮ Ú©
ĠÙħØ· ÙĦÙĪØ¨ÛĮ
ÙĦÙĪ ÙħÛĮØª
ĠØ§Ø¹ Ø¯Ø§Ùħ
ĠØ§Ø¹ ØªÙĦ
ĠØ§Ø¹ ÙĦÙī
ĠØ±ÙĪÛĮ Ø§Ø±ÙĪÛĮÛĮ
ĠØªÙħ Ø±ÛĮÙĨÛĮ
ÙĢ Ø¨
ĠØ§Ø¨ Ø§Ø¹Ø¨Ø¯Ø§ÙĦÙĦÙĩ
ĠØ§Ø¨ ÙĪØ±ÛĮØŃØ§ÙĨ
Ø¨Ø§ÙĨ ÛĮØª
ĠØ±ÙĪØ² Ø§
ĠØ±ÙĪØ² Ø§ÛĮ
ĠØ±ÙĪØ² ÙĨÙĩ
ÙĪØª ÙĪ
Ø§ÛĮÙĨ Ú©Ùĩ
ØªØ§Ø¨ ÙĦÙĪ
ĠÙĨØ§Ùħ Øª
ĠÙĨØ§Ùħ Ø¯Ø§Ø±
ĠØ§ÙĪ Ú©Ø±
ĠØ§ÙĪ Ø¬Ø§
Ġ: )
ĠÚ©ÙĦ Ú©
ĠÚ©ÙĦ ÙĬÙĩ
ĠØ¨Ø³ÛĮ Ø¬ÛĮ
ĠØªÙĩ ÙĪØ¹
ĠØªØµ ÙģÙĬÙĩ
ĠØ§ÙĨØ¯ Ø§Ø®Øª
Ø®Ø´ ÙĪÙĨØª
ĠØ®Ø±ÛĮØ¯ Ùħ
ĠØ¹ÙĦ Ùģ
ĠØ¹ÙĦ ÙĪÛĮØ§ÙĨ
ÙĪØ¨ ÙĨ
ÙĪØ¨ Ø²
ÙĪØ¨ Ø³Ø§ÛĮØª
ĠÙĨØ´ ÛĮÙĨÛĮ
ĠÙ¾Ø§ÛĮ ÛĮÙĨÛĮ
ĠÙ¾Ø§ÛĮ ÛĢ
ÙĪÙĨØ¯ ÙĨ
ÙĪÙĨØ¯ Ø§ÛĮ
ĠØ§Ø· ÙĦØ³
ĠØ§Ø· Ø±Ø§ÙģÛĮ
ĠØ§Ø´ Ø§ÙĨØªÛĮ
ĠØ¶ Ø§ÛĮØ¹
ĠÙ¾Ø±ÙĪ Úĺ
ĠÙ¾Ø±ÙĪ Ø³ÛĢ
ĠÚ¯ÙģØª ÙĨÛĮ
ĠØ§ÙĤ Ø§
ĠØ§ÙĤ Ø§ÛĮ
ĠØ§ÙĤ Ø§ÛĮØ§ÙĨ
ĠØ§ÙĤ Ø¨Ø§ÙĦÛĮ
ĠÚ©ØªØ§Ø¨ ÙĩØ§ÛĮ
ĠÚ©ØªØ§Ø¨ Ø¯Ø§Ø±
ÙħØª Ø§ÙĨ
ÙħØª ÙĪÙĨ
ĠØ¨Ø§ÙĦ Ø§Øª
ĠØ¨Ø§ÙĦ ÙĪÙĨ
ĠØªÙĦ Ø§Ø¶
ĠØªÙĦ ÙĪØ²ÛĮ
ĠØªÙĦ ÙģÛĮÙĤ
ĠØ´Ùĩ Ø¯
ÙģØ± Ø´
ÙģØ± Ø§ØªØ§Ø±ÛĮØ®
Ġ9 9
Ø§Ø±Øª Ø§ÙĨ
Ø§Ø±Øª ÙħØ§ÙĨÛĮ
ÙħØ¯ Ø§Ø±Ø§ÙĨ
ĠÙģÛĮÙĦÙħ ÙĩØ§ÛĮ
Ø¯Ø§ÙĨ ÛĮÙħ
Ø¯Ø§ÙĨ Ø´Ú©Ø¯Ùĩ
ĠØ±Ø§Ùĩ Ø²ÙĨ
Ú©Ø§Ø± Ø§ÙĨÙĩ
ĠØ¨Ø¹ ÛĮØ¯
ÙģÛĮ ÙĤÛĮ
ĠØ³Ø§Ø®Øª ÙĨØ¯
ĠÚ¯ÛĮ ØªÛĮ
ĠÚ¯Ø° Ø±Ø§
ĠØ´ÛĮ Ø±ÛĮ
ĠØ´ÛĮ Ù¾
ĠØ²ÙħØ§ÙĨ Ùī
ĠØªÙĨ Ùħ
ĠØªÙĨ ÙĩØ§ÙĬÙĬ
ĠØ¯Ø§Ø¯ Ø§Ø´
Ø³Ø¨ Ú©
Ø§ØªÛĮ ÙĦÛĮ
ĠØ¨ÛĮÙĨ ÛĮÙħ
ĠØ±ÛĮ ÙĪØ±
ĠØ±ÛĮ ÙĪÛĮ
ĠØ§ØŃ Ø´Ø§Ùħ
ĠÙ¾Ø± Ø±ÙĨÚ¯
ĠÙ¾Ø± ÙĤØ¯Ø±Øª
Ġ20 20
ĠØ¨Ø§Ø± Ú¯Ø§Ùĩ
ĠØ¨Ø§Ø± Ø§ÙĨÛĮ
ĠØŃØ³ ÙĪØ¯
ĠØŃØ³ ÙĨÛĮ
ØªØ¨ Ø§Ø³
Ø§Ø¶ Ø·Ø±
ĠÙħÙĬ Ø¨Ø§Ø´Ø¯
ĠØ¢Ø¨ Ø±ÙĪ
an de
ĠØ´Ø¨ ÙĬÙĩ
ĠØ´Ø¨ ÙĥÙĩ
Ù¾ÛĮ Ù¾Ø±
ĠØªØ¬ ÙĦÛĮ
ĠØªØ¬ Ø§Ø±Ø¨
ĠÙĩÛĮ Ø´Ú©ÛĮ
ĠÙĩÛĮ ÙĪÙĨØ¯Ø§ÛĮ
ĠÙĨØ³ Ø§Ø¬ÛĮ
ÙĨØª Ø§ÙĦ
ÙĨØª ÙĪÙĨ
ĠÙħØµ ÙħÙħ
ĠÙħØµ Ø§Ø¯Ùģ
ĠÙħØµ Ø¨Ø§ØŃ
Ø´Ùħ Ø§ÙĦ
ĠØ³ÙĪØ§ÙĦ Ø§ØªÛĮ
ĠØ´ÙĨ ÛĮØ¯ÙĨÛĮ
ĠØŃØ¶ Ø±Ø§Øª
ĠØ¨ÙĦ Ø§ÙĦ
ĠØ¨ÙĦ Ø§ÛĮÛĮ
ĠÚĨÙĨØ¯ Ú¯Ø§ÙĨÙĩ
Ùĭ ØĮ
ĠØ¨ÙĨ ÙĪØ´
Ú¯ÙĦ Ø³ØªØ§ÙĨ
ĠÙĨÙĪ Ø¨Ùĩ
ĠØ¹Ø§Ø´ÙĤ Øª
ĠØªØ´ Ø¨ÛĮÙĩ
Ø±Øª Ø§ÙĨ
ĠØ§ÙģØ± Ø§Ø·ÛĮ
ĠØ±Ø§ÛĮ Ø²ÙĨÛĮ
ĠÙĨÛĮØ³Øª ÛĮ
ĠØ®Ø¯Ùħ ØªÛĮ
Ø±ÙĪØ² ÙĬ
Ø±ÙĪØ² Ø§ÙĨÙĩ
ĠÙĨÙĩ Ø§Ø¯Ùĩ
ĠÙĨÙĩ ÙħÛĮÙĨ
ĠØ° Ø§ØªÛĮ
ĠØ° ÛĮÙĨÙģØ¹
ĠØ° Ø§Ø¦ÙĤÙĩ
ĠØ¢Ø± ØªÛĮØ´ÙĪ
ar i
ĠÚ¯Ø±ÙĪÙĩ Ùĩ
ØªØµ ÙģÛĮÙĩ
ĠØªÙĪØ¬Ùĩ ÙĬ
ÙĨÙħ Ø§ÙĬ
ĠS D
ĠS E
ĠS ey
Ø§ÙĪ Ùģ
Ø§ÙĪ Ø¶Ùĩ
Ø§ÙĪ Ù¾Ú©
in ary
in ux
Ø§Ù¾ ÙĪØ±
Ø§Ù¾ Ø²Ø´
ĠÙģØ¹Ø§ÙĦ ÛĮÙĨ
ĠÙģØ¹Ø§ÙĦ Ø³Ø§Ø²ÛĮ
ĠØ®Ø§ÙĨ ÙĪÙħÛĮ
ĠØªÙĩØ±Ø§ÙĨ Ù¾Ø²Ø´Ú©Ø§ÙĨ
ĠÙħÙĪØ¶ÙĪØ¹ ÙĬ
ĠÙĨØ¯ Ø§ÛĮ
ĠÙĨØ¯ Ø§Ø´ØªÙħ
ĠØ³Ø¨ Ùĥ
ĠØ¯ÙĦ Ø´
ĠÚ©ÙĪ Ø±ÛĮÙĨ
ĠÚ©ÙĪ ÙĦÛĮÚ©
Ú¯Ø² ÛĮØ¯Ùĩ
ĠØºØ° Ø§ÙĩØ§
ĠÙ¾Ø±Ø¯ Ø§Ø®ØªÛĮ
ĠØ³Ùĩ ÛĮÙħ
ĠÙħØ³Øª Ø¹Ø§Ø±
ĠÙħØ³Øª ØŃÙĤ
ĠÙħØ³Øª Ø¶Ø¹Ùģ
ĠØ§Ø³ØªØ§ÙĨ ÙĩØ§ÛĮ
ĠØ§Ø³ØªØ§ÙĨ ÙĩØ§
Ø³Ø§ÙĨ Ùī
ĠØºÛĮØ± Øª
ĠØºÛĮØ± ÙħØª
ĠØºÛĮØ± ÙħØ±ØªØ¨
ĠØºÛĮØ± ÙģØ¹Ø§ÙĦ
ĠÚ©ÙħÚ© Ùħ
ĠÙħØ¯ÛĮØ± Ø§ÙĨÛĮ
ĠP ar
ĠP re
ĠP and
ĠP ars
ĠP IC
ĠP ES
ĠÚ©Ø§Ùħ Ø±Ø§ÙĨ
ĠÙ¾ÙĪØ³Øª ØªØ§ÙĨ
ĠØ®Ø¨Ø± ÙĬ
ĠØªÚ© ÙĦÙħ
ĠØªÚ© Ø±ÛĮÙħ
ĠØ¯ÛĮØ¯ ÛĮØ¯
ĠØ§ÙģØ±Ø§Ø¯ ÙĬ
ÙĢÙĢ Øª
ÙĢÙĢ Ùħ
ĠØ¸ Ø§ÙĦÙħØ§ÙĨÙĩ
Ø¯Ø§Ø¯ ÙĨ
ĠØ§ÙħØ§Ùħ Ø²Ø§Ø¯Ùĩ
ĠÙħØ¹Ùħ Ø§ÛĮÛĮ
ĠØ¨Ø¹Ø¯ ÙĬ
Ø£ Ø¹ÙĦÛĮ
ÙĨØªÛĮ Ø¬Ùĩ
ĠØ³Ù¾ Ø±Ø¯
ĠØ³Ù¾ Ø§ÙĩÛĮØ§ÙĨ
ĠÙħÙĩÙħ ÙĬ
ĠÚ©ÙĦÛĮ Ø³
ĠØŃÙħ ÛĮØ¯ÛĮ
ĠD on
ĠD is
ĠD NA
ĠD irect
Ø±Ú© Ø²ÛĮ
ĠÙĨÙĪØ´ ØªÙħ
ĠC R
ĠC Z
ĠC raf
ĠC omment
ĠØ¢ÛĮ ÙĦØª
Û± Û¶
ĠØªÙħØ§Ùħ Ø§
ĠÙĤØ· Ø±ÛĮ
ĠÙĤØ· Ø¨ÛĮ
ĠÙĤØ³ÙħØª ÙĩØ§ÛĮ
ĠÚ¯Ø±ÙģØª ÛĮØ¯
or g
or s
ĠÙĩØ¯ Ø§ÙĬØª
Ú¯ÛĮØ± ÙĨØ¯Ú¯Ø§ÙĨ
ĠØ®Øµ ÙĦØª
ĠØ¬Ø§ÛĮ Ú¯Ø§ÙĩÛĮ
ad l
ad id
ad ey
ĠÙħØ±Ú© Ø¨
ĠÚ©ÙĪØ¯Ú© ÙĦÙĪØ§Ø²Ùħ
es ign
ĠÙħÙĨØ§Ø³Ø¨ Ø§Øª
en a
âĢ¦ )
ĠØ¹ÙĦÛĮ Ø±ØºÙħ
ĠØ·Ø¨ Ø³
ĠØ¬ÙĨÚ¯ ÛĮØ¯
ĠØ¬ÙĨÚ¯ ÙĨØ¯Ùĩ
ĠÚĨØ´Ùħ Ø§Ùħ
Ø§Ø« ÙĨØ§
ĠÙĦÛĮ ÙĪÙĨ
ĠÙĦÛĮ ÙģØª
ĠÙĦÛĮ Ø§ÙĤØª
ĠÙĦÛĮ ÙĪØ±Ù¾ÙĪÙĦ
ĠØ¯ÙĪÙĦØª ÙĬ
ĠÙħÙĦ ØŃ
ĠÙħÙĦ Ú©ÛĮ
ĠÙħÙĦ ØªÙĩØ¨
Ġ5 1
Ġ5 4
ĠB as
ĠB ache
ĠB lock
ĠÚ©ÛĮ ÙĦ
ĠÚ©ÛĮ ØªÛĮ
ĠØ³Ø§ÛĮ Ø¨Ø§ÙĨ
ĠØ³ÙĨÚ¯ ÙĩØ§
Ø¬Ø§ ÙĪÙĩ
Ø´Ø± Ø§ÛĮØ·
Ø´Ø± ÙħØ§ÙĨÙĩ
ĠÙģÙĤ Ø±Ùĩ
at ic
Ġ4 3
Ġ4 4
Ġ4 000
ĠÚ¯ÙĪØ´ ØªÛĮ
ir d
ĠT TL
ĠT QM
ĠØªÛĮ ØºÙĩ
ĠØ¨ÙĨØ¯ Ú¯Ø§ÙĨ
ÙĬÙħ ØªØ±
ĠÙĦÙĪ Ù¾Ø²
ĠØ´Ø§Ø¯ Ú©Ø§Ùħ
ĠØ¯Ø®ØªØ± Ùĩ
ĠØ¯Ø®ØªØ± ÙĩØ§
ĠÚ©Ø§ÙĦ Ø±
ĠÙħÙģ ÙĬØ¯
ĠÙħÙģ Ø§Ø®Ø±
ĠÙĪØ§ Ú¯ÛĮØ±
ĠÙĪØ§ ÙĪÛĮÙĦØ§
ĠØŃÙĦ ÙĩØ§ÛĮ
ĠØŃÙĦ ÙĪÙĦ
ĠØŃÙĦ Ø²ÙĪÙĨ
ĠØ³Ùģ ÛĮÙĨÙĩ
20 16
Û² Û·
ĠØ§ÛĮÙħ ÙĪÙĨ
ĠØªÙģ Ø§Ø³
ĠI R
ĠI V
ĠI t
ĠÙħÛĮØ§ÙĨ Ø¨Ø±
Ø¨Ø±Ø§ÙĨ Ú¯ÛĮØ²
ĠÙĤØ¯ ÙħÛĮ
ĠØ§ÙģØª Ø§Ø¯Ú¯ÛĮ
ĠØŃØ¶ÙĪØ± Ø´
ĠÙĪØ§ØŃ Ø¯ÛĮ
ĠØ®ÙĪØ¯Ø±ÙĪ Ø³Ø§Ø²ÛĮ
ĠÙĪØ² ÙĨØ¯Ú¯ÛĮ
ĠÙĩØ¯Ùģ ÙħÙĨØ¯ÛĮ
ĠØ¹ÙĦÛĮÙĩ ÙħØ§
ĠÙĪØ§ÙĤØ¹ ÙĬ
ĠØ¹Ø´ ÙĤÙĩ
ĠÙĪØ³ Ø§Ø¦ÙĦ
ĠØ¹Ø¨ Ø§Ø¯
ĠØ§Ø¬Ø± Ø§Ø¡
ĠØ¯Ùģ ÙĨ
ĠØ®ÙĪØ§ÙĨ ÙĨØ¯
ÙĩÙħ Ø²ÙħØ§ÙĨ
ĠÚ©Ø± ÙħØ§ÙĨÛĮ
ĠØ¢Ø³ÛĮ Ø¨ÛĮ
oo t
ĠÙħÛĮÙĦ Ø±
ĠÙħÛĮÙĦ Ø²
ĠG L
ĠG al
ĠG re
ĠØ¨Ø® ÛĮØ±
ĠØ¨Ø® ÙĪØ±ÛĮÙħ
ĠØ§ÙĦÚ©Øª Ø±ÛĮÚ©
ĠØ¨ÙĩØªØ± Ùĩ
ĠÙħØ¯Ø±Ø³ ÛĮÙĨ
ĠØªØ®Øµ ÙĬØµ
ĠØ±Ùĩ Ú¯ÛĮØ±ÛĮ
ĠÚ©Ø§Ø±Ø¨Ø±Ø¯ Ùĩ
ĠÙħÙĪØ¬ÙĪØ¯ Ø§Øª
ĠØ·Ø±Ùģ Ø¯Ø§Ø±ÛĮ
ĠF il
ĠF ran
ĠF low
ĠF unny
ĠÚ©ÙĪÚĨ ÙĪÙĦ
ĠÚ©ÙĪÚĨ Ú©ØªØ±ÛĮÙĨ
ĠÚ¯ÙĪ Ø§Ùĩ
ĠØ¯ÙĪØ³Øª Ø´
ĠØ¢ÙĦ Ø§Ø±Ùħ
ĠØ´Ú©ÙĦ Ø§ØªÛĮ
Ġm e
Ġm j
ÙĬØª ÙĬ
Ġ7 8
ÙħØ³ ÛĮØ±
ro id
ĠÙ¾ÛĮØ¯ Ø§Ø³Øª
ĠÙ¾Ø°ÛĮØ± ÙĨØ¯
as on
as ino
ĠØ¹Ø´ÙĤ Ùħ
ĠR h
ĠH uawei
Ø¯Ø§Ø´Øª ÙĨ
ĠØ³ÙģØ± ÙĩØ§ÛĮ
Ġs a
Ġs e
ĠÙħØ±Ú©Ø² ÙĬ
ĠØ´Ø¹ Ø±ÛĮ
ÙħØ¹ Ø§Ø¯ÙĦ
ÙħØ¹ Ø§Ø±Ùģ
ĠØ³Ø® ÙĨÚ¯
ĠÚ¯Ø³Øª Ø±Ø¯Ú¯ÛĮ
Ġ6 1
Ġt ranslation
ÙħØ± Ú¯
ÙħØ± Ø§Ø¯ÛĮ
ÙħØ± Ø§ÙĤØ¨Øª
ĠØ¨Ø±Ú¯Ø²Ø§Ø± Ú©ÙĨÙĨØ¯Ú¯Ø§ÙĨ
ÙħØŃ ÙĪØ±
ÙħØŃ ÙħØ¯ÛĮ
ÙħØŃ ÙĪØ·Ùĩ
Û´ Û²
Û´ Ûµ
ĠÙ¾ÙĬ ÙħØ§ÙĨ
ĠÙ¾ÙĬ Ø´ÙĨÙĩØ§Ø¯
ĠØ§Ø±Ø²Ø´ ÙĩØ§
ĠÙ¾ÚĺÙĪÙĩØ´ ÙĩØ§ÛĮ
ĠÚ©Ùģ Ø´Ú©
ĠØŃÙģ Ø§Ø±ÛĮ
ĠÙģÙĪÙĦ Ø§Ùħ
ĠÙģÙĪÙĦ Ø¯Ø±
ĠØ¨Ø±ÛĮ Ø²Ø¯
ĠØ´Ø§Ùĩ Ø§ÙĨ
ĠÙħÙĪØ³ ÙĬÙĤÙĬ
Ġp s
Ġp ost
Ġp age
ĠØ§ÙĨØ¯Ø±ÙĪÛĮØ¯ Ø¨Ø§Ø²ÛĮ
ĠÙħØ° Ø§ÙĩØ¨
ĠÛµ Û±
Ġ8 6
ĠÙĨØ¨ Ø´
ĠØ¢Ø´ ÙĪØ¨
ĠØ¢Ø´ ØºØ§ÙĦ
ĠÙģØ´Ø§Ø± ÙĩØ§
Ø¸Ùĩ ÙĪØ±
ĠÙħØ¹ÙĨ Ø§Ø¦ÛĮ
ĠÙħØ¹ÙĨ ÙĪÙĬ
ĠÙĨØ¯Ø§Ø± ÙĨ
ĠØ®Ø± Ø§Ø´
ĠØ®Ø± Ø§Ø³Ø§ÙĨÛĮ
ot her
Ø¯Ø±ÛĮ Ø¬Ø§ÙĨ
ĠÙħØº Ø±
ĠÙħØº Ø°ÛĮ
ĠØ®ÙĪØ¨ ÙĬ
ĠÙĩÙĨØ± ÙĩØ§ÙĬ
ĠÙĨÙĬ Ø§Ø²Ùħ
ĠØ§ÙħÙĨ Ø§ÛĮ
ÙħØ¯ÙĦ ÙĩØ§ÛĮ
ÙĩÛĮ Ù¾ÙĨÙĪØªÛĮ
ÙĩØ¯ Ø§ÛĮØª
re f
re me
Ú©ÛĮØ¯ Ø§ÙĨØ´Ú©Ø¯Ùĩ
Ø§ÙģØª ÙĨØ¯
ĠØ¹Ø¶ ÙĪÛĮ
ĠÙĨÛĮÙħ Ø§
ĠÙĨÛĮÙħ Ú©Øª
ĠÙĨÛĮÙħ Ø±ÙĪØ²
Û¸ Û¸
ĠL CD
Ġc an
Ġc ont
Ġc asino
ĠØ§ÙĦØ¹ Ø§ÙĦÙħ
ĠÙ¾ÙĦ ÙĨÚ¯
ĠÙģÙĪØª ÙĪÙĨÛĮÚ©
ĠØ·ÙĦ Ø§Ø¨
Ú¯Ø°Ø§Ø± ÛĮÙħ
ĠÙĪÛĮÚĺ ÙĩØ±Ø³Øª
ĠÙħØ² Ø§ÛĮØ§
ÙĩÙĨ ÙĪØ²
ĠE S
Ġh ref
ĠØ³Øª Ø§Ø±ÛĮ
ĠÙĤØ§ÙĨÙĪÙĨ ÙĬ
ĠÙĩÙħÛĮ Ø§Ø±
ĠÙĩÙħÛĮ Ø§Ø±ÛĮ
ĠÙħØªØ± ÙħØ±Ø¨
ĠÙħØªØ± Ø§Ø¯Ùģ
ĠØ¹Ø¨Ø§Ø± Ø§Øª
Ú©ÙĪ Ø¨ÛĮ
Ú©ÙĪ ÚĨÙĩ
Ú©ÙĪ Ù¾ÛĮ
ĠØ¨ÙĬ Ø±ÙĪÙĨ
ĠØŃØ³Ø§Ø¨ Ø´
ĠÙ¾Ø±Ø³Ø´ ÙĩØ§
ØªØ´ Ø®ÛĮØµ
ĠØ¨Ø³ Ø·
ĠØ¨Ø³ Ø§Ø·
ĠØ¨Ø³ Ø§Ø²ÙĨØ¯
ĠÚ©Ø¯ ÙĪØ¨ÙĨ
ĠÙĦØ· ÛĮÙģ
Ú¯Ø±ÙĪÙĩ ÛĮ
ĠÙĪÛĮÚĺÚ¯ÛĮ ÙĩØ§
om b
om et
ĠÙĪÙĦ Ú¯Ø±Ø¯
Ø¬Ø§Ùħ Ø¹
ĠØ®ÙĪÙĨ ÙħÙĪÙĨ
ÙĪØ±Ø´ ÙĪ
ĠÛ´ Û·
ĠV PN
ĠÚ¯ÛĮØ± Ùĩ
ĠÚ¯ÛĮØ± Ùħ
ĠØ¨ÙĦÙĪ Ú©
ĠØ¨ÙĦÙĪ Ø·
ĠØ·ÛĮ Ø¨Ùĩ
ĠØ§Ø¨Ø²Ø§Ø± ÙĩØ§ÛĮÛĮ
ĠØ§Ø³Ù¾ Ø§Ø³Ùħ
ĠØ§Ø³Ù¾ ÛĮÚ©Ø±
Û· Ûµ
Û· Û¸
el d
Ø²ÙĨ ÛĮÙħ
ĠÙĩÙĪØ´ ÛĮØ§Ø±
ĠØ¬Ø¯ Ø§Ø¦ÛĮ
ĠÙĪÙĤØª ÙĩØ§
ĠÙĪÙĤØª Ø´Ùĩ
Ġ12 5
ÙĨØ¸ ÛĮØ±
Ú¯ÙģØª ÙĨØ¯
ĠØ¯ÙĬ Ú¯
ĠØ¢ÙħÙĪØ² ÙĬ
Ġd o
Ġd ay
ĠÙĪØ¸ ÙĬÙģÙĩ
ĠW AV
Ú©Ø´ ÛĮØ¯
ĠØ¯Ø³ØªÙĪØ± ÙĩØ§ÛĮ
ĠØ§Ø¨ØªØ¯Ø§ Ùī
ch base
Ġ0 3
ĠØ¹ÙĤ ÙĦÛĮ
ĠØ¹ÙĤ Ø§ÙĬØ¯
ĠÙ¾ÙĨ ÚĨ
ĠÛ· Û±
ĠÙħØªÙĤ Ø§Ø¨
ĠÙ¾ÙĪÙĦ Ø§Ú©
ĠÙħØ§Ø¯Ø± Ø²Ø§Ø¯ÛĮ
ĠØ§ÙĪÙĨ Ùħ
ĠØ§Ù¾ ØªÛĮÚ©
ĠØ§Ù¾ Ø±ÛĮÙĪÛĮÙĪ
ĠØ§ØµØ·ÙĦØ§ØŃ Ø§
Ø¨Ø§Ø²ÛĮ Ú¯Ø±
ĠÙħØ´ØªØ± Ùĥ
ÙĨÙĪÛĮØ³ Ùħ
ĠØ§ÙĨØ¯ÛĮ Ø´ÛĮØ¯Ùĩ
ĠØ§ÙĨØ¯ÛĮ Ø´ÙħÙĨØ¯Ø§ÙĨ
ĠØ®ÙĪØ¯Ø´ ÙĪÙĨ
ĠÚĨØ§Ù¾ Ú¯Ø±
ĠØ¢Ø¨Ø§Ø¯ Ø§ÙĨ
ab les
ĠÛ¶ Û´
ĠÙħØ¤ Ø«Ø±ÛĮ
ĠØ³ÛĮØ¯ Ø¬ÙħØ§ÙĦ
ĠØµØ¯Ø§ ÙĪØ³
ĠØµØ¯Ø§ Ú¯Ø°Ø§Ø±ÛĮ
ĠÚĨÛĮØ² Ø§
ĠÚĨÛĮØ² ÙĩØ§ÛĮ
ĠØ¨Ø¨ Ø§Ùģ
ĠÙĨØ§Ø± ÙģÛĮÙĤ
ĠØ®ÙĪØ§Ø³Øª Ú¯Ø§Ø±
ĠØ®ÙĪØ§Ø³Øª Ú¯Ø§Ø±Ø§ÙĨ
Ø§ÙħØ§ Ú©ÙĨ
ĠØ®Ø±ÙĪ Ú©ÛĮÙĨ
ĠÙħÛĮÚ© ÙĨÛĮ
ĠÙħÛĮÚ© Ø§Ù¾
ĠÙħÛĮÚ© Ø±ÙĪÙĨ
im o
im es
ĠÙ¾ÙĪØ± Ø´Ùĩ
Ø¢ÙħÙĪØ²Ø´ Ú¯Ø§Ùĩ
ĠÛ±Û° Û²
ol f
ĠÙĤÙĪØ§ÙĨ ÙĬÙĨ
ĠÛ¹Û ±
ĠØ³Ú© ÙĪÛĮ
Ø¬ÙĪØ§ÙĨ Ø§ÙĨ
ĠÙħØ§Ùħ Ø§ÛĮÛĮ
ĠÙģØ§Ø· ÙħÙĬ
ĠÙĥØ§Ø± Ø´ÙĨØ§Ø³
ĠJ our
ĠÙħØ§ÙĦ ÛĮØ¯ÙĨ
ĠÚ¯ÙĪÛĮ ÛĮÙħ
ĠØ·Ø¨ÙĤ Ø§ØªÛĮ
Û¹ Û°
ĠU s
ĠÙħØŃØ³ ÙĨÛĮ
ĠØ¹Øµ Ø¨Ø§ÙĨÛĮØª
ĠÙĨÙĪØ´Øª ÙĨØ¯
ĠØµØ§Ø¯ÙĤ Ø§ÙĨÙĩ
ĠÙĪØ§ÙĦ Ù¾ÛĮÙ¾Ø±
ĠØ¯Ø±ÛĮ Ø§ÙĨ
ĠØ¯Ø±ÛĮ Ø§Ø¨
ĠØ¯Ø±ÛĮ ÙģØª
ĠÙħÙĨØ²ÙĦ Øª
ĠO r
ĠO pen
ĠO GG
Ù¾Ø° ÛĮØ±Ø¯
ĠØ¯ÛĮÙĪ Ø§ÛĮØ³
ĠØ¯Ø§ÙĨØ´Ø¬ÙĪ ÙĬ
ĠØ§Ø®ØªØµØ§Øµ ÙĬ
Ġv otes
ec ur
ØŃØ³ ÙĨÛĮ
ïº ª
ï» ¦
ĠØ¯Ø¨ÛĮØ± Ú©ÙĦ
Ø·ÛĮ Ø¨Ùĩ
ĠØ§ÙĦÙħ ÙĦÙĪÚ©
Ø¯Ø³ Ú©ØªØ§Ù¾
ĠØªÙħØ±ÛĮÙĨ ÙĩØ§ÛĮ
ĠÙĨØ§Ø¨ Ø³Ø§Ùħ
ĠØ³ÙĤ ÙģÛĮ
ĠØ§Ø±Øª Ú©Ø§Ø¨
ĠIn d
ĠIn ter
ÙĨÙĤ Ø´Ùĩ
Ġj peg
Ġj adid
ÙģØ±Ùħ Ø§ÛĮÙĨØ¯
ĠØ§ÙĦÚ¯ÙĪØ±ÛĮ ØªÙħÛĮ
ĠK h
ĠK or
ĠØ¨Ø¨ÛĮÙĨ Ùħ
ĠÙĪÛĮØ± Ø§ÙĨÙĩ
ĠÙģØ±Ø²ÙĨØ¯ Ø´Ø§ÙĨ
ĠØ§Ø®Øª ÙĬØ§Ø±
Ø´ÙĩØ± Ú©
Ø´ÙĩØ± ÙĩØ§
ĠØ§Ø´ØªØ¨ Ø§ÙĩØ§
Ġg o
Ġg oogle
Ġg ame
ĠÙĪÙģ Ø±ÛĮØ§Ø¯
ĠØ®Ø¯ Ø§ÛĮÛĮ
ĠØ®Ø¯ Ø´Ùĩ
ĠÙħÛĮØ± Ø¬Ø§ÙĪÙĩ
ĠØ±ØŃ ÛĮÙħÛĮ
ĠØ±ØŃ ÙħØ§ÙĨÛĮ
ĠØ¨Ø±ÙĪ Ø¬
eh a
Ø¯Ø§Ø¯ÛĮ Ø§ÙĨ
Ø§Ø´ÙĤ Ø§ÙĨÙĩ
ĠÙĩÙĨØ±Ùħ Ø¹Ùħ
ĠØ¬ÙĪØ´ ÛĮØ¯ÙĨ
Ø¨ØŃ Ø«
ÙģÙĪ Ø°
ĠØ¯Ø±Ø®Øª ÚĨÙĩ
ĠØ¯Ø±Ø®Øª Ú©Ø§Ø±ÛĮ
ĠÚĨØ±Ø® ÙĨØ¯Ùĩ
ĠÚĨØ±Ø® Ø§ÙĨØ¯ÙĨ
ig en
ĠÙħØ³Ø¦ÙĪÙĦÛĮØª ÙĩØ§ÛĮ
ĠÙħØ§ÛĮ Ú©Øª
ĠÙħØ§ÛĮ ØŃØªØ§Ø¬
ĠØ§ÛĮØ³Øª Ø§Ø¯
ĠÙħÙĨØ§Ø· ÙĤÛĮ
ĠÙģÛĮÙĦØªØ± ÙĩØ§ÛĮ
ĠØ´Ùģ Ø§ÙĩÛĮ
ĠØ¹Ø¨Ø¯ Ø§ÙĦØ¹
âĻ ¡
ĠØ¬Ø¹ ÙĦ
ĠØ¬Ø¹ ÙĦÛĮ
ĠÙ¾Ø±ÙĪØª Ø¦
ĠÚ¯ÙĨØ¯ Ø±ÛĮ
ĠÙĩÙħØª Ø§ÛĮ
ĠÙĤØ±Ø§Ø±Ø¯ Ø§Ø¯ÙĩØ§
ĠØ¯Ø±Ø¬ Ø§Øª
ĠÚ¯Ø§Ùĩ Ùī
ĠÐ ¸
ĠÐ º
Ø·ÙĦ Ø¨ÛĮ
ĠÛ±Û¹Û ´
ĠÛ±Û¹Û ·
ĠX LR
Ġa ut
ĠÚ©Øª Ø¨Ø±
ĠÚ©Øª Ø§Ø¨ÛĮ
Ø¨ÙĪØ± Ú¯
ĠÚ¯ÙĨ Ø¨Ø¯
ĠÙĪÛĮØª Ø±ÛĮÙĨ
ĠØ¢ÙĤ Ø§ÙĬØ§ÙĨ
ĠÙģØ¶ Ø§ÛĮÙĦ
ĠÙģØ¶ ÙĪÙĦØ§Øª
ĠØ§ÙĨØ³ Ø¯Ø§Ø¯
ĠØ§Ú©Ø³ Ù¾Ø±Ø³ÛĮÙĪÙĨÛĮØ³Ùħ
ĠÛ³Û ´
Ø§ÙģØ² Ø§ÛĮØ¯
Ð° Ñģ
ĠØ®Ø´ Ú©Ø³Ø§ÙĦÛĮ
ĠÙĦØ§ÛĮ Ú©
ĠÙĦØ§ÛĮ Ú©Ø§
Û³Û ³
Û³Û ´
ĠÙģØ±ÙĪ Ø®ØªÙĩ
ĠØ¨ÙĪÛĮ Ø§ÛĮÛĮ
ĠØ£ Ø¨ÛĮ
ØªÚ© Ø³Øª
ÙħØ§Ùĩ Ùĩ
ĠØ¯Ø² ÙĨØ§
ĠÙ¾Ø±Ùĩ Ø²ÛĮÙĨÙĩ
ØªÙĩÙħ Ø§Ø³Ù¾
ĠÛ²Û°Û° Û²
ĠÙĩÙħØ§ÙĩÙĨÚ¯ ÙĬ
Ġin ter
ĠØ¢ÙĪ Ø§ÛĮ
ĠØ§ÙħÙĪØ²Ø´ ÛĮ
ĠÛ²Û°Û± Û¶
ĠÛ²Û°Û± Û¹
ĠØ¢Ú© Ø§
ĠÙģØ±Ø³Øª Ø§Ø¯ÙĨ
ĠØ¬ÙĨÙĪØ¨ ÙĬ
ak ing
Ø¬ÙĨ ÙĪØ¨
Ø¬ÙĨ Ø¨Ø´
Ù¾Ø§ Ú©Ø³
ĠØ¨ÛĮØ¯ Ø§Ø±ÛĮ
ĠØ¨ÛĮØ¯ Ø§Ø¡
ĠØ¶Ø¹Ùģ ÙĩØ§ÛĮ
ĠØ±Ø§ÙĩÛĮ Ø§ÙĨ
ĠØ¨Ø²ÙĨ ÛĮÙħ
Ġn ot
ĠØ¯Ø±Ø®Ø´ ÙĨØ¯Ú¯ÛĮ
ĠÙħØ¨ÙĦØº ÛĮ
Ġr ight
ĠÚ©ÙĪÙĩ Ø³ØªØ§ÙĨÛĮ
ĠØªØ¯ÙĪ ÙĬÙĨ
ĠÙħÛĮØ¯ ÙĪÙĨÙĩ
ĠÛĮØ§Ø³ ÛĮÙĨ
ĠÛĮØ§Ø³ ÙħÛĮÙĨ
ĠÛĮØ§Ø³ ÙĪØ¬
ĠÚ©Ø§Ø±Ú©Ø±Ø¯ ÙĩØ§ÛĮ
ĠØ§ÙĦØŃ Ú©
ĠØ§ÙĦØŃ Ø§ÙĤ
ĠØ§ÙĦØŃ Ø³ÙĨ
ÙħØŃÙħØ¯ Ù¾ÙĪØ±
ĠØ³ÙĤÙģ ÙĬ
ĠØªÙĪÙĨ ÛĮÚ©
ĠÙĩØ§Ø´ ÙĪØ±
ÛĮÙħØ§ÙĨ Ø¯Ùĩ
ĠÙģØ±ÛĮ Ø§Ø¯Ùī
ĠÚ¯ÙĨØ¬ ÛĮÙĨÙĩ
Ø¢Ø± Ø´ÛĮÙĪ
Ġ14 0
ĠÚ©ÙħØ¨ÙĪØ¯ ÙĩØ§
ĠÚ¯Ø°Ø§Ø± ÙĨØ¯
art abar
ĠØ§ÙģØªØ® Ø§Ø±Ø§Øª
ĠØ¨Ø®ÙĪØ§ÙĨ Ø¯
ĠØ±ÙĪØŃØ§ÙĨÛĮ ÙĪÙĨ
ĠÙĨØ§ÙĨ Ø³ÛĮ
Ø¹Ùħ ÙĦÛĮØ§Øª
ĠÙĦØ§ÙħÙ¾ ÙĩØ§ÛĮ
ĠÚ¯Ø±Ø¯ÙĨ Ø¨ÙĨØ¯
az i
iz adeh
ĠØ´Ø§ÛĮ Ø³ØªÚ¯ÛĮ
ĠØ§Ø³Ø± Ø§Ø±
ĠØ¨Ø±Ø¯Ø§Ø± ÛĮÙħ
ĠÙĤÙĩ Ø¯Ø±ÛĮØ¬Ø§ÙĨ
Ù¾Ø±ÙĪ ÚĺÙĩ
ĠÛ±Û¸ Û°
all ery
ĠØŃÚ©Ùħ Ø±Ø§ÙĨÛĮ
ĠØ§Ø³ØªØ§ÙĨØ¯Ø§Ø± ÙĩØ§ÛĮÛĮ
ÙĢÙĢÙĢÙĢÙĢÙĢÙĢÙĢ ÙĢÙĢÙĢÙĢÙĢÙĢÙĢÙĢ
Ġre ad
ĠØ¢Ùĩ Ø³ØªÙĩ
ĠÙģÙĩÙħ ÛĮØ¯Ùħ
ÛĮÙĨØ§ ÙĪØ¨
ÙħØ¯ÛĮØ± Ø¹Ø§ÙħÙĦ
ÙħØ¬ ÛĮØ¯
Ø§ÙħÛĮØ¯ ÙĨÛĮ
Ð¸ Ñı
Ġht tps
53 5
ĠØ¨Ø² ÙĨÙĩ
ĠØ¨Ø² ØºØ§ÙĦÙĩ
ĠØ±Ø¨ Ø§ØªÛĮ
ĠØ§Ø¶Ø·Ø± Ø§Ø±ÛĮ
ĠÙģØ±ÙħØ§ÙĨØ¯Ùĩ Ø§ÙĨ
ĠÙħØ±Øª Ø¶ÙĪÛĮ
ĠØ¶Ø¹ÛĮÙģ ÛĮ
ĠÚ©ÛĮÙģÛĮ ØªÛĮ
ast er
ĠØ¨Ùħ Ø¨Ø§Ø±Ø§ÙĨ
Ø§ÙĨØ¯ÛĮ Ø´Ùĩ
Ø§ÙĨØ¯ÛĮ Ú©Ø§ØªÙĪØ±
ĠØ§Ø³ØªØ§Ø±Øª Ø§Ù¾
ĠØ§ÙĪØ² Ø§ÙĨ
ĠÙħØ¯Ø§Ø± Ø§
ĠØ³ÙĩÙħ ÙĬÙĩ
ĠØªØ®ØµØµ ÙĬ
ĠÙĨÙĬØ³Øª ÙĨØ¯
ĠÚ©Ø§Ø¨ ÛĮÙĨØª
ĠØŃÙħÛĮØ¯ Ø±Ø¶Ø§
oc k
oc ial
Ġ09 19
Ġ09 36
ĠÙĨØ¹ ÙĨØ§Ø¹
ĠØ³Ø§ Ùĥ
ĠØŃÙĥ ÛĮÙħ
ĠØŃÙĥ ÙħØª
ĠØ²ÙĪ ØªÙĩÙħØ§Ø³Ù¾
ĠØ§ÙĦØ² Ø§ÙħØ§
ĠØ¯ÛĮÙ¾ÙĦÙħ Ø§Øª
ĠØ³Ø§ÙĦÛĮ Ø§ÙĨ
ĠÙĨÙĩØ§Ø¯ ÛĮÙĨÙĩ
Ġ> >
ĠØ¨ÙĢ Ùĩ
ĠÙĨØ§Ø¯Ø± Ø³ØªÛĮ
ĠØ¨Ø§ÙĤ ÛĮÙħØ§ÙĨØ¯Ùĩ
ĠØªØ±Ø§Ø´ ÛĮØ¯ÙĨ
ĠCh ild
ÙĨÙĪØ± Ø¯ÛĮ
ĠØ¨Øª Ø¯Ø±ÛĮØ¬
ĠØªØ§Ø± Ú¯Ø±ÛĮÙĨ
ĠÙĨØ§Ø´ Ø±Ø§ÙĨ
ĠØ§ÙĦÙĤ Ø§
ĠØªØ§Ú© ÙĬØ¯
ĠÙĥØ´ Ø§ÙĪØ±
ess ion
ÙħØ¹Ùħ ÙĪÙĦ
ĠØ§Ø¹ØªØ±Ø§Ø¶ Ø§Øª
ĠØ¨Øº Ø¯Ø§Ø¯
Ø³Ù¾ Ø§ÙĨ
ĠÙĨØ§Ø¯ Ø§ÙĨ
ĠØ¢ÙĦÛĮ Ø§ÚĺÛĮ
ĠÙĤØ¶ Ø§Ø¦
ĠÙ¾Ø±Ø³Øª Ø§Ø±
Ø¨ÙĨØ§Ø¨Ø± Ø§ÙĬÙĨ
55 00
ĠÙħÙĪØ¯ Ø¨Ø§ÙĨÙĩ
ĠÚ©Ø§ÙĦÛĮ Ø¨Ø±Ùĩ
ĠØ³Ø¯ ÙĩØ§ÛĮ
Ø®ÙĪØ± Ø¯Ùĩ
ØŃÙħ ÙĦÙĩ
ÛĮÙĨØª ÙĨØ¯ÙĪ
ĠØ§ÙĪÙħ Ø¯Ùĩ
end en
end ables
ĠÙħØ¹ÛĮØ§Ø± ÙĩØ§ÛĮÛĮ
ĠÙħØ¸ ÙĦÙĪÙħÛĮØª
ĠÙĪØª Ø§Ø³ÛĮØ³Ø§Øª
ĠØ³Ø§Ø± Ø§
ĠÙĩÙħØ¯ Ø±Ø¯ÛĮ
act ive
ĠØ§Ø³ØªØ¹Ø¯Ø§Ø¯ ÙĩØ§
ib a
ðŁ ĺī
ĠÙħÛĮØ® ÙĪÙĨÙĩ
ĠÚ¯Ø² ÙĬÙĨÙĩ
ĠÚ¯Ø² ÙĬÙĨØ´
ĠØ§Ø¨ÙĪØ§ÙĦ ØŃØ³ÙĨÛĮ
ĠÚĺØ¦ ÙĪØª
Ù¾Ø² Ø®Ø§ÙĨÙĩ
ĠØ§Ø±Ø¯ÙĪ ÙĩØ§ÛĮ
ĠØ§Ø±Ø¯ÙĪ ØºØ§ÙĨ
ĠÙĪÙĥ Ø´Øª
ÙĬØ³Øª ÙĬ
ĠØ¨Ø§Ú©ØªØ±ÛĮ Ø§ÛĮÛĮ
ĠÙħØ¹ÙĦ ÙĪÙĦØ§ÙĨ
ĠÙħÙģØ§Ùĩ ÙĬÙħ
ĠÙ¡Ù ¨
ĠÙħÙĦØ§ØŃ Ø¸Ø§Øª
ĠØ¹Ø§Ø¯ÙĦ Ø§ÙĨÙĩ
ĠÙħØŃÚ© ÙĪÙħÛĮØª
ĠÙħØ³ÙĪ ÙĪÙĦØ§ÙĨ
ÙħÙĨØª Ø¸Ø±
ĠØ§Ø¨Ø±ÙĪ ÙĩØ§
ĠÙ¾Ø³ÙĨØ¯ ÛĮØ¯Ùĩ
ÙĢÙĢÙĢ ÙĪØ±
ĠØ¨ÙĪÙĦ Ú¯Ø§Ø±ÛĮ
ĠØ¨Ø° Ø§Ø±
ĠØ¨Ú¯Ø° Ø±Ø¯
ĠÙĪÙĨ ÙĤÙĦ
ĠØ³Ø§Ø³ Ø§ÙĨÛĮ
ĠØ´Ø§ Ú¯Ø±Ø¯
ĠÚ¯ÙĪØ¯ ÙĪÚ©Ø³
ĠØ§ÙĨØµ Ø§Ø±ÛĮ
ĠØ³ÛĮÙĦ ÙĨØ¯Ø±
ĠØ³ÛĮÙĦ Ø¨Ø±Ø´Ø§ØªØ³
ĠÙĨØ§ÙħØ´ Ø®Øµ
ÙģØ±ÙĩÙĨÚ¯ ÛĮ
ĠØ¨Ø¹Ø¶ Ùī
ĠØ´ÙĪÙĩØ± Ùħ
ĠØ´Ø§Ø±Ù¾ ÙĨØ³
ĠØ¯Ø§ÙĪØ·ÙĦØ¨ Ø§ÙĨÙĩ
ĠØ¨ÛĮØ§ÙħÙĪØ² ÛĮÙħ
ci ent
ĠÙħØ¯ÛĮ Ø§
ĠÙħØ¯ÛĮ ØŃÙĩ
ĠÙħØ§Ø±Ú©Øª ÛĮÙĨÚ¯
ĠØ¨Ø±Ú¯Ø±Ø¯ Ùħ
ĠÙĩÙħØ´Ùĩ Ø±ÛĮØ§ÙĨ
ĠÙĦÙĩ Ø³ØªØ§ÙĨ
ĠØ§Ø¨Ø±ÛĮ Ø´Ùħ
ĠÙĩÙĪØ§Ù¾ÛĮÙħ Ø§ÛĮ
ĠØ¨ÙĬÙħØ§Ø±ÙĬ ÙĩØ§
ĠØ¨Ú¯ ÛĮØ¯
ĠØ¨Ù¾ÙĪØ´ Ø§ÙĨÛĮØ¯
ĠÚ©Ø±ÙĪ Ø§Ø³ÛĮ
Ú©Ø§Ø±Ø¨Ø±Ø¯ ÛĮ
Ø¯Ø§Ø±ÙĪ ÙĩØ§ÛĮ
ĠØ¢Ø±Ø² ÙĪÙħÙĨØ¯
ÙħØŃÙħ ÙĪØ¯
ĠÙħØ±ÙĪ Ø§Ø±ÛĮØ¯
ĠÙħØ§Ø¬ Ø±Ø§ÙĩØ§ÛĮ
ĠÙĪØ¬ ÙĪÙĩ
ĠØ³Ø§ÙĤ Ùĩ
ĠÙ¾ÙĪ Ú©Øª
ĠÙģØ¯Ø± Ø§Ø³ÙĬÙĪÙĨ
ĠØ¨Ø±Ø§ÙĨÚ¯ÛĮ Ø®ØªÙĩ
ĠÙĤÙħÛĮ Ø´
ĠØ§ÙĨØ¯Ø± Ú©Ø§Ø±Ø§ÙĨ
ĠØ§ÙĨØ¯Ø± Ø²Ú¯ÙĪ
ĠØ·ÙĬ Ø¨Ø§Øª
ĠØªÙĪØ§ÙĨÙħÙĨØ¯ ÙĬ
ĠØªØ§Ø±ÙĬØ® ÙĬ
ĠÙħÙģØª Ø§ØŃ
ĠÙħØŃÙĬØ· ÙĬ
ĠÙģØ±Ø§Øª Ø§Ø±ÛĮØ®
log y
can Emb
ous e
rus h
ĠØ¨Ø§ØŃ Ø§ÙĦ
ĠØ¨Ø§ÙĩÙħ Ú©Ø§Ø±ÛĮ
ĠÙħØ®Ø§Ø¨ Ø±Ø§Øª
ĠØ¯Ø±Ø§ÛĮ ÙĪØ±Ø´ÙĪ
ĠÙħÙĪØ§ÙģÙĤ Ø§ÙĨ
ØºØ° Ø§
ĠØ¶ÙĦ Ø¹ÛĮ
ĠØ¯ÙĦØ§ ÙĪØ±ÛĮ
ĠØ¯ÙĦØ§ ÙĬÙĦ
ĠÚ©ÙħØ§ÙĨ Ú¯ÛĮØ±
ĠØªÙĬ ØºÙĩ
ĠÙĨØ§ØµØ± Ø§ÙĦØ¯ÛĮÙĨ
ĠÙĤÙĨ Ø§Ø±ÛĮ
ĠÙĤÙĨ Ø§Ø¯ÛĮ
ĠØ§ÙħÙ¾ Ø±Ø§ØªÙĪØ±
ĠØºÛĮ Ø±ÙĪ
ĠÙĪØ§ÚĺÚ¯Ø§ÙĨ ÙĬ
ĈĈ Ć
Ø±Ø± Ø±
ÙĪÙĪ ÙĪÙĪ
ÙħØ§Ø³ Ú©
ĠØ¨Ø´ÙĨØ§Ø³ Ø¯
ĠÙģØ¯ Ø§Ø¦ÛĮØ§ÙĨ
Ø¶Ø± Ø¨Ùĩ
Ø¶Ø± ÙĪØ±Øª
ĠØ§ÙĦÙĩØ§Ùħ Ø§Øª
................ ................
ĠÙģÙĪÙĦÛĮÚ©ÙĪÙĦ ÙĩØ§ÛĮ
MA G
ĠÙ¢ Ùł
ĠÚ©Ø« ÛĮÙģ
ĠÚ©Ø« ÛĮØ±ÛĮ
ĠÚ©Ø§Ù¾ ÙĬØªØ§ÙĨ
ĠØ´ÙĪØ´ ØªØ±ÛĮ
ĠÙĦÙĨ Ø¨Ø±Ø§ÙĨ
ĠÙħØ¯Ø§ØŃ Ø§ÙĨ
ĠÙĨÙĪØ§Ø² ÙĨØ¯Ú¯ÛĮ
ĠDev il
ĠDev elo
Ú¯Ø±Ø¯Ø´ Ú¯Ø±ÛĮ
Ġan alysis
Ø¯Ø¹ ÙĪØª
ĠÙĨØµÛĮ Ø±ÛĮ
ĠØµØ¯ÛĮ ÙĤÙĩ
ĠØ³ÙĪØ¦ Ø¯
ĠDer is
ĠÙħÙĨØªØ¸ Ø±ÛĮ
ĠWeb site
ĠØ§Ø³ÙģÙĨØ¯ÛĮ Ø§Ø±
RE VIE
ĠØ¨Ø§Ø³ ÙĨ
ĠÙĪÙĩ ÙĦÙĩ
Ø§ÙħÛĮØ± ØµØ§ÙĦØŃ
ĠØ³Ø§ÙĨØ¯ ÙĪÛĮÚĨ
ĠØ³Ø§ÙĨØª ÙĬÙħØªØ±
ĠØ§ÙĪØ±ÛĮ Ú©
ĠØµÙĦÙĪ Ø§Øª
ĠÙħÙĨØ² ÙĦÙĩ
ĠØ¨ÛĮÙĩ ÙĪØ¯Ùĩ
ĠØªØ±Ø¨ ÙĬØª
ĠØ®ÙĪÙĨØ¯ ÙĨ
ĠÙħÙĤØª Ø¶ÛĮ
ĠÚ¯Ø±Ø´ Ø§Ø³Ù¾
Ġphotos hop
ĠÛ±Û¹Û¹Û ¶
ÙħØ¬Ø§Ø² ÙĩØ§ÛĮ
ĠÙĨØ§Ù¾Ø° ÛĮØ±ÛĮ
Ġim ages
Ø±Ø§Ø¨ Ø·Ùĩ
ÙĨØ® Ø³ØªÛĮÙĨ
ĠÙ¾ÙĪØ¯ Ø±ÛĮ
ĠØ¹ÙĦÙĪ ÙĬ
ĠØ¬Ø§Ø¯ ÙĪÛĮ
ĠØ¬Ø§Ø¯ ÙĪÛĮÛĮ
ĠÙĤÙĬ ÙħØª
ĠÙħØ³Ø§Ø¹Ø¯ Øª
ÙģØ±Ø¢ÛĮÙĨØ¯ ÙĩØ§
ĠÙĨÙĪÙĬØ³ ÙĨØ¯Ùĩ
ĠSc heduling
ĠØ¸Ø±ÙģÛĮ ØªÛĮ
ĠÙĬØ§ÙģØª ÙĨ
ĠÚ©Ø§ÙĨØ¯ÛĮØ¯ Ø§ÙĩØ§
ĠØ¬ÙĪØ§ÙĨÙħØ±Ø¯ Ø§ÙĨ
ĠØ±ÙģÙĦ Ú©Ø³
ĠÙĨØ§Ø§Ùħ ÛĮØ¯ÛĮ
ĠÙģÙĪØªØ¨Ø§ÙĦÛĮ Ø³Øª
ĠÚ©Ø±ÛĮØ³Øª Ø§ÙĦ
ĠÚ©Ø±ÛĮØ³Øª Ø§ÙĦÛĮ
ĠEd ition
Ú©ÙħÛĮ ØªÙĩ
ĠÙĨÙĥ Ø±Ø¯Ùĩ
ĠÙħÛĮÚ©Ø³ Ø±
ĠØ¹Ø¸ ÙħØª
Ø§Ø¨ÙĨ ÙģØ´
ĠØ§Ùĥ Ø±Ùħ
ĠÙģØ±ÙĩÛĮ Ø®ØªÙĩ
ĠÙħØ¹Ø§ÙĦ Ø¬Ùĩ
Ø¢Ø²Ùħ Ø§ÛĮØ´Ú¯Ø§Ùĩ
ĠØ§ÙĪØ§Ø³ Ø·
ĠØ¯Ø¹Ø§ÙĬ Ø´Ø§ÙĨ
ĠKar imi
lor ers
Ġlo ve
Ø¯Ø® ØªØ±
ÙĪØ§ÙĤØ¹ Ø§
ĠÚ©Ø§Ø³Øª ÙĦÛĮÙĨØ§
ĠØ±Ø®Øª Ø®ÙĪØ§Ø¨
ĠØ¨Ø±Ø²ÛĮ ÙĦ
ĠØ§Ø³ØªØ±ÛĮ ÙĦ
ĠÚ¯Ø±ÛĮÙĨ Ø¨Ø±Ú¯
ĠÛĮÙĪØ³ ÙģÛĮØ§ÙĨ
ĠÙĤØ§Ùģ ÙĦÙĩ
ĠÙħÙĨØ³ Ø¬Ùħ
Ø§ØŃØªÙħ Ø§ÙĦ
ĠÙħØªÙĪ Ø§ÙĦÛĮ
ĠØ§Ø´Øª ÙĩØ§
ĠØ¹Ø§Ø´ÙĪØ± Ø§ÛĮÛĮ
ĠBar oon
ĠØ¨Ø§ÙĨÙĪÚ¯Ø´ Ø³Ø¨
ĠExp endables
work s
ÙħØ´Øª Ø±ÛĮ
ĠÙĪØ§Ú© Ø§ÙĪÛĮ
ĠÙĪÙ¾Ø± ÙĪØ±Ø´
ĠØ¨Ø±ÚĨ ÛĮØ¯ÙĨ
ĠØ¹Ø« ÙħØ§ÙĨ
ĠÛĮÙĢ Ú©
ĠÙĤØ§Ø¦ Ø¯ÛĮ
ĠÙĤÙĢ Ø±Ø§Ø±
ĠØ²Ø±Øª Ø´Øª
ĠÙĦÙĬÙĨ Ùĥ
ĠÚ©ÙĨØ¬Ú© Ø§ÙĪÛĮ
Ø¢ÙĨØ¬ ÙĦØ³
Ø¢Ø¬Ø± ÙĩØ§ÙĬ
ĠØ´ÛĮØ· ÙĨØª
ĠSup er
ĠØºÛĮØ±Ø§ÙĨ Ø³Ø§ÙĨÛĮ
ĠØ¢ÙĦÙĪÙħ ÛĮÙĨÛĮÙĪÙħ
ĠHaj izadeh
ĠØ¨Ú¯ÙĬØ± ÙĬØ¯
In st
yst em
âĸ ª
ÙħØº Ø²
ĠÙħØ§Ø¨ ÙĤÛĮ
ĠÙĪÙĩÛĮ Ø¨
ĠØªØ¬Ùĩ ÙĬØ²Ø§Øª
ĠÙĨØ¬ÙĪ Ø§ÙĩØ§ÛĮ
ĠØ¨Ø±Ø¢ÙħØ¯ Ú¯ÛĮ
ĠØ¹Ø§Ø¬ Ø²
ĠØ²Ø§Ø¨ ÙĦÛĮ
ĠÚĨÙĪÙ¾ Ø§ÙĨ
ĠØµÙĢ ÙĪØ±Øª
ĠÙħØŃØ±ÙĪ ÙħÛĮØª
ĠØ´ÙħÛĮØ±Ø§ÙĨ Ø§Øª
ĠÙħØ¯Ø§Ø® ÙĦÙĩ
ĠÚ¯Ø±Ø¬ Ø³ØªØ§ÙĨ
ĠØ¹ÙĦØ§Ø¦ ÙħÛĮ
ĠÚ¯ÛĮÚ¯Ø§Ø¨ Ø§ÛĮØªÛĮ
ĠØ´ÛĮØ±Ø¯Ùĩ ÛĮ
ĠØ¯Ø§Ø¯Ú¯ Ø³ØªØ±ÛĮ
ĠØ§ØªÙĪØ²ÙĪÙħ Ø§ÙĦ
ĠÙĪØ¨Ø§Ø² Ø³Ø§Ø²ÛĮ
ĠØ®Ø¨Ø±Ú¯Ø²Ø§Ø± ÙĬ
ĠØ§ÙĩØ±ÛĮ ÙħÙĨ
ĠDo ct
ĠCou chbase
ĠØªØ£Ø« ÙĬØ±
ĠØ§ÙĦÚ©ØªØ±ÙĪÙħ ØºÙĨ
ÙħØŃØªÙĪ Ø§ÛĮ
ĠÙħØªØ±Ø¬ ÙħØ§ÙĨ
ĠÙħÙĪÙĦÚ© ÙĪÙĦÛĮ
ĠÙĨØ§Ø®Ø§ÙĦ Øµ
ĠBlu Ray
Ø¹ÙĦÙĬÙĩ Ùħ
ragran ce
sych o
ĠÙĩØ§ÙĦÛĮÙĪ ÙĪØ¯
val ue
âĹ ĭ
Ġram in
ØªØ¯ Ø¨ÛĮØ±ÛĮ
ĠØ¨ÙĤÛĮ Ø¹
ĠØ¨Ø¬ÙĪØ´ Ø§ÙĨÛĮØ¯
ĠØ¨ØªØ±Ø³ ÙĨØ¯
ĠÙĪÚ¯Ø± ÙĨÙĩ
ĠØªÙĨØ¬ ÛĮÙħ
ĠØ³Ùĥ Ø³ÙĬ
ĠÙħÛĮÙĨØ¯ Ø§Ø²Ùĩ
ĠØ§Ø³ØªØ¨ Ø¯Ø§Ø¯
ĠÛĮØº ÙħØ§ÛĮÛĮ
ĠÚĨØ³Ø¨Ø§ÙĨ Ø¯Ùĩ
ĠÙħÙĪØ¹ Ø¸Ùĩ
ĠÙħØ³ÙĦ Ø³ÙĦ
ĠØªØŃÙĪ ÙĬÙĦ
ĠØ§ÙĪØªÛĮ Ø³Ùħ
ĠØ§ÙĨØ¯ÙĪÙĨ Ø²ÛĮ
ĠØ°ÛĮØ± Ø¨Ø·
ĠØªØ¨Ø¹ÛĮ Ø¶
ĠPin terest
ĠDP REVIE
ĠÚĺØ± ÙħÙĨ
ĠÙħØºÙĨ Ø§Ø·ÛĮØ³ÛĮ
ĠÙĩÙĨØ±Ù¾ÛĮØ´ Ú¯Ø§ÙĨ
ÙħÙĪÙģÙĤ ÛĮØª
ĠÙģØ§ÛĮØ±Ùģ Ø§Ú©Ø³
ĠÙħÛĮÙĥØ±ÙĪÙĥÙĨØªØ±ÙĦ Ø±ÙĩØ§
ĠØ§ØµØ·Ú© Ø§Ú©
ĠInfin ite
Cont act
Fact or
XEL OS
ïģ ¼
ĠØ¨ÙĬØ± Ø¬ÙĨØ¯
ĠÙĪØ±Ø³ Ø§ÚĨÙĩ
ĠØ±Ú¯ÙĦ Ø§ØªÙĪØ±
ĠØ³Ø§Ù¾ ÙĪØ±Øª
ĠØ®Ø¯ÛĮ Ø¬Ùĩ
ĠØ®Ø¨ÛĮ Ø«
ĠÙģØ³ÛĮ ÙĦÛĮ
ĠÙģØ³ØªÛĮ ÙĪØ§ÙĦ
ĠØ¹Ø§ÛĮØ´ Ùĩ
ĠÙĦØ§ÙĬ ØŃÙĩ
ĠØ§ÙħØªÙĨ Ø§Ø¹
ĠÚ©Ø§Ø±Ø¢ ÙĬÙĬ
ĠÙħØ´Ø§ÙĪ Ø±ÛĮÙĨ
ĠØ³Ø±Ø¨Ø§ÙĦ Ø§ÛĮÛĮ
ĠØ®ÙĪØ¨Øª ÙĪÙĨ
ĠÚ¯Ø±Ø§ÙħÛĮØ¯ Ø§Ø´Øª
ĠÚ©ÙħÙĬØ³ÙĬ ÙĪÙĨ
Ø§ØµÙģÙĩ Ø§ÙĨ
ĠØ§Ø¹ØªÙĦ Ø§ÛĮ
ĠØ§Ø´Ø§ÙĨØªÛĮ ÙĪÙĨ
ĠØºÛĮØ±ÙħØ±ØªØ¨ Ø·
ĠPand a
ĠØ¢ÛĮÙĦØª Ø³
ĠGre en
ĠÙĪÛĮÚĺÙĩØ±Ø³Øª ÙĪØ±Ø§ÙĨ
ĠÙħØªØ±ÙħØ±Ø¨ Ø¹
ĠJour nal
ecur ity
ĠÙĩÙĨØ±ÙħØ¹Ùħ Ø§Ø±ÛĮ
canEmb ed
ĠDPREVIE W
! --
) (
) ..
. [
1 10
1 13
2 20
3 96
6 4
7 3
7 00
7 97
8 2
8 00
9 1
9 92
: (
: )
: âĢľ
< /
= =
B ob
B TS
C G
E nd
F ox
H ek
I m
I TI
L D
M D
M ax
N C
O vid
P G
P ro
P sycho
Q U
R av
S L
S cience
S ocial
T op
U V
U KE
W W
Z b
Z oosk
] .
] ØĮ
a ÅŁ
b e
b r
b s
b it
c am
c is
c ed
c ent
c ript
d i
d l
d om
d oc
e p
e de
f am
h or
i os
i qu
j A
j a
j i
j s
j and
j ik
k a
k top
l t
l ic
l ag
l ing
l ight
l agh
m a
m ail
n s
n ar
n it
n ow
n ect
o em
o ve
o very
p le
p her
s er
t ect
t ix
u y
u ar
v a
v o
w fe
y n
¶ der
¹ ng
Â °
Â ·
Ã ¶der
Ã ¹ng
Ñ ħ
å ¤
å ±
Ĉ ãĢģ
Ġ id
Ġ stag
Ġ ash
Ġ ï¿½
ĸ zcan
Ø§ Ú¯ÛĮØ±
Ø§ Ú¯ÙĪÙĨ
Ø§ ÙĪÙħØª
ĠØ ¦
ÛĮ Ø¨Øª
ÛĮ Ø±ÛĮØ¯
ÛĮ ÙĪØ´Ø§Ø±Úĺ
Ø± ÙĬÙģ
ĠÙ §
ĠÙ ¬
ÙĨ ÙģØ¹
ÙĨ ÙĩØ§ÛĮØª
ÙĨ ÙģÙĪØ°
Ùĩ ÙĪ
Ùĩ Øª
Ùĩ ÙĨØ¯
Ùĩ ÛĮØ¯
Ùĩ ÙħÛĮ
Ùĩ ÙĢ
Ùĩ Ø¯Ø§Ø±ÛĮ
Ùĩ ÛĮØ¯Ø±ÙĪ
Ùĩ Ø§Ø¶ÙħÙĩ
Ø¯ Ø§Ø²
Ø¯ ÙĩØ§ÛĮ
Ø¯ Ø§Ø¯Ùĩ
Ø¯ Ú¯ÛĮ
Ø¯ Ø§ÙĨÛĮ
Ø¯ Ø£
ÙĪ Ø§Ø¨
ÙĪ Ø§Ø´
ÙĪ ÙĩØ§ÛĮ
ÙĪ Ø§Ø¨ÛĮ
ÙĪ ÙģÙĩ
ÙĪ Ø§ÙĦØ§Øª
ÙĪ Ø¨ÛĮÙĦ
ÙĪ Ø«ÛĮ
ÙĪ Ø¶ÙĪØ¹
ÙĪ Ø§ÙĩÛĮØ¯
Øª Ø³
Øª Ú¯
Øª Ø®
Øª Ø§Ø²Ùĩ
Øª Ø£
Øª Ø¬Ø±Ø¨Ùĩ
Ùħ Ú©
Ùħ Ø§Øª
Ùħ Ø§Ø±ÛĮ
Ùħ ÙĪØ²
Ùħ Ø¨Øª
Ùħ Ø¹Øª
Ùħ Ø¤
Ùħ Ø³ØªØ±
Ùħ Ø«ÙĨ
Ùħ Ø«Ø¨Øª
Ùħ Ø³ØªÙĨØ¯
Ùħ ÙĪØªÙĪØ±
Ùħ Ø±Ú©Ø²ÛĮ
Ú© ÙĪØ´
Ú© ÙĨØ¯Ùĩ
Ú© Ø±Ùħ
Ú© Ø§Ø´Øª
Ú© ÙĪÛĮÙĨ
Ú© ÙĨÛĮÚ©
Ú© Ø§Ø¯ÙħÛĮ
Ú© ÙĩØ±Ø§Ùħ
ÙĦ Ø§Ø¦ÛĮ
ĠØ¨ ØªØ±
ĠØ¨ ØªÛĮ
ĠØ¨ Ø«
ĠØ¨ ÙĪØ±Ø¯
ĠØ¨ Ø¯Ø±
ĠØ¨ Ú©Ø³
ĠØ¨ Ùĥ
ĠØ¨ Ø§Ø¬
ĠØ¨ Ø§Øµ
ĠØ¨ ÙĪÙĤ
ĠØ¨ Ú¯Ùĩ
ĠØ¨ Ø§Ø¯Ø±
ĠØ¨ Ú©ÙĨÙĨØ¯
ĠØ¨ Ø´Ø§Ø±
ĠØ¨ Ú¯Ø±Ø¯
ĠØ¨ Ú¯ÙĪÙĨÙĩ
ĠØ¨ ÙĤØ§ÛĮ
ĠØ¨ Ø´ÙĪÙĨØ¯
ĠØ¨ Ø®ÙĪØ§Ùĩ
ĠØ¨ Ù¾Ø±Ø¯
ĠØ¨ Ø§ÙħØ§
ĠØ¨ Ú©ÙĦÛĮ
ĠØ¨ Ø§ÙĨÛĮØ§ÙĨ
ĠØ¨ Ø°Ø±
ĠØ¨ ÙģØ±Ø¯
ĠØ¨ ÙħÙĨØ¸ÙĪØ±
ĠØ¨ ÙħÛĮØ±Ùħ
ĠØ¨ Ù¾Ø°ÛĮØ±ÙĨØ¯
ĠÙħ ÙĨÚ¯
ĠÙħ ÙĪØ±Øª
ĠÙħ Ø§Ø¨Ùĩ
ĠÙħ Ø±ÙĪØ±ÛĮ
ĠÙħ Ø±ÙĪØ§ÙĨ
ĠÙħ Ø§Ø±ÙĪ
ĠÙħ Ø®ÙĪÙģ
ĠÙħ Ø§ÙĤØ¨ÙĦ
Ø§ÙĨ Ø§ÛĮÛĮ
Ø§ÙĨ Ø±ÚĺÛĮ
Ø§ÙĨ Ú¯Ø§Ø±ÛĮ
Ø§ÙĨ Ø²ÙĦÛĮ
Ø§ÛĮ Ø©
Ø§ÛĮ Ø³ÙĨØ§
Ø§ÛĮ Ø³ØªØ¯
ĠØ¯ ÙģØª
ĠØ¯ Ø§Ù¾
ĠØ¯ Ø§ÛĮÙħ
ĠØ¯ ÙĬØ¯ÙĨ
ĠØ¯ ÙĤØ§ÛĮÙĤ
Ø³ ÙĦÛĮ
Ø³ ÙħØ§ÙĨ
Ø³ Ú©ÙĨ
Ø³ Ø®Øª
Ø³ Ø±Ø¨
Ø³ Ø±ÙĪØ²
Ø³ ÙĬÙħ
Ø³ ÙĪØ±Ùĩ
Ø³ Ø®Ø±
Ø³ Ø§Ø·ÛĮ
ĠÙĪ ÙħÛĮ
ĠÙĪ Ø§Ø¹
ĠÙĪ ÙĨÛĮ
ĠÙĪ Ø±ÛĮÙĨ
ĠÙĪ ÙĤÛĮ
ĠÙĪ Ø¦
ĠÙĪ ØªÙħ
ĠÙĪ Ú©ÙĦ
ĠÙĪ Ù¾ÛĮ
ĠÙĪ Ø¬ÛĮ
ĠÙĪ Ø§ÙĪ
ĠÙĪ ØµÙĪÙĦ
ĠÙĪ Ø¢ÙĨ
ĠÙĪ ÙĩÙħ
ĠÙĪ Ø§Ø³Ùħ
ĠÙĪ ÙĨØ§Ùħ
ĠÙĪ Ø§Ø±Ùģ
ĠÙĪ ÙĩÙħÚĨÙĨÛĮÙĨ
ĠÙĪ ÙħØ¹Ø§ÙĪÙĨØª
ĠÙĪ Ø§ÙĨÛĮÙĦ
Ø´ Ø³Øª
Ø´ Ø±Ùĩ
Ø´ Ú©ÛĮÙĦ
Ø´ Ø§ÙħÙ¾ÙĪ
ĠÚ© Ø§ÙĨÛĮ
ĠÚ© Ø§ÙĨØ¯
ĠÚ© ÙĪØ³
ĠÚ© Ø§ÙĪ
ĠÚ© Ø§Ø²Ùĩ
ĠÚ© Ø±Ø³ÛĮ
ĠÚ© Ø±Ø§Øª
ĠÚ© ÙĪØ±Ø´
ĠÚ© Ø§ÚĨ
ĠÚ© Ø°Ø¨
Ø§Ø± Ø¨Øª
Ø§Ø± Ø¶Ø§ÛĮÛĮ
Ø§Ø± ÛĮÙħØ´Ø§ØºÙĦ
Ú¯ Ø§Ø²
Ú¯ ÙĩØ§ÛĮ
Ú¯ ÙħÛĮ
Ú¯ Ø§Ø±Ø¯
Ú¯ ÙĨØ¬
Ú¯ Ø§ÙħÛĮ
Ú¯ ÙħØ§
Ú¯ Ø³ØªØ±
Ø¨ ÙĩØ§
Ø¨ ÙĪØ´
Ø¨ Ø§ÙĤ
Ø¨ Ø§Ø¯ÛĮ
Ø¨ Ø§Øº
Ø¨ ÙĪÙħÛĮ
Ø¨ ÙĬØª
Ø¨ Ø²ÙĨÛĮ
Ø¨ Ø§ÙĩØ¯Ùģ
ĠØª ÙĪØ¯
ĠØª ÙĪØ²
ĠØª Ø§Ø¹
ĠØª ÙĤÛĮ
ĠØª ÙĦÙħ
ĠØª Ø§ÙĦÛĮ
ĠØª Ø§ÛĮÙĦ
ĠØª ÙĪÙĨÛĮ
ĠØª Ø±ÛĮÚ©
ĠØª Ú¯Ø²
ĠØª ÙĪØ¯ÛĮ
ĠØª Ø§Ø¬Ø±
ĠØª Ø§ÙħÙĦÛĮ
ĠØª ÙħÛĮØ²ÛĮ
ĠØª ÙĨØ§ÙĪØ¨
ĠØª Ø®ÛĮÙĦ
ĠØª ÙĢÙĢÙĢÙĪØ±
Ùģ ÙĪØ±
Ùģ Ø´Ø§ÙĨ
Ùģ Ø¶Ø§ÛĮ
Ùģ Ú©Ø±ÛĮ
Ùģ Ø§ÛĮØ±
Ø² ÙĪÙħ
Ø² Ø§ÛĮÙĨ
Ø² ÙĨØ¬
Ø² ÙĨØ§
Ø² ÙĨØ¯Ú¯ÛĮ
Ø² ÙĬÙĩ
Ø² ÙģØ±ÛĮ
ĠØ± Ø´
ĠØ± Ø§Øª
ĠØ± Ø³ÛĮ
ĠØ± Øº
ĠØ± ÙĩØ§ÛĮÛĮ
ĠØ± Ø§Ø¶
ĠØ± Ø¬ÛĮ
ĠØ± Ø¶Ø§ÛĮ
ĠØ± ÙĨÙĪ
ĠØ± Ø§Ø¬Ø±
ĠØ± ÙĤÛĮÙĩ
ĠØ± Ø£Ø³
ĠØ± Ø´ÛĮØ¯ÛĮ
ĠÙĨ Ø§ÙĦ
ĠÙĨ Øº
ĠÙĨ ÙĩØ§ÙĬ
ĠÙĨ Ú¯Ø±ÛĮ
ĠÙĨ Ø§Ø´Øª
ĠÙĨ ÙĬÙħ
ĠÙĨ ÚĨØ³Ø¨
ĠÙĨ Ø¯ÙĩØ¯
ĠÙĨ Ù¾Ø±Ø³
ĠÙĨ ÙħØ§ÙĨØ¯
ĠÙĨ Ø±Ø³Ø¯
ĠÙĨ ÙĩØ§ÙĬÙĬ
ĠÙĨ Ø§Ù¾ÙĦ
ĠÙĨ ÙħØ§ÙĨØ¯Ùĩ
ĠÙĨ ÙģÛĮØ³
ĠÙĨ Ø±ÙģØªÙħ
ĠÙĨ ÙĪØ³ØªØ§ÙĦ
ĠÙĨ ÛĮÙĨØªÙĨØ¯ÙĪ
ĠÙĩ Ø±ÛĮ
ĠÙĩ Ø§ÙĨØ¯Ùĩ
ĠÙĩ ÙĨØ¬Ø§Ø±ÛĮ
ĠÙĩ Ø§Ø¶ÙħÙĩ
Ø§Ùħ Ø¬
Ø§Ùħ ÙĪØ²Ø´
Ø§Ùħ ÙĪØ³
Ø§Ùħ ØªÛĮØ§Ø²
Ø§Ùħ Ø±ÛĮÚ©Ø§
Ø§Ùħ Ù¾ÛĮÙĪØªØ±
ĠØ¯Ø± ÛĮÙĦ
ĠØ¯Ø± ØªØ§Ø±ÛĮØ®
ĠØ¯Ø± Ú©ÙĨØ§Ø±
ĠØ³ Ø²
ĠØ³ Ú¯ÛĮ
ĠØ³ Ø¯Ø±
ĠØ³ Ú©Ø§ÙĨ
ĠØ³ ÚĨÙĩ
ĠØ³ Ø§Øº
ĠØ³ Ú©ÙĨØ¯
ĠØ³ Ø³ØªÛĮ
ĠØ³ ÙĪØ¯ÛĮ
ĠØ³ ÛĮÙĨÛĮ
ĠØ³ ÛĮØ¯ÛĮ
ĠØ³ Ø§Ø±ÙĬ
ĠØ³ Ø§Ø®ØªÛĮ
ĠØ³ ÙħÙĬ
ĠØ³ Ø²Ø§ÛĮÛĮ
ĠØ³ Ø§ÛĮÙĨØ³
ĠØ´ ÛĮØ¯
ĠØ´ ÛĮÙĨ
ĠØ´ ÙģØ±
ĠØ´ ÙĬÙĥ
ĠØ¢ Úĺ
ĠØ¢ Ø±Ø¨
ĠØ¢ ÙĬØ¯
ĠØ¢ Ø´ÛĮ
ĠØ¢ ÙĪÛĮØ²Ø§ÙĨ
ĠØ¢ Ø¬Ø±ÛĮ
ÙĤ Ø§ÙĤ
ÙĤ Ø¯Ø³
ÙĨØ¯ ÙĨØ¯
âĢĮ ...
Ø¹ ÛĮØ¯
Ø¹ ÙĪÙĨ
Ø¹ Ø«
Ø¹ ÙĦÙħ
Ø¹ ÙĦÙĪ
Ø¹ Ø±ÙĪØ³
Ø¹ ÙĦØ§ÙĤ
Ø¹ Ø¯Ø¯
Ø¹ Ø¨Ø¯
Ø¹ Ø±Ø¶
Ø¹ ÙĦØ§ÙħØª
Ø¹ Ø§Ø´ÙĤØ§ÙĨÙĩ
Ø§ÙĦ ÙĪØ±
Ø§ÙĦ ÙħØ§ÙĨ
Ø§ÙĦ Ø¨Ùĩ
Ø§ÙĦ Ø¯ÙĪ
Ø§ÙĦ Ø´Ø¹
Ø§ÙĦ Ø§ØºÛĮ
ĠØ¨Ùĩ Ø¯Ø§Ø´
ĠØ¨Ùĩ Ø±ÙĨÚ¯
ĠØ¨Ùĩ Ø´ÙĪÙĨ
ĠØ¨Ùĩ ÙĨÚ¯Ø§Ùħ
ĠØ¨Ùĩ ÛĮÙĨØ§ÙĪØ¨
ÙĪØ¯ ÙĦÙģ
Ø§Ø¯ Ø§ÙĨ
Ø§Ø¯ ÙĦÛĮ
Ø§Ø¯ ÛĮÙħ
Ø±ÛĮ Ø¬
Ø±ÛĮ Ø´ÛĮ
ĠÙ¾ Ø±ÛĮÙĨ
ĠÙ¾ Ø§Ùģ
ĠÙ¾ Ø±ÙĪØ´
ĠÙ¾ ÙĪØ±Ø§ÙĨ
ĠÙ¾ Ø§ÙĪØ±Ù¾
ĠÙ¾ Ø®ØªÙĨ
ĠÙ¾ Ø±Ø¨Ø§Ø²
ĠÙ¾ Ø§ÙĨØ¯Ø§ÛĮ
ĠØ® Ø§Ø¯
ĠØ® ÙĬ
ĠØ® Ø¯Ø±
ĠØ® ÙĪÛĮÙĩ
ĠØ® ÙĦÛĮÙĦÛĮ
ĠØ® Ø§Ø¯ÙħÛĮ
ĠØ® Ø±ÛĮØ¯Ùĩ
Ø¬ Ø³
Ø¬ ÛĮØ¯
Ø¬ Ø§Ø¯Ùĩ
Ø¬ Ú©Øª
Ø¬ Ø§Ø³Øª
Ø¬ ÙĦÙĪ
Ø¬ Ø§ÙĦØ¨
Ø¬ ÛĮÙĨÚ¯
Ø¬ Ø§ÛĮØ¹
Ø¬ ÙĨÙĪ
ĠØ§Ø² Ùħ
ĠØ§Ø² Ø§Ø¯ÛĮ
ĠØ§Ø² ÙĨØ¸Ø±
ĠÙħÛĮ Ø¯ÛĮØ¯
ĠÙħÛĮ Ø²Ø§Ø±
ĠÙħÛĮ ÙĨØª
ĠÙħÛĮ Ø¨Ø±Ø¯
ĠÙħÛĮ ÙģÙĩ
ĠÙħÛĮ Ø®Ø§ÙĨÙĩ
ĠÙħÛĮ Ø®ÙĪØ§Ø³Øª
ĠÙħÛĮ ÙĨÙħØ§ÛĮ
ĠÙħÛĮ Ø´ÛĮÙĨ
ĠÙħÛĮ Ú¯Ø°Ø§Ø±Ø¯
ĠÙħÛĮ Ø¨ÛĮÙĨÛĮ
ĠÙħÛĮ Ø®ÙĪØ§ÙĩÙĨØ¯
ĠÙħÛĮ Ø¨Ø§ÛĮØ¯
ĠÙħÛĮ ÙħÙĪÙĨÛĮ
ĠÙħÛĮ Ø®ÙĪØ§Ø³ØªÙħ
ĠÙħÛĮ Ú¯Ø±Ø¯ÛĮØ¯
ĠØ§Ø³ ÙħØª
ĠØ§Ø³ ÙĤØ§Ø·ÛĮ
ĠØ§ÛĮ Ø§
ĠØ§ÛĮ ÛĮÙĨ
ĠØ§ÛĮ ÙĦØ§ÙĨ
ĠØ§ÛĮ ÙħÛĮÙĦÛĮ
ĠØ§ÛĮ Ø²ÛĮÙĨ
ĠØ§ÛĮ Ø´Ø§Ø±Úĺ
ĠØ§ÛĮ Ø°Ùĩ
ĠØ§ÛĮ Ø²ÙĪÙĦ
ÙĪØ± ÙĪØ¯ÛĮ
ÙĬ Ø§Ø²
ÙĬ Ú¯Ø±
ÛĮØ¯ ÙĦÛĮÙĨÚ¯
Ø³Øª Ú¯ÙĬ
Ø® Ø§Ø±
Ø® ÙĬ
Ø® Ø±Ø¯
Ø® Ø§Ø±ÛĮ
Ø® ÙĪÙħ
Ø® ÙĦÛĮÙĦ
Ø® Ø§Ø±Ø´
Ø® ÙĪØ´ÛĮ
ĠÙģ Ø²
ĠÙģ ØŃ
ĠÙģ ÛĮÙĨ
ĠÙģ Ø§Ø¨
ĠÙģ Ø§Ø´
ĠÙģ ÙĨÚ¯
ĠÙģ Ø§ÙĨÛĮ
ĠÙģ ÙĩØ±
ĠÙģ Ø§ÛĮÙĨ
ĠÙģ Ø§ÙħÛĮ
ĠÙģ ÙĨØª
ĠÙģ Ø±ÙĪÙħ
ĠÙģ ÙĪÙĨØª
ĠÙģ Ø¯Ú©
ĠÙģ Ø§ÙĦÙĪ
ĠÙģ ÙĪØ±ÛĮØª
ĠÙģ ÙĪØ±Ø³
ĠÙģ Ø¬Ø§ÛĮØ¹
ĠØ¨Ø± Ú¯ÛĮ
ĠØ¨Ø± Ú©Ùĩ
ĠØ¨Ø± ÙĨØ¯Ú¯Ø§ÙĨ
ĠØ¨Ø± ÙĨØ¬ÛĮ
ĠØ¨Ø± ÙĨØ§Ùħ
ĠØ¨Ø± Ø³Ø§Ø²ÙħØ§ÙĨÙĩØ§ÛĮ
Ø§Ùĩ ÙĦ
Ø§Ùĩ Ø¯Ùĩ
Ø§Ùĩ ÙħÛĮØª
Ø§Ùĩ Ø§ÛĮØªØ§ÙĨ
ĠØ¹ Ø§Ø±ÛĮ
ĠØ¹ ØªÛĮ
ĠØ¹ ÙĤÛĮ
ĠØ¹ Ø§ÛĮØ¯
ĠØ¹ Ùĥ
ĠØ¹ Ø¨Ø±ÛĮ
ĠØ¹ Ø²Ø§ÛĮ
ĠØ¹ ÙĥØ³
Ø§Øª ÙĬÙĨ
Ø§Øª ÙĪÙħÛĮ
Ø§Øª ÙĪØ§Ø±
Ø§Øª ÙĦØ§ÙĨ
ØŃ Ú©
ØŃ ÛĮÙĨ
ØŃ Ø§ÙĨÙĩ
ØŃ Ø±Ùħ
ØŃ Ø§Ø¶
ØŃ ÙħÙĦ
ØŃ ÙĪØ²Ùĩ
ÚĨ Ø·ÙĪØ±
ĠØ§Ø³Øª ÛĮÚ©
ĠØ§Ø³Øª ÙĥÙĩ
ĠØ§Ø³Øª Ø§Ù¾ÙĦ
ĠØ§Ø³Øª Ø±ÙĪÚĺÙĨ
ĠØ§Ø³Øª Ø§ØªÛĮÚ©ÛĮ
ĠÚ¯ Ø§ÙĨ
ĠÚ¯ Ø§ÙĦ
ĠÚ¯ ÛĮÙĨ
ĠÚ¯ ÙĪÙĨ
ĠÚ¯ Ø¨Ø±
ĠÚ¯ ÙĪÙĩ
ĠÚ¯ ÙĢ
ĠÚ¯ ÙĬØ±
ĠÚ¯ ÙĪØ¯ÛĮ
ĠÚ¯ Ø§Ú¯
ĠÚ¯ ÙĪØªÙĨ
ĠØ¬ Ø§Øª
ĠØ¬ ÙģØª
ĠØ¬ Ø¨Ø±
ĠØ¬ Ø§Ø¬
ĠØ¬ ÛĮÙħÛĮ
ĠØ¬ Ø¯ÙĪ
ĠØ¬ Ø§ÙĩØ§ÛĮ
ĠØ¬ ÛĮÙĨÚ¯
ĠØ¬ ÙĦÛĮÙĦÛĮ
ĠØ¬ Ø§Ø¦Ø±
ÛĮÙĨ Ø²
ÛĮÙĨ ÙĤ
Ø§Ø² Ø§ÙĦ
Ø§Ø² Ø¢ÙĨ
Ø§Ø² Ú¯Ø§Ø±
Ø§Ø² Ù¾ÛĮØ´
Øµ ÙĨØ¯
Øµ Ø±ÛĮ
Øµ ÙĪØ±
Øµ ÙĬ
Ø§Ø¨ Ø§Ø®Ø¨Ø±
ĠØ¨Ø§ ÙĪØ±ÛĮ
ĠØ¨Ø§ Ø§ÛĮÙĨ
ĠØ¨Ø§ ÙģØ±
ĠØ¨Ø§ ÙĪØ±Ø´
ĠÛĮ Øª
ĠÛĮ ÙĦ
ĠÛĮ Ø±ÛĮ
ĠÛĮ ÙĪÙĦ
ĠÛĮ ÙĪÙħ
ĠÛĮ Ø§Ø±Ú©
ĠÛĮ Ø§ÙĨÙĨØ¯
ĠÛĮ Ø§ÙĨÚ¯
ĠÛĮ Ø³Ø§Ø±ÛĮ
ĠÛĮ ÙĪØ¯ÛĮÙģ
ĠØ§ÛĮÙĨ ÙĪ
ĠØ§ÛĮÙĨ Ø§ÙĨ
ĠØ§ÛĮÙĨ Ø¨Ø§Ø±
ĠØ§ÛĮÙĨ Ø³ØªØ§
Ø· Ø§ÙĦ
Ø§Ø³ Ø±ÛĮ
Ø§Ø³ ÛĮÙĨ
Ø§Ø³ ÚĨÛĮ
Ø±ÙĪ Ø§ÙĦ
Ø±ÙĪ Øº
Ø±ÙĪ Ø¦
Ø±ÙĪ Ø§ÛĮØ§Øª
ĠØŃ Ø¨
ĠØŃ ÛĮØ¯
ĠØŃ ÛĮØ±
ĠØŃ Ø¯ÛĮØ¯
ĠØŃ ÙĤÛĮÙĤ
ĠØŃ Ø§ØµÙĦÙĩ
ĠØŃ ÙĪÙħÙĩ
ĠØŃ ÛĮØ¯Ø±
Ø§Ø´ Ø§Ø±Ùĩ
ĠØ±Ø§ Ú©Ùĩ
ĠØ§ ÚĺÙĩ
ĠØ§ ÙĬØ±
ĠØ§ ÙĪÙĨØ§
ĠØ§ ÙĥØª
ĠÙĤ ÙĪ
ĠÙĤ Ø§ÛĮØª
ĠÙĤ Ø§Ø¨ÛĮ
ĠÙĤ Ø¶Ø§ÛĮ
ĠÙĤ ÙħØ±
ĠÙĤ ÛĮØ²
ĠÙĤ Ø§ÙĦÙħ
ĠÙĤ ÙĪÙħÛĮØª
ĠÙĤ Ø´ÙĪÙĨ
ĠÙĤ Ø§Ø¯Ø±ÛĮ
ĠÙĤ Ø±ÛĮØ´ÛĮ
ĠÙĤ Ø§ØªÙĦØ§ÙĨ
ÙĦÛĮ ÙħÛĮ
ÙĦÛĮ Ø²Ø±
ÙĦÛĮ Ø²Ø±ÛĮ
ĠØ² Ø¯Ùħ
ĠØ² Ø±Ùĩ
ĠØ² Ø§Ø¨ÙĦ
ĠØ² ÙĨÙħ
ĠØ² ÙĪÙħÛĮ
ĠØ² Ú©Ø±ÛĮ
ĠØ² Ø§ÙĦÙĪ
ĠØ² Ø§Ú©Ø§ÙĨÛĮ
ÙĪÙĨ ÙĨØª
Ù¾ Ø§ÙĨ
Ù¾ ÛĮÙĩ
Ù¾ Ø®Ø´
Ù¾ Ø±Ø¯Ùĩ
Ù¾ Ø§Ø´ÛĮ
Ù¾ Ø´ØªÛĮ
Ù¾ ÙĪØ¯Ø±
Ù¾ Ú©ÛĮØ¬
ÛĮØ± ÙĨÚ¯
ĠÚĨ Ø±ÛĮ
ĠÚĨ ÙĨÚ¯
ĠÚĨ ÙĬÙĨ
ĠÚĨ ÛĮÚ©
ĠÚĨ Ø±Øª
ĠÚĨ ÛĮØ±Ùĩ
ĠÚĨ ÙĬØ²
ĠÚĨ ÙĬØ²ÙĬ
ĠÚĨ Ø§Ø´ÙĨÛĮ
ÛĮÙħ Ø§Ø±Ø³ØªØ§ÙĨ
ÛĮÙħ Ø±Ø§Ú©
ĠÙĩØ§ÛĮ Øª
ĠØ§ÙĨ ÙĦÛĮ
ĠØ§ÙĨ ØªÙĩ
ĠØ§ÙĨ Ø²ÙĦ
ĠØ§ÙĨ Ø¯Ø±Ø³
Ø¯Ùĩ ÙĨÛĮ
ÙĪÙĦ Ø±
ÙĪÙĦ Ø§ÙĨÙĩ
ÙĪÙĦ Ø§ØªÙĪØ±
ÙĪÙĦ ÙĬÙĥ
ĠØ¯Ø§ÙĨ Ø³ØªÙħ
ÙĪÛĮ ÙĤ
ÙĪÛĮ Ø§Øª
ÙĪÛĮ ÚĺÚ¯ÛĮ
ĠÙĩÙħ ÙĪ
ĠÙĩÙħ ÙĨØ¯
ĠÙĩÙħ ÛĮÙĨÙĩ
ĠÙĩÙħ Ú¯Ø§Ùħ
ĠÙĩÙħ Ø®ÙĪØ§ÙĨÛĮ
ĠÙĩÙħ ÙĬØ´Ùĩ
ĠÙĩÙħ Ø¬ÙĪØ§Ø±
ĠÙĩÙħ Ø¯ÛĮÚ¯Ùĩ
ĠØ¢ÙĨ Ø³Øª
ĠØ¢ÙĨ ÙĦØ§
ĠØ¢ÙĨ Ø§ÙĦÙĪÚ¯
ÙĪØ² ÙĨØ¯
ÙĨÚ¯ Ø±
ÙĨÚ¯ Ø±Ø¯
ÙĨÚ¯ ÙĩØ¯Ø§Ø±ÛĮ
ÙħØ§ÙĨ Ø¯Ø§Ø±
ÙħØ§ÙĨ ÙĪÙħØªØ±
Ø³ÛĮ Ø§Ø³ÛĮ
ØªØ± Ø§Ø²
ØªØ± ÙĦØ§ÙĨ
ØªØ± ÙģÛĮÙĪÚĺ
Ø±Ø§ÙĨ ÙĨØ¯
ĠÙĦ Ùħ
ĠÙĦ ÙĪØ²
ĠÙĦ Ú©ÛĮ
ĠÙĦ Ø§Ùģ
ĠÙĦ Ø§Ø¨Ø¯
ĠÙĦ Ø§ÛĮÙģ
ĠÙĦ ÙĪÛĮØ²Ø§ÙĨ
ĠØ§Ùħ Ø¯ÙĨ
ĠØ§Ùħ Ø¶Ø§Ø¡
ĠØ§Ùħ Ø±Ø³ÙĪÙĨ
ĠØµ ÙĪÙħ
ĠØµ ÙģØ§
ĠØµ Ø¨ÙĪØ±ÛĮ
ĠÚ©ÙĨ Ø¬
ÙħÛĮ Ø¹
ĠØ· Ø±Ø¯
ĠØ· Ø§ØŃ
ĠØ· Ø§ÙĤ
ĠØ· ÙĪØ³
ĠØ· Ø§ÙĦØ¨ÛĮ
ĠØ· ÙģÙĪÙĦÛĮ
ĠØ· ÙĪØ·ÛĮ
ĠÙħÙĪ Ùħ
ĠÙħÙĪ ÚĨ
ĠÙħÙĪ Ø«
ĠÙħÙĪ Ø¬Ùĩ
ĠÙħÙĪ ØµÙĦ
ĠÚ©Ø§Ø± ÙĨØ§ÙħÙĩ
ĠÚ©Ø§Ø± Ø¯Ø§ÙĨØ´
ĠÚ©Ø§Ø± Ø§ÙħÙĦÛĮ
ĠÚ©Ø§Ø± Ø¨ÙĪÙħ
ĠÚ©Ø§Ø± Ø§ØªÙĩ
Ġ( @
Ø§Ø¹ ÙĬ
Úĺ Ø§ÙĨØª
ĠÙħÙĨ Ø´ÛĮ
ĠÙħÙĨ ÙĪØ·
ĠÙħÙĨ ÙģØ±Ø¯
ĠÙħÙĨ Ø´Ø§Ø¡
ĠÙħÙĨ Ø§Ø²ÙĦ
Ú¯Ø± Ø¨Ùĩ
Ú¯Ø± Ø§ÛĮØ§ÙĨ
ĠÙħØŃ Ø¨
ĠÙħØŃ Ø§ÙĦ
ĠÙħØŃ Ø§Øµ
ĠÙħØŃ ØªÚ©
ĠÙħØŃ Ø±Ø²
Ø¸ Øª
Ø¸ ÙħÛĮ
Ø¸ ÙĩØ±
Ø¸ Ø§ØªÛĮ
ĠÙĨÛĮ Ú©ÙĦ
ĠÙĨÛĮ Ø³Ø§ÙĨ
ĠÙĨÛĮ ÚĨØ±
ĠÙĨÛĮ Ø§Ø¨ØªÛĮ
Ú¯Ø§Ùĩ Ø§ÙĨÙĩ
ĠÛĮÚ© Ùī
ĠÛĮÚ© Ø±ÙĪØ²
ĠÛĮÚ© Ø³Ø§ÙĨÛĮ
ĠÛĮÚ© ØªØ§
ĠÛĮÚ© Ø§ÙĩØ§
ĠÙĩØ§ Ùģ
ĠØ®ÙĪØ¯ Ø§Ø±ÛĮ
ĠØ®ÙĪØ¯ ÙĨÙħØ§ÛĮÛĮ
ĠØ®ÙĪØ¯ Ø§Ø±Ø¶Ø§ÛĮÛĮ
ĠØ¢Ùħ ÙĪØ²Ùĩ
ĠØ§Ø± ÙĨ
ĠØ§Ø± ÙĪØ±
ĠØ§Ø± ÚĨØª
ĠØ§Ø± Ø§Ø¶ÛĮ
ĠØ§Ø± Ø¯Ú©
ĠØ§Ø± ÙħÙĨÛĮ
ĠØ§Ø± Ø¶Ø§Ø¡
ĠØ§Ø± ÙĤØ§Ùħ
ĠØ§Ø± Ø§ÛĮÚ©Ø³
ĠÙĪÛĮ Ø±ÙĪ
ĠÙĪÛĮ ÙģØ±ÛĮ
ĠÙĪÛĮ ÙĦÛĮØ§Ùħ
ĠØ¨Ø§Ø² ÙĪÛĮ
ĠØ¨Ø§Ø² ØªØ±
ĠØ¨Ø§Ø² ÙħÛĮ
ĠØ¨Ø§Ø² Ø¯Ø±
ĠØ¨Ø§Ø² Ú¯Ø±Ø¯Ø§ÙĨ
ĠØªÙĪ Ø§ÙĦÛĮ
ĠØªÙĪ ÙħÙĨ
ĠØªÙĪ Ø§Ø¶Ø¹
ĠØ§ÙĦ Ø±
ĠØ§ÙĦ ÙħÙĪ
ĠØ§ÙĦ Ø²ÙħØ§ÙĨ
ĠØ§ÙĦ Ø±Ø¶Ø§
ĠØ§ÙĦ Ø·Ø¨
ĠØ§ÙĦ Ø·Ùģ
ĠØ§ÙĦ ÙħØ±Ø§Ø±
ĠØ§ÙĦ Ø±ÙĪØ§ÛĮØ§Øª
ĠØ¨ÛĮ Ú¯Ø§ÙĨ
ĠØ¨ÛĮ ÙĨØ¯ÛĮ
ĠØ¨ÛĮ Ú©Ø§Ø±
ĠØ¨ÛĮ Ø³ÛĮÙħ
ĠØ¨ÛĮ Ø¶Ùĩ
ĠØ¨ÛĮ Ø®ÙĪØ¯
ĠØ¨ÛĮ Ø§ÙĨØ¯Ø§Ø²
Ø§ÙĨÛĮ ÙĪÙħ
ÙĪÙħ Ø§ØªÛĮÚ©
ĠØ¨Ø§Ø´ ÙĪ
Ø§ØŃ Ø¨
Ø§ØŃ Ùģ
Øº ÙĦ
Ø§Ø® ÛĮØ±Ø§
ÙĨÛĮ Ø§ÙĨ
ÙĨÛĮ Ø³
ÙĨÛĮ Ø§Ø²Ùħ
ĠÙģØ± Ø´Øª
ĠÙģØ± Ø¬ÛĮ
ĠÙģØ± Ø§ÙĪØ±Ø¯Ùĩ
ĠÙģØ± Ø¹ÙĪÙĨ
ĠÙħØ± ÙĩÙħ
ĠÙħØ± Ø¦ÛĮ
ĠÙħØ± Ø®ØµÛĮ
Ø¨ÛĮ ÙĦÙĩ
Ø¨ÛĮ Ø§ÙĨÛĮÙĩ
Ø¨ÛĮ Ú©Ø§
ĠÙħØ¹ ÙĦÛĮ
ĠÙħØ¹ ÙĦÙĤ
ĠÙħØ¹ Ø´ÙĪ
ĠÙħØ¹ Ø¯ÙĪØ¯
ĠÙħØ¹ ÙĤÙĪÙĦ
ĠÙħØ¹ Ø§ÙĪØ¶Ùĩ
ĠØ´Ùħ ÛĮÙħ
ĠÙĨÙħ Ú©ÛĮ
ĠÙĨÙħ ÛĮØ¯Ùħ
Ø« Ø±ÙĪ
ĠÙ¾ÛĮ Ú©Ø³
ĠÙ¾ÛĮ Ø§ÙĨÙĪ
ĠÙħØ¯ Ø§Ø±ÛĮ
ĠÙħØ¯ ÙģÙĪØ¹
[...]
