{"<s>":0,"<pad>":1,"</s>":2,"<unk>":3,"<mask>":4,"!":5,"\"":6,"#":7,"$":8,"%":9,"&":10,"'":11,"(":12,")":13,"*":14,"+":15,",":16,"-":17,".":18,"/":19,"0":20,"1":21,"2":22,"3":23,"4":24,"5":25,"6":26,"7":27,"8":28,"9":29,":":30,";":31,"<":32,"=":33,">":34,"?":35,"@":36,"A":37,"B":38,"C":39,"D":40,"E":41,"F":42,"G":43,"H":44,"I":45,"J":46,"K":47,"L":48,"M":49,"N":50,"O":51,"P":52,"Q":53,"R":54,"S":55,"T":56,"U":57,"V":58,"W":59,"X":60,"Y":61,"Z":62,"[":63,"\\":64,"]":65,"^":66,"_":67,"`":68,"a":69,"b":70,"c":71,"d":72,"e":73,"f":74,"g":75,"h":76,"i":77,"j":78,"k":79,"l":80,"m":81,"n":82,"o":83,"p":84,"q":85,"r":86,"s":87,"t":88,"u":89,"v":90,"w":91,"x":92,"y":93,"z":94,"{":95,"|":96,"}":97,"~":98,"¡":99,"¢":100,"£":101,"¤":102,"¥":103,"¦":104,"§":105,"¨":106,"©":107,"ª":108,"«":109,"¬":110,"®":111,"¯":112,"°":113,"±":114,"²":115,"³":116,"´":117,"µ":118,"¶":119,"·":120,"¸":121,"¹":122,"º":123,"»":124,"¼":125,"½":126,"¾":127,"¿":128,"À":129,"Á":130,"Â":131,"Ã":132,"Ä":133,"Å":134,"Æ":135,"Ç":136,"È":137,"É":138,"Ê":139,"Ë":140,"Ì":141,"Í":142,"Î":143,"Ï":144,"Ð":145,"Ñ":146,"Ò":147,"Ó":148,"Ô":149,"Õ":150,"Ö":151,"×":152,"Ø":153,"Ù":154,"Ú":155,"Û":156,"Ü":157,"Ý":158,"Þ":159,"ß":160,"à":161,"á":162,"â":163,"ã":164,"ä":165,"å":166,"æ":167,"ç":168,"è":169,"é":170,"ê":171,"ë":172,"ì":173,"í":174,"î":175,"ï":176,"ð":177,"ñ":178,"ò":179,"ó":180,"ô":181,"õ":182,"ö":183,"÷":184,"ø":185,"ù":186,"ú":187,"û":188,"ü":189,"ý":190,"þ":191,"ÿ":192,"Ā":193,"ā":194,"Ă":195,"ă":196,"Ą":197,"ą":198,"Ć":199,"ć":200,"Ĉ":201,"ĉ":202,"Ċ":203,"ċ":204,"Č":205,"č":206,"Ď":207,"ď":208,"Đ":209,"đ":210,"Ē":211,"ē":212,"Ĕ":213,"ĕ":214,"Ė":215,"ė":216,"Ę":217,"ę":218,"Ě":219,"ě":220,"Ĝ":221,"ĝ":222,"Ğ":223,"ğ":224,"Ġ":225,"ġ":226,"Ģ":227,"ģ":228,"Ĥ":229,"ĥ":230,"Ħ":231,"ħ":232,"Ĩ":233,"ĩ":234,"Ī":235,"ī":236,"Ĭ":237,"ĭ":238,"Į":239,"į":240,"İ":241,"ı":242,"Ĳ":243,"ĳ":244,"Ĵ":245,"ĵ":246,"Ķ":247,"ķ":248,"ĸ":249,"Ĺ":250,"ĺ":251,"Ļ":252,"ļ":253,"Ľ":254,"ľ":255,"Ŀ":256,"ŀ":257,"Ł":258,"ł":259,"Ń":260,"Ø§":261,"ĠØ":262,"ÛĮ":263,"Ø±":264,"ĠÙ":265,"ÙĨ":266,"Ùĩ":267,"Ø¯":268,"ÙĪ":269,"Øª":270,"Ùħ":271,"Ø§Ø":272,"Ú©":273,"ÙĦ":274,"ĠØ¨":275,"ĠÙħ":276,"Ø§ÙĨ":277,"Ø§ÛĮ":278,"ĠØ¯":279,"Ø³":280,"ĠÙĪ":281,"Ø´":282,"ĠØ§Ø":283,"ĠÚ©":284,"Ø§Ø±":285,"Ú¯":286,"Ø¨":287,"ĠØª":288,"Ùģ":289,"Ø²":290,"ĠØ±":291,"ĠÙĨ":292,"ĠÙĩ":293,"Ø§Ùħ":294,"ĠØ¯Ø±":295,"âĢ":296,"ĠØ³":297,"ĠØ´":298,"ĠØ¢":299,"ÙĤ":300,"ÙĨØ¯":301,"âĢĮ":302,"Ø¹":303,"Ø§ÙĦ":304,"ĠØ¨Ùĩ":305,"ÙĪØ¯":306,"Ø§Ø¯":307,"Ø±ÛĮ":308,"ØĮ":309,"ĠÙ¾":310,"ĠØ®":311,"Ø¬":312,"ĠØ§Ø²":313,"ĠÙħÛĮ":314,"ĠØ§Ø³":315,"ĠØ§ÛĮ":316,"ÙĪØ±":317,"ÙĬ":318,"ÛĮØ¯":319,"Ø³Øª":320,"Ø®":321,"ĠÙģ":322,"ĠØ¨Ø±":323,"Ø§Ùĩ":324,"ĠØ¹":325,"Ø§Øª":326,"ØŃ":327,"ÚĨ":328,"ĠØ§Ø³Øª":329,"ĠÚ¯":330,"ĠØ¬":331,"ÛĮÙĨ":332,"Ø±Ø¯":333,"Ø§Ø²":334,"ĠÚ©Ùĩ":335,"Øµ":336,"Ø§Ø¨":337,"ĠØ¨Ø§":338,"ĠÛĮ":339,"ĠØ§ÛĮÙĨ":340,"Ø·":341,"Ø§Ø³":342,"Ø±ÙĪ":343,"ĠØŃ":344,"Ø§Ø´":345,"ĠØ±Ø§":346,"ĠØ§":347,"ĠÙĤ":348,"ÙĦÛĮ":349,"ĠØ²":350,"ÙĪÙĨ":351,"Ù¾":352,"ÙĩØ§ÛĮ":353,"ÛĮØ±":354,"ĠÚĨ":355,"ÛĮÙħ":356,"ĠÙĩØ§ÛĮ":357,"ĠØ§ÙĨ":358,"..":359,"Ø¯Ùĩ":360,"ÙĪÙĦ":361,"ÙģØª":362,"ĠØ¯Ø§ÙĨ":363,"ÙĪÛĮ":364,"ĠÙĩÙħ":365,"ÙĩØ§":366,"Ø¶":367,"ÙĪØ§ÙĨ":368,"ĠØ¢ÙĨ":369,"Ø§Ø±ÛĮ":370,"ÙĪØ²":371,"ÙĨÚ¯":372,"ÙħØ§ÙĨ":373,"Ø³ÛĮ":374,"ØªØ±":375,"Ø´ÙĨ":376,"Ø±Ø§ÙĨ":377,"ØªÛĮ":378,"ĠØ¨Ø±Ø§ÛĮ":379,"ĠÙĦ":380,"Ġ-":381,"ĠØ§Ùħ":382,"ĠØµ":383,"ĠÚ©ÙĨ":384,"Ú©ÛĮ":385,"ÙħÛĮ":386,"Ø°":387,"ĠØ·":388,"ĠÙħÙĪ":389,"Ø§ÙĨÙĩ":390,"Ø¯ÛĮ":391,"ĠÚ©Ø§Ø±":392,"Ġ(":393,"ĠÚ©Ø±Ø¯":394,"Ø§Ø¯Ùĩ":395,"Ø§Ø¹":396,"Úĺ":397,"ĠØ¯Ø§Ø±":398,"ĠÙħÙĨ":399,"Ø§ÙħÙĩ":400,"Ú¯Ø±":401,"ĠÙħØŃ":402,"Ø¸":403,"ØªÙĩ":404,"ĠÙĨÛĮ":405,"ÛĮØª":406,"ÙĦÙĪØ¯":407,"Ú¯Ø§Ùĩ":408,"ĠÛĮÚ©":409,"ĠÙĩØ§":410,"ĠØ®ÙĪØ¯":411,"Ú¯ÛĮ":412,"ĠØ¢Ùħ":413,"ĠØĮ":414,"ĠØ§Ø±":415,"ÙĦØ§":416,"ĠÙĪÛĮ":417,"ĠØ¨Ø§Ø²":418,"ĠØªÙĪ":419,"ĠØ§ÙĦ":420,"ÙĪØ´":421,"ĠØ¨ÛĮ":422,"Ø§ÙĨÛĮ":423,"ÙĪÙħ":424,"ĠØ¨Ø§Ø´":425,"Ø§ØŃ":426,"Øº":427,"Ø§Ø®":428,"ÙĨÛĮ":429,"ĠÛ":430,"Ø§ÛĮÛĮ":431,"ĠÙģØ±":432,"ĠÙħØ±":433,"ĠØ¯Ø§ÙĨÙĦÙĪØ¯":434,"Ø¨ÛĮ":435,"ĠÙħØ¹":436,"ĠØ´Ø¯Ùĩ":437,"ĠØ´Ùħ":438,"ĠÙĨÙħ":439,"Ø«":440,"ÙĦÙĩ":441,"ĠÙ¾ÛĮ":442,"ĠÙħØ¯":443,"ĠÙħØ´":444,"Ø±ÛĮÙĨ":445,"ÙĩÙĨÚ¯":446,"Ú©ÙĨ":447,"ĠÛĮØ§":448,"ĠØªØ§":449,"Ø¯ÛĮØ¯":450,"Ø§ÛĮØª":451,"ĠØ§Ùģ":452,"ĠÙħØª":453,"Ø§Ùģ":454,"Ø¨Ø±":455,"ĠØªØ±":456,"Ġ,":457,"ÙĩØ±":458,"ĠØ¯Ø³Øª":459,"ĠØ¨ÙĪØ¯":460,"Ø§Ø±Ùĩ":461,"ÙĪØ±Ø¯":462,"ĠØ´Ø¯":463,"Ø¢":464,"ĠØ³Ø±":465,"ÙĨØ¯Ùĩ":466,"ÙĤÛĮ":467,"ĠØ±ÙĪ":468,"ĠØ®ÙĪ":469,"Ø²ÛĮ":470,"ĠØ¯ÛĮ":471,"Ø±Ùģ":472,"Ø¨Ùĩ":473,"Ø§ÛĮØ¯":474,"Ú©Øª":475,"ÙĪØ±ÛĮ":476,"ĠØ´ÙĪØ¯":477,"Ø²Ø§Ø±":478,"ÙĦÙħ":479,"ĠØº":480,"Ø¯Ø±":481,"ĠØ³Ø§ÙĦ":482,"ÙĪØ²Ø´":483,"ÙĦØ§Ùħ":484,"ĠØ¢Ø²":485,"ĠØ¨Ø§Ø´Ø¯":486,"ÙĪØ¹":487,"ĠÙħØ¬":488,"Ø§Ø³Øª":489,"ĠÚ©Ø´":490,"ĠØ§ÛĮØ±Ø§ÙĨ":491,"ĠÙĤØ±":492,"Ú©Ø³":493,"ĠØ¯ÙĪ":494,"ĠÙħÙĤ":495,"Ø§ÛĮØ´":496,"ĠØ¢ÙĩÙĨÚ¯":497,"...":498,"Ø¦":499,"Ø¬Ùĩ":500,"ĠÙħØ³":501,"Ø§ÙĤ":502,"ĠØ¬Ø¯ÛĮØ¯":503,"ĠØ³Ø§Ø²":504,"ĠØ¯Ùĩ":505,"ĠØ¢ÙħÙĪØ²Ø´":506,"Ø§Ø±Ø¯":507,"Ú©Ùĩ":508,"ÙģØ§Ø¯Ùĩ":509,"ĠØ´Ø±":510,"Ø§Ø¯ÛĮ":511,"Ġ|":512,"Ø§Ú©":513,"Ġ1":514,"ĠØªØŃ":515,"ĠÙĨØ¸":516,"ĠÙĥ":517,"ĠØ´ÙħØ§":518,"ØªÙħ":519,"ĠÂ":520,"Ġ.":521,"ĠØ§Ø³ØªÙģØ§Ø¯Ùĩ":522,"Ø§Ø·":523,"Ø§Ø³ÛĮ":524,"ĠÙĩØ±":525,"Ø¨Øª":526,"Ùī":527,"Ġ2":528,"ĠØ¹Ùħ":529,"ÙĪÙĨÙĩ":530,"ĠÚ¯Ø±":531,"ĠÙħÙĩ":532,"Ø±ÛĮØ¯":533,"ÙĪØ±Øª":534,"ĠØ²ÛĮ":535,"ĠØ¨Ø§Ø²ÛĮ":536,"ĠØ¯Ø§ÙĨØ´":537,"Ùĥ":538,"Ø§Ø¬":539,"Ø¹Ùĩ":540,"ĠÚ©Ùħ":541,"Ø®Øµ":542,"Ø±ÙĪØ´":543,"Û°":544,"ĠØ¯Ø§Ø±Ø¯":545,"Ø§Ø¦":546,"Ø³ØªØ§ÙĨ":547,"ĠØ³ÛĮ":548,"Ø§ÙĦÛĮ":549,"Ø§Ø®Øª":550,"ĠÚ¯ÙĦ":551,"Ø§Øµ":552,"ÙĪÙĩ":553,"ÙħÙĨ":554,"ĠØ¯Ø§Ø´":555,"ÙģØªÙĩ":556,"ĠØ¨Ø¯":557,"Ø§ÙĬ":558,"ĠÚ©ÙĨÛĮØ¯":559,"ĠÙĩØ³Øª":560,"ĠØ¬Ùħ":561,"Ø¯Ùħ":562,"Ø®Øª":563,"ĠØ§Øµ":564,"ÙĨØ§ÙħÙĩ":565,"ĠØ³ÙĪ":566,"Ø±Ø³":567,"Ø±Ùħ":568,"Ø²Ø´":569,"ĠØªÙĪØ§ÙĨ":570,"ĠÚ©ÙĨØ¯":571,"ØªØ±ÛĮÙĨ":572,"ĠØ¯ÙĪØ±":573,"Ø±Ùĩ":574,"ĠØªØ¹":575,"ĠØ±Ø³":576,"ĠØ¢Ø²Ø§Ø¯":577,"ĠÙģÛĮ":578,"ØªÙĪØ§ÙĨ":579,"ĠÙħØ·":580,"ĠØ·Ø±":581,"Â»":582,"ÙĦÙĪ":583,"Ø´ÙĪØ¯":584,"ĠØ§Ø¹":585,"Ø§ÙĨØ¯":586,"ÙĶ":587,"Ø§ÙħÙĦ":588,"ÙĬÙĨ":589,"ĠØ±ÙĪÛĮ":590,"ĠØ§Ø¬":591,"ĠØªÙħ":592,"ĠÙħØ±Ø¯":593,"ĠÂ«":594,"ÛĮÙĩ":595,"ĠÙĨÙĤ":596,"ĠÙĨÛĮØ²":597,"Ø§Ø¨ÛĮ":598,"Ú©ÙĦ":599,"Ø§ÛĮÙĦ":600,"ÙĢ":601,"Ø§ÙĩØ¯":602,"Ú¯Ø§ÙĨ":603,"ĠØ§Ø¨":604,"Ø¨Ø§ÙĨ":605,"ĠØ±ÙĪØ²":606,"ÙĪØª":607,"Ø§ÛĮÙĨ":608,"ĠØ§ÙĨØª":609,"ØªØ§Ø¨":610,"ĠÙĨØ§Ùħ":611,"ĠØ§Ø¯":612,"ĠØ³Ø§ÛĮØª":613,"ĠÙģØ±ÙĪØ´":614,"ĠØ§ÙĪ":615,"Ġ:":616,"ĠÙħÙĪØ±Ø¯":617,"ĠØ¨Ø§ÛĮØ¯":618,"Ø¨Ø§Ø±":619,"ĠÛ±":620,"ĠØ¬Ùĩ":621,"ĠØ§ÙĨØ¬":622,"Ø¬ÙĪØ¯":623,"ĠÙħØ§":624,"Ú©Ø§ÙĨ":625,"ĠÚ©ÙĦ":626,"ĠÙĤØ±Ø§Ø±":627,"ĠØ¨Ø³ÛĮ":628,"ĠØªÙĩ":629,"ĠâĢ":630,"ÙħÛĮÙĨ":631,"ĠØ¨ÛĮØ´":632,"ĠØªØµ":633,"ĠØ§ÙĨØ¯":634,"ÚĺÙĩ":635,"Ø®Ø´":636,"ĠØ®Ø±ÛĮØ¯":637,"ĠØ¹ÙĦ":638,"ÛĮÚ©":639,"ĠÚ©Ø´ÙĪØ±":640,"ÙĤÙĩ":641,"ÙĪØ¨":642,"ÛĮÙģ":643,"ĠÙĨØ´":644,"ÙĨØ¬":645,"ĠÙħØ§Ùĩ":646,"ĠÙ¾Ø§ÛĮ":647,"ĠØ§Ø®":648,"ĠØµÙĪØ±Øª":649,"ÙĪØ³":650,"ÙĪÙĨØ¯":651,"ĠØ§Ø·":652,"ĠØ§Ø´":653,"ĠØ¶":654,"Ù¾Ø¯ÛĮ":655,"ĠÙĪÛĮÚ©ÛĮ":656,"ĠÙ¾Ø±ÙĪ":657,"Ø´Ùĩ":658,"Ø´ÙĨØ§ÙħÙĩ":659,"ÙĨØ§":660,"ĠÚ¯ÙģØª":661,"ĠØ§ÙĤ":662,"Ø±Ø¨":663,"Ġ...":664,"ĠÚ©ØªØ§Ø¨":665,"ĠÚĨØª":666,"ĠØ´ÙĩØ±":667,"ÙĨØ¯ÛĮ":668,"ĠÙ¾ÛĮØ´":669,"ÙħØª":670,"ĠØ¨Ø§ÙĦ":671,"ĠØªÙĦ":672,"ÙĦØ¨":673,"ĠØ¯Ø§ÙĨØ´ÙĨØ§ÙħÙĩ":674,"ĠØ´Ùĩ":675,"Ø§Ø²ÛĮ":676,"ĠÚ©ÙĨÙĨØ¯":677,"Ù¾Ø¯ÛĮØ§":678,"ĠÚ©Ø±Ø¯Ùĩ":679,"Ø§ØŃÛĮ":680,"ÙģØ±":681,"Ø§ÙħÛĮ":682,"ĠÚĨÙĩ":683,"Ġ9":684,"Ø§Ø±Øª":685,"Ø§ÙĪØ±":686,"....":687,"ĠÙ¾Ø³":688,"ÙħØ¯":689,"Ø®ÛĮ":690,"ĠØ³Ø§Ø²ÙħØ§ÙĨ":691,"ĠÙģÛĮÙĦÙħ":692,"ĠØªÙĪØ³":693,"Ø¯Ø§ÙĨ":694,"ĠØ±Ø§Ùĩ":695,"ÙĦØ§Ø¹":696,"ĠÚ¯ÙĦØ´ÙĨ":697,"Ø¯Ø§":698,"ØŁ":699,"ÙħÙĩ":700,"ĠØ¢ÙĨÙĩØ§":701,"Ú©Ø§Ø±":702,"ĠØ¨Ø¹":703,"ÙģÛĮ":704,"ĠÙĨÙħÛĮ":705,"ĠØ³Ø§Ø®Øª":706,"ĠÚ¯ÛĮ":707,"ĠÚ¯Ø°":708,"ĠØŃØ§ÙĦ":709,"Ø¹ÛĮ":710,"Ø²Ø±":711,"ĠØ¨Ø±ÙĨØ§ÙħÙĩ":712,"Ø´Øª":713,"ÚĨÙĩ":714,"ĠØ´ÛĮ":715,"ĠØ²ÙħØ§ÙĨ":716,"ĠÙĨØ¸Ø±":717,"ĠÛ±Û":718,"ĠØªÙĨ":719,"ĠÚ¯Ø±Ø¯":720,"Ø®ÙĪ":721,"ÛĮÙĨÚ©":722,"Ú©Ø±":723,"ĠØ¯Ø§Ø¯":724,"Ø³Ø¨":725,"ĠØ§ÙĨØ¬Ø§Ùħ":726,"ĠØ¹Ú©Ø³":727,"ĠØ§Ø·ÙĦØ§Ø¹":728,"Ø§ØªÛĮ":729,"ĠØ§ÙģØ²":730,"ĠØ¨ÛĮÙĨ":731,"ĠØ±ÛĮ":732,"ĠØ§ØŃ":733,"ĠÙ¾Ø±":734,"Ø¯Ø§Ø±":735,"ĠØ¹ÙĨ":736,"ĠØ¹Ø§Ø´":737,"Ġ20":738,"ĠÚ©Ø±Ø¯ÙĨ":739,"Ø¨Ø±ÛĮ":740,"ĠÙĪØ¬ÙĪØ¯":741,"ĠØ¨Ø§Ø±":742,"Ġ--":743,"ĠØŃØ³":744,"ÙĪØ³Øª":745,"ĠØ§ÙħØ§":746,"Ø±ÙĪÙĩ":747,"ÙĪÙĤ":748,"Ú©Ø±Ø¯":749,"Ø¨ÛĮÙĨ":750,"ĠÙĩØ³ØªÙĨØ¯":751,"Ø¨Ø§":752,"Ø±Ø§":753,"ĠØ«":754,"ÙĩØ§ÛĮÛĮ":755,"ØªØ¨":756,"ĠØ§Ú¯Ø±":757,"ĠØ§Øª":758,"Ø§Ø¶":759,"ĠÛĮÚ©ÛĮ":760,"ÙĨÛĮÙĨ":761,"ĠØ¯ÛĮÚ¯Ø±":762,"ĠÙħÙĬ":763,"ĠÙħØ§ÙĨ":764,"ĠØªÙĪÙĦ":765,"ĠÙĪØ±":766,"ĠØ¢Ø¨":767,"ĠØ§ÙĪÙĦ":768,"ÛĮØ¯Ùĩ":769,"an":770,"Ø´ØªÙĩ":771,"ĠÚ©ÙĪØ¯":772,"ĠØ´Ø¨":773,"Ø³Ùĩ":774,"Ø¯Ø§Ùħ":775,"ĠØ²ÛĮØ±":776,"ĠØ¨Ø³ÛĮØ§Ø±":777,"Ø±Ø§Ùĩ":778,"Ù¾ÛĮ":779,"ÙĦÛĮÙĩ":780,"ĠØªØ¬":781,"ĠÙĩÛĮ":782,"ĠØ¯Ø§Ø´ØªÙĩ":783,"ĠÙĨØ³":784,"ĠØ¨ÛĮÙħ":785,"ĠØ¨Ø²Ø±":786,"er":787,"ÙħÙĦ":788,"ÙĨØª":789,"ĠÙħØµ":790,"Ø§Ø²Ùħ":791,"Ø´Ùħ":792,"ÙĨØ¯Ú¯ÛĮ":793,"ÛĮØ§":794,"ĠØ®ÙĪØ§ÙĩØ¯":795,"ĠØ³ÙĪØ§ÙĦ":796,"Ø§ÙĦØ¨":797,"ĠØ´ÙĨ":798,"ĠØ¯Ø§ÙĨØ´Ú¯Ø§Ùĩ":799,"ÙĪØµ":800,"ĠØŃØ¶":801,"ĠØ¨ÙĦ":802,"ĠÚĨÙĨØ¯":803,"ØĽ":804,"Ø³ØªÙħ":805,"ĠÙĪÛĮÙĦØ§":806,"ĠÙģØ¹":807,"Ùĭ":808,"ĠØ¹ÙĨÙĪØ§ÙĨ":809,"Ø³ØªÙĩ":810,"ĠØ¨Ø®Ø´":811,"ĠØ´Ø±Ú©Øª":812,"ĠØ¨ÙĨ":813,"ÙĲ":814,"Ø§Ø¨ÙĦ":815,"Ùİ":816,"Ú¯ÙĦ":817,"ĠØªØº":818,"ĠÙĨÙĪ":819,"Ø§Øº":820,"ĠØ¹Ø§Ø´ÙĤ":821,"Ġ)":822,"Ø¨Ø±Ø¯":823,"ĠØªØ´":824,"ÙĤÛĮÙĤ":825,"Ú©ÙĨØ¯":826,"Ø±Øª":827,"ÚĨØª":828,"ÛĮÙħØª":829,"ĠØ§ÙģØ±":830,"ÙĪÙĨÛĮ":831,"00":832,"ĠØ±Ø§ÛĮ":833,"ĠÙĨÛĮØ³Øª":834,"ĠØ®Ø¯Ùħ":835,"ĠØ³Ø±ÛĮ":836,"ÛĮÙĨÙĩ":837,"Ø±ÙĪØ²":838,"Ø¹Øª":839,"ĠØ§Ø³ÙĦØ§Ùħ":840,"ĠØ¯Ø§Ø¯Ùĩ":841,"Ġ3":842,"ĠÙĨÙĩ":843,"ĠÙģØ§Ø±":844,"ĠÙĨÙħØ§ÛĮ":845,"ĠÙĨÙħÙĪÙĨÙĩ":846,"on":847,"ĠØ°":848,"Ø´Ø¯":849,"Ø§Ø¹ÛĮ":850,"ĠØ¨Ø²Ø±Ú¯":851,"ĠØ¢Ø±":852,"Ú¯ÛĮØ±ÛĮ":853,"ar":854,"Ø¨Ø§ÙĦ":855,"ĠÙħÙĪØ¶":856,"Ø±ÛĮÚ©":857,"ĠÚ¯Ø±ÙĪÙĩ":858,"ĠÙĩÙħÙĩ":859,"Ø¨ÙĦ":860,"ĠÙħØ±Ø¯Ùħ":861,"ØªØµ":862,"ÛĮÙħÛĮ":863,"Ø¨Ø§Ø±Ùĩ":864,"Ø®Ø§Ø¨":865,"ĠØªÙĪØ¬Ùĩ":866,"ĠØ¯Ø§Ø´Øª":867,"ÙĨÙħ":868,"ĠÙħØ®Øª":869,"ÙĬØ¯":870,"ĠÚ©ÛĮÙģ":871,"ÙĨØ¯Ø§ÙĨ":872,"ØªÙĪ":873,"ĠØ±ÙĪØ´":874,"ĠÙģØ±ÙĩÙĨÚ¯":875,"ĠØªÙĤ":876,"ĠØ¯Ø§Ø±ÙĨØ¯":877,"ĠS":878,"ĠÙħØ«":879,"ĠÙĨÛĮØ§Ø²":880,"Ú¯Ùĩ":881,"Ø¬ÛĮ":882,"Ø§ÙĪ":883,"ĠØ§ÛĮÙĨÚ©Ùĩ":884,"ĠÙĩÙħÚĨ":885,"Ø±ÙĪÙħ":886,"Ġ201":887,"ĠØ²ÙħÛĮÙĨ":888,"ĠØ¨ÛĮØ´ØªØ±":889,"ĠØ¹Ø§Ø´ÙĤØ§ÙĨÙĩ":890,"ÙĦÙģ":891,"Ø´ÛĮ":892,"Ø·Ùĩ":893,"ĠÙħØ´Ú©ÙĦ":894,"ĠØªÙĪÙĦÛĮØ¯":895,"in":896,"Ø§Ù¾":897,"ÛĮØ³":898,"ĠÙģØ¹Ø§ÙĦ":899,"ĠØ®Ø§ÙĨ":900,"ĠØ²Ø¨Ø§ÙĨ":901,"ĠØ·Ø±ØŃ":902,"ĠØ¹Ø±":903,"ĠØªÙĩØ±Ø§ÙĨ":904,"ĠÙħÙĪØ¶ÙĪØ¹":905,"ĠÙ¾Ø§Ø³":906,"ĠØ§ÙĨØªØ®Ø§Ø¨":907,"ØªØ±ÛĮ":908,"ĠÙĨØ¯":909,"ĠÙĥÙĩ":910,"Ø¬Ø§Ø¯":911,"ĠØ´Ø¯ÙĨ":912,"³Û":913,"Ø¯ÛĮØ±ÛĮ":914,"ĠØ¨Ø§ÙĨ":915,"ĠØ³Ø¨":916,"ĠÙĩÙĨ":917,"ĠØ¹ÙħÙĦ":918,"Ø´Ø§ÙĨ":919,"ÙĦØ§Øª":920,"ĠØ§ÛĮÙĨØªØ±":921,"ĠØŃØ¯":922,"ĠA":923,"ĠØµÙĨ":924,"ĠØªÙĪØ³Ø·":925,"Ø§Ø²Ùĩ":926,"Ø³ØªÛĮ":927,"ØµÙĪÙĦ":928,"Ø±Ø³ÛĮ":929,"ĠØŃÙĤ":930,"ĠØ¯ÙĦ":931,"ĠÚ©ÙĪ":932,"Ø³Ø§ÙĦ":933,"Ú¯Ø²":934,"ĠÙĤÛĮÙħØª":935,"ĠØ®ÛĮ":936,"ÙĦÛĮÙĦ":937,"ĠØºØ°":938,"ĠØ¢Ø²Ùħ":939,"ĠØ·Ø±Ø§ØŃÛĮ":940,"ÙĨÙĩ":941,"Ú¯ÙĪ":942,"ĠØªØ§Ø±ÛĮ":943,"ĠÛ²":944,"ĠÙ¾Ø±Ø¯":945,"Ġ\"":946,"ĠØ®Ø·":947,"ĠÙħØ®":948,"ÙĪÙħÛĮ":949,"ĠÙħØ¯ÛĮØ±ÛĮ":950,"ĠØ³Ùĩ":951,"ĠÙħØ³Øª":952,"Ø¶Ø§":953,"ĠØªØ¨":954,"ĠØ¨ÙĩØªØ±ÛĮÙĨ":955,"ĠØ§Ø³ØªØ§ÙĨ":956,"Ø§Ø¯Ø±":957,"ĠØªØºÛĮ":958,"ĠÙĩÙħØ±Ø§Ùĩ":959,"Ø³Ø§ÙĨ":960,"ĠØ¯Ø±ÙħØ§ÙĨ":961,"ĠØºÛĮØ±":962,"ØµØ¯":963,"ĠØ²ÙĨ":964,"ĠÚ©ÙħÚ©":965,"ĠÙħØ¯ÛĮØ±":966,"ØµÛĮ":967,"ĠP":968,"Ø§Ø³Ø¨":969,"ĠÙħØªÙĨ":970,"ĠØ¯Ø³ØªÚ¯Ø§Ùĩ":971,"ĠÙĪØ¨":972,"ĠÚ©Ø§Ùħ":973,"ĠØ§ÙĬÙĨ":974,"ĠÙħØŃØµÙĪÙĦ":975,"Ø¨Ø§Ø´":976,"ĠÙ¾ÙĪØ³Øª":977,"ĠØ§Ø·ÙĦØ§Ø¹Ø§Øª":978,"ĠÙħØ¯ÙĦ":979,"ĠØ¬Ø§Ùħ":980,"ĠØ®Ø¨Ø±":981,"Ø§Ø¨Ø±":982,"ĠØ¯Ø±Ø¨Ø§Ø±Ùĩ":983,"Ø§ÛĮÙĩ":984,"ĠØªÚ©":985,"ĠØ¨ÙĪØ¯Ùĩ":986,"Ø²Ø§Ø±Ø´":987,"ĠÚ©ÛĮÙģÛĮØª":988,"Ú¯Ø°":989,"ĠØ¯ÛĮØ¯":990,"ĠØ³ÛĮØ³ØªÙħ":991,"ĠÙĪØ§ÙĤ":992,"ĠØ§ÙģØ±Ø§Ø¯":993,"ĠØªØºÛĮÛĮØ±":994,"ÙĢÙĢ":995,"ØŃÙĩ":996,"ĠØ¬ÙĨ":997,"ĠÚĨÛĮ":998,"Ø¯ÙĨ":999,"ĠØ±Ùħ":1000,"ĠØ¹ÛĮÙĨÚ©":1001,"ĠØ¢ÙħÙĪØ²Ø´ÛĮ":1002,"Ùĳ":1003,"ĠØ¸":1004,"Ø¯Ø§Ø¯":1005,"ĠØ§ÙħØ§Ùħ":1006,"ÙĬØ±":1007,"Ø¶ÛĮ":1008,"ĠØªØ±ÛĮÙĨ":1009,"ĠÙħØ¹Ùħ":1010,"Ø§Ø¦Ùĩ":1011,"ĠØ¯ÙĪØ±Ø¨ÛĮÙĨ":1012,"ĠÙħØ§ÙĨÙĨØ¯":1013,"ĠÙĨÙĪØ¹":1014,"ĠÙĪÛĮÚĺÙĩ":1015,"Ø¨ÙĪ":1016,"ÙĪØ¯ÛĮ":1017,"ĠØ§ÛĮØ¬Ø§Ø¯":1018,"ÙĩØ§ÙĬ":1019,"ĠØ¨Ø¹Ø¯":1020,"Ø£":1021,"Ú¯Ø±ÛĮ":1022,"ĠÚ¯Ø²Ø§Ø±Ø´":1023,"ĠÙĨØ±Ùħ":1024,"ĠØ§Ø±Ø§Ø¦Ùĩ":1025,"ĠØ§Ùĩ":1026,"ĠØ±ÙĨÚ¯":1027,"ĠØ¯ÙĩØ¯":1028,"ĠØ§Ø³ÙĦØ§ÙħÛĮ":1029,"ĠØ¯ÙĪÙĦ":1030,"ĠÙģØ±Ø¯":1031,"ĠØ§Ø¬ØªÙħ":1032,"ĠÙ¾Ø²Ø´":1033,"ÙĨØªÛĮ":1034,"¹Û":1035,"ĠØ®Ø§Ø±":1036,"ĠØ³Ù¾":1037,"ĠÚ¯Ø±ÙģØªÙĩ":1038,"ĠÙħÙĩÙħ":1039,"Ú¯ÙĦØ´ÙĨ":1040,"ÙĪØ§Ø±":1041,"ÙĪÛĮÛĮ":1042,"ĠØ´ÙħØ§ÙĦ":1043,"Ø³ÙħØª":1044,"ĠÙĪÙĤ":1045,"ĠÚ©ÙĦÛĮ":1046,"Ø²Ø§ÙĨ":1047,"Ø§Ø´Øª":1048,"ĠØ¨Ø¯ÙĪÙĨ":1049,"Ø¯Ø§ÙĨÙĦÙĪØ¯":1050,"ĠÙĪØ§Ø±Ø¯":1051,"ĠØ¬ÙĪ":1052,"ĠÙ¾Ø§Ø³Ø®":1053,"ĠM":1054,"ĠØ±ÙģØª":1055,"ĠÙģØ§Ø±Ø³ÛĮ":1056,"ĠØ²ÙĨØ¯Ú¯ÛĮ":1057,"Ø§Ø±Ú©":1058,"ÙģØ§":1059,"ÙĦØ§ØŃ":1060,"ĠÙħØ®ØªÙĦÙģ":1061,"Ø§ÙĦÙĩ":1062,"Ø²Ùĩ":1063,"ĠÙĬ":1064,"Ø§ÛĮØ·":1065,"ĠØŃÙħ":1066,"ĠØ®Ø¯ÙħØ§Øª":1067,"ĠÚ©Ø§ÙĨ":1068,"ÙģÙĩ":1069,"ĠÙĨÙĪØ±":1070,"ĠÙħØ¯ÛĮØ±ÛĮØª":1071,"ĠD":1072,"ÙĦØ§ÙĨ":1073,"ĠØ®ÙĪØ§Ùĩ":1074,"Ø±Ú©":1075,"ÙĤÙĦ":1076,"ĠØ´Ø±Ø§ÛĮØ·":1077,"ĠØ¯Ø§Ø±Ø§ÛĮ":1078,"ÙĪØ§Ø¹":1079,"ĠØ«Ø¨Øª":1080,"Ú¯Ø±Ø§ÙĨ":1081,"ĠÙĨÙĪØ´":1082,"ĠØ§ÙħÚ©Ø§ÙĨ":1083,"Ø±ÙģÛĮ":1084,"ĠØ¢ÙħØ±ÛĮÚ©":1085,"ĠØ¯ÙĪØ±Ùĩ":1086,"ĠC":1087,"Ø¯ÙĪ":1088,"Ú©ÙĨÙĨØ¯":1089,"Ø´Ø§Ø±":1090,"ĠÙĦØ¨":1091,"ØªØ§ÙĨ":1092,"ĠØ¢ÛĮ":1093,"Û±":1094,"ĠÙħÙħ":1095,"ĠØµÙģ":1096,"ĠØ§Ø¯Ø§ÙħÙĩ":1097,"ĠØªÙħØ§Ùħ":1098,"ĠÙĪÙĦÛĮ":1099,"ĠØ³ÙĦ":1100,"ĠÙĤØ·":1101,"ÚĺÙĪÙĩ":1102,"ĠØ¨Ø§Ø¹":1103,"ĠÙ¾ÛĮØ§Ùħ":1104,"ĠØ§ÙģØ²Ø§ÛĮØ´":1105,"ĠØ´ÙĪÙĨØ¯":1106,"Ø§ÙĩÛĮ":1107,"ÛĮÙĨÛĮ":1108,"ĠØ§ÙĨÚ¯":1109,"ÙĪØ¯Ùĩ":1110,"Ø§ÙģÛĮ":1111,"ĠÙħØ³Ø¦":1112,"ÙĨØ²":1113,"Ú¯Ø±Ø¯":1114,"ĠØ§Ø¬ØªÙħØ§Ø¹ÛĮ":1115,"Ø¹ÛĮØª":1116,"ĠÙĤØ³ÙħØª":1117,"ĠÚ¯Ø±ÙģØª":1118,"Ú¯ÙĪÙĨÙĩ":1119,"ĠØ¨Ø§Ø¹Ø«":1120,"al":1121,"or":1122,"ĠÙĩØ¯":1123,"Ú¯ÛĮØ±":1124,"ĠÙħÙĦÛĮ":1125,"ĠØ®Øµ":1126,"ĠØ¬Ø§ÛĮ":1127,"ĠØ¬ÙĩØª":1128,"ĠÙĩÛĮÚĨ":1129,"ĠÛĮØ§Ø¯":1130,"ĠØªØŃÙĤÛĮÙĤ":1131,"ĠØ§ÙĤØªØµ":1132,"ÚĺÛĮ":1133,"ĠÛ±Û³Û":1134,"ĠÙħÙĪØ²":1135,"ĠÙĩÙĪ":1136,"Ø§Ø¹Øª":1137,"ĠØ¬ÙĩØ§ÙĨ":1138,"ĠâĢĵ":1139,"Ġ94":1140,"ĠÙ¾ÚĺÙĪÙĩ":1141,"ĠÙħØ¬Ùħ":1142,"ad":1143,"ØµÙĦ":1144,"ĠÙħØ±Ú©":1145,"ĠØ±Ø§ÛĮÚ¯Ø§ÙĨ":1146,"ĠÙĩÙħÚĨÙĨÛĮÙĨ":1147,"ĠÚ©Ø§ÙħÙĦ":1148,"Ú¯Ø±Ø§Ùħ":1149,"ĠÚ©ÙĪØ¯Ú©":1150,"Ø±ÛĮÙĤ":1151,"ĠØ§ØµÙĦÛĮ":1152,"ÂŃ":1153,"ĠØ®ØµÙĪØµ":1154,"ĠØ¯Ø±Ø³":1155,"ĠØ§Ø±ØªØ¨":1156,"ĠØ§Ø±ØªØ¨Ø§Ø·":1157,"ĠÙĨØ§ÙħÙĩ":1158,"ĠØ¨Ø§Ø´ÙĨØ¯":1159,"ÙĪØ¹Ùĩ":1160,"ÙĪÙĦÛĮ":1161,"ĠØ¹ÙĦÙĪÙħ":1162,"Ø±Ø§Øª":1163,"ĠØ§Ø³ØªØ®":1164,"ĠÚ©ÙĨÛĮÙħ":1165,"ĠÙħÙħÚ©ÙĨ":1166,"es":1167,"ĠÙħØ¬ÙĦ":1168,"ĠÙĨØ³Ø¨Øª":1169,"ĠÙĩØ§ÛĮÛĮ":1170,"ĠÙħÙĨØ§Ø³Ø¨":1171,"ĠÙģØ¹Ø§ÙĦÛĮØª":1172,"en":1173,"âĢ¦":1174,"Ø±ÛĮÙħ":1175,"ĠØ§ÛĮØ±Ø§ÙĨÛĮ":1176,"ĠÚ©ÙĨÙĨØ¯Ùĩ":1177,"Ø¯Ø§Ø±ÛĮ":1178,"ĠÙĤØ§Ø¨ÙĦ":1179,"ĠØ§ÙĨÙĪØ§Ø¹":1180,"ĠØ¹ÙĦÛĮ":1181,"ĠØ·Ø¨":1182,"ĠØ¬ÙĨÚ¯":1183,"ĠØ§ÙģØ²Ø§Ø±":1184,"ĠØ³Ø§Ø²ÛĮ":1185,"ĠØ³ÙĪØ§ÙĦØ§Øª":1186,"ĠØ®Ø§ÙĨÙĩ":1187,"ĠØ¨Ø±Ø®ÛĮ":1188,"ĠÚĨØ´Ùħ":1189,"ØªÙĪØ§ÙĨØ¯":1190,"Ø§Ø«":1191,"ĠØ§ÙħØ±ÙĪØ²":1192,"ĠÙĦÛĮ":1193,"ĠØ²ÛĮØ¨":1194,"ĠØ¨Ø§ÙĨÚ©":1195,"ĠÙģÙĦ":1196,"ĠÙģØ§ÛĮÙĦ":1197,"ĠØ¯ÙĪÙĦØª":1198,"ĠØ³Ø·":1199,"ĠÙħÛĮÙĦÛĮ":1200,"ĠÙħÙĦ":1201,"ĠØ§Ø«":1202,"Ø²ÛĮÙĨÙĩ":1203,"ĠÙĩÙħØ§ÙĨ":1204,"ĠØ¯Ø§Ø®":1205,"Ø§Ø®ØªÙĩ":1206,"ĠØ§Ø¨Øª":1207,"ĠØ®Ø§Øµ":1208,"Û°Û°":1209,"ĠØªÙĨÙĩØ§":1210,"Ġ5":1211,"ĠØ¯Ø®":1212,"ĠØªØ±Ú©ÛĮ":1213,"ĠØ§Ø´Ø§Ø±Ùĩ":1214,"ĠØ¨ÛĮÙħØ§Ø±ÛĮ":1215,"ĠB":1216,"ĠÚĺ":1217,"ĠØ¢ÙģØª":1218,"Ø®Ø§ÙĨÙĩ":1219,"Ø±Ø¯Ùĩ":1220,"ĠÙĩÙħÛĮÙĨ":1221,"ĠÙ¾Ø±Ø³":1222,"ĠÙħØ´Ø®Øµ":1223,"ĠØ´Ø®Øµ":1224,"ĠØ±ÙħØ¶":1225,"Ø´ÙĨØ§Ø³ÛĮ":1226,"Ø§ÛĮØ´Ú¯Ø§Ùĩ":1227,"ĠÚ©ÛĮ":1228,"ĠØ³Ø§ÛĮ":1229,"ĠØ³ÙĨÚ¯":1230,"ĠÙĨØ´Ø§ÙĨ":1231,"Ø¬Ø§":1232,"Ø´Ø±":1233,"ĠØŃØ¶Ø±Øª":1234,"Ø¨Ø§Ø´Ø¯":1235,"Ø¨ÙĪØ¯":1236,"ĠØ¯Ø±ÛĮØ§":1237,"ĠÙģÙĤ":1238,"ĠØ¯ÙĪÙħ":1239,"Ø«Ø±":1240,"at":1241,"Ġ4":1242,"ĠÙħÙĪØ§Ø¯":1243,"ĠØ¨Ø§ÙĦØ§":1244,"ĠÚĨÙĩØ§Ø±":1245,"ĠÚ¯ÙĪØ´":1246,"ir":1247,"ĠT":1248,"Ú©Ø§Ø±ÛĮ":1249,"ĠØªÛĮ":1250,"ĠÙĪØ±Ø²Ø´":1251,"ĠØ±ÙħØ¶Ø§ÙĨ":1252,"ĠÙħØµØ±Ùģ":1253,"ĠØ¬ÙĦ":1254,"Ø¶Ø§ÛĮ":1255,"ĠØ²ÛĮØ§Ø¯ÛĮ":1256,"ĠØ§ÙĤØ¯Ø§Ùħ":1257,"ĠØ²ÙħÛĮÙĨÙĩ":1258,"ĠØ¨ÙĨØ¯":1259,"ĠÙħÙĨØª":1260,"ĠÙħØ·Ø§ÙĦ":1261,"ÙĬÙĩ":1262,"ĠØªØ¬Ø±":1263,"ĠÚ©Ø³Ø¨":1264,"ĠØ¢Ø®":1265,"ĠØ¨Ø±Ø±Ø³ÛĮ":1266,"ĠØ¬ÙħÙĩ":1267,"ÙģÙĤ":1268,"ĠØ§Ø³Ø§Ø³":1269,"ÙĬÙħ":1270,"ĠÙħÚ©":1271,"ĠÙĦÙĪ":1272,"ĠÚ¯Ø°Ø´ØªÙĩ":1273,"ÛĮØ·":1274,"ĠØ´Ø§Ø¯":1275,"ÙħØ§ÙĨÛĮ":1276,"ĠØ¨ÛĮØ§ÙĨ":1277,"Ø¢ÙĨ":1278,"ĠØ¯Ø®ØªØ±":1279,"ÚĨØ³Ø¨":1280,"ĠØ¨Ø§Ø´ÛĮØ¯":1281,"Ø§Ø¶ÛĮ":1282,"ĠØŃØ±Ùģ":1283,"ĠØµÙģØŃÙĩ":1284,"am":1285,"Ġ/":1286,"ĠØ¨ÙĨØ¯ÛĮ":1287,"ĠØ¨Ø§Ø²Ø§Ø±":1288,"ĠÚ©Ø§ÙĦ":1289,"ĠØ·Ø¨ÛĮ":1290,"ĠØ²ÛĮØ¨Ø§":1291,"ĠÙ¾Ø°":1292,"Ùı":1293,"ĠÙħÙģ":1294,"ĠÙĪØ§":1295,"ĠØ´Ø§ÙħÙĦ":1296,"ĠØŃÙĦ":1297,"ĠØ¯ÙĨÛĮ":1298,"ĠØ³Ùģ":1299,"ÛĮØ¯ÛĮ":1300,"ĠØ¨ÙĪ":1301,"Ø§ÙĩØ§ÛĮ":1302,"ĠØ¬Ø²":1303,"Ġ13":1304,"20":1305,"Û²":1306,"Ø§ÙĨØª":1307,"ĠØ§ÛĮÙħ":1308,"ĠØ¯Ú©":1309,"ĠØªÙģ":1310,"ĠÙĨØµ":1311,"ĠØªÙĪØ§ÙĨØ¯":1312,"ĠØ¢ÙħØ±ÛĮÚ©Ø§":1313,"ĠØ¯Ø±ØµØ¯":1314,"ĠØ³ÙĦØ§Ùħ":1315,"ĠÙħÙĨØ·":1316,"ĠÙħØ´Ø§ÙĪØ±":1317,"ĠÙħÙĩØ±":1318,"ĠÙħØ´Ú©ÙĦØ§Øª":1319,"ĠI":1320,"ĠÙħÛĮØ§ÙĨ":1321,"ÙĨØ§ÙĨ":1322,"ĠØ¹ÙĦØ§":1323,"ĠØ¯Ø§ÙĨØ´Ø¬":1324,"ĠÙĨØ¯Ø§Ø±Ø¯":1325,"Ø±Ø®":1326,"ĠØ·Ø±ÛĮÙĤ":1327,"ĠØ¯ÙĦÛĮÙĦ":1328,"ĠØ³Ø§Ø¹Øª":1329,"Ø²Ø¯":1330,"ĠØ´Ú©":1331,"ĠØµØŃ":1332,"ĠØªÙĪØ³Ø¹Ùĩ":1333,"ØªÙĦ":1334,"ĠÙħØ§Ø´":1335,"Ø¨Ø±Ø§ÙĨ":1336,"ĠØ´ÙĪØ±":1337,"ĠØ¨Ø±Ú¯":1338,"ĠÙĤØ¯":1339,"ÙĪÛĮØ³":1340,"Ø§Ø³ØªØ§ÙĨ":1341,"Ø¬ÙħÙĩ":1342,"Ø·Ø±":1343,"ĠØ§Ú©":1344,"ĠØªÙĩÛĮÙĩ":1345,"ĠØ§ÙģØª":1346,"ĠØ´ÛĮØ´Ùĩ":1347,"ĠØŃØ¶ÙĪØ±":1348,"ĠÙĪØ§ØŃ":1349,"ÛĮØ¯ÙĨ":1350,"ĠÙĦØ§Ø²Ùħ":1351,"ĠØ®ÙĪØ¯Ø±ÙĪ":1352,"ĠØ³Ø±ÛĮØ§ÙĦ":1353,"ĠØªØ§Ø±ÛĮØ®":1354,"ĠÙħØ¬ÙħÙĪØ¹Ùĩ":1355,"ÙĦØ§ÛĮÙĨ":1356,"ĠØªØ®":1357,"ĠØ´ÙĪ":1358,"ĠØ¹Ú©":1359,"Ø§Ø´ÛĮ":1360,"ĠØµØ¯":1361,"ĠØ³Ø·ØŃ":1362,"ĠÙħØŃÛĮØ·":1363,"ĠÙĦØ¨Ø§Ø³":1364,"Ø³Ø§ÙĨÛĮ":1365,"ĠØ¬ÙĪØ§ÙĨ":1366,"Ø·ÙĪØ±":1367,"ĠÙĤØ¨ÙĦ":1368,"ĠØ¹ÙĦÙħÛĮ":1369,"ĠÙĪØ²":1370,"ĠØ´Ø¨Ú©Ùĩ":1371,"ĠÙħØ¨":1372,"ĠÙģÙĨØ§":1373,"Ø§Ø¨Øª":1374,"ĠÙħØŃØªÙĪ":1375,"ĠØ¹ÙħÙĦÚ©Ø±Ø¯":1376,"st":1377,"ĠÙħØ±Ø¨ÙĪ":1378,"ĠØ¬ÙħÙĦÙĩ":1379,"ĠØ¢ÙģØªØ§Ø¨ÛĮ":1380,"ĠÙģÙĤØ·":1381,"ĠØ¬Ø§ÙĨ":1382,"ĠÙħØ·Ø§ÙĦØ¨":1383,"ĠØ§Ø¹ÙĦØ§Ùħ":1384,"ÙĪÙĨØª":1385,"ĠØ·ÙĪØ±":1386,"ĠÙĩØ¯Ùģ":1387,"ĠØ¢Ø°":1388,"ĠØ¹ÙĦÛĮÙĩ":1389,"ĠÙĦÛĮÙĨÚ©":1390,"ĠÙģØ±Ùħ":1391,"ĠÙĪØ§ÙĤØ¹":1392,"Ø§Ø¡":1393,"ĠØ±Ø´ØªÙĩ":1394,"ĠØ¹Ø´":1395,"Ø¬Ø§ÙĨ":1396,"ĠØŃØ±":1397,"le":1398,"Ø³ÙĨ":1399,"ĠÙ¾Ø±ÙĪØ§ÙĨÙĩ":1400,"ĠÙĪØ³":1401,"ĠÙĩÙĨÚ¯":1402,"ĠØ¹Ø¨":1403,"ĠØ§Ø¬Ø±":1404,"Ø§Ø±Ø§ÙĨ":1405,"ĠÙĨØ®":1406,"Ø§ÙĩØ´":1407,"ĠØ¬Ø°":1408,"ĠÙħÙĨØ¸":1409,"ĠÙĩØ§ÙĬ":1410,"ĠØ¯Ùģ":1411,"ĠÙ¾Ø§ÛĮÙĩ":1412,"ĠÙģØ±ÙĩÙĨÚ¯ÛĮ":1413,"ÙĤØ§ÛĮ":1414,"ĠÙħØ¹Ø±ÙģÛĮ":1415,"ØªÙĨ":1416,"Ø³Ø±":1417,"ĠØŃØ¬":1418,"ÙĪÚ©":1419,"ĠØ¯ÙĩÙĨØ¯":1420,"ĠØ§ÛĮÙĨØªØ±ÙĨØªÛĮ":1421,"ĠØ®ÙĪØ§ÙĨ":1422,"ĠÙĤØ§ÙĨ":1423,"ÙĩÙħ":1424,"Ø¨Ø¹":1425,"ĠØ®ÙĪØ±":1426,"ØµØ±":1427,"ÙĪÛĮØª":1428,"ĠÙĦÙĨØ²":1429,"ĠÚ©ÙĪØ¯Ú©Ø§ÙĨ":1430,"ĠÙħØŃØµÙĪÙĦØ§Øª":1431,"ĠÚ©Ø±":1432,"ĠØ¢Ø³ÛĮ":1433,"ĠØ¨Ø³ÛĮØ§Ø±ÛĮ":1434,"Ûµ":1435,"ÙĪØªØ±":1436,"ĠÙħÙĪÙģÙĤ":1437,"ØªÙĪØ§ÙĨÛĮØ¯":1438,"oo":1439,"ĠØ³Ø§Ùħ":1440,"ĠÙħÛĮÙĦ":1441,"ĠØ¨Ø±Ø®":1442,"Ø¦ÛĮØ³":1443,"ĠØ¯Ø±ÛĮØ§ÙģØª":1444,"ĠG":1445,"ÙħÛĮØ±":1446,"ĠØ¨Ø®":1447,"ĠØªØ£":1448,"ÙĪÙĦØ§":1449,"ĠØ¨Ø¯ÙĨ":1450,"ĠØ§ÙĦÚ©Øª":1451,"ĠÙģØ±ÙĪØ´Ú¯Ø§Ùĩ":1452,"........":1453,"ĠØ³Ø§Ø®ØªÙħØ§ÙĨ":1454,"Ø¯ÙĩØ¯":1455,"ĠÙħØ§Ø´ÛĮÙĨ":1456,"ÙĪØ§Ø±Ùĩ":1457,"Ø³ÙĦØ§Ùħ":1458,"ĠØªØ§Ø¨":1459,"ĠÙĨÙģØ±":1460,"ĠØ¨ÙĩØªØ±":1461,"ĠÙħØ¯Ø±Ø³":1462,"ĠØ¯Ø³ØªÙĩ":1463,"ĠØ§ÙĨØ¬ÙħÙĨ":1464,"ĠâĢ¢":1465,"ĠÙĪØ§ØŃØ¯":1466,"ĠØªØ®Øµ":1467,"ĠØ±Ùĩ":1468,"ÙĤØª":1469,"ĠÚ©Ø§Ø±Ø¨Ø±Ø¯":1470,"Ø§Ø¸":1471,"ĠØ§ÙĨØ³Ø§ÙĨ":1472,"Ú©ÛĮÙĦ":1473,"Ġ+":1474,"ÙĪÙĦÙĪ":1475,"ĠÙħÙĪØ¬ÙĪØ¯":1476,"ĠÚ¯ÛĮØ±ÛĮ":1477,"ĠØŃÙĤÙĪÙĤ":1478,"Ø´ÙĪØ±":1479,"ĠØ±ÙĪØ§ÙĨ":1480,"Ø§ÙĦØ§Øª":1481,"ĠÙ¾ÙĨØ¬":1482,"ĠÙħÙĪØ¨":1483,"ĠØ¨ÙĪØ¯ÙĨ":1484,"Ø®ØµÙĪØµ":1485,"ĠÙ¾Ø±ÙĪÚĺÙĩ":1486,"ĠØ®Ø§ÙĨÙĪ":1487,"ĠØ®ÛĮÙĦÛĮ":1488,"ÙħÛĮÙħ":1489,"Ø´ÙĪÙĨØ¯":1490,"ĠÚ©Ø§ÙĩØ´":1491,"ĠÙ¾Ø§ÛĮØ§ÙĨ":1492,"ĠØªÙĦØ§Ø´":1493,"ĠØªÙĦÚ¯Ø±Ø§Ùħ":1494,"Ø®ÙĪØ§Ùĩ":1495,"Ú¯Ø²Ø§Ø±ÛĮ":1496,"ĠÙģØµÙĦ":1497,"ĠØ·Ø±Ùģ":1498,"ÙģØ§ÙĪØª":1499,"ac":1500,"ic":1501,"ĠF":1502,"ĠÚ©ÙĪÚĨ":1503,"ĠØ§ÙĨÚ¯ÙĦÛĮ":1504,"Ø¬Ø±":1505,"ĠØŃØªÛĮ":1506,"ĠØ¢ÙĨÙĦØ§ÛĮÙĨ":1507,"ĠØ¹ÙħÙĪÙħÛĮ":1508,"ĠØªÙĪØ§ÙĨÛĮØ¯":1509,"ÚĨØªØ±ÙĪÙħ":1510,"ĠÙģÙĨØ§ÙĪØ±ÛĮ":1511,"ØªØŃ":1512,"ĠÙĤØ¯Ø±":1513,"ĠÙĨÛĮØ±ÙĪ":1514,"Ø¢Ùħ":1515,"ĠØ¬Ø§ÙħØ¹Ùĩ":1516,"ÛĢ":1517,"Ø´Ú©":1518,"--":1519,"ag":1520,"ĠÙĨÙģ":1521,"ĠÚ¯ÙĪ":1522,"ĠØ·ÙĪÙĦ":1523,"ÙĦØ§Ú¯":1524,"ĠØ§ÙĦØ¨":1525,"ĠÙħØ¯ÛĮØ±Ø§ÙĨ":1526,"ÙĪÛĮØ±":1527,"ÙħØ§":1528,"ĠÚ©ÙħÛĮ":1529,"ĠÙĩØ²Ø§Ø±":1530,"ĠØ¯ÙĪØ³Øª":1531,"ĠØ¢ÙĦ":1532,"Ø´ÙĨØ§Ø³":1533,"ĠÙħÙĨØ·ÙĤÙĩ":1534,"ĠØ±Ø´Ø¯":1535,"ĠØ´Ú©ÙĦ":1536,"Ø§Ø¯Øª":1537,"ĠÙ¾ÙĪØ´":1538,"Ġ10":1539,"ĠÙħØ³ØªÙĤ":1540,"Ġm":1541,"ĠØ³ÛĮÙĨ":1542,"Ø¹Ø§Øª":1543,"ÙĬØª":1544,"ØŃÙĦÙĩ":1545,"Ù¾ÙĦ":1546,"ÙĪØ²ÛĮ":1547,"ĠÚ©Ø§ÙħÙ¾ÛĮ":1548,"ÙħÙĨØ¯":1549,"ĠÚ©Ø§Ø±ÛĮ":1550,"ĠØ³ÙĨ":1551,"Ø´ÙĨÙĩ":1552,"ÙħÛĮÙĦ":1553,"Ú¯ÛĮØ±Ø¯":1554,"ĠØ§ÙĦÙĦÙĩ":1555,"Ø¨Ø±ÚĨØ³Ø¨":1556,"ĠØªØ±ÙĦØ§ÙĨ":1557,"ĠØ¹Ø±Ø¶":1558,"ĠØ¢Ø²ÙħÙĪÙĨ":1559,"Ġ7":1560,"ÙħØ³":1561,"Ø§Ø´ØªÙĩ":1562,"ĠØ§ÙĨØªÙĤ":1563,"Ø±ÙĪØ³":1564,"ĠØ§Ø±Ø³Ø§ÙĦ":1565,"ĠØ´ÙĩØ±ÛĮ":1566,"ĠÙ¾Ø±Ø¯Ø§Ø®Øª":1567,"ĠØ¹Ú©Ø§Ø³ÛĮ":1568,"ro":1569,"ĠØ¯ÙĨ":1570,"ĠÙ¾ÛĮØ¯":1571,"ĠÚ©Ø±Ø¯ÙĨØ¯":1572,"ĠØ§ÙĤØªØµØ§Ø¯ÛĮ":1573,"ĠØ§Ø¶":1574,"ĠÙ¾Ø°ÛĮØ±":1575,"Ġ[":1576,"Ø§Ø¨Ùĩ":1577,"Ø§ÙģÙĩ":1578,"ĠØ§ÛĮÙĨØªØ±ÙĨØª":1579,"ĠØ¬ÙħÙĩÙĪØ±ÛĮ":1580,"ĠÙĨØµØ¨":1581,"as":1582,"ÙĦÛĮØª":1583,"Ù¾Ø±":1584,"ĠØªØ¹Ø¯Ø§Ø¯":1585,"ĠØ¹Ø´ÙĤ":1586,"ĠR":1587,"ĠØ¨ØŃ":1588,"ĠØ¨Ø³ØªÙĩ":1589,"ĠH":1590,"Ø¯Ø§Ø´Øª":1591,"ĠØ³ÙģØ±":1592,"ĠØ®Ø§Ø·":1593,"Ø±ÙĪÛĮØ¯":1594,"ĠØ±Ø³Ø§ÙĨÙĩ":1595,"ĠÙ¾Ø²Ø´Ú©ÛĮ":1596,"Ġs":1597,"ĠÙħØ¨Ø§Ø±":1598,"ØªØ±ÙĦ":1599,"ĠÙħØ±Ú©Ø²":1600,"ÙĪÛĮÙĨ":1601,"ĠØ¢ÙĦØ¨":1602,"Ø±ÙĪÙĨ":1603,"ĠÙħØ¯Øª":1604,"ĠÚ¯Ø±Ø¯Ø¯":1605,"ĠØªÙĪØ±":1606,"ĠÙĨÚ©":1607,"ĠÙĤØ§Ø¨":1608,"ĠÙħØŃÙħØ¯":1609,"ĠÂ»":1610,"ĠÙħÙĪØ¨Ø§ÛĮÙĦ":1611,"ØªÙĪÙĨ":1612,"ĠØ´Ø¹":1613,"Ø±ÛĮÙģ":1614,"ĠØ§ÙĨÙĤÙĦ":1615,"ÙħØ¹":1616,"Ú¯Ø§Ø±":1617,"ĠØ³Ø®":1618,"ĠÚ¯Ø³Øª":1619,"Ø§Ø²ÙĨØ¯":1620,"ĠÙħÙĪØ§Ø±Ø¯":1621,"ĠÙĨÙħØ§ÛĮÛĮØ¯":1622,"ĠÙ¾Ø§Ø±":1623,"ĠØ§Ø®Ø¨Ø§Ø±":1624,"ĠØªØ¬Ø±Ø¨Ùĩ":1625,"Ġ6":1626,"ĠØŃØ±ÙģÙĩ":1627,"ĠÙħØ±Ø¨ÙĪØ·":1628,"ĠØ®Ø§ÙĨÙĪØ§Ø¯Ùĩ":1629,"lo":1630,"ĠØ®ÙĪØ´":1631,"ĠØ§ÙĬ":1632,"ÙĦØ§ÙĤ":1633,"ĠØ±ÙĪØ´ÙĨ":1634,"ĠØªØµÙĪÛĮØ±":1635,"ĠØ§ÙĨÚ¯ÙĦÛĮØ³ÛĮ":1636,"ØªØ§":1637,"ĠÙħÙī":1638,"ĠÚ©ÙĪØª":1639,"ĠÙĨÚ¯Ùĩ":1640,"ĠÚĨØ±Ø§":1641,"ĠØ´ÙħØ§Ø±Ùĩ":1642,"ĠØ³Ø±Ø¹Øª":1643,"Ġt":1644,"ÙħØ±":1645,"Ø§Ø¨Ø¹":1646,"Ø±ÙĪØ¹":1647,"ĠØŃØ§Ø¬":1648,"ĠØªØ±Ø¬ÙħÙĩ":1649,"ĠØªÙħØ§ÙħÛĮ":1650,"ĠØ¨Ø±Ú¯Ø²Ø§Ø±":1651,"ĠØ¢ÙĦØ¨ÙĪÙħ":1652,"ÙħØŃ":1653,"ĠÙĩØ²ÛĮÙĨÙĩ":1654,"Ø¹Ú©Ø³":1655,"ĠØ¬Ø´ÙĨ":1656,"ĠÚĨÚ©":1657,"ĠÙħØ´Ø§Ùĩ":1658,"ĠØ¯ÙĩÛĮØ¯":1659,"Ø¯ÙĪØ§Ø¬":1660,"Û´":1661,"ĠÙ¾ÙĬ":1662,"ĠÚ¯ÙĪÙĨÙĩ":1663,"ĠÙħØ±ØŃÙĦÙĩ":1664,"ĠØŃØ§ÙĦØª":1665,"ÛĮØ²":1666,"ÙħÙĨØ¯ÛĮ":1667,"ĠØ§Ø±Ø²Ø´":1668,"ĠÙĨÙĤØ´":1669,"ĠÙ¾ÚĺÙĪÙĩØ´":1670,"ĠØ§ÙĦØ¨ØªÙĩ":1671,"ÙĴ":1672,"ĠÚ©Ùģ":1673,"ĠØ¨Ø±Ø§ÙĬ":1674,"ĠØŃÙģ":1675,"ĠÙħØŃÙĦ":1676,"ĠÙ¾ÛĮØ¯Ø§":1677,"it":1678,"ĠÙĪØ²Ø§Ø±":1679,"ÙĦØ§Ú©":1680,"Ø¨Ø§Øª":1681,"ĠØ¨ÙĩØ±Ùĩ":1682,"ĠÙģÙĪÙĦ":1683,"ĠØ§ØŃØ³":1684,"09":1685,"Ø±ÙĨ":1686,"Ú¯ÙĪÛĮ":1687,"Ø§ÙħÛĮÙĨ":1688,"Ø±ÙĪÙģ":1689,"Ø¨Ø±Ø§ÛĮ":1690,"ĠØ§ÙģØ²ÙĪØ¯":1691,"ĠÙĪØ²Ø§Ø±Øª":1692,"ÙĦÙĬ":1693,"ĠØ¨Ø±ÛĮ":1694,"ĠØ¯ÙĨØ¯Ø§ÙĨ":1695,"ĠØ´Ø§Ùĩ":1696,"ĠØ¢Øº":1697,"Ø¹ÙĨÛĮ":1698,"ĠÙħØªØ¹":1699,"Ø§ÙĪÛĮØ±":1700,"ĠÙħØ³ØªÙĤÛĮÙħ":1701,"ĠÙħØ´Ø§ÙĩØ¯Ùĩ":1702,"ĠØ§Ø«Ø±":1703,"Ø¯Ø¯":1704,"ĠØªØ§Ø«":1705,"ĠÙ¾Ø§Ø´":1706,"ĠÙĤØ¨":1707,"ĠÚĨÙĨÛĮÙĨ":1708,"ĠÙħÙĪØ³":1709,"ÙĨÛĮÚ©":1710,"Ø§ØµÙĦÙĩ":1711,"ĠÙħØ±Ø¯Ø§ÙĨÙĩ":1712,"ĠØ³Ø§ÛĮØ±":1713,"Ø¤":1714,"ĠÙ¾Ø§":1715,"ĠÚĨÙĪÙĨ":1716,"ĠÙħØŃØ¯":1717,"ĠÙħØŃÙħ":1718,"ĠÙ¾ÛĮØ´ÙĨÙĩ":1719,"Ø²Ø¯ÛĮ":1720,"Ø¹ØªÛĮ":1721,"ĠØ§Ø³ØªØ§ÙĨØ¯":1722,"ĠÛĮÙĩ":1723,"ĠØ§ÙĦØ³ÙĦØ§Ùħ":1724,"ĠØ²ÙħØ§ÙĨÛĮ":1725,"ĠØ¯ÙĨØ¨Ø§ÙĦ":1726,"Ġp":1727,"ØªÙĤ":1728,"Ø³Ø§Ø²ÛĮ":1729,"ĠØ´Ø±ÙĪØ¹":1730,"ÙĦØ§Ùģ":1731,"ĠÙĤØ±Ø¢ÙĨ":1732,"Ø§Ø¦ÙĦ":1733,"ĠØ§ÙĨØ¯Ø±ÙĪÛĮØ¯":1734,"Ø±ÙģØª":1735,"ĠÙħØ°":1736,"Ø®Ùĩ":1737,"ĠØ¹Ø§ÙĦÛĮ":1738,"Ø¯ÛĮÙĦ":1739,"ĠÛµ":1740,"ĠÙĨÙĩÙħ":1741,"ĠÙħØ«ÙĦ":1742,"ĠN":1743,"ÙĪÙ¾":1744,"Ø§Ø±ÙĬ":1745,"ĠÙĨØªÛĮ":1746,"ĠØ®Ø¯Ø§":1747,"ĠØ¹ÙĦÙħ":1748,"ĠØŃÚ©":1749,"ĠÙĦØŃ":1750,"ĠØ¯ÛĮÚ¯Ø±ÛĮ":1751,"Ġ8":1752,"ĠØ±Ùģ":1753,"ĠØ´ÛĮØ±":1754,"ĠØªØ´Ú©ÛĮÙĦ":1755,"ĠÙĨØ¨":1756,"ĠÙħÛĮØ²Ø§ÙĨ":1757,"Ø§ØªØ±":1758,"Ú¯Ø§ÙĩÛĮ":1759,"ĠÙħÙĤØ§ÙĦÙĩ":1760,"ĠØªØŃØª":1761,"ĠØ¢Ø´":1762,"ĠØ¢Ù¾":1763,"ÙĨØ¯Ú¯Ø§ÙĨ":1764,"ĠÙħÙĩØ§Ø±Øª":1765,"ĠØ§ÙĪÙĦÛĮÙĨ":1766,"ĠÙħØ¯Ø±Ø³Ùĩ":1767,"ĠÚ©Ø§ÙħÙ¾ÛĮÙĪØªØ±":1768,"de":1769,"he":1770,"ĠØ¨Øµ":1771,"ĠØ¯Ø§Ø³ØªØ§ÙĨ":1772,"ĠÚ©ÙĨØªØ±ÙĦ":1773,"ĠÙĩÙĨÚ¯Ø§Ùħ":1774,"ĠÙģØ´Ø§Ø±":1775,"Ø§ÙĩÙħ":1776,"ĠÙĨÙħØ§ÛĮØ´":1777,"ĠØ¬ÙĩØ§ÙĨÛĮ":1778,"ĠØ´ÙĩØ±Ø³ØªØ§ÙĨ":1779,"ĠÙĪÙĤØªÛĮ":1780,"ĠÙĨØªÛĮØ¬Ùĩ":1781,"ĠØ¢ÙĤØ§ÛĮ":1782,"ĠÙģÙĪÙĤ":1783,"Ø¸Ùĩ":1784,"ĠÙħØ¹ÙĨ":1785,"ĠÙħØ´ØªØ±ÛĮ":1786,"ÛĮÛĮÙĨ":1787,"ĠØ¯Ø§Ùħ":1788,"Ø³Ø§Ø²":1789,"ĠØ±Ø¦ÛĮØ³":1790,"ĠÙĨØ¯Ø§Ø±":1791,"ĠØ®Ø±":1792,"ĠØ¨Ø±Ø§Ø¨Ø±":1793,"ĠØ§Ø±Ø²ÛĮ":1794,"ĠØªØŃØµÛĮ":1795,"ĠÙĨØ¸Ø§Ùħ":1796,"ĠÚ©ÙĪØªØ§Ùĩ":1797,"ot":1798,"ÙĤØ±":1799,"Ø·Ø§ÙĨ":1800,"ĠØ¨ÙĨØ§Ø¨Ø±":1801,"Ø³ÛĮÙħ":1802,"ĠØ¬ÙĦÙĪ":1803,"ĠÙħÙĨØ§Ø¨Ø¹":1804,"ĠÙħÙĩÙĨØ¯":1805,"ĠØ±Ø§ÙĩÙĨÙħ":1806,"ĠØ®Ø§Ø±Ø¬ÛĮ":1807,"os":1808,"us":1809,"Ġ#":1810,"ĠÙħØ§Ø±Ú©":1811,"ĠÙħØ®ØµÙĪØµ":1812,"ĠÚ¯ÙģØªÙĩ":1813,"ĠÛĮØ¹ÙĨÛĮ":1814,"Ø±Ø§ÙĨÛĮ":1815,"ĠÙĨÙħÙĪØ¯":1816,"ĠÚ©Ø´Ø§ÙĪØ±":1817,"Ø¶ÛĮØŃ":1818,"ĠØªØ®ØµØµÛĮ":1819,"Ø¯Ø±ÛĮ":1820,"ĠÙħØº":1821,"ÙģÙĨØ¯":1822,"ĠØ±Ø§Ø¨":1823,"ĠØ³Ø±ÙĪ":1824,"ĠØ³Ø±Ùħ":1825,"ØªÙĪØ§ÙĨÙĨØ¯":1826,"ĠØ¯Ø§Ø¯ÙĨ":1827,"ĠØŃØ³ÛĮÙĨ":1828,"ĠØµÙĨØ¹Øª":1829,"ĠÛ±Û³Û¹Û":1830,"ĠØ¢Ø´ÙĨ":1831,"Ø§Ø³Ùħ":1832,"ĠØªØµÙħÛĮÙħ":1833,"ĠÙħÙĪØ²ÛĮÚ©":1834,"ĠÙħØ¬ÙĦØ³":1835,"ĠØ¨Ø±Ø®ÙĪØ±Ø¯":1836,"ĠØ¢ØºØ§Ø²":1837,"ĠØ§Ø²Ø¯ÙĪØ§Ø¬":1838,"ĠØ²ÛĮØ§Ø¯":1839,"ĠÚ¯ÛĮØ±Ø¯":1840,"ĠÙĪØ±ÙĪØ¯":1841,"ĠØªØ¨Ø¯ÛĮÙĦ":1842,"ĠØ²ÛĮØ¨Ø§ÛĮÛĮ":1843,"ÙĦÙĤ":1844,"ay":1845,"Ø§Ø¯ÙĦ":1846,"ĠØ¯Ø§Ø±ÛĮØ¯":1847,"ĠØ®ÙĪØ¨":1848,"ĠØ®ÙĪØ§Ø¨":1849,"ĠÙĨØ§":1850,"ØŃØ´ÙĪØ±":1851,"ÙĦÛĮØº":1852,"ÙĪØ²Ùĩ":1853,"ÙħÛĮØª":1854,"ĠÙħÙĪØ¬":1855,"ĠÙģØ±Ø§":1856,"ĠØ³ÛĮØ§Ø³ÛĮ":1857,"ĠØªØµØ§ÙĪÛĮØ±":1858,"ĠÙĨØ³Ø®Ùĩ":1859,"ĠÙĩÙĨØ±":1860,"ĠÙħØ¹ÙħÙĪÙĦØ§":1861,"ĠÚ©ÙĪÚĨÚ©":1862,"Ø¨ÛĮØ±":1863,"ĠØªÛĮÙħ":1864,"Ø²ÙĨØ¯":1865,"ĠÙĨÙĬ":1866,"ĠÙĩÙģØª":1867,"ĠØ§ÙħÙĨ":1868,"ĠÙħÙĩØ¯ÛĮ":1869,"ĠÙ¾Ø§ÛĮÚ¯Ø§Ùĩ":1870,"ÙħØ¯ÙĦ":1871,"ĠØ·Ø¨ÛĮØ¹ÛĮ":1872,"Ø³Ùħ":1873,"ĠØ¨Ø±Ø¯":1874,"ĠØ¨ÙĦÚ©Ùĩ":1875,"ĠØµÙĨØ¹ØªÛĮ":1876,"ĠØ§ØŃØ³Ø§Ø³":1877,"Ø³Ø§ÛĮØª":1878,"Ø¨Ø§ÙĨÛĮ":1879,"ÛĮÙĨÚ¯":1880,"ĠØªØ¹ÛĮÛĮÙĨ":1881,"ĠØ§ØŃØªÙħ":1882,"ĠØºØ°Ø§ÛĮÛĮ":1883,"ĠØªØ§Ø±ÛĮØ®ÛĮ":1884,"ĠØ´ÙĪØ±Ø§ÛĮ":1885,"ĠØªØ§Ø«ÛĮØ±":1886,"Ø±ØŃ":1887,"ÙĩÛĮ":1888,"ĠØ³ÙħØª":1889,"Ø¨ÛĮÙĦ":1890,"ĠØ³Ù¾Ø³":1891,")ØĮ":1892,"ÙĩØ¯":1893,"ĠØ¨Ø³Øª":1894,"ĠÙĤÙĦ":1895,"ÙĪÙĦÙĩ":1896,"ĠØ¬ÙħØ¹":1897,"ĠØ¬ÙħÙĦØ§Øª":1898,"ĠÙħØ·ÙĦØ¨":1899,"ĠØ±ÙģØªØ§Ø±":1900,"ĠØ§Ø±Ø²ÛĮØ§Ø¨ÛĮ":1901,"re":1902,"Ú©ÛĮØ¯":1903,"ĠØ¨Ø§ÛĮ":1904,"ĠÚ©Ø³ÛĮ":1905,"ĠØ±Ø¶":1906,"ĠØ¹ÙĪ":1907,"ĠØªÙĪØµ":1908,"ĠÙħØ±Ø§Ø¬":1909,"ĠØ§ÙĨØ¯Ø§Ø²Ùĩ":1910,"and":1911,"ĠØ§ÙĦÚ©ØªØ±ÙĪ":1912,"ow":1913,"Ø§ÙģØª":1914,"ĠØªÛĮØ±":1915,"Ø±ÛĮØ§ÙĨ":1916,"Ø±ÛĮØŃ":1917,"ĠØ¹Ø¶":1918,"ĠÚ©ÙĨØ§Ø±":1919,"ĠÚ©Ø§Ø±Ø¨Ø±Ø§ÙĨ":1920,"ĠâĢ¦":1921,"Ø®ÙĪØ§ÙĩØ¯":1922,"ĠØ¢ÛĮÙĨØ¯Ùĩ":1923,"ĠÙ¾ÛĮØ´ÙĨÙĩØ§Ø¯":1924,"is":1925,"ĠÙĨÛĮÙħ":1926,"Ø±ÛĮÙĩ":1927,"ĠØ¹Ø§ÙħÙĦ":1928,"ĠÙĦØ°":1929,"ĠØ¢ÙħØ¯Ùĩ":1930,"ÛĮÙħÛĮØ´ÙĨ":1931,"ĠØ¯ÙĨÛĮØ§":1932,"ĠØ¨ØŃØ«":1933,"Û¸":1934,"ĠL":1935,"Ġc":1936,"Ø§Ø±Ø³":1937,"Ú¯ÙĪÙĨ":1938,"ĠØ±ÙĪÙħ":1939,"âĢİ":1940,"ĠÚĨÚ¯ÙĪÙĨÙĩ":1941,"ĠØ§ÙĦØ¹":1942,"ĠÚ¯Ø±Ø¯Ø´":1943,"ĠØ¨ÙĨØ¯Ø±":1944,"ĠØ¢Ø³ÛĮØ¨":1945,"Û³":1946,"ĠÙĪØ¶":1947,"ĠÙĨØª":1948,"ĠÙĨØŃ":1949,"ĠÙĨÙģØª":1950,"ÙĤÙĤ":1951,"ĠÙ¾ÙĦ":1952,"ĠÙģÙĪØª":1953,"ÚĨÛĮ":1954,"ÙĨÚ¯ÛĮ":1955,"ĠØ·ÙĦ":1956,"ĠÚ©Ø§ÙħÙĦØ§":1957,"Ú¯Ø°Ø§Ø±":1958,"ĠØ³ÙĦØŃØ´ÙĪØ±":1959,"ĠØ¯Ø§Ø®ÙĦÛĮ":1960,"ĠÙħØ·Ø§ÙĦØ¹Ùĩ":1961,"ĠÚ©Ø±ÛĮ":1962,"ĠØ±ÙĤ":1963,"Ø¬ÙĪ":1964,"Ø·ÙĦØ§ØŃ":1965,"ĠØ§ÙħÛĮØ¯":1966,"ĠÙĪÛĮÚĺ":1967,"Ú©ÙĨØ§ÙĨ":1968,"ĠØ§Ø¯Ø§Ø±Ùĩ":1969,"ĠØ³ÙĦØ§ÙħØª":1970,"ĠØŃØ±Ú©Øª":1971,"ĠØ§ÙĨÙĤÙĦØ§Ø¨":1972,"Ø²ÙĦ":1973,"ĠÙĩÙģØªÙĩ":1974,"ĠÚĨÙħÙĨ":1975,"ĠØ³Ø±ÛĮØ¹":1976,"ĠØŃØ¯ÙĪØ¯":1977,"Ø±Ú©Ø²":1978,"ĠÙħØ²":1979,"ĠØ³Ø§Ø¯Ùĩ":1980,"ĠØ¢ÛĮØ§":1981,"ĠØ¬Ø³Øª":1982,"Ø§Ø¨ÙĤ":1983,"ĠÚĨØ±":1984,"ĠØ¢ÙħØ§Ø¯Ùĩ":1985,"ĠÙħØ³Ø¦ÙĪÙĦ":1986,"ĠÙħØ¬ÙĦØ³ÛĮ":1987,"ĠØ¯Ú©ØªØ±":1988,"Ø§Ø±Ø§Øª":1989,"ÙģÙĦ":1990,"ĠØ±Ø§ØŃ":1991,"ĠØ¬Ø±":1992,"ĠÛ³":1993,"Ø«Ø§Ø±":1994,"ĠØ¶Ø¯":1995,"ĠÙĦÙĪØ§Ø²Ùħ":1996,"ÙĩÙĨ":1997,"ĠØ¯Ø±Ø³Øª":1998,"ĠØ¹Ø²ÛĮ":1999,"ĠØŃØ§ÙĦÛĮ":2000,"Ù¾Ø±Ø¯":2001,"ĠØªÙĪÙħØ§ÙĨ":2002,"ĠØªÙĪØ¶ÛĮØŃ":2003,"ĠØŃÙħØ§ÛĮØª":2004,"ĠE":2005,"Ġh":2006,"ĠÙ¾ÛĮØ±":2007,"Ú©ÙĨÙĪÙĨ":2008,"Ø§Ø¦ÛĮ":2009,"ĠØ¨ÛĮØ´ØªØ±ÛĮ":2010,"ĠÙĤØ¯ÛĮÙħÛĮ":2011,"ĠØ¨ÙĨØ§Ø¨Ø±Ø§ÛĮÙĨ":2012,"ĠØ¨ÚĨÙĩ":2013,"ĠØ³Øª":2014,"ĠÙ¾ÙĦÛĮ":2015,"Ø¯ÙĩÙĨØ¯":2016,"ĠÚ©ÙĨÙħ":2017,"ĠØ®ÙĪØ¨ÛĮ":2018,"ĠØªÙĦÙģ":2019,"ĠØ§Ø¬Ø±Ø§ÛĮ":2020,"ĠÙĤØ§ÙĨÙĪÙĨ":2021,"ĠÚĨÚ©Ø§ÙħÙĩ":2022,"Ġb":2023,"Ø§Úĺ":2024,"Ú©ÙĪØ±":2025,"Ø§ÛĮÙħ":2026,"ĠÙĪØ³ÛĮ":2027,"ĠØ±Ø²":2028,"Ø§Ø¨Ø·":2029,"ĠÙĩÙħÛĮ":2030,"ÚĺÛĮÚ©":2031,"Ø§ØµÙĦ":2032,"ĠÚ©Ø§ÙĨØ§ÙĦ":2033,"ĠÙĨÙĪØ´ØªÙĩ":2034,"Ø©":2035,"ĠÙħØªØ±":2036,"Ø§ÙħØ´":2037,"Ø§ÙħÙ¾":2038,"ĠÙ¾Ø´Øª":2039,"ĠØ¹Ø¨Ø§Ø±":2040,"ing":2041,"ĠÙħÙĨØ¸ÙĪØ±":2042,"Ú©ÙĪ":2043,"ĠØ¨ÙĬ":2044,"âĢĿ":2045,"ĠØ¢ÙĪØ±Ø¯":2046,"ĠØ®Ø§Ùħ":2047,"ÙĪÙħØª":2048,"ĠÙħØ¯Ø§ØŃÛĮ":2049,"Ø§ÙĬÙĬ":2050,"ĠØŃØ³Ø§Ø¨":2051,"ĠØ´ÙĨØ§Ø³":2052,"ĠÙ¾Ø±Ø³Ø´":2053,"ĠÙĤØ§Ø¨ÙĦÛĮØª":2054,"Ø§Ú¯Ø±":2055,"Ø¯ÛĮÙĨ":2056,"ØªØ´":2057,"ĠØ¨Ø³":2058,"ĠØ¢ÙĨØ§ÙĨ":2059,"ØºØ§ÙĨ":2060,"ĠÙĨÙħØ§ÛĮØ¯":2061,"ĠØ¹ÙħÙĦÛĮ":2062,"ĠÚ©ÙĦÛĮÚ©":2063,"ĠÚ©Ø¯":2064,"ĠØ³Ø¹":2065,"Ø§ÙĦØª":2066,"ĠØ¹Ø¯Ùħ":2067,"ĠÙĦØ·":2068,"ĠÚ©Ø§Ø±ÙħÙĨØ¯ÛĮ":2069,"ĠØªØ¨ÙĦÛĮØº":2070,"ĠÙ¾Ø²Ø´Ú©":2071,"ĠØ¹ÙĦØ§ÙĪÙĩ":2072,"ĠØ§Ø¶Ø§ÙģÙĩ":2073,"ĠÙħØ§ÙĦÛĮ":2074,"ĠØ¯Ø¹":2075,"Ú¯Ø±ÙĪÙĩ":2076,"ĠØŃÙĪØ²Ùĩ":2077,"ĠØ§ÙħÙĪØ±":2078,"Ø¨Ø±Ø¯Ø§Ø±ÛĮ":2079,"ĠØ²ÙĨØ§ÙĨ":2080,"ĠØ¯Ø§Ø®ÙĦ":2081,"ĠÙĪÛĮÚĺÚ¯ÛĮ":2082,"om":2083,"ĠÙĪÙĦ":2084,"Ø¬Ø§Ùħ":2085,"ÚĨØ§Ø±":2086,".....":2087,"Ø¢ÛĮ":2088,"ĠÙħØ¬Ø§Ø²ÛĮ":2089,"ĠÙħØ³Ø§Ø¦ÙĦ":2090,"ĠÚ©ÙĦÛĮØ¯":2091,"ĠØ³Ø¨Ú©":2092,"ĠØ®ÙĪÙĨ":2093,"ĠÙģØ§ØµÙĦÙĩ":2094,"ĠÙħÙĤØ§Ø¨ÙĦ":2095,"ĠÙĨÙĤÙĦ":2096,"Ø®ÛĮØµ":2097,"ĠØ®Ø§Ø±Ø¬":2098,"ĠØ¢Ø®Ø±ÛĮÙĨ":2099,"Ġ139":2100,"ÙĪØ±Ø´":2101,"Ø§Ø¨ÙĤÙĩ":2102,"ĠÛ´":2103,"ĠÙĨÙĤØ·Ùĩ":2104,"ĠØ¶ÙħÙĨ":2105,"ĠÚ©ÙĦÛĮÙĩ":2106,"ĠÚ©Ø§ÙģÛĮ":2107,"ĠØ³ÙĪÙħ":2108,"ĠÙĦØ±":2109,"Ø®ØµØµ":2110,"Ø±Ø¨Ø§ÛĮ":2111,"ĠØ±ÛĮØ§Ø¶ÛĮ":2112,"ĠØ¬ÙĪØ§Ø¨":2113,"ĠÙħÙĨØªØ´Ø±":2114,"ĠØ¨Ø§Ø¯":2115,"ĠØ±Ø¶Ø§":2116,"ĠØ¯Ø±Ø¯":2117,"ĠØ¢Ø³":2118,"ÙĬØ§Øª":2119,"ĠØ´ÙĩÛĮØ¯":2120,"ĠØ¯Ø±ÙħØ§ÙĨÛĮ":2121,"ĠV":2122,"ĠØ¯Ø´":2123,"Ø¹Ùģ":2124,"ĠÚ¯ÛĮØ±":2125,"ØµÙĩ":2126,"ĠÙħÙĪØ³ÛĮ":2127,"ĠØªÙħØ§Ø³":2128,"ĠØ®Ø¯ÙħØª":2129,"Ġ2017":2130,"Û¶":2131,"ĠØ¨ÙĦÙĪ":2132,"ĠÙħØ§Ø³":2133,"Ø§ÛĮÛĮØ¯":2134,"Ø§ÙĦÙĦÙĩ":2135,"Ø±Ø§ÙĨÙĩ":2136,"ĠØ·ÛĮ":2137,"Ø¦ÙĪ":2138,"ĠØ§Ø¨Ø²Ø§Ø±":2139,"Ø§ÙĪÛĮ":2140,"ĠØ³Ø§Ø®ØªÙĩ":2141,"ĠÙ¾Ø³Øª":2142,"ĠØ§Ø³Ù¾":2143,"ĠÙģÚ©Ø±":2144,"Ø§Ø¨Ø¯":2145,"Ø§ÙĨÛĮÙĩ":2146,"ĠØ¨ÙĦÚ©":2147,"ĠØ±Ø§Ø¨Ø·Ùĩ":2148,"Û·":2149,"ĠÙħÚ¯":2150,"ĠØ¯ÙĤÛĮ":2151,"ÙģØ±ÙĪØ´":2152,"el":2153,"Ø¦ÛĮ":2154,"ĠØ¹Ø±Ø¶Ùĩ":2155,"??":2156,"ÛĮØ±ÛĮ":2157,"ĠÙħØ§Ø²ÙĨØ¯":2158,"ĠØ¨ÙĩØ¨ÙĪØ¯":2159,"Ø§Ø¯Ú¯ÛĮ":2160,"ĠÙĩÙħÚ©Ø§Ø±ÛĮ":2161,"ĠÚ©Ø§Ø±Øª":2162,"ĠØ§Ø±Ø´Ø¯":2163,"Ú©ÙĨÛĮØ¯":2164,"ĠÚ©ÙĦØ§Ø³":2165,"ĠØ¨Ø¹Ø¶ÛĮ":2166,"ĠØªØ´Ø®ÛĮØµ":2167,"ĠØ¯Ø§Ø´ØªÙĨ":2168,"ĠØ§ÙĤØªØµØ§Ø¯":2169,"ÙĪÚ©ÙĪØ³":2170,"Ù¾ÙĦÙĨØª":2171,"Ø²ÙĨ":2172,"ĠÙĩÙĪØ´":2173,"ĠØ³Ø¹ÛĮ":2174,"ĠØŃØ§Ø¶":2175,"ĠØ³Ø§Ø²ÙħØ§ÙĨÛĮ":2176,"ĠÚ©Ø±ÙħØ§ÙĨ":2177,"ĠØ§ÙĨØªÙĤØ§ÙĦ":2178,"ĠØ³Ø±ÙħØ§ÛĮÙĩ":2179,"ĠØ§ØŃØªÙħØ§ÙĦ":2180,"Ġon":2181,"ÙħÙĪ":2182,"ÙħØ§ÙĦ":2183,"ĠØ¨Ø§Ø¨":2184,"ÙĪØ±ØªÛĮ":2185,"ĠÙģÙĨ":2186,"ĠØ¬Ø¯":2187,"Ø¸ÛĮÙħ":2188,"ĠØ¨Ø§Ø²Ø¯ÛĮØ¯":2189,"ĠÙħØ±Øº":2190,"ĠØ²ÛĮØ³Øª":2191,"ĠØ°Ú©Ø±":2192,"ĠÙħØ¹ÙħØ§Ø±ÛĮ":2193,"ĠÙĪÙĤØª":2194,"ĠÚ¯ÙĪØ´ÛĮ":2195,"ĠÙĤØ¯Ø±Øª":2196,"!!":2197,"ĠØ³ÙĪÛĮ":2198,"Ø§ØªÙĪØ±":2199,"Ø§Ø²Ø¯Ùĩ":2200,"ÙĨØ¬ÛĮ":2201,"ĠÙ¾Ø§ÛĮÛĮÙĨ":2202,"ĠÙħØ±Ø§Ø¬Ø¹Ùĩ":2203,"12":2204,"ØªÙĪØ±":2205,"ĠÙħØ¨ÙĦ":2206,"Ø§ÛĮØ¹":2207,"âĢı":2208,"ĠØ´Ø§Ø±":2209,"ĠÙģÙĪÚ©ÙĪØ³":2210,"ÙĪØ§ÙĨÛĮ":2211,"Ø¨ÛĮØ§Øª":2212,"Ú©ØªØ§Ø¨":2213,"Ġ12":2214,"ĠØ¨ÙĦÙĨØ¯":2215,"Ġ2018":2216,"ĠØ¬Ø§ÙħØ¹":2217,"ÙĢÙĢÙĢÙĢ":2218,"ĠØ§ÛĮÙħÙ¾ÙĦÙĨØª":2219,"ĠØ§ÙĩØ¯":2220,"ĠÙĪØŃ":2221,"ĠØªØ¨Ø±ÛĮ":2222,"ĠØ±ÙĪØ¯":2223,"ĠØ±Ø§Ø³Øª":2224,"Ù¾Ø±Ø³":2225,"ĠØ§ÙħØ±":2226,"Ø§Ø¦Ùħ":2227,"ÙĪÙĦÙĪÚĺÛĮ":2228,"ÙĨØ¸":2229,"ÙħØ§ÛĮÛĮ":2230,"Ø´ØªÛĮ":2231,"Ú¯ÙģØª":2232,"ĠØ±ÙħØ§ÙĨ":2233,"ĠÙĨØ²Ø¯ÛĮ":2234,"ĠÙħÛĮØ´ÙĪØ¯":2235,"Ø±ÙĪØ±ÛĮ":2236,"ĠÙħØªØ®ØµØµ":2237,"ĠØ§ØµÙģÙĩ":2238,"ĠÙĨÙĤØ¯":2239,"ĠÙģØ±ÙĪØ´ÛĮ":2240,"ĠâĢľ":2241,"ĠØ¸Ø±Ùģ":2242,"ĠÙħÛĮÙĦÛĮÙĪÙĨ":2243,"ĠØ¢Ø°Ø±Ø¨Ø§ÛĮ":2244,"ĠÙħØ¨Ø§Ø±Ú©":2245,"ĠÙħÙĪØ³ÛĮÙĤÛĮ":2246,"ed":2247,"et":2248,"Ø±ÚĺÛĮ":2249,"ĠØ¯ÙĬ":2250,"Ø³Ø§Øª":2251,"ĠØ§ÛĮØ¯":2252,"ĠØµØ±Ùģ":2253,"ĠØ¢ÙħÙĪØ²":2254,"ĠØ¨Ø§Ø²Ø§Ø±ÛĮ":2255,"ĠÙħØ¹Ø§":2256,"ĠÙħØªÙģØ§ÙĪØª":2257,"ĠØ±ÙĪØŃ":2258,"ĠØ¶Ø±":2259,"ĠØ¨ÛĮÙħÙĩ":2260,"ĠÙħØ´Ø§ÙĪØ±Ùĩ":2261,"ĠÙħØŃØªÙĪØ§":2262,"ĠÙĩÙħÛĮØ´Ùĩ":2263,"ĠØŃØ§Ø¶Ø±":2264,"Ġd":2265,"ÙĪØ·":2266,"ĠØ¯ÚĨØ§Ø±":2267,"ĠÙĪØ¸":2268,"ĠØ§Ø¸":2269,"ĠØ¢ÙĪØ±":2270,"ĠØ¢Ø«Ø§Ø±":2271,"ĠØŃÛĮ":2272,"ÙĪÛĮØ§ÙĨ":2273,"ĠØ¯Ø§Ø±Ùħ":2274,"ĠÙħØ±ØªØ¨":2275,"ĠÙĨÙħÙĪØ¯Ùĩ":2276,"ĠØ§ØµÙĦØ§ØŃ":2277,"ĠØ¨Ø§Ø±Ø¨Ø±ÛĮ":2278,"ĠØ¹Ø¨Ø§Ø±Øª":2279,"ew":2280,"ĠW":2281,"Ú©Ø´":2282,"ĠÚ©Ø¯Ø§Ùħ":2283,"ĠÙģÙĨÛĮ":2284,"ĠÙģØ¶Ø§ÛĮ":2285,"ĠÙĤØ§ÙĦØ¨":2286,"ÛĮØ±Ùĩ":2287,"Ø¯ÛĮÚ¯Ø±":2288,"ĠÙģØ±Ø§ÙĩÙħ":2289,"ĠÙħØªÙĪØ³":2290,"ĠØ¯Ø³ØªÙĪØ±":2291,"ĠØªØ¹ÙħÛĮØ±":2292,"ĠØ±Ø³ÛĮØ¯":2293,"ĠØ§Ø¨ØªØ¯Ø§":2294,"ĠØ³Ø±ÙĪÛĮØ³":2295,"ch":2296,"iv":2297,"Ġ0":2298,"ĠØ¯ÛĮØ¯Ùĩ":2299,"ÙģØ§ÙĤ":2300,"ĠÙĩØ´":2301,"ĠÙħÙĪÙĤ":2302,"ĠØ¯Ø§Ø±ÙĪ":2303,"ĠØ§Ø¸Ùĩ":2304,"ĠØ¢Ø¨Ø§ÙĨ":2305,"ĠØ®ÙĪØ±Ø¯":2306,"ÙĪØ±Ø§ÙĨ":2307,"ĠØ§Ø®ØªÛĮ":2308,"ĠÙħØ®ÙħÙĦ":2309,"ĠØ´Ø®ØµÛĮ":2310,"ĠÙĨØ®Ø³Øª":2311,"ĠØ§Ø³ØªØ§ÙĨØ¯Ø§Ø±Ø¯":2312,"ĠÚ©Ø´Ø§ÙĪØ±Ø²ÛĮ":2313,"Ø¨ÛĮÙĩ":2314,"ĠØ¯Ø³ØªÛĮ":2315,"Ø¢ÙħØ¯":2316,"ĠÚ¯Ø±Ùħ":2317,"ĠÙħØ·Ø±ØŃ":2318,"ĠÙħØ«Ø§ÙĦ":2319,"ĠÙĪØ§ÚĺÙĩ":2320,"ĠØ¯ÙĤÛĮÙĤÙĩ":2321,"Ġf":2322,"ĠØ¨ÙĨÛĮ":2323,"ĠØ³Ø®Øª":2324,"ĠØ¢ÛĮØª":2325,"ÙĪØ±Ùĩ":2326,"ĠÙģØ§ÙĨØª":2327,"ĠØ¹ÙĤ":2328,"ĠØ¬Ø§Ú©":2329,"ÙĪÙĨØ§":2330,"ĠØ§ÙģØºØ§ÙĨ":2331,"ĠÙħÙĤØ§":2332,"ĠØªØµÙĪÛĮ":2333,"ĠØ¨ÛĮÙħØ§Ø±":2334,"ÙħÙĦÙĦÛĮ":2335,"ĠØ®Ø§ÙĨÙħ":2336,"ĠØ®ÛĮØ§Ø¨":2337,"ĠØ¢Ø²ÙħØ§ÛĮØ´Ú¯Ø§Ùĩ":2338,"ĠØ§Ø¨ØªØ¯":2339,"ĠØ¬Ø°Ø§Ø¨":2340,"Ø±Ø´":2341,"Ø±ÙĪØ¯":2342,"ĠØ¯ÙĤÛĮÙĤ":2343,"Ø¨Ø§Ø¨":2344,"ĠÙ¾Ø®Ø´":2345,"ĠØ¨Ø§ÙģØª":2346,"ĠÚĨÛĮÙĨ":2347,"ĠØµÙĪØ±ØªÛĮ":2348,"ĠÚ©Ø§Ø±Ø´ÙĨØ§Ø³ÛĮ":2349,"ĠØ§Ø¹Ø¶Ø§ÛĮ":2350,"ĠÙĨØ´Ø¯Ùĩ":2351,"Ø®ÙĪØ§Ø³Øª":2352,"ĠÚĨÛĮØ³Øª":2353,"ĠÚĨÛĮØ²ÛĮ":2354,"ĠØ®ØµÙĪØµÛĮ":2355,"ĠÚ©Ø±ÛĮÙħÛĮ":2356,"ÙĪØ§ÙĦ":2357,"Ú¯ÙĬ":2358,"ÙĬÙĦ":2359,"Ø±ÙĪÛĮ":2360,"ĠÙħÙĤØ§Ùħ":2361,"ĠÚ©ÙħØªØ±":2362,"ĠØ´ÙĪÛĮØ¯":2363,"load":2364,"ĠØŃÙģØ¸":2365,"ion":2366,"ÙħØ´":2367,"ĠØ¨ÛĮØª":2368,"Ú¯Ø§ÙĨÛĮ":2369,"ĠØ±Ø§ÙĨ":2370,"ĠÙ¾ÙĨ":2371,"ĠØ¨Ø±ÙĪØ²":2372,"ĠØ§Ø³ØªØ§Ø¯":2373,"ĠÚ¯Ø§Ùħ":2374,"ĠØ§ÙĨØ³Ø§ÙĨÛĮ":2375,"ĠØ§ÙħÛĮØ±":2376,"ĠØ±Ø³Ø§ÙĨÛĮ":2377,"ĠØ³Ø¨Ø²":2378,"Ú¯Ø°Ø§Ø±ÛĮ":2379,"ĠÙħÙĪÙģÙĤÛĮØª":2380,"ĠØ¬Ø§Ú©ÙĪØ¨":2381,"il":2382,"ÛĮÙĦ":2383,"ĠØ§ÙĨØ±ÚĺÛĮ":2384,"ÙĪÛĮØ³ÛĮ":2385,"ĠÛ·":2386,"ĠÙħØªÙĤ":2387,"ĠØªÙĪØ§ÙĨÙĨØ¯":2388,"ĠØ§ÙĩÙĨÚ¯":2389,"ĠÚ¯Ø±ÙģØªÙĨ":2390,"ĠØ§ÙħÙĨÛĮØª":2391,"ĠÙħØ§Ø¯Ùĩ":2392,"Ø´ÙĪ":2393,"ĠÚ©ÙĦÙħ":2394,"ÙģØ§ÛĮÙĦ":2395,"Ø±ÛĮØ¨":2396,"ĠÙ¾ÙĪÙĦ":2397,"ĠÙ¾Ø§Ø±Ú©":2398,"ĠØ®ÙĦ":2399,"Ø§Ø³ØªÛĮ":2400,"ĠØ²Ø¯ÙĨ":2401,"ĠÙ¾ÛĮÚĨ":2402,"ĠØ¨ÙĪØ¯ÙĨØ¯":2403,"Ø§ÙĤÙĦ":2404,"ĠØªØŃÙĦÛĮÙĦ":2405,"ĠØ§ØªÙģØ§ÙĤ":2406,"ĠÙħØ®Ø§Ø·":2407,"ĠØ²ÙĨØ§ÙĨÙĩ":2408,"ĠØµØ¯Ø§ÛĮ":2409,"ĠÙĪØ²ÛĮØ±":2410,"ĠÙħØŃØ¯ÙĪØ¯":2411,"ĠÙħØ§Ø¯Ø±":2412,"ĠØ§Øº":2413,"ĠØ¨Ø±ÙĨØ¯":2414,"Ø§ÙĩØ§":2415,"ĠØ§ÙĪÙĨ":2416,"ĠØ§Ù¾":2417,"Ø´ÙĨØ¨Ùĩ":2418,"ĠÚ©Ø§Ø±Ø¨Ø±":2419,"ĠÙħØ´ÙĩØ¯":2420,"Ø§Ú©Ø±ÙĪÙħ":2421,"ĠØ§ØµØ·ÙĦØ§ØŃ":2422,"ĠØ§Ø¹Øª":2423,"ĠØ¹ÙĦØª":2424,"ĠÙĩÙĨØ±ÛĮ":2425,"ĠØ§ÙĩÙħÛĮØª":2426,"ĠÙħÛĮÙĦØ§Ø¯":2427,"ĠÚ©ÙģØ´":2428,"10":2429,"Ø§ÙĨØ³":2430,"Ø³ÙĨØ§":2431,"Ø´Ø§Ùĩ":2432,"ĠØ®Ø¨Ø±ÛĮ":2433,"ĠØ¨Ø±Ø³":2434,"ĠÙħØŃØ³ÙĨ":2435,"Ø§ØŃÙĦ":2436,"Ø¬ÙĩÛĮØ²":2437,"ĠØ´ÛĮÙĪÙĩ":2438,"ĠØ§ÙħÚ©Ø§ÙĨØ§Øª":2439,"ĠÙĨÚ©ØªÙĩ":2440,"18":2441,"ĠØ¨Ø¯Ùĩ":2442,"ĠÙĨÙĪÛĮØ³":2443,"ØºÙĨ":2444,"ĠØ±Ø³ÙħÛĮ":2445,"ĠØ®ÙĪØ§ÙĩÛĮØ¯":2446,"ĠØ¨ØµÙĪØ±Øª":2447,"ram":2448,"ÙĪØ§":2449,"ÙĦØ²":2450,"Ø¨Ø§Ø²ÛĮ":2451,"Ø²ÙħØ§ÙĨ":2452,"ĠÙħØ´ØªØ±":2453,"ĠØ³Ø±Ø§Ø³":2454,"ĠØ´ÙĩØ±ÙĪ":2455,"ĠÛ²Û°":2456,"ĠÙħØ³Ø¦ÙĦÙĩ":2457,"ĠØ¬Ø´ÙĨÙĪØ§Ø±Ùĩ":2458,"ĠÙĪØ¶Ø¹ÛĮØª":2459,"ĠÙĨØŃÙĪÙĩ":2460,"ĠØ¢Ø°Ø±Ø¨Ø§ÛĮØ¬Ø§ÙĨ":2461,"ÙĨÙĪÛĮØ³":2462,"Ø§ÛĮØ¬":2463,"Ø§Ø±Ø´":2464,"ĠÙĨÙĩØ§ÛĮ":2465,"ĠØ§ÙĨÛĮÙħÛĮØ´ÙĨ":2466,"ĠØµØ§Ø¯":2467,"ĠØ¬Ø¯ÛĮØ¯ØªØ±ÛĮÙĨ":2468,"ÙĦÙĪØ§ÛĮ":2469,"ĠØ§Ø®ÛĮØ±":2470,"Ø§ÙĪØ±Ù¾":2471,"ĠØªÙĪÙĦØ¯":2472,"ĠØ²ÛĮØ±Ø§":2473,"ĠÙ¾ÛĮØ§ÙħÚ©":2474,"ĠØªØŃÙĤÛĮÙĤØ§Øª":2475,"ĠØ§Ø³ØªØ®ÙĪØ§ÙĨ":2476,"ĠØ¬ÙĦØ³Ùĩ":2477,"ĠÙĪØ²ÙĨ":2478,"ĠÙħÙĪØ¬Ø¨":2479,"ĠÙħØ§Ø²ÙĨØ¯Ø±Ø§ÙĨ":2480,"ĠØ¬Ø§Ú©ÙĪØ¨Ø²":2481,"ÙĨÙĪØ´":2482,"Ø¬Ø¯":2483,"ĠØ¬Ø±ÛĮØ§ÙĨ":2484,"ĠØ§ÙĨØ¯ÛĮ":2485,"ĠØ®ÙĪØ¯Ø´":2486,"ĠØ±ÙĪØ§Ø¨Ø·":2487,"ÙģÛĮÙĦÙħ":2488,"ĠØ§ØªÙĪÙħ":2489,"ĠØ¬Ø°Ø¨":2490,"ĠØ¯ÙģØ§Ø¹":2491,"ĠØ¬ÙĦÙĪÚ¯ÛĮØ±ÛĮ":2492,"own":2493,"Ø¢ÛĮÙĨØ¯":2494,"ĠØ§ÙĩØ¯Ø§Ùģ":2495,"ØªØ¹":2496,"Ø´Ø§":2497,"ĠÚ©Ø±Ø¨":2498,"Ø¬Ùħ":2499,"ĠØ¬Ø§ÙĦØ¨":2500,"ĠÚĨØ§Ù¾":2501,"Ø§ÙģØ¸":2502,"ÙĥÙĩ":2503,"ĠØ¢Ø¨Ø§Ø¯":2504,"ĠÙĩÙĨÙĪØ²":2505,"ĠØ¸Ø§Ùĩ":2506,"ĠØŃØ¬Ùħ":2507,"ĠØ³Ø§ÙħØ§ÙĨÙĩ":2508,"ĠØ®Ø§Ø·Ø±":2509,"ĠÙħØ´ØªØ±ÛĮØ§ÙĨ":2510,"ĠÙħÙĩÙĨØ¯Ø³ÛĮ":2511,"ab":2512,"ĠÙħØ¨Øª":2513,"Ú¯ÛĮÙĨ":2514,"ĠØ±Úĺ":2515,"ÙĪØ±Ø§":2516,"ĠÛ¶":2517,"ĠÙħØ±Ø§Ø³Ùħ":2518,"Ø¯Ø±Ø³":2519,"ĠØºØ°Ø§":2520,"ĠÙģØ±Ø¯ÛĮ":2521,"ĠØªÙĪØµÛĮÙĩ":2522,"ÙĨÙĪ":2523,"ĠÙħØ¤":2524,"Ú¯Ø§ÙĨÙĩ":2525,"ĠØ³ÛĮØ¯":2526,"ĠÙħÛĮØ¯Ø§ÙĨ":2527,"Ø³ØªØ§":2528,"ĠØ¹Ø±Ø¨":2529,"ĠØ¬Ø¯Ø§":2530,"Ù¾Ø³":2531,"ĠØ¯Ø§ÙĨØ³Øª":2532,"ĠØµØ¯Ø§":2533,"Ø°ÛĮÙĩ":2534,"ĠØ¨ÙĪØ¯Ø¬Ùĩ":2535,"ĠØ±ÙĪÙĨØ¯":2536,"ĠÙħÙĤØ§ÙĦØ§Øª":2537,"ĠÙħØ³ÛĮØ±":2538,"ĠØ³ÛĮØ§Ø³Øª":2539,"ĠÙĨØ´Ø³Øª":2540,"ĠÚ¯ÛĮØ§Ùĩ":2541,"ĠÙ¾Ø±ÙĪØ±Ø´":2542,"ĠØ¢Ø±Ø§ÛĮØ´":2543,"ĠÚĨÛĮØ²":2544,"ĠÙģÙĪØªØ¨Ø§ÙĦ":2545,"ĠØ§Ø®ØªÛĮØ§Ø±":2546,"92":2547,"ÙĨØ´":2548,"Ø³ÙĦ":2549,"Ø´ÛĮØ¯":2550,"ĠØ´Ø§ÛĮØ¯":2551,"ĠÛĮØ§ÙģØª":2552,"ĠÙħØ¬ÙĦÙĩ":2553,"Ø§Ø³ÛĮÙĪÙĨ":2554,"ĠØ§ÙĨØªØ¸":2555,"of":2556,"Â«":2557,"Ú©Ø§Ùħ":2558,"ĠØ¨Ø¨":2559,"ĠØªØ§ÙħÛĮÙĨ":2560,"ĠÙĨØ§Ø±":2561,"ĠÙĨØ®ÙĪØ§ÙĩØ¯":2562,"ĠÙħÙĨØ§Ø³":2563,"ĠÙģØ±ÙħØ§ÙĨ":2564,"ĠÙĨÙħØ§ÛĮØ´Ú¯Ø§Ùĩ":2565,"ĠØ³Ø±Ø·Ø§ÙĨ":2566,"ĠØ®ÙĪØ§Ø³Øª":2567,"ĠÙħØ¬Ø§Ø²":2568,"ĠØ¨Ø¯Ø§ÙĨ":2569,"ĠØ´ÙĩØ±Ø¯":2570,"ĠØªÙĨØ¸ÛĮÙħ":2571,"ĠØ¹Ø±Ø§ÙĤ":2572,"Ø±Ø§Ùģ":2573,"ÙĦØ§ÛĮ":2574,"ĠØªØ§Ø²Ùĩ":2575,"Ø§ÙħØ§":2576,"ĠÙħØ¯Ø§Ø±Ø³":2577,"ĠØªØŃØ±ÛĮÙħ":2578,"ĠÙĨÙĤØ§Ø´ÛĮ":2579,"ĠØ¨Ø§ÙĦØ§ÛĮ":2580,"ĠØ³Ø®ÙĨ":2581,"ĠÙĨØ²Ø¯ÛĮÚ©":2582,"ĠØ§Ø¹ØªØ¨Ø§Ø±":2583,"ob":2584,"ĠØ±ÙģØªÙĩ":2585,"ĠØ®Ø±ÙĪ":2586,"ĠÙħÛĮÚ©":2587,"ĠØ§ÛĮÙħÛĮÙĦ":2588,"ĠØ¨Ø±ØªØ±":2589,"Ø§ØªÙĪ":2590,"ĠÚ¯Ø§ÙĩÛĮ":2591,"ĠÙĤÙģÙĦ":2592,"ĠØ²ÙĨØ¬":2593,"ĠÚ©Ø§Ø±Ú©ÙĨØ§ÙĨ":2594,"ĠØ§ØµÙĪÙĦ":2595,".........":2596,"ĠØŃØ³ÙĨ":2597,"ĠÙĬØ§":2598,"ĠÙĬÙĥ":2599,"ĠÙħÙĦØª":2600,"ĠÙĪØ±Ø²Ø´ÛĮ":2601,"ĠÚ©Ø§Ø±Ø¨Ø±Ø¯ÛĮ":2602,"ĠÙĨØªØ§ÛĮØ¬":2603,"Ø¬ÙĩÛĮØ²Ø§Øª":2604,"im":2605,"Ø§Ø°":2606,"ĠØ³Ø±Ø¯":2607,"ĠØ¢ÙĪØ±ÛĮ":2608,"ĠØ§Ø³Ø§Ø³ÛĮ":2609,"ĠÚ¯Ø²ÛĮÙĨÙĩ":2610,"ĠØŃÙħÙĦ":2611,"ĠØ§Ø±ÙĪÙ¾":2612,"ĠØ³Ø±ÚĺÛĮÚ©":2613,"ĠØ´Ø±ÙĤÛĮ":2614,"ĠØ§Ø¹ØªÙħ":2615,"ĠÙ¾Ø±ÙĪÙģØ§ÛĮÙĦ":2616,"ĠØ§ÙģØºØ§ÙĨØ³ØªØ§ÙĨ":2617,"Ø±Ø¶Ø§":2618,"Ø§ÛĮÙĨØ¯":2619,"ĠØ¯ÛĮÙĨ":2620,"ĠØ±Ø¹":2621,"ĠÙĨÚ¯Ø§Ùĩ":2622,"ĠÙĩÙĨØ¯":2623,"ĠÙ¾ÙĪØ±":2624,"ĠØ®Ø±Ø¯":2625,"ÙĬØ³":2626,"Ø¶Ø§ÛĮÛĮ":2627,"ĠÚ©Ø±Ø¯Ùħ":2628,"ĠÙħÙĨØ¨Ø¹":2629,"ĠØ¨Ø§Ø´ÛĮÙħ":2630,"ĠÛĮØ§ÙģØªÙĩ":2631,"ĠØ±ÙĪØºÙĨ":2632,"ĠØ³Ø§ÙĦÙĩ":2633,"ĠØ¯ÙĩÙħ":2634,"ĠÙĨØ¸Ø§Ø±Øª":2635,"ØªÙħØ§":2636,"ĠØªØ¹Ø±ÛĮÙģ":2637,"ĠØ«Ø§Ø¨Øª":2638,"ĠØ§ÙģØ±Ø§Ø¯ÛĮ":2639,"ĠØ®ÙĪØ§ÙĩÙĨØ¯":2640,"ĠÙħØ±Ú©Ø²ÛĮ":2641,"ĠÙħØŃØªÙĪØ§ÛĮ":2642,"Ú©Ø±ÛĮ":2643,"ĠØªØ¯Ø±ÛĮ":2644,"Ø§ÙħØª":2645,"ĠÙ¾Ø¯Ø±":2646,"ĠØ®Ø§Ú©":2647,"ĠÙĤÛĮ":2648,"Ø¯ÙĩØ§":2649,"ĠØ¯ÛĮÚ¯Ø±Ø§ÙĨ":2650,"Ú©ØªØ±ÛĮ":2651,"ĠÙħÙĤØ§ÛĮ":2652,"ĠØ¨Ø¹Ø¯ÛĮ":2653,"ĠØ¨ÙĨØ§Ùħ":2654,"ĠÙħÙģÛĮØ¯":2655,"ÙĪÛĮÙĨØª":2656,"ĠÙħØŃÙħÙĪØ¯":2657,"ĠØ®ÛĮØ§Ø¨Ø§ÙĨ":2658,"ht":2659,"ps":2660,"ĠÙħÙĪÙĦ":2661,"ĠÚ©Ø³Ø§ÙĨÛĮ":2662,"Ø²Ø§Ø¯":2663,"Ø³ØªØ§ÙĨÛĮ":2664,"ĠØ²ÙĨØ¯":2665,"ĠØ§ÙĨÚ¯ÛĮ":2666,"Ġ15":2667,"ĠÙģÛĮØ²ÛĮ":2668,"ĠØ¯ÙĦØ§Ø±":2669,"ĠÙĤØ·Ø¹":2670,"Ø¢ÙħÙĪØ²Ø´":2671,"ĠØ¢Ø´ÙĨØ§":2672,"ĠØ§ØµÙģÙĩØ§ÙĨ":2673,"ĠØ¨Ø§Ø²Ø§Ø±ÛĮØ§Ø¨ÛĮ":2674,"ĠØ§Ø¸ÙĩØ§Ø±":2675,"Ø§ÙĪØ±Ù¾ÙĪÛĮÙĨØª":2676,"ĠÙħÙĤØ§ÛĮØ³Ùĩ":2677,"ĠØªØ±Ø§ÙĨÙĩ":2678,"ĠØ´Ø§Ø®":2679,"ÙĤØ¯Ø±":2680,"ĠÙĩÙħØ§Ùĩ":2681,"Ú¯ÛĮØ±ÛĮØ¯":2682,"Ø«Ùĩ":2683,"ĠÙħÙĤØ¯Ùħ":2684,"ĠØ§Ø¬Ø±Ø§":2685,"ĠØ§Ø¯Ø¨ÛĮØ§Øª":2686,"ĠÛ±Û°":2687,"ĠØ´ÙĩØ§Ø¯Øª":2688,"ĠÙģØ±ÙħÙĪØ¯":2689,"ĠÙĪØ³Ø§ÛĮÙĦ":2690,"ĠØ±ÙģØ¹":2691,"ĠØ¹ÙĪØ§ÙħÙĦ":2692,"ol":2693,"Ø¡":2694,"ĠÙĪÛĮØ¯ÛĮ":2695,"ĠÙĩØªÙĦ":2696,"ĠÙĤÙĪØ§ÙĨ":2697,"Ù¾ÙĪØ±":2698,"ÙģØªØ±":2699,"ĠÙħÙĪØªÙĪØ±":2700,"ĠÛ¹Û":2701,"ÙĩØ±Ø³Øª":2702,"ĠØ¯Ø³ØªØ±Ø³ÛĮ":2703,"ĠØªØ¬Ø§Ø±ÛĮ":2704,"ĠØ¨Ø®Ø´ÛĮ":2705,"ĠÙĨÙħØ§ÛĮÙĨØ¯":2706,"ĠÙĨÛĮØ§Ø²ÙĩØ§ÛĮ":2707,"ĠÙģÙĦØ§Ø´":2708,"ĠØ´Ø®ØµÛĮØª":2709,"ĠØ¢Ø´Ù¾":2710,"ÙħÙĪÙĨ":2711,"ĠÙĨÚ©Ø±Ø¯":2712,"ĠÙĩÙĨØ¯ÛĮ":2713,"ĠØ³Ú©":2714,"Ø§Ø³Ø§ÙĨ":2715,"ĠÙħØ±Ú¯":2716,"ĠØ§ÙĨØªØ´Ø§Ø±":2717,"000":2718,"ĠÙĪØ¨ÙĦØ§Ú¯":2719,"ĠØªØ±Ú©ÛĮÙĩ":2720,"ĠÙħØ·Ø§ÙĦØ¹Ø§Øª":2721,"ĠØ¯Ø®ØªØ±Ø§ÙĨÙĩ":2722,".................":2723,"ĠÚ¯Ø±Ø¯Ø´Ú¯Ø±ÛĮ":2724,"ĠÙĪØ³ÛĮÙĦÙĩ":2725,"ĠØ±ÚĺÛĮÙħ":2726,"Ø¯Ø§Ø´":2727,"ĠØ¯Ø±ÙĪÙĨ":2728,"Ø®ØªÙĩ":2729,"ĠØŃØ§ØµÙĦ":2730,"ĠØ§ÙħØªØŃ":2731,"ĠØ¯Ø§Ø±ÛĮÙħ":2732,"ĠØ§Ø±Ø²":2733,"ĠÙħØ¹ÙĨÛĮ":2734,"ĠÙħØ¯Ø±ÙĨ":2735,"ĠÚ©Ø´ÙĪØ±ÛĮ":2736,"ĠÙħØ³Ø§Ùģ":2737,"Ø§ÙĨØ¯ÙĨ":2738,"ÙĪØ¨ÙĦØ§Ú¯":2739,"ĠØ§ØªØ§ÙĤ":2740,"ĠØ±ÙģØªÙĨ":2741,"ĠÚ©Ø§ÙĦØ§":2742,"ĠØ¹ÙĦØ§ÙĤÙĩ":2743,"ĠÙĨÙĩØ§ÛĮØª":2744,"ownload":2745,"ĠØ¨Ø´":2746,"ĠÙĪØ§Ø¨":2747,"ĠØ¯Ø±Ú©":2748,"ĠØ¯Ø±Ø¨":2749,"ĠØ³ÙĪØ¯":2750,"Ø¬ÙĪØ§ÙĨ":2751,"ÙĪØ±ÙĪØ¯":2752,"ĠÛĮØ²Ø¯":2753,"ĠØ¢ÙĨÚĨÙĩ":2754,"ĠÙħØ±Ø§ÙĤ":2755,"ĠØºØ±":2756,"Ø§ØµÙĩ":2757,"ĠØ§ÙĬØ±Ø§ÙĨ":2758,"ĠØ¬Ø±Ø§ØŃÛĮ":2759,"ĠØ¯Ø´ÙħÙĨ":2760,"ĠÙħØ´ØªØ±Ú©":2761,"Ġw":2762,"ÙĪØªÛĮ":2763,"ĠÙħØ§Ùħ":2764,"ĠØ³ÛĮÙħ":2765,"ĠØ¢Ùģ":2766,"ĠØ¢ÙĬØ§Øª":2767,"ĠÙģØ§Ø·":2768,"ĠÙħÙĪØ«Ø±":2769,"ĠÚ©Ø§Ø±Ø´ÙĨØ§Ø³":2770,"ÙĨÛĮÚ©ÛĮ":2771,"ĠÙħØ±Ø¬":2772,"ÙĪØ±ÛĮÙĩ":2773,"ĠØ¯ÙĪØ³ØªØ§ÙĨ":2774,"ĠÙĥØ§Ø±":2775,"ĠÚ¯Ø°Ø§Ø±ÛĮ":2776,"ĠØªØ¬Ø§Ø±Øª":2777,"ĠÙģØ§Ø±Ø³":2778,"ĠØŃØ¯Ø§ÙĤÙĦ":2779,"ĠØ¢Ø²ÙħØ§ÛĮØ´":2780,"Ú¯ÙĪÛĮØ¯":2781,"ĠØ®Ø¨Ø±ÙĨÚ¯":2782,"ĠÙħØ³Ø¦ÙĪÙĦÛĮ":2783,"ĠØ§Ø³ØªØ®Ø¯Ø§Ùħ":2784,"ide":2785,"ĠJ":2786,"Ġand":2787,"ĠÙħØ§ÙĦ":2788,"Ø¨Ø§Ø²":2789,"ĠØªÙģØ§ÙĪØª":2790,"âĢĮâĢĮ":2791,"ĠÙħÛĮØªÙĪØ§ÙĨÛĮØ¯":2792,"ÙĬØ¨":2793,"ĠØ¨Ø±Ø¬":2794,"ĠÚ¯ÙĪÛĮ":2795,"ĠØ²Ø§Ø¯Ùĩ":2796,"ĠÚ©ÙĨÚ©ÙĪØ±":2797,"ĠÛĮÚ©Ø¯ÛĮÚ¯Ø±":2798,"ĠØªØ§Ú©ÛĮØ¯":2799,"Ø¢ÙĪØ±ÛĮ":2800,"ĠÙĩØ³ØªÛĮÙħ":2801,"ĠØ§Ø®ØªØµ":2802,"ĠÙ¾ÛĮØ´Ø±ÙģØª":2803,"Ú©Ø§Ø±Ø§ÙĨ":2804,"âĢ¦]":2805,"ĠØ·Ø¨ÙĤ":2806,"Ġ[âĢ¦]":2807,"ĠÙĨØ¯Ø§Ø±ÙĨØ¯":2808,"ĠÙĦØ°Øª":2809,"ĠØ§Ø¹ØªÙħØ§Ø¯":2810,").":2811,"Û¹":2812,"ĠU":2813,"ÙĩÙĪØ±":2814,"ÙĦÙĪÙħ":2815,"ĠÙĨÚ¯Ø§Ø±":2816,"Ø±ÛĮÙĨÛĮ":2817,"ĠØ®Ø´Ú©":2818,"ĠØ¹Ø±ÙĪØ³":2819,"ĠØŃØ°":2820,"ĠØŃØªÙħØ§":2821,"Ø§Ø´ÙĨ":2822,"ĠÙħØŃØ³":2823,"Ø§Ø¬Ùĩ":2824,"ĠØ§Ø¬Ø§Ø²Ùĩ":2825,"ĠØ±ÙĪØ²Ø§ÙĨÙĩ":2826,"ÙħÛĮÙĨÛĮ":2827,"ĠØªÙĦÙĪÛĮ":2828,"ĠØ±ÙħØ²":2829,"ĠØ¬Ø§ÛĮÚ¯Ø²":2830,"ĠÛ±Û³Û¸":2831,"ĠØ¨ÙĪØ³ØªØ§ÙĨ":2832,"ĠØ¬Ø§ÙĨØ¨ÛĮ":2833,"ou":2834,"Ú©Ùħ":2835,"ĠÙħÙħÙĨ":2836,"Ø§ÛĮØ±":2837,"ĠÙĨØ¨ÙĪØ¯":2838,"ĠØ¨ÙĩØ¯Ø§Ø´Øª":2839,"ĠØ¹Øµ":2840,"ĠØ¬Ø§":2841,"ĠÙĦØ§Øº":2842,"ĠØ§ÙĦÚ¯":2843,"ĠÙħØ±Ø§ØŃÙĦ":2844,"ÙĤÛĮØ§Ø³":2845,"ĠÙĥÙĨ":2846,"ĠÙģÛĮÙĦ":2847,"ĠØ§ØªØŃ":2848,"ĠÙĨÙĪØ´Øª":2849,"ĠØ²ÛĮØ¨Ø§ÛĮ":2850,"ĠØ±ÙĩØ¨Ø±ÛĮ":2851,"ÙĪØ²ÛĮØ¹":2852,"ĠØ´Ø¹Ø±":2853,"ĠØµØ§Ø¯ÙĤ":2854,"13":2855,"ÙĩÙĨÛĮ":2856,"ĠÙħÚ©Ø§ÙĨ":2857,"ĠÙĪØ§ÙĦ":2858,"ĠØªØ¶":2859,"ĠØªÚ©Ø±":2860,"ĠÙĨØ±Ø®":2861,"ĠØ¯Ø±ÛĮ":2862,"ĠØ®ÙĦØ§ÙĤ":2863,"ĠÙħÛĮØ¨Ø§Ø´Ø¯":2864,"ĠÙĤØµØ¯":2865,"ØªØ±Ùħ":2866,"ĠÙħÙĨØ²ÙĦ":2867,"ĠØ´Ø¯ÙĨØ¯":2868,"Ø¦ÛĮÙĨ":2869,"ĠØ¯ÙĪØ±Ø§ÙĨ":2870,"ĠØ³Ø§Ø®ØªØ§Ø±":2871,"ĠØªØºØ°ÛĮÙĩ":2872,"ĠØ·Ø¨ÙĤÙĩ":2873,"ĠØ±Ø¹Ø§ÛĮØª":2874,"ĠØªÙĦÙĪÛĮØ²ÛĮ":2875,"ĠO":2876,"Ø§Ù¾ÛĮ":2877,"ÙĨØ§Ùħ":2878,"ÙħÙĨØ¯Ø§ÙĨ":2879,"ĠØ¨Ú¯ÛĮØ±ÛĮØ¯":2880,"ĠØ¯Ø§Ø¹":2881,"ĠØªÙĪØ²ÛĮØ¹":2882,"ĠØ³ÙĨØªÛĮ":2883,"Ø§ÙĦÙħ":2884,"ĠØ§ÛĮØ³ÙĨØ§":2885,"ÙĬÙĤ":2886,"ĠØŃÙĦÙĪØ§ÛĮ":2887,"Ù¾Ø°":2888,"Ø«ÛĮØ±":2889,"Ú©ÙĨÙĨØ¯Ùĩ":2890,"ĠØ¯ÛĮÙĪ":2891,"ĠØ³ÙĪØ®Øª":2892,"ĠØ´ÙĨØ§Ø³ÛĮ":2893,"ĠÙ¾Ø±Ø¯Ø§Ø²":2894,"ĠØ§Ø³ØªØ®Ø±":2895,"ĠÙħØ´Ø®ØµØ§Øª":2896,"ĠØ¯Ø§ÙĨØ´Ø¬ÙĪ":2897,"Ù¾Ø±Ø¯Ø§Ø²":2898,"Ø¯Ø§Ø´ØªÛĮ":2899,"ĠØ§Ø®ØªØµØ§Øµ":2900,"Ġv":2901,"ÙĦØŃ":2902,"ĠØªØ¬ÙĩÛĮØ²Ø§Øª":2903,"ĠÙĨØ±ÙĪ":2904,"ĠØŃÙĪ":2905,"ĠØ§Ú©ÙĨÙĪÙĨ":2906,"ĠÙĤÙĦØ¨":2907,"ĠÙĦØ²":2908,"Ø§ØŃØª":2909,"ĠÙħØªØŃ":2910,"ĠØªÙĪØ§ÙĨØ§ÛĮÛĮ":2911,"ĠÚ©Ø´ÙĪØ±ÙĩØ§ÛĮ":2912,"ĠÚ¯Ø±Ø¯ÛĮØ¯":2913,"ĠÙħÚ©Ø§ÙĨÛĮ":2914,"ĠÙĩØ´ØªÙħ":2915,"ĠØ§ØºÙĦØ¨":2916,"ĠÙĤÙĪØ§ÙĨÛĮÙĨ":2917,"ec":2918,"ÙħØ±Ú©Ø²":2919,"ĠØ¨Ø§Øº":2920,"ĠÙħØ§Ø¯":2921,"ÙģÛĮÙģ":2922,"ÙĤÛĮÙħØª":2923,"ĠØ§ÛĮØ´Ø§ÙĨ":2924,"Ø³ØªÚ¯ÛĮ":2925,"ØŃØ³":2926,"ĠØ¬ÛĮ":2927,"ĠØ§ÙĨØ´Ø§":2928,"ĠØ§Ø±Ø²Ø§ÙĨ":2929,"Ø§ÙģÛĮÚ©":2930,"Ø§ÙĬØ´":2931,"ĠØ§ØµÙĦ":2932,"ĠØªÙĩØ¯ÛĮØ¯":2933,"ĠÙĨØ¨Ø§ÛĮØ¯":2934,"ĠÙħØ±ØªØ¨Ø·":2935,"ĠØ³Ø±Ø§Ø³Ø±":2936,"ïº":2937,"ï»":2938,"ĠØ¯ÙĤØª":2939,"ĠØ¯Ø¨ÛĮØ±":2940,"âĢĬ":2941,"ĠØ¢Ø¬Ø±":2942,"ĠØ§Ø³Ùħ":2943,"ĠÙģÙĩØ±Ø³Øª":2944,"Ø·ÛĮ":2945,"ĠÙĨÛĮØ§Ø²Ùħ":2946,"ĠØ§ÙĦÙħ":2947,"ĠØªØŃÙĪÙĦ":2948,"ĠØ¬ÙħØ¹Ùĩ":2949,"ĠÚ©ØªØ§Ø¨Ø®Ø§ÙĨÙĩ":2950,"ĠÙĨÙĪØ¬ÙĪØ§ÙĨ":2951,"ĠØªÙĤÙĪÛĮØª":2952,"ĠØ¯ÛĮØ¯Ú¯Ø§Ùĩ":2953,"ĠØªØºÛĮÛĮØ±Ø§Øª":2954,"ĠØªØ±Ú©ÛĮØ¨":2955,"ĠÙĤØ§ÙĨÙĪÙĨÛĮ":2956,"ĠØ§ÙĦØ¹Ø§Ø¯Ùĩ":2957,"ĠÙģØ§ÙĨØªØ§Ú©Ø±ÙĪÙħ":2958,"Ø¯Ø³":2959,"ØªØ¨Ùĩ":2960,"Ø¨ÙĪØ¨":2961,"ĠØ±Ø®":2962,"ĠØ¯Ø±Ø¢ÙħØ¯":2963,"ĠØ¯Ø±Ø®ÙĪØ§Ø³Øª":2964,"ĠØ¢ÛĮØ¯":2965,"ĠÙ¾Ø§ÙĪØ±Ù¾ÙĪÛĮÙĨØª":2966,"ĠØ¬Ø¯ÛĮ":2967,"ĠÙĪÛĮÙĨØ¯":2968,"Ø¢ÙĪØ±":2969,"ĠØ´Ø±ØŃ":2970,"ĠØ¹ÙħÙĪÙħ":2971,"ĠØªÙħØ±ÛĮÙĨ":2972,"ĠÙĦÛĮØ³Øª":2973,"ĠÙĦØŃØ¸Ùĩ":2974,"ĠØ±Ø¶Ø§ÛĮØª":2975,"ĠØ¹Ø²ÛĮØ²":2976,"ÙĨÚ©":2977,"ÙħØ²":2978,"Ú©Ø¯Ùĩ":2979,"ÙĦÙħØ§ÙĨ":2980,"ĠØ¯Ø§Ø±ÛĮ":2981,"Ø³Ú©":2982,"Ø¨Ø¯":2983,"ĠÙĨØ§Ø¨":2984,"ĠØ³ÙĤ":2985,"ĠÙ¾Ø´ØªÛĮ":2986,"ÙħÛĮØ²":2987,"ÚĺÙĨ":2988,"ĠØ§Ø±Øª":2989,"ĠØ¨ÛĮØ±ÙĪÙĨ":2990,"ĠÙģØ±Ø¢ÛĮÙĨØ¯":2991,"ĠÙħØ±Ø§Ú©":2992,"ĠØ´Ø¯Øª":2993,"ĠÙĤØ±ÙĨ":2994,"ĠÙĤØ±Øµ":2995,"ĠÙħÙĤØ±":2996,"ĠÙĨØ¸ÛĮØ±":2997,"Ø§ØµØ±":2998,"ĠÙĩØ³ØªÛĮØ¯":2999,"ĠØ±Ø§ÛĮØ§ÙĨÙĩ":3000,"ĠØªÙĤØ³ÛĮÙħ":3001,"ĠØºØ°Ø§ÙĩØ§ÛĮ":3002,"ĠÙĪØ§ÙĤØ¹ÛĮ":3003,"ĠØ¢ÙħØ±ÛĮÚ©Ø§ÛĮÛĮ":3004,"ĠØ§Ø±ØªØ¨Ø§Ø·Ø§Øª":3005,"ĠÙħÛĮÙĦÛĮØ§Ø±Ø¯":3006,"ĠØ¢Ø®Ø±":3007,"ĠØªÙĦÙģÙĨ":3008,"50":3009,"76":3010,"ÙĪÙģ":3011,"ĠØ¯ÙģØªØ±":3012,"Ø´ØªØ±":3013,"Ø¨ÙĨØ¯ÛĮ":3014,"ĠÙĨØ¬":3015,"ĠÙĨÙĪØ²":3016,"ĠØ³ÙĨØ¬":3017,"ĠØ¢Ú¯Ùĩ":3018,"Ø§ÙĦØ¹":3019,"ĠØ¨ÙĩØ¯Ø§Ø´ØªÛĮ":3020,"ÙĪØ¯Ø±":3021,"ĠÙ¾Ø§Ú©":3022,"ØµØª":3023,"ĠØ§ÛĮÙĨØ¬Ø§":3024,"ĠØ²ÙĪØ¯":3025,"ĠØ§ÙħÙĦØ§Ú©":3026,"ĠØµØ§Ø¯Ø±":3027,"ĠÙģØ±Ø´":3028,"Ú©ÙĨÛĮÙħ":3029,"Ø§ÙģÙĤ":3030,"ĠÚ©ÙħÙ¾":3031,"ĠÙĩØ³ØªÙĩ":3032,"Â»ØĮ":3033,"ĠØ¹Ø§Ø´ÙĪØ±Ø§":3034,"ĠØ«Ø§ÙĨÛĮÙĩ":3035,"ĠÙħØ«ÙĦØ§":3036,"ent":3037,"ĠØ®Ø§ØµÛĮ":3038,"ĠØ¯ÙĨÛĮØ§ÛĮ":3039,"ĠIn":3040,"ĠÙĨÛĮØ±ÙĪÛĮ":3041,"ĠØ¨ÙĨØ¯Ø±Ú¯Ø§Ùĩ":3042,"ĠØªØµÙĪÛĮØ±ÛĮ":3043,"ĠØŃØ°Ùģ":3044,"ĠÙĪÛĮÙĨØ¯ÙĪØ²":3045,".Â»":3046,"em":3047,"Ø±ÙģØªÙĩ":3048,"ÙĨÙĤ":3049,"ĠÙħÙĪØ±":3050,"ĠØ¯Ø±Ø¬Ùĩ":3051,"ĠØ³ÙĬ":3052,"ĠØ§Ø³ÙħØ³":3053,"ÙĪÛĮÙĩ":3054,"ĠØ¢ÙĨØªÛĮ":3055,"ĠÙħÙĪÙĩØ§ÛĮ":3056,"ĠÙħØŃÙĤÙĤ":3057,"ĠØ¢ÙħØ¯":3058,"ĠØ³Ø±Ú¯Ø±":3059,"ĠÙĥØ±Ø¯Ùĩ":3060,"ĠÚ¯Ø°Ø§Ø´ØªÙĩ":3061,"ĠÙĨØ¸Ø±Ø§Øª":3062,"ĠØ¨ÛĮÙĨÛĮ":3063,"ĠÙĪØ±ÙĪØ¯ÛĮ":3064,"ĠØ³ÙģÛĮØ¯":3065,"ĠØ¹Ø¨ÙĪØ±":3066,"ĠØ³ÛĮÙĨÙħØ§ÛĮÛĮ":3067,"ĠÙ¾Ø°ÛĮØ±Ø´":3068,"ĠØ¯Ø§Ø¹Ø´":3069,"Ġj":3070,"ÙĨØ³":3071,"Ø¯Ø³Øª":3072,"Ú©Ø§ÙĦ":3073,"ĠÙħÙĤÛĮØ§Ø³":3074,"ĠØªÚ©ÙĨ":3075,"ĠØªØ³Ùĩ":3076,"ÙģØ±Ùħ":3077,"ĠÙĨÚ¯Ø±":3078,"ĠÙ¾Ùĩ":3079,"ØªÛĮØ¨":3080,"ĠÙħØŃØªØ±Ùħ":3081,"ĠÛ¸":3082,"ĠÙħØ¹ÙĦÙħ":3083,"ĠØ±Ø³ÛĮØ¯ÙĨ":3084,"ĠÙĨÙħØ§ÛĮÙĨØ¯Ùĩ":3085,"ĠÙħØ®ØªÙĦ":3086,"ĠÙĨØ¯Ø§Ø´ØªÙĩ":3087,"ĠØ®Ø·Ø±":3088,"ĠØ¯ÛĮØ¯ÙĨ":3089,"ĠØ§ÙħØ±ÙĪØ²Ùĩ":3090,"ĠØªØ®Ùħ":3091,"ĠÙħØ°Ùĩ":3092,"ĠØªØ¨ÙĦÛĮØºØ§Øª":3093,"ĠØ§ÙĦÚ¯ÙĪØ±ÛĮ":3094,"ĠK":3095,"Ø¯Ú©":3096,"ĠØ¨Ø¨ÛĮÙĨ":3097,"ĠÙħØ§Ú©":3098,"ĠÙĪÛĮØ±":3099,"ÙģØ§ÙĨÙĩ":3100,"ĠÙĨÙĩØ§ÛĮÛĮ":3101,"ĠØ¯Ø±Ø³ÛĮ":3102,"ĠØ¢Ø³Ø§ÙĨ":3103,"Ø±ÙĪØ²ÛĮ":3104,"ĠØ²Ø®":3105,"ĠØ²ÙĨØ¯Ùĩ":3106,"ĠØ²ÙĦØ²":3107,"ĠÙħÙĪØ§Ø¬Ùĩ":3108,"ĠÙĪÛĮÙĦØ§ÛĮ":3109,"ĠÙģØ±Ø²ÙĨØ¯":3110,"ĠØ§Ø®Øª":3111,"ĠØªÙģÚ©Ø±":3112,"ĠØ¹ÙħÙĦÛĮØ§Øª":3113,"ĠÙĪÛĮØ¯ÛĮÙĪ":3114,"42":3115,"Ø´ÙĩØ±":3116,"Ø§Ø±Ú©Øª":3117,"ĠØ¢ØªØ´":3118,"Ø§Ø¯ÙĩØ§ÛĮ":3119,"ĠØ§ÛĮØ±":3120,"ĠÛĮØ§Ø¨Ø¯":3121,"Ù¾Ø²Ø´":3122,"ĠÙħØ¹ÛĮ":3123,"Ú©ÙĨÙħ":3124,"ĠØ±ÙĪÛĮØ¯":3125,"ÙĥÙĨ":3126,"ĠØ§Ø´ØªØ¨":3127,"ĠØ¯ÙĪÙĦØªÛĮ":3128,"Ú¯Ø±Ø¯Ø¯":3129,"Ú¯ÛĮØ±ÙĨØ¯":3130,"Ú¯ÛĮØ±ÙĨØ¯Ùĩ":3131,"ĠØ¯Ø§ÙĨØ´Ø¬ÙĪÛĮØ§ÙĨ":3132,"ĠÙ¾ÙĪØ´Ø´":3133,"ĠØªØŃØµÛĮÙĦ":3134,"ĠØ±Ø§ØŃØªÛĮ":3135,"ĠØ¸Ø±ÙģÛĮØª":3136,"ĠÚ©ÙĦÙħÙĩ":3137,"ĠØ¬Ø§ÛĮÚ¯Ø²ÛĮÙĨ":3138,"15":3139,"60":3140,"ÙĪØ³ÛĮ":3141,"ĠØ¨Ú¯Ø°Ø§Ø±":3142,"ĠÙħØ¶":3143,"Ø³ÙĪ":3144,"Ø´Ø¯Ùĩ":3145,"ĠØ±ÙĪÙĨ":3146,"ĠØ´Ø§ÙĨ":3147,"ĠØ´Ø¯ÛĮØ¯":3148,"ĠÙħÛĮØ´Ùĩ":3149,"ĠÛĮÙĪ":3150,"ĠÙĤØ²":3151,"ĠÙĤÙĪÛĮ":3152,"ĠÙĦØ§ÛĮÙĩ":3153,"ĠÚ©Ø§Ø±Ø¯":3154,"ĠÙħØ¹Øª":3155,"ĠÙĨØ¸Ø§ÙħÛĮ":3156,"ĠÙħØ±Ø¯Ø§ÙĨ":3157,"Ġ93":3158,"ĠØ´ÙĨØ§Ø®ØªÙĩ":3159,"ĠÚ¯Ø±ÙĪÙĩÛĮ":3160,"ĠÛĮØ§Ø¯Ú¯ÛĮØ±ÛĮ":3161,"ĠØ´Ú©Ø³Øª":3162,"ĠØªØ®ÙģÛĮÙģ":3163,"oog":3164,"ĠÙħÙĪØ³Ø³Ùĩ":3165,"ĠNew":3166,"ĠØ¨Ø±Ø®ÙĪØ±Ø¯Ø§Ø±":3167,"ĠÙħÙĤØ§ÙĪÙħØª":3168,"ĠØ¢Ø²ÙħØ§ÛĮØ´Ú¯Ø§ÙĩÛĮ":3169,"ĠØ²ÙĦØ²ÙĦÙĩ":3170,"Ġg":3171,"ÙĦØª":3172,"ĠØ¨ÙĪØ±":3173,"ĠØ¨Ú¯ÛĮØ±Ø¯":3174,"ĠÙĪÙģ":3175,"Ø¨Ø®Ø´":3176,"Ø²Ø§":3177,"ĠØ´Ø¨ÛĮÙĩ":3178,"ĠÙ¾Ø§Ø¯":3179,"ĠØ®Ø¯":3180,"ĠÙħÛĮØ±":3181,"ĠØ¹Ø¯":3182,"ĠØ¹Ø¯Ø¯":3183,"ĠØ§ÙĪØ±":3184,"ĠÙĤØ¯Ùħ":3185,"ĠØªØ±ØªÛĮØ¨":3186,"ĠØ±ÙĪØ§ÛĮØª":3187,"ĠØ¯ÙĩÙĩ":3188,"Ġ100":3189,"ĠÙĥØ±Ø¯":3190,"ĠØ§ÙĪÙĦÛĮÙĩ":3191,"ĠØªÚ©ÙĨÛĮÚ©":3192,"ĠØµØŃØ¨Øª":3193,"ĠÙħØªØ¹ÙĦÙĤ":3194,"ĠØ¹Ø¶ÙĪ":3195,"ĠØ¨Ø¨Ø±ÛĮØ¯":3196,"ĠÙħØŃØ³ÙĪØ¨":3197,"ĠØ¢Ú¯ÙĩÛĮ":3198,"hot":3199,"ÙĨÙĪØ§ÙĨ":3200,"Ø³ÙĪØ±":3201,"ĠØ±ØŃ":3202,"ĠØ´Øº":3203,"ĠØ§ÛĮØ¯Ùĩ":3204,"ĠÙģØ±Ø§ÙĨ":3205,"ĠØ¨Ø±ÙĪ":3206,"ĠÙĤÙĩØ±":3207,"ĠØµÙĨØ¯":3208,"ĠÙħØŃØ¨ÙĪØ¨":3209,"ĠØ¨Ø§Ø²ÙĬ":3210,"ĠÙħÙĤØ·":3211,"Ø§Ø¯ÛĮÙĩ":3212,"Ġ18":3213,"ĠØ±ÙĪØ²ÙĨØ§ÙħÙĩ":3214,"ĠØ´ÙĨØ§Ø®Øª":3215,"ĠØ¬ÙħÙĩÙĪØ±":3216,"ĠØµØŃÙĨÙĩ":3217,"Ø®ÙĪØ§ÙĩÛĮØ¯":3218,"ĠÙĩÙģØªÙħ":3219,"ĠØ¬Ø³ØªØ¬ÙĪ":3220,"Ø§Ø²Ø¯ÙĩÙħ":3221,"ĠØªØ¯Ø±ÛĮØ³":3222,"ĠÙħØ±Ø¬Ø¹":3223,"ĠÙħØ®ØªÙĦÙģÛĮ":3224,"oogle":3225,"eh":3226,"Ġof":3227,"ĠØŁ":3228,"ÛĮØŃ":3229,"Ø¯Ø§Ø¯ÛĮ":3230,"ĠØ¯Ø§ÙĪ":3231,"Ø§Ø±Ø¯ÛĮ":3232,"Ø¨ÙĨ":3233,"Ø²Ø§Ø¯Ùĩ":3234,"ĠØ¨Ø±Ø¯Ø§Ø±ÛĮ":3235,"ĠØ¨Ø±Ú¯Ø²Ø§Ø±ÛĮ":3236,"ĠØ¨Ø§ÙĤÛĮ":3237,"Ø·Ø±Ùģ":3238,"ĠÙĪÛĮØ±ÙĪØ³":3239,"ÙĩØ±Ø§":3240,"ĠØºØ±Ø¨":3241,"Ġ19":3242,"ÙĦÙĪØ¨":3243,"ĠØ§Ø¹ÙħØ§ÙĦ":3244,"ĠØ±ÛĮØ²ÛĮ":3245,"ĠØŃØ³Ø§Ø³":3246,"ĠÚĨÙĩØ§Ø±Ùħ":3247,"ĠØ³ÙģØ§Ø±Ø´":3248,"ĠØ±Ø§ÙĩÙĨÙħØ§ÛĮ":3249,"ĠØ§ÙĦÚ©ØªØ±ÙĪÙĨÛĮÚ©ÛĮ":3250,"ĠØ´Ø§Ø±Úĺ":3251,"up":3252,"Ø§ÙĨÙĬ":3253,"ĠÚ©Ù¾ÛĮ":3254,"Ø¬ÛĮØª":3255,"Ø®Ø±ÛĮØ¯":3256,"Ø®Ø¯Ùħ":3257,"ĠÚ¯Ø±Ø§ÙĨ":3258,"ĠØ¬Ø§ÛĮÛĮ":3259,"Ø§Ø³ØªÙĩ":3260,"Ø§Ø´ÙĤ":3261,"Ø¯ÙĩÛĮ":3262,"Ø³ÛĮÙĪÙĨ":3263,"ĠÙĦØº":3264,"ĠÙħØ¹Ø±ÙĪÙģ":3265,"ĠØ¯ÛĮØ¬ÛĮ":3266,"ĠØ¯ÛĮØ¬ÛĮØª":3267,"ĠØ³Ø§ÙĦÙħ":3268,"ĠØ¯ÙĩÙĨØ¯Ùĩ":3269,"Ø§Ø¬Ø±":3270,"ĠÚ¯ÛĮØ§ÙĩÛĮ":3271,"Ġ200":3272,"Ġ----":3273,"ĠÙħØ§ÙĨØªÙĪ":3274,"ĠØ²ÛĮØ±ÙĨÙĪÛĮØ³":3275,"ĠÙĨÙĪØ¨Øª":3276,"ĠÙĩÙĨØ±Ùħ":3277,"ĠÙĨÛĮØ±ÙĪÙĩØ§ÛĮ":3278,"ĠÚ¯Ø³ØªØ±Ø´":3279,"ĠÙĨÚ¯ÙĩØ¯Ø§Ø±ÛĮ":3280,"ĠÙĦØŃØ§Ø¸":3281,"ĠØºØ±Ø¨ÛĮ":3282,"ĠÙħØ±Ø§Ú©Ø²":3283,"av":3284,"Ø±Ø¶":3285,"ÙĪØ¨ÛĮ":3286,"ØªØº":3287,"Ú©ÙĦÛĮ":3288,"ĠØ¨Ø·ÙĪØ±":3289,"ĠØ¯Ú©ØªØ±ÛĮ":3290,"ĠÙĪÙĬ":3291,"Ø¨ÛĮØª":3292,"ĠØ¹Ø±ÙĪ":3293,"Ø§ØªØ±ÛĮÙĨ":3294,"ĠØ¬ÙĪØ´":3295,"ĠÙĤØ§Ø¯Ø±":3296,"ĠØ²ÙĬ":3297,"ÙĪÙĨÙħ":3298,"ÙħØ§ÙĨØ¯":3299,"ĠÚ©Ø§Ø±ÙĩØ§ÛĮ":3300,"ĠØºÙħ":3301,"Ø¬ÙĩØª":3302,"Ġ24":3303,"ĠØ§Ø¨Ø±Ø§Ùĩ":3304,"ĠØ¨Ø³ÛĮØ¬":3305,"ĠØ§ÙĨØ¯Ø§Ø²ÛĮ":3306,"ÛĮÙģÙĩ":3307,"ÙĨÙħØ§ÛĮ":3308,"Ø¬ÛĮØ¨":3309,"ĠÚ©ÙĦÛĮÙ¾":3310,"ĠÙĬÚ©":3311,"ack":3312,"ĠÚ¯ÙĪÚ¯ÙĦ":3313,"ĠÙħØºØ²":3314,"ĠØ§ÙĦÚ©ØªØ±ÙĪÙĨÛĮÚ©":3315,"ĠØ·ÙĦØ§ÛĮÛĮ":3316,"ĠØ§ÙħÛĮØ¯ÙĪØ§Ø±":3317,"ĠØ¯ÙĬÚ¯Ø±":3318,"ĠØ§ØªØŃØ§Ø¯ÛĮÙĩ":3319,"ge":3320,"id":3321,"lay":3322,"ĠZ":3323,"ÙĪØ¬Ùĩ":3324,"Ø§ÛĮÙģ":3325,"ĠØ¯Ùħ":3326,"ĠØ¯Ø¨":3327,"Ø¨ØŃ":3328,"ĠØªØ³Øª":3329,"ÙģÙĪ":3330,"ĠØ³Ø§ÛĮÙĩ":3331,"ĠÛĮØ§Ø±":3332,"Ø§Ø´Ø§":3333,"ĠØ§ÙĦÙħÙĦÙĦÛĮ":3334,"ÙĪØ´ÛĮ":3335,"Ø¨Ø±Ú¯Ø²Ø§Ø±ÛĮ":3336,"ĠØ±ÙĪØ³Øª":3337,"ĠØ±ÙĪØ§ÙĨØ´ÙĨØ§Ø³ÛĮ":3338,"0912":3339,"usic":3340,"ĠÙĪØ§Ø¨Ø³ØªÙĩ":3341,"ĠÙĨÚ¯Ø§Ø±Ø´":3342,"ĠÙĨÙĪØ²Ø§Ø¯":3343,"ĠØ¨Ú©Ø§Ø±":3344,"ĠÙħØ§ÙĨØ¯":3345,"ĠÙħÙģÙĩ":3346,"ĠØ±Ø§ÙħØ´":3347,"ĠØ¯Ø±Ø®Øª":3348,"ĠØ³Ú¯":3349,"ĠÙ¾Ø¯ÛĮØ¯":3350,"ĠØ¹ØµØ±":3351,"Ø±ÙĪØ§ÙĨ":3352,"ĠØ²Ùħ":3353,"ĠÚĨØ±Ø®":3354,"ĠØµÙĪØªÛĮ":3355,"ÙħÛĮÙĦÛĮ":3356,"Ú©ÙĨØ´":3357,"ĠÙĩØ±Ú¯ÙĪÙĨÙĩ":3358,"ĠØ³ÛĮØ§Ùĩ":3359,"ĠØ¨Ø¯Ø³Øª":3360,"Ġ97":3361,"ers":3362,"ĠÙĩÙħÚĨÙĨØ§ÙĨ":3363,"ĠØ®Ø¨Ø±Ú¯Ø²Ø§Ø±ÛĮ":3364,"ĠØ§ÙĩÙĦ":3365,"ĠØŃÙħÙĦÙĩ":3366,"ĠØ§ÙĨÚ¯Ø´Øª":3367,"ĠÙ¾ÚĺÙĪÙĩØ´ÛĮ":3368,"ĠØ¯Ø§ÙĨØ´Ø¬ÙĪÛĮÛĮ":3369,"stag":3370,"ĠGoogle":3371,"ĠÙĤÙĦØ¹Ùĩ":3372,"ĠÙĦØ·ÙģØ§":3373,"ĠÙħØ¹Ø§ÙĪÙĨØª":3374,"ig":3375,"un":3376,"ØªØ§ÙĦÛĮ":3377,"ÙħÙĤ":3378,"ĠÙĪÛĮØ¯":3379,"ĠÙĨØ§Ø®":3380,"ĠÙħÛĮÚ©ÙĨØ¯":3381,"ØŃØ§Øª":3382,"ĠÚ¯Ø§Ø²":3383,"ĠÚ¯ÙĪÙĨØ§":3384,"ĠÙĨÛĮÙĪØ²":3385,"ĠØ§ÙĦØª":3386,"Ø§Ø®ØªÛĮ":3387,"ĠØªØ±Ú©":3388,"ÙĩØ±Ùĩ":3389,"ĠÙħÙĤØ¯Ø§Ø±":3390,"Ġ30":3391,"ĠØµÙĨØ§ÛĮØ¹":3392,"ĠÙĪØ§ÙĤØ¹ÛĮØª":3393,"ÙĬØ±ÙĬ":3394,"ĠØ§ÙĤØ¯Ø§ÙħØ§Øª":3395,"ĠØ§Ø¬Ø±Ø§ÛĮÛĮ":3396,"ĠÙħØ³Ø¦ÙĪÙĦØ§ÙĨ":3397,"ĠØ§ÙĨØªØ¸Ø§Ø±":3398,"ĠÙħØ³Ø¦ÙĪÙĦÛĮØª":3399,"ĠØ§ÙĦÚ¯ÙĪØ±ÛĮØªÙħ":3400,"ra":3401,"Ø§ÙĪÙĨ":3402,"Ø§Ú©Øª":3403,"ĠÙħØ§ÛĮ":3404,"Ø§Ø±ÙĩØ§ÛĮ":3405,"ĠÙĨØ§Ø²":3406,"Ø§ÙħØ¨Ø±":3407,"ĠØ³ÙĪØ±ÛĮÙĩ":3408,"Ø§ÙĦÙģ":3409,"ĠÙħÛĮØ²":3410,"ĠØ§ÛĮØ³Øª":3411,"ÙĬÚ©":3412,"ÙĬØ§ÙĨ":3413,"ĠØ¹Ø¬ÛĮØ¨":3414,"Ø§ØªÛĮÚ©":3415,"ĠØ¢ÙĨØ¬Ø§":3416,"ĠØ§ÙħÙĨÛĮ":3417,"ĠÙħÙĨØ§Ø·":3418,"ĠÙħÙĨÙģÛĮ":3419,"ĠÙħØŃØ§ÙģØ¸":3420,"Ø§ØŃØ¨Ùĩ":3421,"ĠÙģØ±ØµØª":3422,"ĠÚ©Ø´ÛĮ":3423,"ĠØ¨Ø§Ø²ÛĮÚ¯Ø±Ø§ÙĨ":3424,"Ø§ÙĬØª":3425,"ĠØ±Ø³Ø¯":3426,"ĠØ§Ø¯Ø±":3427,"ĠØ¨Ø§ÙĦØ§ØªØ±":3428,"ĠÚ©ÙĨÙĨØ¯Ú¯Ø§ÙĨ":3429,"ĠØ±ÛĮØ§Ø³Øª":3430,"Ġ2013":3431,"ĠÙħÙĪØ¶ÙĪØ¹Ø§Øª":3432,"ĠØ®ÙĪØ§ÙĩÛĮÙħ":3433,"ĠØ¢ÛĮÛĮÙĨ":3434,"ĠØ³ÙĦÙĪÙĦ":3435,"ĠØ¢ÙĤØ§ÛĮØ§ÙĨ":3436,"ĠØ¨Ø§ÛĮØ³ØªÛĮ":3437,"ĠÙĩÙĪØ´ÙħÙĨØ¯":3438,"ĠØ±Ø§ÙĨÙĨØ¯Ú¯ÛĮ":3439,"ĠÙħØªÙĤØ§Ø¶ÛĮ":3440,"ĠØ§Ø±ÙĪÙ¾Ø§":3441,"ĠÙģÛĮÙĦØªØ±":3442,"Ø±ØªÛĮ":3443,"Ø§Ø±ÙĪ":3444,"Ú¯Ùħ":3445,"ĠØ±ØªØ¨Ùĩ":3446,"ĠÙĨØ´ÙĪØ¯":3447,"ĠØ´Ùģ":3448,"ĠØ¢ÙĬÙĩ":3449,"ĠÙ¾Ø¯":3450,"Ù¾ÙĪØ´":3451,"ĠÙħØ±Ø²":3452,"ĠÙ¾ÛĮØ§Ø¯Ùĩ":3453,"ÙĤÛĮÙĩ":3454,"ĠÙħØ³Ø¬Ø¯":3455,"ĠØ¯ÙĩÛĮÙħ":3456,"ĠÙħÙĩÙħÛĮ":3457,"ĠØ¨Ø¯ÛĮÙĨ":3458,"ĠÙĨÙĤØ´Ùĩ":3459,"ĠÙ¾ÛĮØ´Ø±ÙģØªÙĩ":3460,"Ø§Ø±ØªÙħØ§ÙĨ":3461,"ĠØ°ÙĩÙĨÛĮ":3462,"ĠØ¹Ø±Ø¨ÛĮ":3463,"ĠÙĤØ·Ø¹Ø§Øª":3464,"ĠØ¹Ø¨Ø¯":3465,"ĠØªØ£Ø«ÛĮØ±":3466,"ĠØªØ¨Ø±ÛĮØ²":3467,"ĠØ¢ÙĪØ±Ø¯Ùĩ":3468,"ĠÙĦØ§ØºØ±ÛĮ":3469,"ĠÙ¾Ø´ØªÛĮØ¨Ø§ÙĨÛĮ":3470,"Ø®Ø¯ÙħØ§Øª":3471,"âĻ":3472,"ĠØ¨ØªÙĪØ§ÙĨØ¯":3473,"ĠÙĪØ§Ùħ":3474,"ĠÙĪØ±Ø¯":3475,"ĠÚ©Ø§Ø´":3476,"Ø§Ø±Ùģ":3477,"ĠØªØ³":3478,"ĠØªØ²":3479,"ĠÙĨÙĪÛĮØ³ÛĮ":3480,"ĠØ¢Ø¯Ø±Ø³":3481,"ĠØ¨Ø±ÙĤØ±":3482,"ÚĨØ±Ø®":3483,"ĠÚ¯Ø±ÛĮ":3484,"ĠØ¬Ø¹":3485,"ĠØŃØ±Ùħ":3486,"ĠØ²Ø¯":3487,"ĠÙħØŃÙĦÛĮ":3488,"ĠÙĨÛĮÚ©":3489,"Ø§ØŃÙĦÛĮ":3490,"ĠÙģØ±Ø§Ùħ":3491,"Ø¢ÛĮØ¯":3492,"ĠØ§Ø¯Ø§Ø±ÛĮ":3493,"ĠÙ¾Ø±ÙĪØª":3494,"ĠÚĨÙĨØ¯ÛĮÙĨ":3495,"ĠØ¬ÙĨØ³ÛĮ":3496,"est":3497,"ĠØ¬ÙĪØ§ÙĨØ§ÙĨ":3498,"ĠØ¢Ø³ÙħØ§ÙĨ":3499,"ĠØ§Ø¨ØªØ¯Ø§ÛĮÛĮ":3500,"ĠØªÚ©ÙĨÙĪÙĦÙĪÚĺÛĮ":3501,"ĠØ§Ø´ØªØ¨Ø§Ùĩ":3502,"ĠÙħØ¹ØªØ¨Ø±":3503,"ĠØ§ÙħÙĨÛĮØªÛĮ":3504,"AT":3505,"Ġi":3506,"Ø§ÙĨÙĪ":3507,"Ø¨ÙĨØ¯":3508,"ĠØ¯Ø±ÙĪ":3509,"ÙĪØ±ÙĬ":3510,"ĠÚ¯ÙĨØ¯":3511,"ĠØ²ÛĮÙĨ":3512,"ĠÙĩÙħØª":3513,"ØªØ±Ø§Ú©":3514,"ĠØ§ÙħØ³Ø§ÙĦ":3515,"ĠØµØ§ØŃ":3516,"ĠÙĤØ±Ø§Ø±Ø¯":3517,"ÙĦÙĪØ§Ø²Ùħ":3518,"Ø¨Ø§Ø±Ø¨Ø±ÛĮ":3519,"ĠÙ¾ÛĮØ´Ú¯ÛĮØ±ÛĮ":3520,"ĠØŃØ§ÙĦØ§":3521,"Ø§ØºÙĦ":3522,"ĠÙħØ«Ø¨Øª":3523,"ĠØ¹Ø±ØµÙĩ":3524,"ĠÙĨÙĬØ²":3525,"ĠØ±Ø§ØŃØª":3526,"ĠØ®ÙĪØ±Ø¯ÙĨ":3527,"han":3528,"ÛĮÚ©ÛĮ":3529,"ĠÚ©ÙĦØ§Ùħ":3530,"ĠØªØ¯":3531,"ĠØ±Ø³Øª":3532,"ĠØ¯Ø±Ø¬":3533,"Ø§ÙĦØ±ÛĮ":3534,"ĠÙ¾ÙĪØ¯Ø±":3535,"Ø¬Ø§ÛĮÛĮ":3536,"ĠÙħÛĮÙĪÙĩ":3537,"ĠØ¹ÙĪØ§Ø±":3538,"ĠØ§Ø³ØªØ±":3539,"ĠÚ¯Ø§Ùĩ":3540,"ĠØ®ÙĪØ¯ØªØ§ÙĨ":3541,"Ø¢Ø¨":3542,"ĠÚ©ÙĦØ´":3543,"ĠÙĨØ´Ø±":3544,"Ø¯Ø§Ø±Ø§ÙĨ":3545,"ĠÙ¾Ø±Ø¯Ùĩ":3546,"ĠØ¯ÛĮØ¯Ø§Ø±":3547,"ĠØ¬Ø²Ø¦ÛĮ":3548,"ĠØ§Ú©Ø«Ø±":3549,"ĠÙħØ°Ø§Ú©":3550,"ĠØ¢Ù¾Ø§Ø±ØªÙħØ§ÙĨ":3551,"ĠØªØŃØµÛĮÙĦÛĮ":3552,"ĠÙĦØ±Ø²Ùĩ":3553,"ĠÙħØªÙĪØ³Ø·":3554,"stagram":3555,"ul":3556,"ĠY":3557,"ĠÐ":3558,"ÙĪØŃ":3559,"ÙĪØ°":3560,"Ú©Ø´ÙĨ":3561,"Ø³ÙĪÙĨ":3562,"Ø§Ø±ÚĨ":3563,"Ø²Ø¯Ùĩ":3564,"ĠØ±Ø§Ø¯ÛĮ":3565,"ĠÙĨÚ¯Ø±Ø§ÙĨ":3566,"ĠØ³ÙĨØ¯":3567,"ÙĨØ¯Ø±":3568,"Ø®Ø±":3569,"ĠØ¨Ø±ÙĤ":3570,"ĠØ¨Ø§ÙĬØ¯":3571,"Ø·ÙĦ":3572,"Ù¾Ø§Øª":3573,"ĠÙħÙĨØŃ":3574,"ĠØ§ÙĦÛĮ":3575,"ĠÙħØ´Ø§Ø¨Ùĩ":3576,"Ú©ÙĨÙĩ":3577,"Ø¹ÙĩØ¯":3578,"ĠØ³ÙĪÚĺÙĩ":3579,"ĠÙĨÙĤÙĦÛĮÙĩ":3580,"ĠØ§Ø·Ø±Ø§Ùģ":3581,"ĠÛ±Û¹Û":3582,"ĠØ³Ø¨Ø¨":3583,"ĠÙĪØ§Ø±Ø¯Ø§Øª":3584,"ĠØ®ÙĪØ±Ø§Ú©":3585,"ĠÙĨÙģØ³":3586,"Ø±ÛĮØŃÛĮ":3587,"ĠÙ¾ÙĦÛĮØ³":3588,"ÙĨØ¸Ø±":3589,"Ø³ØªØ§Ú¯Ø±Ø§Ùħ":3590,"ĠØ²ÙĨØ¬Ø§ÙĨ":3591,"ĠÙħØ°ÙĩØ¨ÛĮ":3592,"ĠÙħÙĤØ·Ø¹":3593,"ĠÙħÙĨØ§Ø·ÙĤ":3594,"ry":3595,"ĠX":3596,"Ġa":3597,"ÙĩØ§Ùħ":3598,"ÙĩØ¯Ùĩ":3599,"ÙĦØ§ÙĦ":3600,"ĠÙħÙĪÛĮ":3601,"ĠÚ©Øª":3602,"Ø¨ÙĪØ±":3603,"Ø¨Ø·":3604,"ĠØ³Ø§ÙĨ":3605,"ĠØ³Ø§Ø¨ÙĤÙĩ":3606,"ĠØ³Ø¦ÙĪ":3607,"ĠØ¨Ø±Ø¯Ùĩ":3608,"ĠØ¹ÙĩØ¯Ùĩ":3609,"ØŃØ¶":3610,"ĠÚ¯ÙĨ":3611,"ĠØ¨Ø§ÙĪØ±":3612,"ĠÙĩÙħÙĪØ§Ø±Ùĩ":3613,"ĠØªØ±ÙģÙĨØ¯":3614,"ÙĪØ¹ÛĮ":3615,"Ø¦ÙĨ":3616,"ĠÙĨÙĤØ§Ø·":3617,"ĠSt":3618,"ĠÙħØ¯ÛĮØ±ÛĮØªÛĮ":3619,"ĠØ®ÙĦØ§ØµÙĩ":3620,"ĠÙĨÛĮØ§Ø²ÙħÙĨØ¯":3621,"ĠØ§Ø®ØªÙĦØ§Ùģ":3622,"ur":3623,"Ø§Ùī":3624,"Ø¯ÛĮÙħ":3625,"ĠÙĪØ§Ø³":3626,"ĠÙĪÛĮØª":3627,"ĠÙĪØ¬Ùĩ":3628,"Ø´Ø¨":3629,"Ø´Ø§Ø¯":3630,"ĠÚ©ÙĪÙĨ":3631,"Ú¯ÙĨ":3632,"Ø§ÙħØ§Ùħ":3633,"ĠØ³ÛĮÙĨÙĩ":3634,"Ø¬ÙĦ":3635,"Ø®ÙĪØ§ÙĨ":3636,"ÚĨÛĮÙĨ":3637,"ĠØŃØ§Ú©":3638,"ĠÙĤØªÙĦ":3639,"ÙĩØ§Ùī":3640,"Ø¶Ùĩ":3641,"ØªÛĮØ§Ø²":3642,"ĠÙħÙĪØ§Ø±Ø¯ÛĮ":3643,"ĠÙħØ³Ø§Ø¨ÙĤÙĩ":3644,"ĠØ¬ÙħØ¹ÛĮØª":3645,"ĠÙħØ§ÙĩÛĮ":3646,"ĠØ¨Ø§ÙĦØ§ÛĮÛĮ":3647,"ĠØ®Ø§ÙĨÚ¯ÛĮ":3648,"ĠØ³Ù¾Ø±Ø¯Ùĩ":3649,"ĠÚ©Ø§ÙĨÙĨ":3650,"ĠÙĩÙĪØ§ÛĮÛĮ":3651,"ĠØ·Ø¨ÛĮØ¹Øª":3652,"ĠØ§ÛĮÙħÙĨÛĮ":3653,"ĠØ¯ÙģØ§Ø¹ÛĮ":3654,"ĠØ®Ø¯Ø§ÙĪÙĨØ¯":3655,"ĠÙħÙĩÙĨØ¯Ø³":3656,"ĠÚ©Ø±ÙħØ§ÙĨØ´Ø§Ùĩ":3657,"ĠØ¨ÙĨÛĮØ§Ø¯":3658,"ĠÙĨÙĪÛĮØ³ÙĨØ¯Ùĩ":3659,"ĠØ³ÙĨØ¬Ø´":3660,"ĠØ²Ø®Ùħ":3661,"ÛĮÙĦØ§Øª":3662,"ĠÚ©Ø¬Ø§":3663,"Ø²Ùħ":3664,"Ø²Ø§ÛĮ":3665,"ĠÙĨØ§Ø´ÛĮ":3666,"ĠÙĨÚ©ÙĨÛĮØ¯":3667,"ĠØ¢ÙĤ":3668,"Ø¹Ø¨":3669,"Ø¹Ø§ÙħÙĦ":3670,"ÙĬØ§Ø±":3671,"ÙĬØ²":3672,"ĠÙģØ¶":3673,"ĠÚ¯ÙĨØ¯Ùĩ":3674,"ĠÚĨÙĩØ±Ùĩ":3675,"ĠØ§ÙĨØ³":3676,"ĠØ¯Ø§ÙĨÙĩ":3677,"ĠÙħÙĨØ§Ùģ":3678,"Ø¨ÙĩØ´Øª":3679,"ĠÛ±Û²":3680,"ĠÛ±Ûµ":3681,"ĠÙħØµØ§ØŃØ¨Ùĩ":3682,"ĠØ¯Ø§ÙĨØ´Ú¯Ø§ÙĩÛĮ":3683,"ĠÛĮØ§Ø¯Ú¯ÛĮØ±ÙĨØ¯Ùĩ":3684,"ĠØªØ¬Ø±Ø¨ÛĮ":3685,"ĠØ®ÙĪØ±Ø´ÛĮØ¯":3686,"ĠÙĨÙģÙĪØ°":3687,"ĠØ¢ÙĦØª":3688,"ĠÚ¯Ø³ØªØ±Ø¯Ùĩ":3689,"ĠÙĤØ¨ÙĪÙĦ":3690,"ĠØ¢Ø´ÙĨØ§ÛĮÛĮ":3691,"ĠÙĦØ°Ø§":3692,"ĠÚĨØ±Ø¨ÛĮ":3693,"ĠVide":3694,"ĠØ¢ÙħÙĪØ²Ø§ÙĨ":3695,"ĠØ´ÙĩØ±Ø¯Ø§Ø±ÛĮ":3696,"ĠÙħÙĤØ¯ÙħØ§ØªÛĮ":3697,"ĠØªÙĦÙĪÛĮØ²ÛĮÙĪÙĨ":3698,"ĠÙĨØ±ÙĪÚĺ":3699,"ĠÚ©Ø§Ø±Ø¯Ø³ØªÛĮ":3700,"ĠØ¯ÛĮØ¬ÛĮØªØ§ÙĦ":3701,"11":3702,"Ġl":3703,"Ġ....":3704,"ÙĩÙħØ§ÙĨ":3705,"ĠÙħØ±ÛĮ":3706,"ĠØªØ§ÙĨ":3707,"ĠØªØ§ÛĮÛĮØ¯":3708,"ĠÙĨÙĪØ±ÛĮ":3709,"ĠØ¢Ú¯Ø§ÙĩÛĮ":3710,"ÙĤØ§Øª":3711,"ĠØ§Ø³Ùģ":3712,"ĠØ§Ú©Ø³":3713,"ĠØ²ÙĩØ±Ø§":3714,"ĠÚĨØ§ÛĮ":3715,"ĠÚĨØ§ÙĦ":3716,"ĠÙĩÙħØ³":3717,"ĠÙĦÙĪÙĦÙĩ":3718,"ĠØ·ÙĦØ§":3719,"ĠØ®ÙĪØ¯Ú©Ø§Ø±":3720,"ĠØ¨Ø§Ø²Ú¯":3721,"ĠØ§ÙĦÚ¯ÙĪ":3722,"ØºØ±":3723,"ĠÛ¹":3724,"ĠÛ³Û":3725,"ĠØ´ÙħØ§Ø±":3726,"Ø§ÙģØ²":3727,"Ø§Ø³ØªÙģØ§Ø¯Ùĩ":3728,"ĠØ±Ø³ÛĮØ¯Ùĩ":3729,"Ġ96":3730,"ĠØ§ØŃÙħØ¯":3731,"ĠØ³ÛĮÙĨÙħØ§":3732,"ĠØ´ÙĨØ§Ø³Ø§ÛĮÛĮ":3733,"ĠØ¯Ø¹ÙĪØª":3734,"ĠÙħÙĪÙĤØ¹ÛĮØª":3735,"928":3736,"ĠØ¢Ø´Ù¾Ø²ÛĮ":3737,"ĠÙħØ±Ø§ÙĤØ¨Øª":3738,"ĠØªÚ©Ø±Ø§Ø±":3739,"ĠØ§Ø¨Ø±Ø§ÙĩÛĮÙħ":3740,"ĠÚ¯ÙĪÙĨØ§Ú¯ÙĪÙĨ":3741,"ÙĦØ·":3742,"ĠØ¨ØªÙĪØ§ÙĨ":3743,"ĠØªØ±Ø¯":3744,"ĠØ³ÙĪØ±":3745,"ĠØ³Ø§ØŃÙĦÛĮ":3746,"ĠØ´Ø´Ùħ":3747,"Ø§Ø¯Ø§Øª":3748,"ÙĬÙĥ":3749,"Ø§ØªØ±ÛĮ":3750,"ĠØ§Ø³ØªØ¹":3751,"ĠØŃØ§Ø¯":3752,"ĠØ²Ø¯Ùĩ":3753,"ÙĪÙĦÛĮÙĨ":3754,"ĠØµØ¨ØŃ":3755,"ĠØ§Ø±Ø¯":3756,"ĠØ¨Ø§Ø²Ø±":3757,"ĠØªÙĪØ¬":3758,"ĠÙħØ±ÙĪØ±":3759,"ĠÙħÙĤØ¯Ø³":3760,"ĠÙħÙĩØ¯":3761,"ĠØ¶Ø±ÙĪØ±ÛĮ":3762,"Ġ92":3763,"Ø´ÙħØ§":3764,"ÙĨÙħØ§ÛĮØ´":3765,"ĠØªÙĤØ±ÛĮ":3766,"ĠØ¨Ø§ÙĨÚ©ÛĮ":3767,"ĠÙĨÙĪØ¹ÛĮ":3768,"ĠÙĩØ¯Ø§ÛĮØª":3769,"ĠÙĨÚ©Ø§Øª":3770,"ĠØ´ÛĮØ±Ø§Ø²":3771,"ĠØ®Ø±Ø§Ø³Ø§ÙĨ":3772,"ĠÙĨÛĮÙħÙĩ":3773,"76928":3774,"ĠØªØ³ÙĩÛĮÙĦØ§Øª":3775,"091276928":3776,"09127692842":3777,"ia":3778,"ut":3779,"Ð°":3780,"ÙħØªØ±":3781,"Ú©Ø³ÛĮ":3782,"Ø¨ÙĦÙĩ":3783,"ÙģÛĮÙĩ":3784,"Ø²ÛĮÙĨ":3785,"Ø§Ø¯ÙĨ":3786,"ĠÙ¾Ø§ÛĮØª":3787,"ĠÙ¾Ø§ÛĮØ¯":3788,"ĠØ®Ø´":3789,"ĠØ¹Ùģ":3790,"ØŃØ§ÙĦ":3791,"ÚĨÙĨÛĮÙĨ":3792,"Ø§Ø¨ÙĦÙĩ":3793,"ĠÙĦØ§ÛĮ":3794,"ĠØ§ÙħØªÛĮØ§Ø²":3795,"Ø¯ÛĮØ¨ÙĩØ´Øª":3796,"Ú¯Ø±Ø§ÙģÛĮ":3797,"ĠØ§Ø±Ø¯ÛĮØ¨ÙĩØ´Øª":3798,"ĠÙ¾ÛĮÙĪØ³Øª":3799,"ĠÙħØªÙĪØ¬Ùĩ":3800,"Ø¢Ùģ":3801,"Ø±Ø³Ø¯":3802,"ÙĬÙĨÙĩ":3803,"ÛĮÙģÙĪÙĨ":3804,"ĠØ§Ø®ØªÙĦ":3805,"ĠØ±ÛĮØ²Ø´":3806,"arc":3807,"ĠÙĩÙħÚĨÙĪÙĨ":3808,"ĠAp":3809,"ĠÙĨÙĪØ´ØªÙĨ":3810,"ĠÙħÙĪØ²Ùĩ":3811,"ĠÙĩÙĪØ§":3812,"ĠÙģÙĦØ´":3813,"ĠØ®ÙĪØ§ÙĨÙĨØ¯Ùĩ":3814,"ĠØªØ£Ú©ÛĮØ¯":3815,"ĠØ·ÙĪÙĦØ§ÙĨÛĮ":3816,"ĠØ±ÙĤØ§Ø¨Øª":3817,"ĠÙĪØ¸Ø§ÛĮÙģ":3818,"ĠÙħØªÙĪØ³Ø·Ùĩ":3819,"ĠØ´ÙĩØ±ÙĪÙĨØ¯Ø§ÙĨ":3820,"ÙĨÙĪØ´Øª":3821,"obs":3822,"ĠØ´Ø§Ø®Øµ":3823,"ĠÙĨÚ¯Ø±Ø´":3824,"ĠÙĪÛĮØ±Ø§ÛĮØ´":3825,"ĠØ¹ÙĪØ§Ø±Ø¶":3826,"ww":3827,"Û³Û":3828,"Ø±Ø¦ÛĮØ³":3829,"Ø¯ÙĪØ¯":3830,"Ø§ÛĮØªÛĮ":3831,"ĠØ¯Ø§Ø¦":3832,"Ø§Ø±Ùħ":3833,"Ø¨Ø´":3834,"ĠØªØ®Øª":3835,"ĠÙĨØ§ØŃ":3836,"ĠØ¢Ø¯Ùħ":3837,"Ø¹ÙĪØ¯":3838,"ĠØ¨ÙĩÛĮÙĨÙĩ":3839,"ĠÙģØ±ÙĪ":3840,"ĠÙģØ±ÛĮÙħ":3841,"ĠØ§Ø³ØªØ±Ø§Øª":3842,"ĠÛĮÙĪÙĨ":3843,"ĠÚ©Ø§Ø±Ø¨Ø±ÛĮ":3844,"ĠÚ©Ø§Ø±ØªÙĪÙĨ":3845,"ĠØ¯Ø§Ø±Ùĩ":3846,"ĠÙħÙĨØ¬Ø±":3847,"Ú©Ø³ÙĦ":3848,"Ø¦Øª":3849,"ĠØªØŃÙĤÙĤ":3850,"ĠÚ¯Ø°Ø§Ø´Øª":3851,"ĠÙĨØ³ÙĦ":3852,"ĠØ¢Ø±Ø§Ùħ":3853,"ĠØ§ÙĨØªØ®Ø§Ø¨Ø§Øª":3854,"ĠPlay":3855,"ĠØªÚ©ÙħÛĮÙĦ":3856,"ĠØ¸ÙĩÙĪØ±":3857,"ĠÚĺÙĨ":3858,"ĠØ¯Ú©ÙħÙĩ":3859,"ĠØ¢Ø°Ø±ÛĮ":3860,"ĠØŃÙģØ§Ø¸":3861,"ĠÚ¯ÛĮØ±ÙĨØ¯":3862,"ĠÙħÚ¯ÙĨØ§":3863,"ĠØ§ØªÙĪÙħØ¨ÛĮÙĦ":3864,"ĠØ®Ø¨Ø±ÙĨÚ¯Ø§Ø±":3865,"ĠInstagram":3866,"hotos":3867,"17":3868,"30":3869,"op":3870,"ĠâĢĮ":3871,"ĠØ¨ÙĪÛĮ":3872,"ĠØ¯ÙĦÙħ":3873,"Ø³Ø§Ø®Øª":3874,"ĠÙĪØ¹":3875,"ĠÚ©Ø³":3876,"ĠÚ©Ø±Ùħ":3877,"Ú¯Ø§Ø±ÛĮ":3878,"ĠØªØ§Ø¬":3879,"âĢį":3880,"ĠØ³Ø§Ø±ÛĮ":3881,"ĠØ´Ø³Øª":3882,"ĠØ´Ø§ÙĩØ¯":3883,"ĠØ´ÛĮÙħÛĮ":3884,"ĠØ¢ÙĦÙĪØ¯":3885,"ØµØ§ÙĦ":3886,"ĠØ§Ù¾ÙĦ":3887,"ĠØ·Ø§Ùĩ":3888,"ĠÚ©Ø±Ø¯ÛĮÙħ":3889,"ĠØ¢ÙħØ§Ø±":3890,"ĠØ¢ÙħØ§Ø¯Ú¯ÛĮ":3891,"ĠØªÙĪØ§ÙģÙĤ":3892,"ĠÙħØ¹Ø±ÙģØª":3893,"ĠØªØ§Ù¾":3894,"ĠØªØ±Ø§ÙħÙ¾":3895,"ĠØ¯ÛĮÙĪØ§Ø±":3896,"ĠÙħÙĤØ§Ø¨ÙĦÙĩ":3897,"ĠÚ¯Ø±Ú¯":3898,"ĠØ¯Ø§ÙĨØ´Ú©Ø¯Ùĩ":3899,"ĠÙħØ·Ùħ":3900,"Ø§ÛĮÙĦÙĨØ¯":3901,"Ġ::":3902,"ĠØ§Ø·ÙĦØ§Ø¹Ø§ØªÛĮ":3903,"ĠØ±ÙĨÚ¯ÛĮ":3904,"ĠØµØŃÛĮØŃ":3905,"acobs":3906,"Ø§Ø¨ÙĤØ§Øª":3907,"ĠÚĨØ±Ø§Øº":3908,"ĠÙħØ¹Ø§ÙĪÙĨ":3909,"ĠØ®Ø±Ø¯Ø§Ø¯":3910,"ce":3911,"Ðµ":3912,"ĠØ£":3913,"ØªÚ©":3914,"Ø³ÙĨØ¬":3915,"ĠØªØ§ÛĮ":3916,"ĠØªØ§Ø®":3917,"ĠÙĨØ¨Ø§Ø´Ø¯":3918,"ĠØ´ÛĮÚ©":3919,"ĠØ¢Ú¯Ø§Ùĩ":3920,"ÙĤØ¨":3921,"ĠØ®ÙĨØ¯Ùĩ":3922,"Ø¬Ø¯ÛĮØ¯":3923,"ĠØ§ÛĮÚ©Ø³":3924,"Ø§ÙĩÙĨ":3925,"ĠØ¨Ø§ÙĤØ±":3926,"ĠØŃØ±Ú©":3927,"ĠÙĤÙĦÙħ":3928,"ĠØ²ÙĨÚ¯":3929,"Ú©ÛĮÙģ":3930,"ĠØ§Ø±ØªÙĤ":3931,"ĠÙħØ³Ú©ÙĨ":3932,"ĠØ¯ÙĩØ§ÙĨ":3933,"ØªÙħØ§Ùħ":3934,"Ø§Ø·ÛĮ":3935,"ĠØ§Ø¨Ø¹":3936,"ĠâĢı":3937,"ĠÙĨØ´Ø§ÙĨÛĮ":3938,"ĠØ¶Ø±Ø¨":3939,"ĠØ¢Ø±Ø§ÙħØ´":3940,"Ø´ÛĮØ´Ùĩ":3941,"ĠØ³Ø¨Ø²ÛĮ":3942,"ĠÙħÙĩÙħØªØ±ÛĮÙĨ":3943,"ĠÙħØ±Ø¨ÙĪØ·Ùĩ":3944,"ĠÙĩÙĨÚ¯Ø§ÙħÛĮ":3945,"ĠØ±ÙĩØ¨Ø±":3946,"ĠÙĤØ¨ÙĦÛĮ":3947,"ĠÙĨØ®Ø³ØªÛĮÙĨ":3948,"ĠØ¹ÙĤØ¨":3949,"ĠØ¨Ø±Ø³Ø¯":3950,"ĠÙħØ¨ØªÙĦØ§":3951,"ĠØ¹Ø±Ø¨Ø³ØªØ§ÙĨ":3952,"ĠØŃØ§Ø¯Ø«Ùĩ":3953,"ĠÙ¾Ø§ÛĮØªØ®Øª":3954,"OS":3955,"ran":3956,"ter":3957,"Ø¯ÛĮØ±":3958,"ÙĪÙĤÛĮ":3959,"ÙħØ§Ùĩ":3960,"ĠØ¨ÙĨØ§":3961,"Ø§ÛĮÙĦÛĮ":3962,"ĠØ¯Ø²":3963,"ĠØªØ§Ø³ÛĮ":3964,"ĠØ¯Ø±ÙĪØ³":3965,"Ø§ÙĦÙĪ":3966,"ĠÙ¾Ø±Ùĩ":3967,"ĠØ¹ÛĮÙĨ":3968,"ÚĨØ±":3969,"ĠØ§Ø³ØªÙĤ":3970,"ĠØ¨Ø§ÙģÛĮ":3971,"Ø·Ø¨":3972,"ĠØµÙģØ±":3973,"ØªÙĩÙħ":3974,"ĠÙģØ±ÙĪØ±Ø¯":3975,"ĠØ´ÙħØ§Ø³Øª":3976,"ĠÙħØ´Ø§Ø±Ú©Øª":3977,"Ø§ÙģØ¸Ùĩ":3978,"ĠØ¯ÙĪØ¨Ø§Ø±Ùĩ":3979,"ĠØ¹ÙħØ§Ø±Øª":3980,"ĠÙĨØ´Ø§ÙĨÙĩ":3981,"Ø¯Ø§ÙĨØ´":3982,"Ú©Ø±Ø¯Ù¾Ø§Øª":3983,"Ø§ØºØ°":3984,"ĠØ°ÙĩÙĨ":3985,"ĠÛ²Û°Û°":3986,"ĠØ´Ø±Ø§ÛĮØ·ÛĮ":3987,"ort":3988,"ĠÚĺØ§Ù¾":3989,"ĠØ¹ÙĦÙħÙĬ":3990,"ĠÛ±Û³Û¹Û·":3991,"ĠÙĪØ¸ÛĮÙģÙĩ":3992,"ØªØ¹ÙħÛĮØ±":3993,"ĠÙĩÙħØ§ÙĩÙĨÚ¯":3994,"ĠÙĤØ²ÙĪÛĮÙĨ":3995,"ĠÙħÙģÙĩÙĪÙħ":3996,"ĠÙĪØ±Ø¯Ù¾Ø±Ø³":3997,"ĠApps":3998,"Ú©Ø±Ø¯Ù¾Ø§ØªÙĪÙĤ":3999,"14":4000,"Ġin":4001,"ĠØ¨ØªÙĪØ§ÙĨÙĨØ¯":4002,"Ø§ÛĮØ§ÙĨ":4003,"ĠØªØ±ÛĮ":4004,"ĠÙĩØ´Øª":4005,"ĠØ¢ÙĪ":4006,"ĠÙ¾ÙĪÙĨ":4007,"Ø³ØªØ§ÙĨÙĩ":4008,"Ø®Ø¨Ø±Ú¯Ø²Ø§Ø±ÛĮ":4009,"ĠØ¨Ø±Ùĩ":4010,"ĠØ¨Ø±ÚĨØ³Ø¨":4011,"ĠÚ¯Ø§ÙĦØ±ÛĮ":4012,"ÙĦÛĮÙħ":4013,"Ù¾ÙĪØ±Øª":4014,"ĠÙĦÙĨØ¯":4015,"ĠØ§ÙħÙĪØ²Ø´":4016,"ĠØ·ÙĨØ²":4017,"ĠÙħØŃÙĪØ±":4018,"ĠØ®ÙĪØ¯Ùħ":4019,"ĠÙħØ¹ØªÙĤ":4020,"Ø¢ÙĪØ±Ø¯":4021,"ĠÚ©Ø´Øª":4022,"ĠÙħØ³Ø§Ø¨ÙĤØ§Øª":4023,"ĠØ¹ÙħØ¯Ùĩ":4024,"ĠØ¬ÙħØ¹ÛĮ":4025,"ĠØªØ¹Ø¯Ø§Ø¯ÛĮ":4026,"ĠØ§ÙĪÙĤØ§Øª":4027,"ĠØ§Ø·ÙħÛĮÙĨ":4028,"ĠØ´ÙĩØ±Ú©":4029,"ĠÙ¾Ø³Ø±":4030,"ĠØ´ÛĮØ±ÛĮÙĨ":4031,"ĠÙħØ§ÙĨØ¯Ùĩ":4032,"ĠØ°Ø®":4033,"ĠØ¬ÙĪØ¬Ùĩ":4034,"ĠØ¹ÙĦÛĮØ±Ø¶Ø§":4035,"ĠÚ¯ÙĪØ´Øª":4036,"ĠÙĪØ§ÙĤØ¹Ø§":4037,"ÙħØ´Ø§ÙĪØ±":4038,"ĠÛ²Û°Û±":4039,"ĠÙħÙĨØ§Ø³Ø¨Øª":4040,"ĠÙħØªÙĤØ§Ø¶ÛĮØ§ÙĨ":4041,"ĠØªÙĤØ±ÛĮØ¨Ø§":4042,"ĠØ§Ø¨Ø¹Ø§Ø¯":4043,"um":4044,"Ġâ":4045,"ĠØĽ":4046,"ÛĮØ¨":4047,"ĠÙĢ":4048,"ÙĪÚ¯Ø±Ø§ÙģÛĮ":4049,"ĠØ¨Ø§Ø±Ø¯":4050,"Ø¨Ø§ÛĮ":4051,"ĠØªØ±ÙĪØ±ÛĮ":4052,"ĠØ´Ø´":4053,"ĠØ´ÙĨØ§":4054,"ĠØ¢Ú©":4055,"ĠØ¢ÛĮÙģÙĪÙĨ":4056,"ÛĮØ¯Ø±ÙĪ":4057,"ĠÙģØ§Ø²":4058,"ĠØ¨Ø±Ø¯ÙĨ":4059,"ĠØ§ÛĮÙĨØ³ØªØ§Ú¯Ø±Ø§Ùħ":4060,"Ø§Ø³ÙģØ§ÙĨÙĩ":4061,"ÙĦÛĮÚ©":4062,"ÙĦÛĮÚ©ÛĮ":4063,"ÙĪÛĮØ´":4064,"ĠÙĩÙħØ²ÙħØ§ÙĨ":4065,"ÙĪØ´Ú©":4066,"ĠÙģØ±Ø³Øª":4067,"Ø¨Ø±ÙĨØ§ÙħÙĩ":4068,"ĠØ³Ø±Ø®":4069,"ĠÙħØ¬ÙĪØ²":4070,"ĠÙħØ³Ø§ÙĦÙĩ":4071,"ĠØ´Ø±ÙĤ":4072,"Ø§Ú©Ø«Ø±":4073,"ĠÂ·":4074,"ĠØ±Ø³Ø§ÙĨ":4075,"ĠØªÙħØ±Ú©Ø²":4076,"ĠØ±ÙĪØ²ÛĮ":4077,"ĠÛ±Û°Û°":4078,"ĠØ§Ø´ØªØ±Ø§Ú©":4079,"ĠÙ¾Ø±ÙĪØ§Ø²":4080,"ĠØ¢Ø±Ø§ÛĮØ´Ú¯Ø§Ùĩ":4081,"ĠBl":4082,"ĠThe":4083,"ĠØªØ§Ø¨Ø³ØªØ§ÙĨ":4084,"Ø´Ú©Ø¯Ùĩ":4085,"ĠÚ©ÙħÛĮØ³ÛĮÙĪÙĨ":4086,"ĠØ±Ø§ÙĩÙĨÙħØ§ÛĮÛĮ":4087,"ĠØªÙĪØ¶ÛĮØŃØ§Øª":4088,"ĠØ®Ø±ÙĪØ¬":4089,"ĠØ¨ÙĪØ±Ø³":4090,"ĠÙħØŃØ§ÙģØ¸Øª":4091,"ĠÙģØ±ÙĪØ±Ø¯ÛĮÙĨ":4092,"ĠØ§Ø·ÙħÛĮÙĨØ§ÙĨ":4093,"if":4094,"ÙħÙħ":4095,"Ø´ÛĮÙĨ":4096,"ĠØªÚ©ÛĮ":4097,"ĠØ±Ø¯":4098,"ĠØ±Ú©":4099,"Ø§ÙħÙĦÛĮ":4100,"ĠØ¢ÙĦØ§Øª":4101,"ĠÙ¾Ø§ÙĬ":4102,"ĠØ®ÛĮØ±":4103,"ĠØ§Ø³ÙĦ":4104,"Ø§Ø³Ø§Ø³":4105,"Ø§Ø³ÙĦØ§Ùħ":4106,"ĠØ§Ú¯Ùĩ":4107,"ĠÚĨØ´":4108,"ĠÚĨÙĨØ§ÙĨ":4109,"ÛĮÙħØ§":4110,"ĠÙĩÙħØ§ÛĮØ´":4111,"ÚĺØ§Ø¯":4112,"ĠÙħÙĨØµ":4113,"Ø¸Ùħ":4114,"ÙĦØ§ÙĤÛĮ":4115,"ĠØ¨Ø§Ø´Ùĩ":4116,"ĠØ¨Ø§Ø´Ú¯Ø§Ùĩ":4117,"ĠØ´Ø¯Ùħ":4118,"ĠØ¶Ø¨Ø·":4119,"ĠÚ¯ÙģØªÚ¯ÙĪ":4120,"Ø§Ø¶ÙĦ":4121,"ĠÙĩÛĮØ§Øª":4122,"ĠØ§Ø³ÙĦØ§ÙħÙĬ":4123,"ĠØ¬ÙĨÙĪØ¨":4124,"Ġ50":4125,"ĠÙĦÙĪÚ©Ø³":4126,"Ġthe":4127,"ĠÙħØŃØ¯ÙĪØ¯Ùĩ":4128,"ĠØ¸Ø§ÙĩØ±":4129,"ĠÙħØ³Ø§ÙģØ±ØªÛĮ":4130,"Ø§Ø´ÙĨØ§Ø³ÛĮ":4131,"Ù¾Ø°ÛĮØ±":4132,"ĠØ¹Ø±ÙĪØ³ÛĮ":4133,"ĠØ´ÙģØ§Ùģ":4134,"ĠÙħØ°Ø§Ú©Ø±Ùĩ":4135,"ak":4136,"Ġ!":4137,"Ø§ÙĪØ±Ø¯":4138,"ÙĨØ§ÛĮ":4139,"Ø§ÛĮØ§":4140,"ĠØ¯ÙĪØ¯ÛĮ":4141,"ĠÚ©Ø§ØºØ°":4142,"ĠØªØ¦":4143,"ĠØ±Ø¯ÛĮ":4144,"ĠØ¢Ø¨ÛĮ":4145,"ĠÙ¾Øª":4146,"Ø¬ÙĨ":4147,"ÙĬØ¯Ùĩ":4148,"ĠÙģØ´":4149,"ØµÙģ":4150,"ĠÙĤÛĮÙħ":4151,"ĠØ²ÙĪØ´Ú©":4152,"Ù¾Ø§":4153,"ÙħØ§ÙĨÙĨØ¯":4154,"ÙħÛĮÙĩ":4155,"Ø§ÙĨÛĮØ§":4156,"Ø§ÙĨÛĮØ§ÙĨ":4157,"ĠÙģØ±ÙħØª":4158,"ĠØªØ§Ú©ÙĨÙĪÙĨ":4159,"ĠØ³Ø§Ø²Ùĩ":4160,"ĠØªÙĨØ§Ø³":4161,"ĠØ¨ÛĮÙħØ§Ø±Ø§ÙĨ":4162,"ĠØ¯Ø§Ø´ØªÙĨØ¯":4163,"ĠÙĨØ¯Ø§Ø´Øª":4164,"ĠØŃÙĤÙĪÙĤÛĮ":4165,"ÙĪÙħÛĮÙĩ":4166,"ĠØ¬ÙĨØ¨Ùĩ":4167,"ĠÙĩÙĪØ§Ø´ÙĨØ§Ø³ÛĮ":4168,"ĠØ¨ÛĮÙħØ§Ø±ÛĮÙĩØ§ÛĮ":4169,"ÙĪÙĦÙĪØ´ÙĨ":4170,"ĠØ¢ÙĦÙħØ§ÙĨ":4171,"Ú¯ÙĪÛĮÙĨØ¯":4172,"ĠØ¨ØµÛĮØ±":4173,"ĠØ±Ø¶ÙĪÛĮ":4174,"ĠØ±Ø²ÙĪÙĦÙĪØ´ÙĨ":4175,"ĠØ³Ø¹ÛĮØ¯":4176,"ĠÙ¾ÛĮÚĨÛĮØ¯Ùĩ":4177,"ĠÙħØ®Ø§Ø·Ø¨":4178,"ĠÙħÙĨØ§Ø³Ø¨ÛĮ":4179,"ĠÙħÙħÙĨÙĪØ¹":4180,"ÚĨØ±Ø®Ùĩ":4181,"ĠØ±Ø³ØªÙĪØ±Ø§ÙĨ":4182,"19":4183,"CH":4184,"Ú©ÙĪÙĦ":4185,"ĠØ¨Ø§Ùħ":4186,"ĠØ¨ÛĮØ¯":4187,"ĠØ¨ÙĪÙħÛĮ":4188,"ĠÙħØ³ÛĮ":4189,"ĠØªØ§ÛĮÙĦÙĨØ¯":4190,"ÙģØ¹":4191,"ĠØ±Ø¨Ø§Øª":4192,"Ø§ÙħØ¯":4193,"Ø§ÙĦÙħÙĦÙĦÛĮ":4194,"ĠÙħÛĮÚ©ÙĨÙĨØ¯":4195,"ĠØ§Ø³Ø¨Ø§Ø¨":4196,"ĠÙģØ§Ø¶ÙĦ":4197,"ĠØŃØ§ÙĪÛĮ":4198,"ĠÚ©Ø§Ø±Ú¯Ø§Ùĩ":4199,"ĠÙħØŃØ±Ùħ":4200,"ĠØ§Ø±ÙĪÙħÛĮÙĩ":4201,"ĠÙģØ±Ø²":4202,"ĠÙģØ±ÙĪØ¯":4203,"ĠÙħØ¹Ø¯ÙĨ":4204,"ĠÙħØ¹Ø±Ø¶":4205,"ĠÙħØ¯Ø±Ú©":4206,"ĠØ§ÙģØ·":4207,"ĠØ¯ÙĪØ¨ÙĦÙĩ":4208,"ĠØ¨Ø§Ø²ÛĮÚ¯Ø±":4209,"ĠØ¶Ø¹Ùģ":4210,"ĠÙ¾Ø±ÙĪÙĨØ¯Ùĩ":4211,"ĠØ±Ø§ÙĩÛĮ":4212,"ĠÚ¯Ø±Ø¯ÛĮØ¯Ùĩ":4213,"ĠMusic":4214,"ĠØµÙģØŃØ§Øª":4215,"ĠÙģÙĦØ³":4216,"ĠØ¢ÙģØªØ§Ø¨":4217,"Ø´Ø±Ú©Øª":4218,"ĠÙħØ¨Ø§ÙĨÛĮ":4219,"oom":4220,"ĠÙħØ¨Ø§Ø±Ø²Ùĩ":4221,"ĠØ§ÙħØªØŃØ§ÙĨ":4222,"ĠÚ©Ø§Ø±Ø´ÙĨØ§Ø³Ø§ÙĨ":4223,"ÙģÙĪØ¸":4224,"ĠÚ¯ÙĨØ¯Ùħ":4225,"ĠÙĨØ§ØŃÛĮÙĩ":4226,"Ú©ÛĮÙģÛĮØª":4227,"ĠÙ¾ÙĪÙĨÚ©":4228,"ÙĦÛĮÚ©ÛĮØ´ÙĨ":4229,"**":4230,"ÙħØ¯ÛĮ":4231,"ĠØ¨Ø²ÙĨ":4232,"ĠÙħØ§Ø³Øª":4233,"Ø§ÙĨÛĮÙħÛĮØ´ÙĨ":4234,"ĠÚ©ÛĮÚ©":4235,"Ø²ÙħÛĮÙĨ":4236,"ĠÙĩÛĮØ¯Ø±ÙĪ":4237,"ĠØ³ÙĪØ²":4238,"Ø¹Ø¶":4239,"ĠØ¨ÙĩÙħÙĨ":4240,"ĠÙ¾Ø§ÙĨ":4241,"ĠØ®Ø§Øª":4242,"ĠØ®ÙĦØ§Ùģ":4243,"ÚĨÙĨØ¯":4244,"ØµØ¯ÛĮ":4245,"ĠÙĤØ¶Ø§ÛĮÛĮ":4246,"ĠÙĤØ§Ø´ÙĤ":4247,"ÙĦÛĮÙĦÛĮ":4248,"ĠÚĨÚ¯ÙĪÙĨ":4249,"Ø§Ø¹Ø§Øª":4250,"ĠÙħØŃÙģÙĪØ¸":4251,"ĠØ§Ø±Ø´Ø§Ø¯":4252,"ĠØ§ÙĦÙĩ":4253,"ĠØ§ÙĦÙĩÛĮ":4254,"ĠÙ¾ÛĮÙĪÙĨØ¯":4255,"ĠØªØ±Ùħ":4256,"ĠØ³Ø±ÙĨÙĪØ´Øª":4257,"Ø¯Ø±Ø¶Ø§":4258,"ĠØ¬Ø¯ÛĮØ¯ÛĮ":4259,"ĠØªØµÙģÛĮÙĩ":4260,"ĠØ¯Ø§Ø¯ÙĨØ¯":4261,"ĠÙĨÛĮØ³ØªÙĨØ¯":4262,"ĠÙĨÙħØ§ÛĮÙĨØ¯Ú¯Ø§ÙĨ":4263,"Ø¨Ø§Ø´ÙĨØ¯":4264,"ĠÙ¾ÚĺÙĪÙĩÛĮ":4265,"ĠØ¬ÙĨÚ¯ÙĦÛĮ":4266,"ĠØ¬Ø²ÙĪ":4267,"ĠÙħØ¨Ø§ØŃ":4268,"ĠÚ©ÙħÛĮØªÙĩ":4269,"ĠØ§ÙĨÙĤÙĦØ§Ø¨ÛĮ":4270,"ĠÙħØ¹ÙĨØ§ÛĮ":4271,"ĠØ®Ø§ÙħÙĨÙĩ":4272,"ĠÙĪÙĦØ§ÛĮØª":4273,"ĠÙħØ§Ø³Ø§Úĺ":4274,"ĠÚ¯ÛĮØ§ÙĩØ§ÙĨ":4275,"ĠÙħØ§Ú©Ø³ÛĮ":4276,"ĠØ¨Ú¯Ø°Ø§Ø±ÛĮØ¯":4277,"ĠØµØ§ØŃØ¨":4278,"ĠØªÙĪØ¬ÛĮÙĩ":4279,"80":4280,"lin":4281,"Ð¾":4282,"Ġn":4283,"Ø§ÛĮØ§ÛĮ":4284,"ĠÚ©Ø±Ùĩ":4285,"Ú¯ÙĪÛĮÛĮ":4286,"ÙģÙĪÙĦ":4287,"ĠÙĨØ²Ø¯":4288,"Ø§ÙħÙĪÙĨ":4289,"ĠØ¯Ø±Ø®Ø´":4290,"ĠØ´Ú©ÙĨ":4291,"ĠØ¨ÙĩØ§Ø±":4292,"Ø§Ø¯Ø§":4293,"ĠÙģÙĪ":4294,"ĠØ¹Ø§Ø¯ÛĮ":4295,"ĠÙĤØ§Ø¦Ùħ":4296,"ĠØ²Ø¹Ùģ":4297,"Ù¾Ø§Ø±":4298,"ĠÙĩÙħÚ©Ø§Ø±Ø§ÙĨ":4299,"ĠÙĦÙ¾":4300,"ĠØªÙĪÙ¾":4301,"ĠÙĨÙħØ§Ø²":4302,"ĠÙ¾ÛĮÚ¯ÛĮØ±ÛĮ":4303,"ĠØªØ±Ø¨ÛĮØª":4304,"Ø§Ø³ØªØ§ÙĨÛĮ":4305,"Ø§ÙĤØ¹":4306,"ĠÙĩØ±Ú¯Ø²":4307,"ĠØ±ÙĪÛĮÚ©Ø±Ø¯":4308,"ĠÚ©ÙĦØ§ÙĨ":4309,"ĠØªØµÙĪØ±":4310,"ĠØ§Ø®ØªØ±":4311,"ĠÚĨØªÚ¯ÙĦØ´ÙĨ":4312,"ĠØ±ÛĮØ´Ùĩ":4313,"Ġ2014":4314,"Ø´ÛĮÙĪ":4315,"ĠÙħØ³ØªÙĤÙĦ":4316,"Ú¯Ø°Ø§Ø±Ø¯":4317,"ĠØ³Ù¾Ø§Ùĩ":4318,"ĠØ§ÙģØ²Ø§Ø±ÙĩØ§ÛĮ":4319,"ĠØ³Ø§ÛĮØ²":4320,"Ġ40":4321,"ĠØªÛĮØªØ±":4322,"ĠÙĪØ§Ú©ÙĨØ´":4323,"ĠØ¯Ú©ÙĪØ±":4324,"ĠÙħÛĮÙĦØ§Ø¯ÛĮ":4325,"Ġmarc":4326,"ĠØŃÚ©ÙĪÙħØª":4327,"ĠØªÙĪØµÛĮÙģ":4328,"ĠÙħØ§Ø³Ùĩ":4329,"ĠÙħØ¨ÙĦØº":4330,"ĠØ¯ÛĮÙĪØ§Ø±ÛĮ":4331,"ĠÙĤÙĩØ±ÙħØ§ÙĨ":4332,"ØªØ§ÙĦÛĮØ§":4333,"âĻ«":4334,"ĠØ§Ø³ØªÙĤØ¨Ø§ÙĦ":4335,"ĠØªÙĨØ§Ø³ÙĦÛĮ":4336,"CHAT":4337,"nd":4338,"Ġ]":4339,"Ġr":4340,"Ø§Ú©ÛĮ":4341,"ÙħØ§ÛĮ":4342,"ÙħØ§ÛĮØ´":4343,"Ú©ÙĪØ¨":4344,"ÙĦØ§Øº":4345,"ĠØ¨ÙĬÙĨ":4346,"ĠÚ©ÙĪÙĩ":4347,"Ø¨ÛĮÙħ":4348,"ĠØªÙħÛĮØ²":4349,"Ø²ÙĪ":4350,"Ø§ÙħÙĨ":4351,"ĠÙ¾ÙĪØ±Øª":4352,"Ø¬Ø¨":4353,"Ø®Ø¯Ø§Ùħ":4354,"ĠÙģÙĬ":4355,"ĠØ¬Ø§Ø°":4356,"ØµÙĪØ±Øª":4357,"ĠÛĮØ§Ø²Ø¯ÙĩÙħ":4358,"ĠØŃØ§Ø´":4359,"ĠÙĤØµ":4360,"ĠÙĤØ¨ÛĮÙĦ":4361,"ĠÙģØ±Ø¶":4362,"Ø«ÛĮ":4363,"ĠÙħØªÙħØ±Ú©Ø²":4364,"ĠÙħØªØ§Ø³ÙģØ§ÙĨÙĩ":4365,"ĠØ³Ø§ÙĦÙĨ":4366,"Ø§Ø³ØªØ®Ø¯Ø§Ùħ":4367,"ĠØ¯ÙĪÚĨØ±Ø®Ùĩ":4368,"ØªÙħØ¹":4369,"Ø§Ø·ÙĦØ§Ø¹":4370,"ĠØ§ØµÙĦØ§":4371,"ĠÙħØ±Ø¯Ø§Ø¯":4372,"ĠØ§ÙģØ²Ø§Ø±ÛĮ":4373,"ĠÙĨÙĪÛĮÙĨ":4374,"ĠSp":4375,"ĠØµÙĨÙģÛĮ":4376,"ĠÙĩÙĪØ§ÛĮ":4377,"ĠÙħØ¬ÙħØ¹":4378,"ĠØ§Ø¨ØªÙĦØ§":4379,"ĠØªÙģØ³":4380,"ĠØ®ÙĪØ§ÙĨØ¯ÙĨ":4381,"ĠÙ¾ÙĨØ¬Ùħ":4382,"ĠÛ³Û°":4383,"ĠØ³ØªØ§Ø¯":4384,"ĠØ¨ÙĦÙĪÚĨ":4385,"ĠÙħØ®Ø§Ø·Ø¨Ø§ÙĨ":4386,"ĠØ§Ù¾ÙĦÛĮÚ©ÛĮØ´ÙĨ":4387,"ĠØ§ÙħØªØŃØ§ÙĨÛĮ":4388,"Ġjacobs":4389,"ĠØºÙħÚ¯ÛĮÙĨ":4390,"ĠÙģØ±Ø²ÙĨØ¯Ø§ÙĨ":4391,"//":4392,"com":4393,"ip":4394,"Ø±ÙĨÚ¯":4395,"Ø§ÛĮÙĤ":4396,"ĠÚ©Ø¬":4397,"ĠÚ©Ø§ÙģÙĩ":4398,"Ú¯ÙĬØ±ÙĬ":4399,"ĠØªÙĪÛĮ":4400,"ĠØªØ¨ÙĦ":4401,"ĠØªØ¯ÙĪ":4402,"ĠØ±Ø¦":4403,"ĠØ±Ø³ØªÙħ":4404,"ĠØ³ÙĨØª":4405,"Ø¬Øª":4406,"ĠÙħÛĮØ¯":4407,"ĠØ¹Ø·Ø±":4408,"ĠÛĮØ§Ø³":4409,"ĠÚ©Ø§Ø±Ú©Ø±Ø¯":4410,"ĠØ§ÙĦØŃ":4411,"ØºÙħ":4412,"ĠÙģØ±Ø§ÛĮÙĨØ¯":4413,"ĠÙħØ±Ø§":4414,"ĠØ±ÙĪØ¨":4415,"ÙĪØ±ÛĮØª":4416,"ĠØ³Ø§Ø²Ø¯":4417,"ØªÙħÙĨØ¯":4418,"ĠØ¹ÙħØ±":4419,"ĠØ¹ÙħØ±Ø§ÙĨ":4420,"ĠØ·Ø±Ø§ØŃ":4421,"ĠØ±ÙĪØ²Ùĩ":4422,"ĠÚ©ÙĦØ³ÛĮÙħ":4423,"ĠØ¨Ø§ÙĦØ§ØªØ±ÛĮÙĨ":4424,"Ø¨ÛĮÙĨÛĮ":4425,"ĠÚĨÙĨØ¯Ø§ÙĨ":4426,"ÙĤÛĮÙĤØª":4427,"ont":4428,"ĠØ¢Ø±Ø´":4429,"ĠØ±ÙĪØ´ÙĩØ§ÛĮ":4430,"ĠØªØ¨Ø§Ø¯ÙĦ":4431,"ĠÙ¾ÙĪØ³ØªÛĮ":4432,"Ø¨ÙĪÙĦÛĮ":4433,"ĠÙħÙĨØªÙĤÙĦ":4434,"ĠÙħÙĨØ¸Ø±Ùĩ":4435,"ĠØ®Ø§Ø·Ø±ÙĨ":4436,"Ġsh":4437,"ÙħØŃÙħØ¯":4438,"Ġhas":4439,"ĠØªØ¨Ø±ÛĮÚ©":4440,"ĠÙĨÚ©Ø±Ø¯Ùĩ":4441,"ĠÚ¯ÙĪÛĮÙĨØ¯":4442,"ĠØ³ÙĤÙģ":4443,"ĠÙĩÙĨØ±ÙħÙĨØ¯Ø§ÙĨ":4444,"ĠÙħÙĨØŃØµØ±":4445,"ĠÙĪÛĮØªØ§ÙħÛĮÙĨ":4446,"ĠØ¨Ø§Ø²Ú¯Ø´Øª":4447,"ĠÚĨÚ¯ÙĪÙĨÚ¯ÛĮ":4448,"ĠØ®Ø§Ø·Ø±ÙĨØ´Ø§ÙĨ":4449,"ÙĪÚĨ":4450,"ÙħØ±Ø¯":4451,"ĠØ¯ÙħÙĪ":4452,"ĠÙĪØ§ÙĨ":4453,"Ø´ÙĪÛĮÛĮ":4454,"ĠØªÙĪÙĨ":4455,"ĠÙĩØ§Ø´":4456,"Ø§ÙħÙĦÙĩ":4457,"ĠØ´Ú¯ÙģØª":4458,"Ø¹ÛĮÙģ":4459,"ĠØ§Ø³ÙĨ":4460,"ĠÙģØª":4461,"ĠØ¬ÙĦØ¨":4462,"ØµÙĨ":4463,"ĠÙĤØ¶Ø§":4464,"ĠÚĨÛĮØª":4465,"ÛĮÙħØ§ÙĨ":4466,"ÙĪÛĮÙĦ":4467,"ĠØ¨ÛĮØ³Øª":4468,"ĠÙĨÙħØ§Ø´Ø§":4469,"ĠÙ¾ÛĮØ±ÙĪØ²ÛĮ":4470,"ĠØ§ÙģØ³":4471,"Ø²ÛĮØ³ØªÛĮ":4472,"ĠØ¢Ø²Ø§Ø¯ÛĮ":4473,"ĠÙĥØªØ§Ø¨":4474,"ĠØ§Ø¬Ø§Ø±Ùĩ":4475,"Ú©ÙĦÙĨ":4476,"ĠØ±ÙĪØ²ÙĩØ§ÛĮ":4477,"ÙĪØ³Ø§ÛĮÙĦ":4478,"ĠØ±Ø§ÙĩÚ©Ø§Ø±":4479,"ĠÚ¯Ø°Ø´Øª":4480,"ĠÙħØµÙĨ":4481,"ĠØ¬ÙĨØ¨Ø´":4482,"Ø±Ø§ØªÙĪØ±":4483,"ÙĩÙħÚĨÙĨÛĮÙĨ":4484,"ĠØ³Ø§ÙħØ§ÙĨ":4485,"ĠØ³ÙĨØ³ÙĪØ±":4486,"????":4487,"ĠØ§ØµØ·ÙĦØ§ØŃØ§Øª":4488,"ĠÚ©Ø±Ø¨ÙĦØ§":4489,"ĠØ®Ø±ÙĪØ¬ÛĮ":4490,"ĠÙĩÙħØ§ÙĩÙĨÚ¯ÛĮ":4491,"ĠØ§Ø³ØªØ®Ø±Ø§Ø¬":4492,"ĠÙ¾ÙĩÙĦ":4493,"ĠØµÙĨØ¯ÙĪÙĤ":4494,"ĠØ¯Ø¨Ø³ØªØ§ÙĨ":4495,"ĠÙĪÛĮØ¯Ø¦ÙĪ":4496,"ĠÚĨØ§ÙĦØ´":4497,"ĠØ²Ø¹ÙģØ±Ø§ÙĨÛĮ":4498,"ĠØ¬Ø§Ø°Ø¨Ùĩ":4499,"16":4500,"Ú©Ùģ":4501,"Ø´Ú©ÙĦ":4502,"Ø¨Ø¨":4503,"ÙģØ³":4504,"ÙģÙĪÙĨ":4505,"Ø§ÙħØ±ÙĪØ²":4506,"Ø§ÙħÙĦØ§Ú©":4507,"Ø¹ÙĦÛĮ":4508,"ĠØ¨ÙĩÙħ":4509,"Ø§Ø¯ÙĩØ§":4510,"Ø§Ø¯ÙħÛĮ":4511,"ÙĬØ§":4512,"Ø³ØªØ±":4513,"ĠÙģÚ©":4514,"ĠÙģØ±ÛĮ":4515,"ĠÙģØ¶Ø§":4516,"ĠÚ¯ÙĨØ¬":4517,"ĠØ¬Ø§Ø±ÛĮ":4518,"ĠØŃØ§ÙģØ¸Ùĩ":4519,"ĠØ§Ú©Ø§ÙĨ":4520,"ĠÙĩÙħØ³Ø±":4521,"ĠØµÙĦÛĮ":4522,"Ú¯Ø±Ø§ÙģÛĮÚ©":4523,"ĠÙĩØ§Ùī":4524,"ÙĪÙħØªØ±":4525,"ĠØªØ±Ø´":4526,"Ø¢Ø±":4527,"ĠØ³Ø±Ù¾Ø±":4528,"ĠÙħØ¬ØªÙħØ¹":4529,"Ġ14":4530,"ĠØªØŃØ±ÛĮÚ©":4531,"Ø§Ø·Ø¹":4532,"ĠÙħÙĩØ±Ø§ÙĨ":4533,"ĠØ¨Ø§Ø²ÛĮÚ©ÙĨ":4534,"ĠÚ©ÙħØ¨ÙĪØ¯":4535,"ĠØ§Ø¨Ú©Ø§Ø±ÛĮ":4536,"ĠØªØµØ§Ø¯":4537,"ĠØªØµØ±ÛĮØŃ":4538,"Ø±Ø¨ÙĨØ¯":4539,"ĠÚ¯Ø°Ø§Ø±":4540,"ĠØŃØ³ÛĮÙĨÛĮ":4541,"ĠÙģØ¹ÙĦÛĮ":4542,"ĠÙĨÙĪØ¢ÙĪØ±ÛĮ":4543,"art":4544,"ĠAl":4545,"ĠÙħØ³ØªÙĨØ¯":4546,"ĠPhotos":4547,"ĠØ®Ø§Ø±Ø¬Ùĩ":4548,"ĠÚ©ÛĮÙĦÙĪ":4549,"ĠÚ©ÛĮÙĦÙĪÙħ":4550,"ĠØ§ÙģØªØ®":4551,"ĠØ¨Ø®ÙĪØ§ÙĨ":4552,"ĠÙ¾Ø§Ø±ÚĨÙĩ":4553,"ĠØªØ¨ÙĦÛĮØºØ§ØªÛĮ":4554,"ĠØ¬Ø¯ÙĪÙĦ":4555,"ĠØ±ÙĪØŃØ§ÙĨÛĮ":4556,"ĠØ§Ø¨ØªØ¯Ø§ÛĮ":4557,"ĠØ¨Ø¯Ø§ÙĨÛĮØ¯":4558,"ĠØ³Ø±Ú¯Ø±ÙħÛĮ":4559,"ĠÙģØ±Ø§ÙĨØ³Ùĩ":4560,"Ø§Ú©ØªÙĪØ±":4561,"ĠØ¬Ø²Ø¦ÛĮØ§Øª":4562,"ØŃØ¶Ø±Øª":4563,"ĠÙħØ¹ØªÙĤØ¯":4564,"ĠÙģØ§Ø¶ÙĦØ§Ø¨":4565,"âĻ«âĻ«":4566,"ĠÙĤØ¶Ø§ÙĪØª":4567,"ĠØ§Ú©Ø§ÙĨØª":4568,"''":4569,"))":4570,"22":4571,"36":4572,"ah":4573,"ÑĢ":4574,"Û¹Û":4575,"ĠØ¯ÛĮÙĨÛĮ":4576,"Ø³ÙĦÙĩ":4577,"ĠÙĪØ§Ø±":4578,"ĠÙĪØ§Ø±ÛĮ":4579,"ĠÚ©ÙĪÙĦ":4580,"ĠØªØ§ÙĦ":4581,"Ø²Ø§Ùħ":4582,"ĠØ±Ø§Ø¶ÛĮ":4583,"ĠÙĨØ§ÙĨ":4584,"ĠÙĩØ§Ø¯ÛĮ":4585,"ĠØ³ÙĪÙĨ":4586,"Ø¹Ùħ":4587,"ĠÙ¾Ø±ÛĮ":4588,"ĠÙħÛĮØªÙĪØ§ÙĨ":4589,"ĠØ¨Ø±Ú¯Ø²":4590,"ĠØ¨Ø±Ø§Ø³Ø§Ø³":4591,"ĠÚ¯Ùħ":4592,"ĠÚ¯Ø´Øª":4593,"Ø§Ø³Ùĩ":4594,"ÙĦÛĮØ³":4595,"Ù¾Ø§ÛĮ":4596,"ĠØ§ÙĨØ¹":4597,"ĠØ¢ÙĨÚ©Ùĩ":4598,"ĠÙĦØ§ÙħÙ¾":4599,"ĠØ¯Ø§Ø±ÙĪÛĮ":4600,"ĠØ¨ÛĮØ§ÙĨÛĮÙĩ":4601,"ØºÙĩ":4602,"ØºÙĪÙĦ":4603,"ĠÙħØ±Ø¨Ø¹":4604,"ĠØ§ÙģÚ©Ø§Ø±":4605,"ĠØªØ±Ø³":4606,"ĠØ¨ÙĪØ¯Ùħ":4607,"ĠØ¯ÛĮÚ¯Ùĩ":4608,"ĠÙħØ¬Ø¨ÙĪØ±":4609,"Ø§ØµØ¯Ú©":4610,"ĠØ·Ø±Ø²":4611,"ĠØ±ÙĪÛĮØ§ÙĦ":4612,"ĠØ§Ø¨ÙĦØ§Øº":4613,"ĠØ¨ÛĮØ´ØªØ±ÛĮÙĨ":4614,"ĠÚ¯Ø±Ø¯ÙĨ":4615,"Ø®ÙĪØ§Ø¨":4616,"ĠØ¹Ú©Ø³ÙĩØ§ÛĮ":4617,"ĠØ§ØŃØªØ±":4618,"ĠØ¨Ø§Ø±Ø§ÙĨ":4619,"ĠØ´ÙĨØ¨Ùĩ":4620,"ĠØªÙĤÙĪ":4621,"ĠØ³Ø¨Ø¯":4622,"ĠØŃØ¯Ø§Ú©Ø«Ø±":4623,"ĠØ¯ÙĦØ§ÛĮÙĦ":4624,"ÙĪÙħÛĮØª":4625,"Ú¯Ø±Ø¯Ø§ÙĨ":4626,"ĠÙĩÙĪØ§Ù¾":4627,"ĠÙħÙĦÚ©":4628,"ĠÙħÙĩØ±Ùĩ":4629,"ĠII":4630,"Ø®ÙĪØ§ÙĩÛĮÙħ":4631,"Ø¢ÙħÙĪØ²":4632,"ĠØ¯Ø§ÙħÙĨÙĩ":4633,"Ø³Ø§Ø²ÙħØ§ÙĨ":4634,"ĠÙ¾ÙĦØ§Ø³ØªÛĮ":4635,"ĠØ¢ÙĪØ±Ø¯ÙĨ":4636,"ĠØ±Ø§Ø³ØªØ§ÛĮ":4637,"ive":4638,"ĠØ¨Ø¯ÙĩÛĮØ¯":4639,"Ø¬ÙħÙĪØ¹Ùĩ":4640,"htag":4641,"ĠÙģØ§Ø·ÙħÙĩ":4642,"ĠÙĨÙĪØ´ØªØ§Ø±ÛĮ":4643,"Ø§ÙĦØ¹ÙħÙĦ":4644,"ĠØ¯ÛĮØ¬ÛĮØ§ØªÙĪ":4645,"ĠVideos":4646,"Ġhashtag":4647,"02":4648,"az":4649,"ele":4650,"iz":4651,"me":4652,"od":4653,"tp":4654,"Ñģ":4655,"Ġ=":4656,"ÙĩØ§Ø³Øª":4657,"Ø¯Ø§ÙħÛĮ":4658,"ÙĦØ±":4659,"ÙĦÙĨØ¯":4660,"ĠØ¨ÙĪÙħ":4661,"ĠØ¨ØªÙĪØ§ÙĨÛĮØ¯":4662,"Ø§ÛĮØ§Øª":4663,"ĠÙĪØ§ÛĮ":4664,"ĠØªØ¹ÙĩØ¯":4665,"ÙģØ±Ø§ÙĨ":4666,"ĠØ¯Ø±Ø³ØªÛĮ":4667,"ĠØ³Ø§Ø¨ÙĤ":4668,"ĠØ´Ø§ÛĮ":4669,"Ø¹ÙĨÙĪØ§ÙĨ":4670,"Ø±ÛĮØ²ÛĮ":4671,"ĠØ§Ø³Ø±":4672,"ĠØ¨Ø±ÙĤÛĮ":4673,"ĠØ¨Ø±Ø¯Ø§Ø±":4674,"ĠØ¨Ø±Ø¯Ø§Ø´Øª":4675,"ĠÙĤÙĩ":4676,"Ù¾Ø±ÙĪ":4677,"ĠÚĨØ§":4678,"ĠÚĨÙĪØ¨":4679,"ĠÚĨÛĮÙĨÛĮ":4680,"ĠØ§ÙĨÚ¯ÙĦ":4681,"ÙĪÛĮØ²":4682,"ÙĪÛĮØ¶":4683,"ĠÙħÙĪÙĩØ§":4684,"ĠÙħÙĪÙĤØª":4685,"ĠÚ©Ø§Ø±Ø¢Ùģ":4686,"ĠØ®ÙĪØ¯Ø´Ø§ÙĨ":4687,"ÙĪÙħÙĩ":4688,"ĠØ´ÙħØ§ÙĦÛĮ":4689,"Ø«ÙĦ":4690,"ĠÙħØ¯ÙĬØ±":4691,"ĠÙħØªØ±ÛĮ":4692,"Ø¨Ø±ÙĨØ¯":4693,"Ġ17":4694,"ØªÙħØ§ÙħÛĮ":4695,"ĠÚ¯Ø±Ø§ÙħÛĮ":4696,"ĠÚ¯ÙĦÚĨÛĮÙĨ":4697,"ĠØ§ØµÙĦÙĬ":4698,"ĠÚ¯ÛĮÙĦØ§ÙĨ":4699,"ĠÛ±Û¸":4700,"ĠÙĨÙħØ§ÛĮÙĨØ¯Ú¯ÛĮ":4701,"ĠØ¬ÙĨØ³":4702,"ĠÙĨÙĪØ±ÙĪØ²":4703,"ĠÙ¾ÛĮØ§ÙħØ¨Ø±":4704,"all":4705,"Ø·Ø±Ø²":4706,"ĠØ§Ú©Ø´ÙĨ":4707,"ĠØ§ÙģØªØ§Ø¯":4708,"ĠØ¹Ø¨Ø§Ø³":4709,"ĠÚ©Ø§Ø±ÛĮØ§Ø¨ÛĮ":4710,"Ø§Ø¨ÙĩØ§Ø±":4711,"ĠØ§Ø±Ø²Ø´ÛĮ":4712,"ĠÙħØªØ¹Ø¯":4713,"ĠÛµÛ°":4714,"ĠØŃÚ©Ùħ":4715,"ĠØ¨Ø§ÛĮØ³Øª":4716,"ĠÙ¾ÙĦØ§Ø³":4717,"ĠØ¹Ø²ÛĮØ²Ø§ÙĨ":4718,"ĠÙ¾ÛĮØ±Ø§ÙĩÙĨ":4719,"ĠØ³ØªØ§Ø±Ùĩ":4720,"ĠØªÙĦÙģÙĨÛĮ":4721,"ĠØ¹Ø¨Ø§Ø±ØªÙĨØ¯":4722,"ĠØªØ¶ÙħÛĮÙĨÛĮ":4723,"ĠÙħÙĤØ±Ø±":4724,"ĠÙħØ¶Ø§Ø¹":4725,"ĠØ§ÙħÛĮØ¯ÙĪØ§Ø±Ùħ":4726,"ĠÙ¾Ø§ÛĮØ¯Ø§Ø±":4727,"://":4728,"PS":4729,"ey":4730,"Ġk":4731,"Ġ????":4732,"ÙħÙĬ":4733,"ÙħÙ¾":4734,"Ú©Ø§":4735,"ĠØ¨ÙĪØ´":4736,"Ø³Ø±ÙĪ":4737,"ĠÙĪØ§ÛĮØª":4738,"ĠÚ©ÙĦØ§":4739,"ÙģØ§Ø¹":4740,"Ø²Ø¨":4741,"ĠØ±Ú¯":4742,"ĠÙĩØ§Ø³Øª":4743,"ĠØ³ØªÙĪÙĨ":4744,"ÙĤØ¯":4745,"Ø¹Ø§":4746,"Ø¹ÙĦ":4747,"ĠØ®ÙĨÚ©":4748,"Ø¬ÙĪÛĮ":4749,"Ø¬Ø§ÙĨÛĮ":4750,"ĠØ¬Ú©":4751,"ØµØ§Ø¨":4752,"ĠØ§ÛĮÙĨÚ¯ÙĪÙĨÙĩ":4753,"ĠÙĤØµÙĩ":4754,"ĠÙĤØ§ØµØ¯Ú©":4755,"ĠØ²ÙĨØ¯Ø§ÙĨ":4756,"ĠÚĨÙĦ":4757,"ĠÚĨØ±Ø¨":4758,"ĠÚĨØ³Ø¨":4759,"ÙĪÛĮØ§":4760,"ĠØ·ÙĦØ¨":4761,"ĠØ§Ø±Ø§ÛĮÙĩ":4762,"ĠÙħØ¹Ø¯Ùĩ":4763,"ĠÙħØ¹Ø§Ø¯ÙĦ":4764,"ĠÙħØ¹Ø¸Ùħ":4765,"ĠÙħØ´ØºÙĪÙĦ":4766,"ĠÙħØªÙĨÛĮ":4767,"ÙĪØ±ÛĮØ§ÙĨ":4768,"ĠÙħØ³Ú©":4769,"ĠÙĨØ¸Ø±ÛĮ":4770,"Ø§Ø¦ÛĮØ¯":4771,"ĠØ¨Ø¯ÙĨÙĩ":4772,"Ø§ÙĬØ¯":4773,"Ø§ÙĨØ¯Ø§Ø²ÛĮ":4774,"ĠØ§Ø¨Ø±":4775,"ĠØ¬ÙĩØ§Ø¯":4776,"Ġ320":4777,"ĠØªÙĤØ§Ø¶":4778,"ĠÙħØ®ÙĦÙĪ":4779,"ĠÙ¾ÙĪØ³ØªÙĩ":4780,"ĠØ¬ÙĨÙĪØ¨ÛĮ":4781,"ĠÙ¾Ø²Ø´Ú©Ø§ÙĨ":4782,"ĠÙĤØ·Ø±Ùĩ":4783,"ĠØ¬Ø§ÛĮÚ¯Ø§Ùĩ":4784,"ĠØ¬ÙĦÙĪÛĮ":4785,"Ø·Ø±ØŃ":4786,"ĠÙħØŃÛĮØ·ÛĮ":4787,"ĠØ§Ø³ØªØ§ÙĨØ¯Ø§Ø±":4788,"ĠÙĨØ¨ÙĪØ¯Ùĩ":4789,"ĠÙħØ¹ÙĨÙĪÛĮ":4790,"ĠØ¬Ø¯ÙĬØ¯":4791,"ÙĢÙĢÙĢÙĢÙĢÙĢÙĢÙĢ":4792,"ĠÙħÙĪÙĤØ¹":4793,"ĠØ¯Ø³ØªÛĮØ§Ø¨ÛĮ":4794,"ĠÙħØŃØ¯ÙĪØ¯ÛĮØª":4795,"ĠÙħÛĮÚ©Ø±ÙĪ":4796,"ĠØ§ÙĨÚ¯ÛĮØ²":4797,"ĠÙĦØ²Ø¨ÛĮÙĨ":4798,"ĠØ´ØºÙĦ":4799,"ĠØ¨Ø±ÙĤØ±Ø§Ø±":4800,"ĠÙĨÛĮÚ©ÙĪÙĨ":4801,"ĠØŃÙģØ§Ø¸Øª":4802,"ĠÙħØ·ÙħØ¦ÙĨ":4803,"ĠØŃØ§Ø´ÛĮÙĩ":4804,"ĠØªØ¯ÙĪÛĮÙĨ":4805,"ĠØ¯ÙħÙĪÚ©Ø±":4806,"ØµÙĨØ¹Øª":4807,"ĠÙħØµÙĨÙĪØ¹ÛĮ":4808,"ĠÙħØ¶Ø§Ø¹Ùģ":4809,"TS":4810,"ct":4811,"Ð½":4812,"Ġre":4813,"Ø§ÙĪØ±ÛĮ":4814,"ÙĨØ§Ú©":4815,"ÙħØ¬ÙħÙĪØ¹Ùĩ":4816,"ĠÙħØªÙĩÙħ":4817,"ĠØ¯Ø§ÛĮ":4818,"ĠØªÙĬÙħ":4819,"ĠÙĨÚ©ÙĨØ¯":4820,"ĠØ³ÙĪØ±Ùĩ":4821,"ĠØ¢Ùĩ":4822,"ÙĤØ§ÙĨ":4823,"Ø§ÙĦÙħÙĩ":4824,"ĠØ¨ÙĩØ²ÛĮØ³ØªÛĮ":4825,"ĠÙ¾Ø³ØªØ§ÙĨ":4826,"ĠÙģÙĩÙħ":4827,"ĠØ¨Ø±ÙĪØ¯":4828,"ĠÚ¯ÛĮÙħ":4829,"ÛĮÙĨØ§":4830,"ĠØŃÙĤÛĮÙĤØª":4831,"ĠØ§Ùī":4832,"ĠÚ©Ø§Ø±Ø®Ø§ÙĨÙĩ":4833,"Ø§Ø¹Ø¯":4834,"ÛĮØªÙĪÙĨ":4835,"ĠØ¢ÙħÙĪ":4836,"Ø§ØŃØªÛĮ":4837,"ĠÙħØ¯ØªÛĮ":4838,"Ø±ÛĮÙĨØªØ±":4839,"ĠØ±ÙĪØ³ÛĮ":4840,"ĠØºÙģ":4841,"ĠÙħØ¬Ø¯Ø¯":4842,"ĠÚ©Ø´Ùģ":4843,"ĠÙĤØ±ÙħØ²":4844,"ĠØ¨Ø§Ø²ÛĮÚ©ÙĨØ§ÙĨ":4845,"ÙĥØ²":4846,"ĠÙĩØ³ØªÛĮ":4847,"Ø±Ø³Ø§ÙĨÛĮ":4848,"ĠØªÙĪØ§ÙĨØ³Øª":4849,"ĠØ±Ø³ÙĪÙĦ":4850,"ĠÚ©ÙĦØ§Ùĩ":4851,"ÙħØ¯ÛĮØ±":4852,"ĠØ³Ø§Ø®ØªÙħØ§ÙĨÛĮ":4853,"ĠØ§ØªØµØ§ÙĦ":4854,"Ù¾ÛĮØ´":4855,"ĠØ±Ø§ÛĮØ¬":4856,"ĠÙģØ§Ø±Øº":4857,"ĠØ¨Ø²Ø±Ú¯ØªØ±ÛĮÙĨ":4858,"ĠØ¢Ø±Ø´ÛĮÙĪ":4859,"ark":4860,"Ø¨Ø§ÙĦÙĩ":4861,"ĠØªÙĪØ¬ÙĩÛĮ":4862,"ĠØ³ÙĦØ³ÙĦÙĩ":4863,"ĠÙħØ·Ø§ÙĦØ¨Ø§Øª":4864,"Ø®ÙĪØ§ÙĩÙĨØ¯":4865,"ĠÚ¯ÙĪÛĮØ¯":4866,"ĠÚ¯Ø³ØªØ±Ùĩ":4867,"ĠÙ¾Ø§Ø´ÙĨÙĩ":4868,"ĠØ±ÙģØ§Ùĩ":4869,"ĠÙĤÙĦØ§Ø¨":4870,"ĠØ¹Ø¶ÙĪÛĮØª":4871,"ĠÙ¾ÛĮØ±Ø§ÙħÙĪÙĨ":4872,"ĠØ§ØŃØªÙħØ§ÙĦØ§":4873,"ĠØµØ±ÙģØ§":4874,"ĠÙħÙĤØ§ÙĪÙħ":4875,"ĠÙħÙĪÙĦÙĪØ¯ÛĮ":4876,"ĠÙģÛĮØ²ÛĮÚ©ÛĮ":4877,"ĠÙĤØ·Ø¹Ø§":4878,"ĠØ¯Ø´ÙħÙĨØ§ÙĨ":4879,"ĠØ§Ø®ØªØµØ§ØµÛĮ":4880,"ÙĨÙĤØ§Ø´ÛĮ":4881,"ĠØ¨Ø¨ÛĮÙĨÛĮØ¯":4882,"ĠZoom":4883,"ĠÙģØ±Ø§ÙħÙĪØ´":4884,"ĠØ§Ø±Ø¯Ø¨ÛĮÙĦ":4885,"ĠÙĪØ¹Ø¯Ùĩ":4886,"ĠØªØ§Ø³ÛĮØ³":4887,"ĠØ¨Ø§Ø±Ø¯Ø§Ø±ÛĮ":4888,"ĠØªÚ©ÛĮÙĩ":4889,"ĠØªØ¨ÙĦØª":4890,"ĠÙħØªØ¹Ø¯Ø¯ÛĮ":4891,"ev":4892,"Ø§ÙĪØ´":4893,"ÙĨÙĪÛĮØ³ÛĮ":4894,"Ø¯Ø§ÛĮ":4895,"ÙħØ¬":4896,"ĠØ¨Ø¯ÛĮ":4897,"ĠØ¨Ø§Ø·":4898,"ĠØ¨ØªÙĨ":4899,"ĠØ¨Ù¾Ø±Ø¯Ø§Ø²":4900,"ĠØ¨Ø§ØªØ±ÛĮ":4901,"ĠÙħÙĪÙĨ":4902,"ĠÙħØ§Ø¯ÛĮ":4903,"Ø§ÙĨØ¹":4904,"ĠÚ©Ø±ÙĪÙħ":4905,"Ú¯Ø§":4906,"Ø§ÙħÛĮØ¯":4907,"Ø¬Ø§Øª":4908,"ĠØ§Ø³ÛĮØ¯":4909,"Ø³ØªØ±ÛĮ":4910,"Ø®ÙĦ":4911,"ĠØ¨Ø±Ø·Ø±Ùģ":4912,"ĠÚ¯ÛĮØª":4913,"ÛĮÙĨØ§ÙĦ":4914,"ĠØ²Ø¨Ø§ÙĦÙĩ":4915,"ĠÚĨØ·ÙĪØ±":4916,"ĠÚĨØ§Ø¨ÙĩØ§Ø±":4917,"ĠØ§ÙĨØ²":4918,"ÙĪÙĦØª":4919,"ĠØ·ÙĪØ±ÛĮ":4920,"Ø¸Ø±":4921,"ØªÙĩØ±Ø§ÙĨ":4922,"ĠÙĪÛĮØªØ±":4923,"ĠØªÙĪÙĤ":4924,"ØºÛĮØ±":4925,"Ø§Ø®ÙĪØ±ÛĮ":4926,"Ø§ÙģÙĨØ¯":4927,"ĠØ³Ø±ÙĤØª":4928,"ĠØ®ÙĪØ§Ø³ØªÙĩ":4929,"ÙĪØ±ÛĮØªÛĮ":4930,"ĠÚ©Ø´ØªÛĮ":4931,"ĠØ³Ø§Ø²ÙĨØ¯Ùĩ":4932,"ĠØªØŃÙĪÛĮÙĦ":4933,"ĠÚ¯Ø±Ø§ÛĮØ´":4934,"ĠÙħÙĩØ§Ø¬":4935,"ÙĥØª":4936,"Ø®ØªÙĨ":4937,"ĠØ§Ø¹ØªØ±":4938,"ĠÚ©ÙĦÛĮØ¯ÛĮ":4939,"Ø±Ø¨Ø®Ø´":4940,"ÙĦØ¨Ø§Ø³":4941,"ĠØ´ÙĩØ¯Ø§":4942,"ĠØ§Ø·ÙĦØ§Ø¹ÛĮÙĩ":4943,"ĠÙ¾Ø±ØªØ§Ø¨":4944,"ĠØ¹ÙĨØ§ØµØ±":4945,"ĠØ¨Ø§ÙĨÙĪØ§ÙĨ":4946,"ĠØºØ°Ø§ÛĮ":4947,"ĠÙĪØ¨Ø³Ø§ÛĮØª":4948,"ĠØ³Ø·ÙĪØŃ":4949,"ĠØ§ÙģØªØ§Ø¯Ùĩ":4950,"ĠÙĪØ³Ø·":4951,"ĠÙģØ±ÙĩÙĨÚ¯ÛĮØ§ÙĨ":4952,"ĠØ¨Ø®Ø§Ø±":4953,"ĠÙĪØ§ØŃØ¯ÙĩØ§ÛĮ":4954,"ĠØ±ÙĪØ§ÙĨÛĮ":4955,"ĠØ§ÙĨØªÙĤØ§Ø¯":4956,"ĠØ³Ø®ÙĨØ§ÙĨ":4957,"ĠØ±ÙĪØ´ÙĨØ§ÛĮÛĮ":4958,"ĠØ´Ø§ÙĩÙĨØ§ÙħÙĩ":4959,"ĠØ¢Ù¾Ø§Ø±Ø§Øª":4960,"ĠÙģØ±Ø§ÙĪØ§ÙĨ":4961,"ĠÙģØ±Ø§ÙĪØ§ÙĨÛĮ":4962,"Ø¬Ø§ÙħØ¹Ùĩ":4963,"ĠØ¬Ø¯Ø§Ú¯Ø§ÙĨÙĩ":4964,"ect":4965,"ØªØºØ§ÙĦ":4966,"ĠØ¬Ø¹Ø¨Ùĩ":4967,"ĠØ§Ú©Ø³ÛĮØ¯":4968,"ĠØ¹ÙģÙĪÙĨØª":4969,"ĠØ§Ø³ØªØ±Ø§ØªÚĺÛĮ":4970,"ĠØ·Ø§ÙĩØ±ÛĮ":4971,"ĠØ±Ú©ÙĪØ±Ø¯":4972,"ĠÙĤÛĮÙħØªÛĮ":4973,"ĠØ¯Ú©ÙĪØ±Ø§Ø³ÛĮÙĪÙĨ":4974,"ub":4975,"Ð¸":4976,"Ø¯ÙĨÛĮ":4977,"ÙĪØ§Ø²":4978,"ÙħØ·":4979,"ĠØ¨ÙĦÙĩ":4980,"ĠØ¨Ú¯ÙĪ":4981,"Ø§ÙĨÚ¯ÛĮ":4982,"Ø§Ø±Ø³ØªØ§ÙĨ":4983,"Ú¯Ø²Ø§Ø±":4984,"ĠØªØ²ÛĮ":4985,"ĠØ±Ø§Ø²":4986,"ĠÙĨØ§Øª":4987,"Ø¹Ø§Ø±":4988,"Ø§ÙĦØŃ":4989,"ĠÙ¾Ø§ÛĮÛĮ":4990,"ÙĬÙģ":4991,"ĠÙģØ³":4992,"ĠØ¹ÛĮØ¯":4993,"ĠØ¹ÙĦØ§Ùħ":4994,"ØµÙĦÛĮ":4995,"Ø·ÙĪ":4996,"ĠØ²ÛĮØªÙĪÙĨ":4997,"ĠÚĨÙĤØ¯Ø±":4998,"Ø§Ø¹Ø¯Ùĩ":4999,"ĠÙħØ±Ø¨ÛĮ":5000,"Ø«ÙĨ":5001,"ĠÙħØ´Ú©ÙĦÛĮ":5002,"ĠÙħØªÙĪÙĨ":5003,"Ø§ÙģØ±Ø§":5004,"ÙĤÛĮÙĤÛĮ":5005,"ĠØ¯ÛĮÙģÙĨØ¯":5006,"ĠÙĩØ±ÚĨÙĩ":5007,"ÙĥÙĬ":5008,"ĠÚ©ÙħØ±Ø¨ÙĨØ¯":5009,"ĠØ³ÛĮØ¨":5010,"ÙĢÛĮ":5011,"ÙĪØªØ±ÛĮ":5012,"Ù¾Ø¯ÛĮØª":5013,"ĠÚ¯ÙģØªØ§Ø±":5014,"Ġ95":5015,"ĠØ´ÛĮØ±ÛĮÙĨÛĮ":5016,"ĠØ¨Ø²Ø±Ú¯ØªØ±":5017,"Ø±ÛĮÚ©Ø§":5018,"ĠSI":5019,"ĠØºÛĮØ±Ùĩ":5020,"ĠÙħØ¹ÙħÙĪÙĦ":5021,"ĠØ§Ø¬ØªÙħØ§Ø¹":5022,"Ú©ÙĨÙĨØ¯Ú¯Ø§ÙĨ":5023,"ĠÙģÙĦØ²":5024,"ĠÙħÙĦÙĬ":5025,"ĠÚĺØ§ÙĨ":5026,"ĠØ³ÙĨÚ¯ÛĮÙĨ":5027,"ation":5028,"ĠØ¬ÙĦØ³Ø§Øª":5029,"2018":5030,"ĠÙħÙĩØ±Ø§Ø¨":5031,"ĠØ¢Ø°Ø±":5032,"ĠÙģØ±ÙħØ§ÛĮÛĮØ¯":5033,"ĠÚ©Ø§ÙħÙ¾ÛĮÙĪØªØ±ÛĮ":5034,"ĠÙĤØ¨ÙĦØ§":5035,"ĠØŃÚ©Ø§ÛĮØª":5036,"ĠÙĨØ§Ú¯Ùĩ":5037,"ĠØ¨Ø³ØªØ±":5038,"Ġht":5039,"ĠØ¨ÙĬØ´ØªØ±":5040,"ĠØŃØ³Ø§Ø¨Ø¯Ø§Ø±ÛĮ":5041,"ĠØ¶Ø±ÙĪØ±Øª":5042,"ĠØŃÛĮÙĪØ§ÙĨ":5043,"ĠØ¨ÛĮÙħØ§Ø±Ø³ØªØ§ÙĨ":5044,"ĠØ¯ÙĤÛĮÙĤØ§":5045,"ĠÙħØ¤Ø³":5046,"ĠØ³Ø®ÙĨØ±Ø§ÙĨÛĮ":5047,"ĠØ¢Ø´Ù¾Ø²":5048,"ĠÙģØ§Ø·ÙħÛĮÙĩ":5049,"ĠÙĦØ²ÙĪÙħ":5050,"ØŃØ³ÛĮÙĨ":5051,"ĠØªØŃÙĪÙĦØ§Øª":5052,"ĠØ³Ø±Ú¯Ø±Ùħ":5053,"ĠØ°Ø®ÛĮØ±Ùĩ":5054,"ĠØ¨ØµÛĮØ±Øª":5055,"ĠØ¨ÙĦÙĪÚĨØ³ØªØ§ÙĨ":5056,"ĠØµÙĦÛĮØ¨ÛĮ":5057,"ĠØ§ØŃØªØ±Ø§Ùħ":5058,"ĠÙħØ³Ú©ÙĪÙĨÛĮ":5059,"ĠÙħØ®ÙĦÙĪØ·":5060,"ĠÙĪÛĮØªØ±Ø§ÛĮ":5061,"Ø§ÙģØ±Ø§Ú¯Ùħ":5062,"24":5063,"53":5064,"90":5065,"eg":5066,"Ġ{":5067,"ĠØ¨Ø²":5068,"ĠØ¨Ø´Ø±":5069,"ĠØ¨ÙĤÛĮÙĩ":5070,"ĠÙħØ§Ø¬Ø±":5071,"ĠØ¯Ø§Øº":5072,"Ø³Ø§Ùħ":5073,"ĠÙĪØ¢":5074,"Ø´ÙĪÙĨ":5075,"Ø§Ø±Ø³Ø§ÙĦ":5076,"ĠØ±Ø¨":5077,"ĠØ±Ø¯Ùĩ":5078,"ĠØ³Ú©ÛĮ":5079,"ĠØ³Ø§ÙĬØª":5080,"ĠØ´ÙĦÙĪ":5081,"ĠØ¢Ø³ØªØ§ÙĨÙĩ":5082,"ĠØ®Ùħ":5083,"Ø¬Ø²":5084,"ĠØ§Ø³ÙģÙĨØ¯":5085,"ÙĬÙĬÙĨ":5086,"ÛĮØ¯Ùħ":5087,"Ø®ÙĪØ¯":5088,"Ø®ÙĪØ±Ø¯":5089,"ĠØ§Ø³ØªØ±Ø³":5090,"ĠØ§Ø³ØªÙĤÙĦ":5091,"ĠÛĮÙĥ":5092,"ĠØŃØ²Ø¨":5093,"ĠØ²Ø±":5094,"ĠÚĨÙ¾":5095,"Ø¶ÙĦ":5096,"Ø³ÛĮÙĦÙĩ":5097,"ĠØµÙĦØ§ØŃ":5098,"ĠÙħØ¹ÙĦÙħØ§ÙĨ":5099,"ĠÙĨÙħÚ©":5100,"ĠÙħØ´Ø±ÙĪ":5101,"ĠØ³ÙĪØ¡":5102,"ĠØ§Ø¹ØªÙĤ":5103,"ĠØ±ÙĪØ²ÙĩØ§":5104,"ÙĪØ³Ùģ":5105,"ĠØ§Ø´ÛĮ":5106,"ØŁ!":5107,"ĠÛ±Û±":5108,"ĠØ§ØŃØ¯":5109,"ĠÙħØ§ÙĨØ¹":5110,"ĠØ¨Ø²Ø±Ú¯ÛĮ":5111,"ĠØ¨ÙĨÙĪÛĮØ³":5112,"ÚĨØªÚ¯ÙĦØ´ÙĨ":5113,"Ġ2015":5114,"ĠÚ©ÙĪÛĮÙĨ":5115,"ĠØ®Ø·ÙĪØ·":5116,"ÙĳÙİ":5117,"ĠØ¬ÙĪØ§Ø¯":5118,"âĢ¦âĢ¦":5119,"ĠØªØ±Ú©ÛĮØ¨ÛĮ":5120,"ame":5121,"ĠØŃØ¬Øª":5122,"ĠÙģØ±ÙĪØ´Ú¯Ø§ÙĩÛĮ":5123,"ØªØŃÙĤÛĮÙĤ":5124,"ĠØ§Ø¶Ø·Ø±":5125,"ĠÙ¾Ø§Ø±Ø³ÛĮ":5126,"ĠØªØµÙĪÛĮØ¨":5127,"ĠÙģØ±ÙħØ§ÙĨØ¯Ùĩ":5128,"ĠÙħÛĮÚ©Ø±ÙĪÙģ":5129,"ĠÙģÛĮØ²ÛĮÚ©":5130,"ĠÚ©ÙħÙ¾Ø§ÙĨÛĮ":5131,"ĠÙ¾Ø¯ÛĮØ¯Ùĩ":5132,"ĠØ§Ø¯Ø±Ø§Ø±ÛĮ":5133,"ĠÙ¾Ø±ÙĪØªØ¦ÛĮÙĨ":5134,"ĠØ´ÛĮÙħÛĮØ§ÛĮÛĮ":5135,"ĠØ§ÙģØ·Ø§Ø±":5136,"Ø§Ø·ÙĦØ§Ø¹ÛĮÙĩ":5137,"ĠØ¯ÛĮÙģÙĨØ¯Ø±":5138,"LR":5139,"ial":5140,"oy":5141,"ÙĨØ¨":5142,"ØªØ§ØŃ":5143,"Ø³ÙĪÛĮ":5144,"Ø³ÙħÙĩ":5145,"ĠØªÙĨÚ¯":5146,"ĠØ±ÙĬ":5147,"ĠØ±Ú©ÙĨ":5148,"ĠØ±ÙĨØ¬":5149,"Ø§ÙħØ¹":5150,"ĠÙħÛĮØ³":5151,"ĠÙħÛĮÚ©ÙĨÙħ":5152,"ĠÙģØ§ÛĮ":5153,"ĠØ¨Ø±ÙħÛĮ":5154,"ĠØ¬Ø§Ø¯Ùĩ":5155,"ĠÛĮØ§Ø¨":5156,"Ø§Ø³ÙĬ":5157,"ĠØŃØ¯ÛĮ":5158,"Ú©ÛĮØ¬":5159,"ĠÙħÙĨØ¹":5160,"ĠØ§Ø±Ø¨Ø¹":5161,"ĠØ§ÙĦÚ¯ÙĪÛĮ":5162,"Ø§ØŃÚ©Ø§Ùħ":5163,"ĠÙģØ±ÙĨÚ¯ÛĮ":5164,"ĠÙħØ±Øª":5165,"ĠØ¯ÛĮØ§ÙģØ±Ø§Ú¯Ùħ":5166,"Ø¯Ø±Ø¨Ø§Ø±Ùĩ":5167,"ĠØªØŃÙħÙĦ":5168,"ĠÙĩØ³ØªÙħ":5169,"Ø±ÙĩØ¨Ø±":5170,"ĠØªØ¹Ø§ÙħÙĦ":5171,"ĠÙħØ·ÙĦÙĪØ¨":5172,"ĠØ±ÙĪÛĮØ§ÙĨ":5173,"ĠØ±ÙĪØ²ÙħÙĨ":5174,"ĠØ¶Ø¹ÛĮÙģ":5175,"ĠÚ¯ÙģØªÙĨØ¯":5176,"ĠØ´ÛĮØ®":5177,"ÙİÙĳ":5178,"ĠÚ©ÛĮÙģÛĮ":5179,"ĠÙ¾Ø±Ø¯Ø§Ø®ØªÙĩ":5180,"ĠÙħØªÙĨØ§Ø³Ø¨":5181,"ÙĩØ§ÙĬÙĬ":5182,"ĠÚ©Ø§ÙĦØ§ÙĩØ§ÛĮ":5183,"ĠÚ©Ø§ÙĦÚ©Ø´ÙĨ":5184,"Ġ138":5185,"ĠÙ¾ÙĬÙĪÙĨØ¯":5186,"ĠÙħØªØ¹Ø¯Ø¯":5187,"ĠÙħÙĪØ³Ø³Ø§Øª":5188,"ĠÙħØ³Ø¦ÙĪÙĦÛĮÙĨ":5189,"ĠØ¨ÙĬØ§ÙĨ":5190,"ĠØ¯Ø¹Ø§":5191,"ĠÙħØªØ®ØµØµØ§ÙĨ":5192,"ĠÙħÙĤØ§ÙħØ§Øª":5193,"ĠÙħØ¤Ø«Ø±":5194,"ĠÙĪØ§ÙĦØ¯ÛĮÙĨ":5195,"ĠØ®ÙĦØ§ÙĤÛĮØª":5196,"ĠÙħÚ©Ø§ÙĨÛĮÚ©":5197,"ĠØµØ§Ø¯Ø±Ø§Øª":5198,"ĠØ²ÛĮÙĨØ¨":5199,"ĠÙĪØ§Ø³Ø·Ùĩ":5200,"ĠÚĺØ§Ù¾ÙĨ":5201,"ĠBlack":5202,"ĠØºÙģÙĪØ±ÛĮØ§ÙĨ":5203,"ap":5204,"ast":5205,"eb":5206,"Ù«":5207,"ÙĪÙĬ":5208,"ÙħØ§Ùħ":5209,"Ú©ÙĪØ³":5210,"ĠØ¨Ùħ":5211,"ĠØ¨ÙĦØ§":5212,"ĠØ¨Ú¯ÛĮØ±ÙĨØ¯":5213,"ĠÙħÙĪÙĨØª":5214,"Ø§ÙĨØ¯ÛĮ":5215,"ĠØ¯Ø¨ÛĮ":5216,"ĠÙĪÚ©ÛĮÙĦ":5217,"ĠÚ©Ø§Ø´Øª":5218,"ĠÙĨØ²":5219,"ĠÙĩØ¬":5220,"âĢ¢":5221,"ĠØ®Ø±Ùħ":5222,"ĠØ®ÙĦÙĤ":5223,"ÙĬØ¹":5224,"ĠØ¨Ø±Ø§Ùī":5225,"ĠÚ¯Ø´":5226,"ĠØ¬Ø³":5227,"ĠØ¬ÙĪÛĮ":5228,"ÛĮÙĨÙĪ":5229,"Ø·Ø¨ÛĮ":5230,"ĠØŃÛĮÙĨ":5231,"ĠØŃØ³Ø¨":5232,"ĠØ§ÚĨ":5233,"ĠÙĤÙħ":5234,"ĠØ²Ø§ÛĮ":5235,"ĠØ²Ø§Ø¦":5236,"Ù¾ÙĦÙħ":5237,"ĠÚĨØ§Ø±ÚĨ":5238,"ĠÙĩÙħØ¯Ø§ÙĨ":5239,"ÙĪØ§ÙĨÙĩ":5240,"Ø§Ø±ÛĮØ®":5241,"ĠØµÙħØ¯":5242,"Ø°Ø±":5243,"ĠØ§Ø±Ø³":5244,"ĠØ§ÙĦÙģ":5245,"ÙĪØ´Ø§Ù¾":5246,"ĠÙħØ¯Ø§Ø±Ú©":5247,"ĠÙħØªÙĪÙĤ":5248,"ĠØ¯Ø³ØªØ±Ø³":5249,"ĠØ³Ø§ÙĦØ§ÙĨÙĩ":5250,"ĠØ´Ø±Ø·":5251,"Ġ11":5252,"ĠÙĥÙĨØ¯":5253,"ĠÙĥÙĪØ¯":5254,"Ġ25":5255,"ĠÚ©ÙħØ±":5256,"ĠØ¨Ø¯ÙĨÛĮ":5257,"ĠØªØ¹ÙĪÛĮØ¶":5258,"ĠØ±Ø³Ø§ÙĨØ¯":5259,"ĠÙħØ·Ø§Ø¨ÙĤ":5260,"ĠØ§Ø¹Ø·":5261,"ĠØ§Ø´ØªØºØ§ÙĦ":5262,"ĠØ§ÙĤØ§ÙħØª":5263,"Ú©Ø§Ø±Ø¨Ø±Ø§ÙĨ":5264,"ĠÚ¯Ø°Ø±":5265,"ĠØ§ØŃÙħØ¯ÛĮ":5266,"ĠÙĩÛĮØ¬Ø§ÙĨ":5267,"ĠØ¨Ø§ÙĨÙĪ":5268,"ĠÙħØ®Ø§ÙĦÙģ":5269,"ĠÙħØªÙĨÙĪØ¹":5270,"ĠÙħØ¹ÙħÙĪÙĦÛĮ":5271,"ĠÙĤØ·Ø¹ÛĮ":5272,"ord":5273,"ĠØ¬Ø§ÛĮØ²Ùĩ":5274,"ĠÙĨØ³Ø¨ØªØ§":5275,"ĠØ§ÛĮØ±Ø§ÙĨÛĮØ§ÙĨ":5276,"ĠÙĩÙħØ§ÙĨÙĨØ¯":5277,"Û°Û°Û°":5278,"ĠØ¨ÙĪØ³ÛĮÙĦÙĩ":5279,"ĠØ´Ú©Ùħ":5280,"ĠØ§ÙģØªØ§Ø¨ÛĮ":5281,"ĠÙĨØ®Ø¨":5282,"ĠØ¯ÙģØ¹":5283,"ĠÚ©Ø±Ø¬":5284,"ĠØ§ÙĦÚ©ØªØ±ÛĮ":5285,"ĠÙĤØ¯Ø±ØªÙħÙĨØ¯":5286,"ÙħØ¹Ø§ÙĪÙĨ":5287,"ĠØ³Ø®ØªÛĮ":5288,"ĠÙĨÚ¯ÙĩØ¨Ø§ÙĨ":5289,"ite":5290,"ĠØ¯Ø§ÙħØ§Ø¯":5291,"ĠØ±ÙĤÙħ":5292,"ĠØ¬Ø³ØªØ¬ÙĪÛĮ":5293,"ĠØ¢Ø±Ø§ÛĮØ´ÛĮ":5294,"ĠØ¨Ø´Ú©Ùĩ":5295,"ĠØ§Ø±ØªÙģØ§Ø¹":5296,"ĠÚ©ÙħÙ¾ÛĮÙĨ":5297,"ĠØ´ØºÙĦÛĮ":5298,"ĠØ¯Ø§ÙĪØ·ÙĦ":5299,"ĠÙĤØ±Ø§Ø±Ø¯Ø§Ø¯":5300,"ĠØ±Ø§Ø¯ÛĮÙĪ":5301,"ĠØªØ§ÛĮÙ¾":5302,"ĠØŃÛĮÙĪØ§ÙĨØ§Øª":5303,"ĠØ§Ø³ØªÙĤÙĦØ§ÙĦ":5304,"NA":5305,"gram":5306,"ng":5307,"riv":5308,"ÙĨØ§Øª":5309,"ÙĨÙĬÙĨ":5310,"ØªÙĪÙĦ":5311,"ĠØ¨Ø§ÙĨØ¯":5312,"ĠØ¯Ø³Ø±":5313,"Ø´ÛĮØ±":5314,"Ø´Ø§ÙĩÛĮ":5315,"ĠÚ©Ø§Ø¯Ø±":5316,"ĠÚ©Ø±ÛĮÙħ":5317,"Ø¨ÙĪÙĦ":5318,"ĠÙĨØ¨Ø§Ø´":5319,"ĠÙĩØ§Ø±":5320,"âĢĵ":5321,"ĠØ³ÙĨØ¬ÛĮ":5322,"ĠØ´Ø§Ù¾":5323,"ÙĤØ³ÙħØª":5324,"ÙĤÙĬÙĤ":5325,"Ø¹Ø·Ø±":5326,"ĠÙ¾ÙĦÙĪ":5327,"ĠØ®Ø³":5328,"ĠØ®ÙĪÛĮØ´":5329,"Ø¬Ø§Ø±":5330,"ĠØ§Ø³Ø§Øª":5331,"ÛĮØ¯Ú¯ÛĮ":5332,"Ø®ØªÛĮ":5333,"ĠÙģÚ©Ø±ÛĮ":5334,"ĠØ¹ÙĬÙĨ":5335,"ĠØ§Ø³ØªØ§Ø±Øª":5336,"ĠØ¬Ø§ÙĪ":5337,"Ø·ÙĪØ¨":5338,"ĠØ§ÙĪØ²":5339,"ÙĦÛĮØ³Øª":5340,"ĠØ¢ÙĨØ±Ø§":5341,"ĠÙĦÙħØ³":5342,"ĠØµØ§Ùģ":5343,"ĠØµÙĦØŃ":5344,"ĠÚ©Ø§Ø±ÙĩØ§":5345,"ĠØ§ÙĦØ¯":5346,"Ø§ÙĨÛĮÛĢ":5347,"ĠÛ°":5348,"ĠÙħØ±Ø·ÙĪØ¨":5349,"ĠÙħØ¹Ø§ÙħÙĦÙĩ":5350,"ĠÙĨÙħÙĬ":5351,"ĠÙ¾ÛĮÚ©Ø³ÙĦ":5352,"ĠÙħØ¯Ø§Ø±":5353,"Ø§ÙģØ²Ø§Ø±":5354,"ĠØ±ÙĪÙĬ":5355,"ĠØ±ÙĪØ¶Ùĩ":5356,"Ø²ÛĮÙĩ":5357,"ĠÚ©Ø´ÛĮØ¯Ùĩ":5358,"ĠÙħØ³ÙĦØŃ":5359,"ĠØ¯ÙĩÛĮ":5360,"Ġ16":5361,"ÙĥØ§ÙĨ":5362,"ĠØ³ÛĮØ³ØªØ§ÙĨ":5363,"ĠØ§Ø¹ØµØ§Ø¨":5364,"ĠØ¶Ø±ÛĮØ¨":5365,"ĠØ´ÙĩØ±ÙĩØ§ÛĮ":5366,"ÙĪØ³ØªØ±":5367,"ĠÙĩÛĮØ¦Øª":5368,"ØªÙĪØ¬Ùĩ":5369,"Ø¬ÛĮØŃ":5370,"ĠÛ²Û´":5371,"ĠÙħØ®ÙģÛĮ":5372,"ĠØ³ÙĩÙħ":5373,"ĠÙ¾Ø§Ø³Ø®Ú¯ÙĪÛĮ":5374,"ĠÚ©Ø§ÙĨÙĪÙĨ":5375,"ĠÙĦÛĮÚ¯":5376,"ĠÙħÚ©Ø§ÙĦÙħÙĩ":5377,"ĠÚ©Ø§ÙĦØ§ÛĮ":5378,"ĠÙħÙģØµÙĦ":5379,"ĠØ¨ÙĪØ¬ÙĪØ¯":5380,"ĠØ¬Ø²Ø¡":5381,"ĠØªØ®ØµØµ":5382,"ĠØ³ÛĮÙĨØ§":5383,"ĠØ´ÙĩØ±ÛĮÙĪØ±":5384,"ash":5385,"ĠØ¯ÙĨØ¯Ø§ÙĨÙ¾Ø²Ø´":5386,"ĠÙħØŃÙħØ¯Ø±Ø¶Ø§":5387,"ĠÙĨÙĬØ³Øª":5388,"ĠØ¨Ø³ØªÚ¯ÛĮ":5389,"ĠØ¶Ø±Ø±":5390,"ĠÙĩØ´Ø¯Ø§Ø±":5391,"ĠØ´ÙĩØ±ÙĪÙĨØ¯":5392,"ĠØ§ÙĨÚ¯ÛĮØ²Ùĩ":5393,"ĠÙħØ±Ø§ÙĤØ¨":5394,"ĠØ¯Ø±ÛĮØ§ÛĮÛĮ":5395,"ĠÙ¾Ø¯Ø§ÙģÙĨØ¯":5396,"ĠØ¨Ø§Ø²Ø±Ú¯Ø§ÙĨÛĮ":5397,"ĠØ§Ø±ØªÙĤØ§Ø¡":5398,"ÙħØ´Ø§ÙĪØ±Ùĩ":5399,"ĠØ§ÙģØªØ®Ø§Ø±":5400,"ĠÙĤÙĩÙĪÙĩ":5401,"ĠØ§ÙĨÚ¯ÙĦØ³ØªØ§ÙĨ":5402,"ĠØ§ØŃØ¯Ø§Ø«":5403,"27":5404,"her":5405,"Ø¥":5406,"Ġ*":5407,"ÛĮØ§Ø¯":5408,"ÙĩØ²":5409,"Ú©ÙĪØ¯":5410,"ĠØ¨Ú©ÙĨ":5411,"ĠØ¨ÙĦØ§Ùħ":5412,"ĠØ¯Ø³":5413,"ĠØ¯ÙĪÙĨ":5414,"ĠØ¯Ø®Øª":5415,"ĠÚ©Ø§Ø¨":5416,"ĠÚ©Ø¨Ø§Ø¨":5417,"Ø§Ø±ØªÛĮ":5418,"ĠÙĨØ±Ø³":5419,"ĠØ³Ø§Ú©":5420,"ĠØ³Ø¤":5421,"ĠØ´Ø§Ùħ":5422,"ĠØ¢ÙĩÙĨ":5423,"Ø§ÙĦÙħÙĦ":5424,"ĠÙ¾Ø³ØªÛĮ":5425,"ĠØ®Ø§ÙĦ":5426,"ĠØ®Ø³ØªÙĩ":5427,"ĠØ®ÙħÛĮÙĨÛĮ":5428,"ĠØ§ÛĮØ§Ùħ":5429,"Ø®Ø§Øµ":5430,"ĠÙģØ¶Ø§ÛĮÛĮ":5431,"ĠØ¹Ø·":5432,"ĠØ¹Ø§Ø¯Øª":5433,"ØŃÙĤ":5434,"ÚĨÙħ":5435,"ĠØ§Ø³ØªØ«ÙĨ":5436,"Ø³ÛĮØ³":5437,"ÚĺØ§ÙĨØ³":5438,"ĠØ§ÙĦØ¯ÛĮÙĨ":5439,"ĠÙ¾ÛĮÚ©":5440,"ĠÙħØ´ÙĩÙĪØ±":5441,"Ø¨ÙĩÙĩ":5442,"ĠÙħØ¬Ø³ÙħÙĩ":5443,"ĠÙħØ³ÙĦÙħØ§ÙĨ":5444,"ĠÙĨØ¸Ùħ":5445,"ĠØ¹ÙħÙĤ":5446,"ÙĥÙĨØ¯":5447,"ĠØ¯Ø§Ø´ØªÙħ":5448,"ĠØ¹ÙĦØ§Ø¦Ùħ":5449,"ĠØ´ÙĩØ±ÙĬ":5450,"ÙģØ±ÙĤÙĩ":5451,"ĠØ³Ø§Ø²ÙħØ§ÙĨÙĩØ§":5452,"ĠØªÙĨÙĪØ¹":5453,"ĠØ¨Ø§Ø±ÙĪÙĨ":5454,"erry":5455,"ĠØªØ´ÙĪÛĮ":5456,"ĠØ±Ø§ÛĮØŃÙĩ":5457,"ong":5458,"Ġ2016":5459,"ĠØ¯ÙĦØ®ÙĪØ§Ùĩ":5460,"ĠØŃÙħÛĮØ¯":5461,"ĠDownload":5462,"ĠÙĤØ·Ø±":5463,"Ø§ÙģÛĮÚ©ÛĮ":5464,"ĠØªØŃÙĤÛĮÙĤØ§ØªÛĮ":5465,"ĠØ§Ø±ØªØ¨Ø§Ø·ÛĮ":5466,"ĠØ¬ÙĨÚ¯ÙĦ":5467,"ĠØ§Ø«Ø±Ø¨Ø®Ø´":5468,"ĠÙħÙģØ§ØµÙĦ":5469,"Û²Û°":5470,"ĠØ³ÙĦØ§ÙħØªÛĮ":5471,"ĠØ§ÙģØªØªØ§ØŃ":5472,"ĠÙħØ¨ÙĨØ§ÛĮ":5473,"ĠØ®ÙĪØ±Ø´Øª":5474,"ĠÚ©ÙĪÚĨÚ©ÛĮ":5475,"----":5476,"ĠÙ¾ÙĬØ´":5477,"ĠØ§ÙģØ²ÙĪØ¯ÙĨØ¯":5478,"ĠØ¨Ø§Ø¨Ú©":5479,"ĠÙħØ¨ÙĦÙħØ§ÙĨ":5480,"ĠØ¶Ø±Ø¨Ùĩ":5481,"ĠØªØ¹ÙħÛĮØ±Ø§Øª":5482,"ĠØ¯Ø§Ø±ÙĪÙĩØ§ÛĮ":5483,"ĠØ§Ø³ØªØ§ÙĨØ¯Ø§Ø±Ø¯ÙĩØ§ÛĮ":5484,"Ø±ÙĪÛĮØ¬":5485,"ĠÙĤÛĮØ§Ùħ":5486,"ĠØ³ÛĮÙħØ§":5487,"ĠØ¨Ø±Ø¬Ø³ØªÙĩ":5488,"ĠÙħØªØŃØ¯Ùĩ":5489,"ĠÙħØªØŃØ±Ú©":5490,"Ø¢ÙĪØ±Ø¯Ùĩ":5491,"ĠØ±ÙĪÙĨÙħØ§ÛĮÛĮ":5492,"ĠØŃØ³Ø§Ø³ÛĮØª":5493,"ĠÚ¯ÙĨØ§Ùĩ":5494,"ĠØ§ÙĦÚ¯ÙĪÙĩØ§ÛĮ":5495,"ĠØªØ¦Ø§ØªØ±":5496,"ĠÙģØ±ÙĪØ¯Ú¯Ø§Ùĩ":5497,"ĠÙħØ¨Ø§ØŃØ«":5498,"ĠÙģÙĬÙĦÙħ":5499,"ĠØ±Ú©ÙĪØ±Ø¯Ø±":5500,"ĠSID":5501,"ĠØ³Ú©ÛĮÙĪØ±ÛĮØªÛĮ":5502,"ĠÙħÛĮÚ©Ø±ÙĪÙģÙĪÙĨ":5503,"ĠØ§Ø±Ø¨Ø¹ÛĮÙĨ":5504,"ĠÙħØªÙĪÙĤÙģ":5505,"ĠÙĨØ®Ø¨Ú¯Ø§ÙĨ":5506,"ĠØ¨ÙĦØ§ÙħØ§ÙĨØ¹":5507,"97":5508,"oc":5509,"port":5510,"Ġ09":5511,"Ø¯ÙĦ":5512,"Ø¯Ø³ØªÙĩ":5513,"ÙħÙĪØ±":5514,"Ú©Ø´ÛĮ":5515,"ĠØ¨ÙĬÙħ":5516,"ĠÙħÚ¯Ø±":5517,"Ø³ÛĮÙĨ":5518,"ĠØªØ§Ø²":5519,"ĠÙĨØ¹":5520,"ĠÙĨØªÙĪØ§ÙĨ":5521,"ĠÙĨÚĺØ§Ø¯":5522,"ĠÙĩÙĦ":5523,"ĠÙĩÙĪØ±":5524,"ĠØ³Ø§":5525,"ĠØ³Ú©Ùĩ":5526,"Ø±ÛĮØ§":5527,"ĠÙ¾ÙĦØ§Ú©":5528,"Ø¬Ø§ÛĮ":5529,"ĠÚ¯Ø±ÛĮÙħ":5530,"Ø§Ø³Ù¾":5531,"ĠØŃÙĥ":5532,"ĠÙĤÙĪÙĩ":5533,"ĠØ²ÙĪ":5534,"ĠØ²ÙĪÙħ":5535,"ĠØ§ÙħØ§ØªÙĪØ±":5536,"ĠØµÙĩÛĮ":5537,"ĠÚ©ÙĨØ³":5538,"ĠØ¯Ø§Ø±ÙĪÛĮÛĮ":5539,"ĠÙħÙĨÙħ":5540,"Ú¯Ø±ÙģØª":5541,"ĠÙħØŃØª":5542,"ĠÙħØŃØ§Ø³":5543,"ĠÙħØŃÙĦÙĩ":5544,"ĠÙĨÛĮØ§Ø²ÛĮ":5545,"ĠØ§ÙĦØ²":5546,"ĠØ¨ÛĮØ§ÙĨÛĮÛĢ":5547,"Ø§Ø®Ø±":5548,"ĠØªØ±Ø¬ÛĮØŃ":5549,"ĠØ¯ÛĮÙ¾ÙĦÙħ":5550,"ĠØ³Ø§ÙĦÛĮ":5551,"ĠÙħØ¬ÙĩØ²":5552,"Ø§ÛĮØ´Ø§ÙĨ":5553,"ĠÙħØ³Ø¹ÙĪØ¯":5554,"Ø§Ø·Ø±":5555,"Ø±ÙĪØ´ÛĮÙħÛĮ":5556,"Ø±Ø³ÙĬ":5557,"ĠØªØ¹Ø§Ø¯ÙĦ":5558,"ĠØ±Ø³Ùħ":5559,"ĠØªÙĦÚ¯Ø±":5560,"ĠØ³Ø§Ø²ÙħØ§ÙĨÙĩØ§ÛĮ":5561,"Ø¯Ø§ÙĪÙĦ":5562,"ĠØ±ÛĮÛĮØ³":5563,"ĠØ±ÛĮØ¨ÙĨ":5564,"ĠÙħØ§ÙĨÙĪÙħØªØ±":5565,"ĠØªÙĪÙĦÙĬØ¯":5566,"ĠØªØ´Ø±ÛĮØŃÛĮ":5567,"ĠÙĨÙĩØ§Ø¯":5568,"ÙĨÙħÙĪÙĨÙĩ":5569,"ĠÙħØ®Ø§ÙĦ":5570,"ĠØªÚ©ÙħÛĮÙĦÛĮ":5571,"ĠÚ©Ø§ÙĨÙĪÙĨÛĮ":5572,"ĠÚ©Ø§ÙĨØ§Ø¯Ø§":5573,"ĠDS":5574,"ĠÙĦØ¨ÙĨØ§ÙĨ":5575,"ĠÙĤØ·Ø¹Ùĩ":5576,"ĠÙĦÛĮØ²":5577,"ĠÙ¾Ø°ÛĮØ±ÛĮ":5578,"ĠÙĤØ¯Ø³":5579,"ĠÙĤØ¯ÛĮÙħ":5580,"ĠØŃØ¬Ø§Ø¨":5581,"ĠÙ¾ÙĨØ¬Ø±Ùĩ":5582,"ĠÙħØŃÙĦÙĪÙĦ":5583,"ĠÛ±Û³Û¹Û¶":5584,"ĠÙħØ§Ø³Ú©":5585,"Ø§Ø²Ø¯ÙĩÙħÛĮÙĨ":5586,"ĠØ§ÙĨØ¯ÛĮØ´Ùĩ":5587,"ĠØ´ÙĩØ±Ø¯Ø§Ø±":5588,"ĠØ´Ø§Ø®Ùĩ":5589,"ĠÛ¹Û´":5590,"ĠØ¹ÙħÙĪÙħÙĬ":5591,"ĠÙħÙĤØ±Ø±Ø§Øª":5592,"ĠÙ¾Ø§Ø¯Ø´Ø§Ùĩ":5593,"ĠÙħÛĮØ±Ø§Ø«":5594,"ĠØ¹Ø¯Ø³ÛĮ":5595,"Ø³ÙĪÙĨÚ¯":5596,"ĠØ¢ÙĤØ§":5597,"ĠÙħÙĨØ§ÙģØ¹":5598,"ØºØ±Ø§ÙģÛĮ":5599,"ĠØ¯Ø§Ø¦ÙħÛĮ":5600,"ĠØ´Ø³ØªØ´ÙĪ":5601,"ĠØªØ§Ø®ÛĮØ±":5602,"ĠØ¢Ú©Ø§Ø¯ÙħÛĮ":5603,"ĠÙ¾ØªØ±ÙĪØ´ÛĮÙħÛĮ":5604,"ØµÙģØŃÙĩ":5605,"ĠÙ¾ÙĪØ±ØªØ§ÙĦ":5606,"ĠÙģØªÙĪØ´Ø§Ù¾":5607,"ĠÚ©ÛĮÙĦÙĪÙħØªØ±":5608,"ĠØ±Ú©ÙĨØ§":5609,"ĠØ¯Ø§ÙĪØ·ÙĦØ¨Ø§ÙĨ":5610,"ĠØµÙĩÛĮÙĪÙĨÛĮ":5611,"300":5612,"93":5613,"TI":5614,"df":5615,"ist":5616,"¡Ù":5617,"Ġ>":5618,"Ø§Ø§":5619,"Ø±ÙĬ":5620,"Ø¯Øª":5621,"ØªÙĬØ¨":5622,"ÙħØµ":5623,"Ú©ÙĦÛĮÙĩ":5624,"ÙĦÙī":5625,"ĠØ¨ÙĢ":5626,"Ø³Ø±ÛĮ":5627,"Ø³ÙĬ":5628,"ĠÚ©ØªØ¨":5629,"Ø§Ø±Úĺ":5630,"Ú¯ÙĪØ´":5631,"ÙģØ§ÙĨØª":5632,"ĠØ±Ø·ÙĪ":5633,"ĠÙĨØ§Ø¯Ø±":5634,"ĠØ¯Ø±Ùħ":5635,"ĠØ³Ø§Ø¯Ú¯ÛĮ":5636,"ĠØ´ÙĪÙħ":5637,"ĠØ¨ÙĩØªØ±ÛĮ":5638,"ĠÙ¾Ø±ÛĮÙĨØªØ±":5639,"ĠÙħÛĮØ®ÙĪ":5640,"Ø®Ø§ÙĨ":5641,"ĠÙģØ§Ú©ØªÙĪØ±":5642,"ĠØ¨Ø±Ø¬Ø§Ùħ":5643,"ĠØ¹Ø±Ùģ":5644,"ØŃØ§ÙĦÛĮ":5645,"ĠØ¬Ø§Ø³":5646,"Ø±Ø¯Ø§Ø¯":5647,"ĠØ¨Ø§ÙĤ":5648,"Ø·Ø§ÙĨÛĮ":5649,"ĠØ²ÙĪØ§ÙĦ":5650,"ÙĪØ²ÛĮØ±":5651,"ØªØ±ÙĨØª":5652,"ĠÙĦÙĪØ³ØªØ±":5653,"ĠØ§ÙħÛĮÙĨ":5654,"ĠØ¢ÙħØ¯ÙĨ":5655,"ÙĪÙħÛĮÙĨ":5656,"ĠØªØ§ÙĪÙĦ":5657,"ĠÙħØªØºÛĮØ±":5658,"Ø¨Ø±Ø²":5659,"ĠØªØ±Ø§Ø´":5660,"ĠØ³Ø§ÙĦÚ¯ÛĮ":5661,"ĠÙĤØ±Ø¨Ø§ÙĨÛĮ":5662,"ĠÙħØ³ÙĦÙħ":5663,"ĠÚ©ÙħØªØ±ÛĮÙĨ":5664,"ĠØªÙĪØ§ÙĨØ³ØªÙĩ":5665,"ĠÙħØ·ÙĦ":5666,"ĠØ§Ø¹Ø¶Ø§":5667,"ĠÙħØ±Ø¯ÙħÛĮ":5668,"ĠØ§ÙĨØªÙĩØ§ÛĮ":5669,"ĠÚ©Ø´ÙĪØ±ÙĩØ§":5670,"ĠÚ©Ø´ÙĪØ±ÙħØ§ÙĨ":5671,"ĠØ§Ø´Ú©":5672,"ĠØ§Ø´Ø®Ø§Øµ":5673,"ĠÚ¯Ø°Ø±Ø§ÙĨ":5674,"ĠÚ¯Ø°Ø§Ø±Ø¯":5675,"ĠØªÙĨÙĩØ§ÛĮÛĮ":5676,"Ø§ÙĦØ¨ØªÙĩ":5677,"ĠÙħÙĪØ¶Ø¹":5678,"ÙĨÙħØ§ÛĮØ¯":5679,"ĠAg":5680,"ĠAhan":5681,"ĠCh":5682,"ĠÙħØ¬ÙħÙĪØ¹":5683,"ÂŃÂŃ":5684,"ĠÙģÙĦØ²ÛĮ":5685,"ĠØ¬ÙĦØ¯":5686,"ĠØ¬ÙĦÙĪÙĩ":5687,"ĠØªÙģØ±ÛĮØŃÛĮ":5688,"ĠØ¯Ø§ÙĨØ´Ø¬ÙĪÛĮ":5689,"ĠØ´ÙĪÛĮÙħ":5690,"ĠØ³Ø§ÙħØ³ÙĪÙĨÚ¯":5691,"ĠÙ¾Ø°ÛĮØ±ÙģØªÙĩ":5692,"ity":5693,"ĠØªØŃØµÛĮÙĦØ§Øª":5694,"ĠØ¨Ø±Ø¯Ø§Ø´ØªÙĩ":5695,"ĠØ§ØŃØªÙħØ§ÙĦÛĮ":5696,"ĠØ¹ÙĪØ¶":5697,"ĠÙħØ²ÛĮØª":5698,"Ġ1397":5699,"ĠÚ¯ÛĮØ±ÙĨØ¯Ùĩ":5700,"ĠØ¹Ø±ÙĪØ³Ú©":5701,"ĠÙħÙĪØ±Ø¯ÛĮ":5702,"ĠÙħØŃÙĤÙĤØ§ÙĨ":5703,"Ø¯Ø³ØªÚ¯Ø§Ùĩ":5704,"ĠØ±ÙĪÙĨÙĤ":5705,"Ø¬ÙĦØ³Ùĩ":5706,"ĠØŃØ§Ú©Ùħ":5707,"Ø¹Ø¨Ø§Ø³":5708,"ĠØ³ÙĪØ±Ø§Ø®":5709,"ĠÙĩÛĮØ¯Ø±ÙĪÚ¯Ø±Ø§ÙģÛĮÚ©":5710,"ĠØªÙģØ³ÛĮØ±":5711,"ĠØ¨Ø®ÙĪØ§ÙĨÛĮØ¯":5712,"ĠÙħØ¯ÙĬØ±ÙĬØª":5713,"ĠØ±ÙĪØ³ÛĮÙĩ":5714,"Ø®ÙĦØ§ØµÙĩ":5715,"ĠØ¨ÙĨÙĪÛĮØ³ÛĮØ¯":5716,"ĠÚĨØ§Ø±ÚĨÙĪØ¨":5717,"ĠDSLR":5718,"ĠØ±Ø·ÙĪØ¨Øª":5719,"ĠAhange":5720,"26":5721,"ile":5722,"ost":5723,"ts":5724,"Ġ_":5725,"Ŀ¤":5726,"ÛĮØ±Ø¯":5727,"ÙĨÙĪØ±":5728,"ÙĨØ±Ùħ":5729,"Ú©Ø¯":5730,"Ú©Ø§Øª":5731,"ĠØ¨Øª":5732,"ĠØ¨Ø¨Ø±Ø¯":5733,"ĠÙĪØ§Ø´":5734,"ĠØ§Ø°":5735,"ĠØªØ§Ø±":5736,"ĠØªÙĨØ¯":5737,"ĠØªØ±ÙĪÛĮØ¬":5738,"Ø²ÛĮØ±":5739,"ĠÙĨØ§Ø´":5740,"ĠÙĩÙĬ":5741,"Ø§ÙħÛĮÚ©":5742,"ĠØ³ÙĪÙĦ":5743,"ĠØ´Ø§ÙĨÙĩ":5744,"ĠØ´Ùĥ":5745,"Ø§ÙĦØ¨ÛĮ":5746,"Ø§Ø¯Ø§Ø±":5747,"ĠÙ¾ÙĪÛĮØ§":5748,"ĠÙ¾Ú©ÛĮØ¬":5749,"ĠÙħÛĮØ§Ø¯":5750,"ÙĬÙĬ":5751,"ÛĮØ¯ÙħØ§ÙĨ":5752,"ĠØ¹ÛĮ":5753,"ĠØ¹Ø¯Ùĩ":5754,"ĠØ¹ÙĨØ§":5755,"ØŃÛĮ":5756,"ØŃØ±":5757,"ØŃØ¯ÙĪØ¯":5758,"ĠØ¬ØºØ±Ø§ÙģÛĮ":5759,"ĠÛĮØ®":5760,"ĠÚĨØ§Ø¯Ø±":5761,"ĠØ§ÙĨÚ©ÙĪØ¨":5762,"ÙħØ§ÙĨÙĩ":5763,"ĠÚ©ÙĨÙĨ":5764,"ÙħÛĮØ²ÛĮ":5765,"Ø¯ÛĮÙĩ":5766,"ĠÚ©Ø±Ø¯ÛĮ":5767,"ĠÙħÙĨØ§Ø¸":5768,"Ú¯Ø±Ùħ":5769,"ĠÛĮÚ©Ø³Ø§ÙĨ":5770,"ĠØªÙĪØ±ÛĮ":5771,"ĠØ§ÙĦÙĤ":5772,"ĠØ§ÙĦØªÙĩ":5773,"ĠØ§ÙĦØ§Ø³ÙĦØ§Ùħ":5774,"ÙĪØ´Ø§Ø±Úĺ":5775,"ĠØ¨Ø§Ø´Ùħ":5776,"Ø«Ø±ÛĮ":5777,"ĠØªØ§Ú©":5778,"Ø¨Ø±Ú¯":5779,"Ø¢ÙĩÙĨÚ¯":5780,"Ø¢ÛĮØ§":5781,"ĠØ³Ø±Ø§Øº":5782,"ĠØ®ÙĪØ§Øµ":5783,"ĠÚ©Ø´ØªÙĩ":5784,"ĠÙĥØ´":5785,"ĠÙĩØ±ÚĨÙĨØ¯":5786,"Ġ26":5787,"ĠØ¹ÙħØ¯":5788,"ĠØ§ØµÙĨ":5789,"ĠØ³ÙĪØ§Ø¯":5790,"ĠØ§Ø¯Ø§Ø±Ø§Øª":5791,"ĠØ§Ø®ÙĦØ§ÙĤÛĮ":5792,"ĠØ§Ø´Ø¹Ø§Ø±":5793,"Ġ90":5794,"ĠØ¨Ø¹ÙĨÙĪØ§ÙĨ":5795,"ĠÚ¯ÛĮÙ¾ÙĪØ±":5796,"ĠÛ±Û¶":5797,"ĠØ¨Ø§Ø±ÙĩØ§":5798,"ÙĪÙĤØªÛĮ":5799,"ĠØ¢Ø¨Ú©Ø§Ø±ÛĮ":5800,"ĠØ¨ÙĦØª":5801,"ĠÙĨÙĪØ§ØŃÛĮ":5802,"ĠØªØ´Ú©Ø±":5803,"are":5804,"Ø§Ù¾ÙĦ":5805,"ĠÙ¾Ø§Ø³Ù¾ÙĪØ±Øª":5806,"ĠÚ©ÙĪØ«Ø±":5807,"ĠØ®Ø·Ø§Ø¨":5808,"ĠØºÛĮØ±Ø¹Ø§ÙħÙĦ":5809,"ĠØ¯ÛĮØ¯Ú¯Ø§ÙĩÛĮ":5810,"Û±Û°":5811,"Û±Û³Û":5812,"ess":5813,"ĠÙħÙĨØ¸Ùħ":5814,"ĠØªØ£ÙħÛĮÙĨ":5815,"ÙħØ¹Ùħ":5816,"Ġ60":5817,"ĠØ®Ø±ÙĬØ¯":5818,"ĠÙĤÙĦØ¨ÛĮ":5819,"Ġ1394":5820,"ĠØ¯Ø´ÙĪØ§Ø±":5821,"ĠÙħÚ¯Ø§Ù¾ÛĮ":5822,"ĠØµØ±ÙģÙĩ":5823,"ĠØŃÛĮØ§Øª":5824,"ĠØ®ØµÙĪØµÛĮØ§Øª":5825,"ĠØ±Ø§ÙĨÙĨØ¯Ùĩ":5826,"ĠÙ¾ÙĨÙĦ":5827,"ĠØ¸Ø§ÙĩØ±ÛĮ":5828,"ĠØ¢Ø¬Ø±ÙĩØ§ÙĬ":5829,"ĠÙĨÙĪØ¬ÙĪØ§ÙĨØ§ÙĨ":5830,"ĠÙ¾Ø±ÙĩÛĮØ²":5831,"ĠÙģØ´Ø±Ø¯Ùĩ":5832,"Ø¹Ø¶ÙĪ":5833,"ĠØ§Ø¹ØªØ±Ø§Ø¶":5834,"ĠØªØ²ÛĮÛĮÙĨ":5835,"ĠØ¹ÙĦØ§ÙħØª":5836,"ĠØ§Ø¶Ø·Ø±Ø§Ø¨":5837,"ĠÙħØ®Ø§ÙĦÙģØª":5838,"ÙģØ§ÙĨØªØ§Ú©Ø±ÙĪÙħ":5839,"25":5840,"pt":5841,"xt":5842,"ÙĨØ§Ø±":5843,"ÙĪØ§Ø±ÛĮ":5844,"ĠØ¨Ú©":5845,"ĠØ¨Ø§Ø±ÛĮ":5846,"ĠØ¨Øº":5847,"ĠØ¨ÙĦØ§Ùģ":5848,"ĠØ¨ÙħØ§ÙĨØ¯":5849,"ĠÙħÙĨØ¯":5850,"ĠØ¯ÛĮØ±":5851,"ĠØ¯Úĺ":5852,"Ø³Ù¾":5853,"Ø´Ø§ØºÙĦ":5854,"ĠÚ©ÙĨÚ¯":5855,"ÙģÙĨ":5856,"Ø²ÙĨÛĮ":5857,"ĠØ±Ø§Ø¬":5858,"ĠÙĨÙĪØ¯":5859,"ĠÙĨØ§Ø¯":5860,"ĠØ¯Ø±Ú¯ÛĮØ±":5861,"ĠØ´ÙĬ":5862,"ĠØ´Ø§Ø¹":5863,"ĠØ¢ÙĦÛĮ":5864,"ĠÙ¾Ø§Øª":5865,"ĠÙ¾ÙĨÙĩ":5866,"ĠØ®Ø§ÙĦÛĮ":5867,"ĠØ®Ø§ÙĪØ±":5868,"ĠÙħÛĮØ¯ÙĩØ¯":5869,"ÛĮØ¯ÙĨÛĮ":5870,"Ø®Ø§Ø°":5871,"ĠÙģÙĤÙĩ":5872,"ĠØ¨Ø±ØªØ±ÛĮÙĨ":5873,"ĠØ¬Ø§Ø¨":5874,"Ø±Ø¯ÛĮ":5875,"Ø·ÙĪØ±ÛĮ":5876,"Ø·ÙĦØ¨":5877,"Ø±ÙĪÚ©":5878,"ĠØ§Ú©Øª":5879,"ĠÙĤØ¶":5880,"ĠÙĤØ¨Ø§ÙĦ":5881,"ĠÚĨØ§ÙĤ":5882,"ĠØ§ÙĨØ¨":5883,"ÙħØ§ÙĨØª":5884,"ĠÙĦØ§ÛĮØª":5885,"ĠØ§ÙħÙĪ":5886,"ĠÚ©ÙĨÛĮ":5887,"ĠØ¯Ø§Ø±Ø§":5888,"ĠÙħØ¹Ú©ÙĪØ³":5889,"ĠÙħØªØ¯Ø§ÙĪÙĦ":5890,"Ø¨Ø±Ø±Ø³ÛĮ":5891,"ĠØªØ±Ùĩ":5892,"ĠØªØ±ØªÙĬØ¨":5893,"ĠØ³Ø±Ø²ÙħÛĮÙĨ":5894,"ÙĤÛĮØ¨":5895,"ĠØºÙĦØ·":5896,"ĠØ¯ÙĪØ§Ø²Ø¯ÙĩÙħ":5897,"Ø§ÙĤØ¯":5898,"Ġ|--":5899,"ĠÙĥÙĦ":5900,"ĠØ§Ø¹Ø¶":5901,"ĠØ±ÙĪÛĮÙĩ":5902,"ĠØ§Ø¯Ø¨":5903,"ĠÚ©ÙĦØ§Ø³ÛĮ":5904,"ĠØ´ÙĩØ§Ø¨":5905,"Ġ91":5906,"ĠØ±Ø§ÙĩØ¨Ø±Ø¯":5907,"ĠØ¯Ø§Ø¯Ùħ":5908,"ĠØ§ÙģØ²ÙĪØ¯Ùĩ":5909,"ĠÙ¾Ø±Ø³Øª":5910,"Ú©Ø±Ø¯ÙĨ":5911,"Ø±Ø§ÙģØª":5912,"ĠØ§ÙĪÙĦÙĪÛĮØª":5913,"Ø§ÙĪØªÛĮ":5914,"ĠØºØ°Ø§Ø®ÙĪØ±ÛĮ":5915,"ĠØ¯ÛĮØ¯ÙĨÛĮ":5916,"ĠÙ¾Ø§Ø³Ø®Ú¯ÙĪ":5917,"ĠØ§Ø«Ø§Ø«":5918,"ĠÙ¾Ø±Ø³Ù¾":5919,"ĠÙħÚ©ÙħÙĦ":5920,"ĠØªØ§Ø±ÛĮØ®ÚĨÙĩ":5921,"ĠØ¹Ø¨Ø§Ø³ÛĮ":5922,"ĠØ¨Ø±Ø®ÙĬ":5923,"ĠØ§ÙĦÚ©ØªØ±ÙĪÙĨ":5924,"ØªØŃØµÛĮ":5925,"Ġ80":5926,"ĠØ±Ø§ÙĩÙĨÙħØ§":5927,"ĠÙħØºØ²ÛĮ":5928,"ĠÙħØ±Ø§Ø¬Ø¹":5929,"ĠØªÛĮØ±Ùĩ":5930,"ĠÙĨØŃÙĪÛĮ":5931,"Ø§ÙĪÛĮÙĩ":5932,"ĠÙħØ¨ØªÙĨÛĮ":5933,"ĠØ®Ø¨Ø±ÙĨÚ¯Ø§Ø±Ø§ÙĨ":5934,"ĠØªÙĦÙĪÛĮØ²ÛĮÙĪÙĨÛĮ":5935,"ĠØ±ÙĪÛĮØ¯Ø§Ø¯":5936,"ehr":5937,"Ø¨ÙĨØ§Ø¨Ø±":5938,"ĠÙĪÙĬÚĺÙĩ":5939,"ight":5940,"ĠÙĨØ§Ø®ÙĨ":5941,"ÙĬÚ©ÙĬ":5942,"ĠØ³Ø§ÙĨØªÛĮ":5943,"ĠÙħÙĨØ§ÙģØ°":5944,"ĠÙ¾ÛĮÙĪØ³ØªÙĩ":5945,"ĠØ¢ÙĦÙĪØ¯Ú¯ÛĮ":5946,"ĠØªØ±ÙĪØ±ÛĮØ³ØªÛĮ":5947,"ĠØªÛĮØªØ±Ø§Úĺ":5948,"ĠÙĤØµØ§Øµ":5949,"Ġshad":5950,"ÙģØ±Ø§ÙĨØ³":5951,"ĠØ¯Ø§ÛĮØ±Ùĩ":5952,"ĠØ¢Ø´Ù¾Ø²Ø®Ø§ÙĨÙĩ":5953,"ĠØ±ÙĪØ²ÙħÙĨÙĪ":5954,"ĠØ§ÙĦÚ©ØªØ±ÛĮÚ©ÛĮ":5955,"):":5956,"45":5957,"55":5958,"ax":5959,"ox":5960,"ÑĤ":5961,"Ø±Ø§Ø±":5962,"ÙĨÙĬ":5963,"ĠØ¨Ø§Ø±Ùĩ":5964,"ĠØ¨Ø¯ÙĩØ¯":5965,"ĠÙħÙĪØ¯":5966,"ĠÙħØ§ÛĮÙĨ":5967,"ĠØ¯ÛĮØª":5968,"ĠÙĪÙĦÙĬ":5969,"ĠÚ©Ø§ÙĦÛĮ":5970,"Ø¨Ø³ÛĮ":5971,"ĠØªÚ¯":5972,"ĠØªØ¨Ø§Ø±":5973,"Ø²Ø§Ø±ÛĮ":5974,"ĠØ±ÙĪØ¯Ùĩ":5975,"ĠØ³Ø¯":5976,"ĠØ³Ùħ":5977,"ĠØ³ÙĦÛĮ":5978,"ĠØ³Ø±Ø§ÙĨ":5979,"ĠØ³Ø±ÙĪØ´":5980,"ĠØ¢Ø¯":5981,"ĠÙ¾Ú©ÙĨ":5982,"ĠÙħÛĮØ±Ø³":5983,"ÙĪØ±ÙĨ":5984,"Ø®ÙĪØ±":5985,"Ø®ÙĪØ´":5986,"Ø®Ø§ÙĨÛĮ":5987,"ĠØ¨Ø±ÙĨ":5988,"ĠØ¨Ø±Ùħ":5989,"ĠØ¨Ø±ÙĨØ¯Ùĩ":5990,"ĠØ¨Ø±ÙĨØ¬":5991,"ĠØ¨Ø±Ø§Ø¯Ø±":5992,"ØŃÙħ":5993,"ÚĨÙĨØ§ÙĨ":5994,"ĠØ¬Ø§ÙĬ":5995,"ÛĮÙĨØª":5996,"Ø±Ø¯ÙĨ":5997,"Ø§Ø¨Ø±ÛĮ":5998,"Ø§Ø¨ÙĬ":5999,"ĠØ§ÙĪÙħ":6000,"ĠÙĤÙĪØª":6001,"ĠØ²ÛĮÙħ":6002,"ÙĪØ²Ø³ØªØ§ÙĨ":6003,"ĠØ§ÙħØ±ÙĪØ²ÛĮ":6004,"ĠØ·ÙĦØ§ÙĤ":6005,"ĠÙħÙĪØ´Ú©":6006,"ĠÙħÙĪØ§ÙĤØ¹":6007,"ĠÚ©Ø§Ø±ÙħÙĨØ¯Ø§ÙĨ":6008,"Ú¯Ø±ÙħÛĮ":6009,"ĠØ§Ø±Ø¶ÛĮ":6010,"ĠØ§Ø±ØªØ´":6011,"ÙĦØ§ÙĪÙĩ":6012,"ĠØ¨Ø§Ø²Ø³Ø§Ø²ÛĮ":6013,"ĠØ¨ÛĮØ§ÛĮØ¯":6014,"ØºØ¯":6015,"Ø§Ø®ÙĦ":6016,"ĠÙħØ¹ÙĨØ§":6017,"Ø«Ø¨Øª":6018,"Ø§ÙģØ±":6019,"ĠØ¯Ø³ØªÙħ":6020,"Ø¢ÙĨÛĮ":6021,"Ø±ÙģÙĩ":6022,"ĠØ³Ø§ÙĦÙĩØ§ÛĮ":6023,"ĠÙħØ¬Ø§ÙĦ":6024,"ĠÙħØ¬Ø±Ø¨":6025,"ĠÙĤØ±Ø¢ÙĨÛĮ":6026,"ĠØ¯ÙĪØ´ÙĨØ¨Ùĩ":6027,"Ø§ÙĤØªØµ":6028,"ĠØ¢ÙħÙĪØ²Ø´ÙĬ":6029,"Ġ21":6030,"Ġ22":6031,"Ġ23":6032,"ĠØ³ÛĮØ²Ø¯Ùĩ":6033,"ĠØ³ÛĮØ§ÙĪØ´":6034,"Ø§ÙĬÙĨ":6035,"ĠØ§Ø¹Ø²Ø§Ùħ":6036,"ĠØªÙħØ§ÛĮÙĦ":6037,"ĠÚ©ÙĦÛĮÙĨ":6038,"ĠØ®Ø±ÛĮØ¯Ø§Ø±ÛĮ":6039,"ĠÙĨØ´Ø¯":6040,"ĠØ§Ø®Ø°":6041,"ĠØ¶Ø®":6042,"ĠØ¶ÙħØ§ÙĨØª":6043,"ÙģÛĮØ§ÙĨ":6044,"ĠØ´ÛĮÙ¾ÙĪØ±":6045,"ĠÛ±Û´":6046,"ĠØ§ØªØ®Ø§Ø°":6047,"ĠØ´ÙĨÛĮØ¯Ùĩ":6048,"ĠØ±ÙĪØ´ÛĮ":6049,"ĠØ³ÙĩØ§Ùħ":6050,"ĠØ§ÙĬÙĨØªØ±ÙĨØª":6051,"ĠØªØ±ÛĮÙĨØ±":6052,"ĠÙĪÙĤÙĪØ¹":6053,"Ú¯Ø±Ø¯ÛĮ":6054,"end":6055,"ĠÚĺÙĨØªÛĮ":6056,"ĠÚ¯ÙĪØ´Ùĩ":6057,"ĠØ¯Ø®ØªØ±Ø§ÙĨ":6058,"Ø·Ø±Ø§ØŃÛĮ":6059,"ĠØ§Ú©Ø¨Ø±":6060,"ĠØ³Ø·ØŃÛĮ":6061,"ĠØ®ÙĪØ§ÙĨØ¯Ùĩ":6062,"ĠRe":6063,"ĠØ®Ø§Ø·Ø±Ùĩ":6064,"Ġto":6065,"ÙħØ±ØªØ¨":6066,"ĠØŃØ§Ø¬ÛĮ":6067,"ĠØ¯Ø§ÙħÙĨ":6068,"ĠÙĨØ¯Ø§Ø±Ùħ":6069,"ĠÙĨØ¯Ø§Ø±ÛĮÙħ":6070,"ree":6071,"ĠÙħØ²Ø§ÛĮØ§ÛĮ":6072,"ĠØ³Ø¹ÙĪØ¯ÛĮ":6073,"ĠÙĦØ±Ø³ØªØ§ÙĨ":6074,"ĠØ¨ÙĦÙĪØº":6075,"!!!":6076,"ĠØ§ÛĮØ¯Ø¦":6077,"ĠØ¨Ø¯Ø§ÙĨÙĨØ¯":6078,"ĠÙ¾Ø±Ø¯Ø§Ø²Ø´":6079,"ĠØªÙĩØ¯ÛĮØ¯Ø§Øª":6080,"ĠÙħØ¹ÛĮØ§Ø±":6081,"ĠÙģØ±Ø§ÙĨØ³ÙĪÛĮ":6082,"ĠØ§Ø¯Ø±Ø§Ø±":6083,"ĠÙĨÚ¯Ø±Ø§ÙĨÛĮ":6084,"ĠØ§Ø³ÙģÙĨØ¬ÛĮ":6085,"ĠØ§Ø®ØªÙĦØ§ÙĦ":6086,"ĠÚ¯Ø°Ø§Ø´ØªÙĨ":6087,"ĠÚĺÙĨØ±Ø§ØªÙĪØ±":6088,"ĠØªÙĪØ¬ÛĮÙĩÛĮ":6089,"line":6090,"Ø§ÙħØ±ÙĪØ²Ùĩ":6091,"ĠÙħÙĪÙĨØªØ§Úĺ":6092,"ĠØ¬Ø§ÙĪØ§":6093,"ĠØ§Ø³ØªØ«ÙĨØ§ÛĮÛĮ":6094,"ĠÙħØŃØ§Ø³Ø¨Ùĩ":6095,"ĠØ¨ÙĦØ§ÙģØ§ØµÙĦÙĩ":6096,"<#":6097,"Berry":6098,"ix":6099,"Ġy":6100,"Ø§Ú©Ø³":6101,"ĠØ¥":6102,"ĠØ¨ÙĤ":6103,"ĠÙħÙĪØ§ÙĨ":6104,"ĠÙħØ¸":6105,"Ø§ÙĨÛĮØ¯":6106,"ĠØ¯Ø§Ø³ØªØ§ÙĨÛĮ":6107,"Ø³Ø§ÛĮ":6108,"ĠÙĪØª":6109,"ĠØ§Ø¦":6110,"Ú¯Ø´":6111,"Ø¨Ø³ØªÙĩ":6112,"ĠØªÙĥ":6113,"ÙģØ´":6114,"Ø²ÙĬ":6115,"ĠÙĨØ±ÛĮ":6116,"ĠÙĩØ§Øª":6117,"ĠÙĩÙĪÛĮØª":6118,"ĠØ¯Ø±ÙĩÙħ":6119,"ĠØ³Ø§Ø±":6120,"Ø§ÙĦÙĬ":6121,"Ø§ÙĦØ¯ÛĮÙĨ":6122,"Ø§Ø¯Ùī":6123,"ĠÙ¾Ø®Øª":6124,"ĠØ®ÙħÛĮØ±":6125,"ÙĪØ±Ú©":6126,"ĠÙģØ§ÙĤØ¯":6127,"ĠØ¨Ø±Ùģ":6128,"ĠØ¨Ø±Ø³Ø§ÙĨ":6129,"ĠØ¨Ø±Ø±Ø³ÙĬ":6130,"ĠØ¹Ø³":6131,"ĠØ¹Ø§Ø·":6132,"Ø§ØªÙĦ":6133,"ĠÚ¯Ø±ÙĪ":6134,"ĠÚ¯Ø±ÛĮÙĩ":6135,"ĠØ¬Ø±Ùħ":6136,"Ø§Ø²Ø¯ÙĪØ§Ø¬":6137,"ĠØ¨Ø§Ú©ÛĮÙģÛĮØª":6138,"ĠÛĮØ§Ø±ÛĮ":6139,"ĠÛĮÙĪØ³Ùģ":6140,"Ø±ÙĪØŃ":6141,"ĠØŃÙĤÛĮÙĤÛĮ":6142,"ĠÙĤØ´":6143,"ĠØ²ÙĨÛĮ":6144,"ĠØ²ÙĪÙħÛĮØª":6145,"ĠØ²Ø§ÙĪÛĮÙĩ":6146,"ĠÚĨÛĮØ¯ÙħØ§ÙĨ":6147,"ÙĪÙĦØ¯":6148,"ĠÙĩÙħØ¯":6149,"Ø¶Ø§Ø¹":6150,"ØªÛĮÚ©":6151,"ĠÙĦØ±ÛĮ":6152,"ĠÙħÙĨÛĮ":6153,"ĠØ§Ø±Ú©":6154,"ĠØ¨ÛĮØ³":6155,"ĠÙħØ±Ø¨":6156,"Ø¨ÛĮØªÛĮ":6157,"ĠÙħØ¹ÙĦÙĪÙħ":6158,"ĠÙĨÙħØ±Ùĩ":6159,"ĠÙħØªÙģØ±ÙĤÙĩ":6160,"Ø§ÙģØ¹":6161,"ĠØªØ±Ùĥ":6162,"ÙĪØ±ÛĮØ¯":6163,"ÙĦÙħÙĩ":6164,"ĠÙħØ¬Ø±ÛĮ":6165,"ĠÙħÙĤØ§Ø¯":6166,"ĠÙĥÙħ":6167,"Ø§Ø¬ÛĮ":6168,"Ø§ØµØ·ÙĦØ§ØŃ":6169,"Ø§ÙĬÙĦ":6170,"ĠÙħØ·Ø¨":6171,"ĠØªÙħØ§Ø´Ø§":6172,"ĠØ§ÙĪØ¶Ø§Ø¹":6173,"ĠØ§ÙĨØ¯Ø§Ùħ":6174,"ĠØ§ÙĨØ¯Ø§Ø²":6175,"ĠØ¹ÙĦÙĬÙĩ":6176,"ĠØ§Ø®ÙĦØ§ÙĤ":6177,"ĠÚ¯ÙģØªÙħ":6178,"ĠÚ¯ÙģØªÙħØ§ÙĨ":6179,"ĠØ´ÙĩØ¯Ø§ÛĮ":6180,"ĠØ³Ø§Ø®ØªÙĨ":6181,"ĠØ´ÛĮØ¹ÛĮ":6182,"ĠÛ±Û³":6183,"ĠÚ¯Ø±Ø¯Ø§ÙĨ":6184,"ĠÙ¾Ø±Øª":6185,"ĠÙ¾Ø±ÚĨÙħ":6186,"ant":6187,"ĠÚ©ÙĪØ¯Ú©ÛĮ":6188,"ĠÙħØµØ¯":6189,"ĠØ°Ø±Ùĩ":6190,"arge":6191,"ĠØªÙĤÙĦØ¨":6192,"Ø¯ÛĮØ±ÛĮØª":6193,"ĠØ®ÛĮØ±ÛĮÙĩ":6194,"ĠÛ²Û²":6195,"Ø£Ø³":6196,"ĠØ§ÙĩØ§ÙĦÛĮ":6197,"ĠÙģØ±Ø¯Ø§":6198,"ĠØ³Ù¾Øª":6199,"ĠØŃÙħØ§Ø³Ùĩ":6200,"ĠÙĩÙĪØ§Ø¯":6201,"ĠØ§Ø³ØªØ®Ø¯Ø§ÙħÛĮ":6202,"ĠØ²ÛĮØ¨Ø§ØªØ±ÛĮÙĨ":6203,"ĠÙħÙĦÙĦ":6204,"ĠÚ©Ø§ÙĦØ¬":6205,"Ø¬ÙħÙĩÙĪØ±":6206,"ĠØ®ÙĪØ¯Ø±ÙĪÛĮ":6207,"ĠÙģÙĨØ§ÙĪØ±ÙĬ":6208,"ĠÙĦÙĨØ²ÙĩØ§ÛĮ":6209,"ĠØ¢Ø³ÛĮØ§":6210,"act":6211,"ĠÚ¯ÙĪØ¬Ùĩ":6212,"Ġ1080":6213,"ass":6214,"ĠÙ¾Ø§Ø±Ø³":6215,"ĠØ§ØŃØ³Ø§Ø³ÛĮ":6216,"ĠÙ¾ÛĮØ´ÙĨÙĩØ§Ø¯ÛĮ":6217,"Ġ#>":6218,"ĠØªÛĮØ±Ø§ÙĨØ¯Ø§Ø²ÛĮ":6219,"ĠÙĪØ³ÛĮØ¹":6220,"ĠØ¨Ø³ÙĬØ§Ø±":6221,"ĠÛ´Û°":6222,"ĠØ§ØµÙģÙĩØ§ÙĨÛĮ":6223,"ĠÚ©ÙĦÙħØ§Øª":6224,"Ø§ÙĦØ¹Ø§Ø¯Ùĩ":6225,"ĠØ§ÛĮØ±ÙĨØ§":6226,"ĠØ±ÙĪÛĮØ¯Ø§Ø¯ÙĩØ§ÛĮ":6227,"ĠØ¹Ø¯Ø§ÙĦØª":6228,"ĠØ§ÙĪØ±Ø¬":6229,"ĠØ±ÙĪØ³ØªØ§ÛĮ":6230,"ĠØ²ÙħÙĬÙĨÙĩ":6231,"ĠØªØ²Ø¦ÛĮÙĨ":6232,"ĠØ¯Ø±ÙĪØº":6233,"ĠØ§Ø³ØªØ¹Ø¯Ø§Ø¯":6234,"ĠØ´ÙĨØ§ÙĪØ±":6235,"ÙħÙħÚ©ÙĨ":6236,"ĠØ§Ø³ÙĦØ§ÛĮØ¯":6237,"ĠØªØ§ÙĦØ§Ø±":6238,"ĠØ¨ÙĪÙħÙĬ":6239,"ĠØªÙĪÙĤÙģ":6240,"ĠØ´ÙĦÙĪØ§Ø±":6241,"ĠBlackBerry":6242,"ĠØ§ÙĨÚ©ÙĪØ¨Ø§ØªÙĪØ±":6243,"ĠØ§ÙĬÙĨØªØ±ÙĨØªÙĬ":6244,"03":6245,"af":6246,"ib":6247,"ðŁ":6248,"Ġu":6249,"Ġro":6250,"ÙĩØ±ÛĮ":6251,"ÙħØ³ÛĮ":6252,"Ø§ÙĨÙĪØ§Ø¹":6253,"Ø§ÛĮØ¨":6254,"ĠØ¯Ú¯Ø±":6255,"ĠÚ©ÙĪØ¨":6256,"ĠÚ©Ø§ÙħÛĮ":6257,"Ø¨Ø®Øª":6258,"ÙģØ¸":6259,"Ø²Ø§ÛĮÛĮ":6260,"ĠÙĨØ¯Ø§":6261,"ĠÙĨØ§Ø´ÙĨ":6262,"ĠÙĩØ¯ÛĮÙĩ":6263,"ĠØ¯Ø±ØµØ¯ÛĮ":6264,"ĠØ³ÙĩØ±":6265,"ĠØ³Ø¬Ø§Ø¯":6266,"ĠØ´ÙĪÛĮ":6267,"Ø¹Ø¯":6268,"Ø¹Ø¬":6269,"Ø¹ØµØ±":6270,"Ø§ÙĦØ¯":6271,"Ø§Ø¯ÙĬ":6272,"ĠØ®ÙĪØ²Ø³ØªØ§ÙĨ":6273,"ĠÙħÛĮØ®":6274,"ĠÙħÛĮÚ©ÙĨÙĩ":6275,"ĠØ§ÛĮØ§ÙĦØ§Øª":6276,"ĠØ§ÛĮØªØ§ÙĦÛĮØ§":6277,"ÙĬÙĬØ±":6278,"Ø³ØªÙĨØ¯":6279,"ĠÙģÙĦØ§ÙĨ":6280,"Ø§ÙĩØ±Ø§Øª":6281,"ĠØ§Ø³ØªÛĮÙĦ":6282,"ĠÚ¯Ø²":6283,"ĠÚ¯Ø§ÙĨÙĩ":6284,"ĠÚ¯ÙĪØ³":6285,"ĠÚ¯Ø²ÛĮÙĨ":6286,"ĠØ¬ÙĨØ¬":6287,"ÛĮÙĨÙħØ§ÛĮØ´":6288,"Ø·ÙģÛĮ":6289,"Ø±ÙĪÙĨØ¯":6290,"ĠØ²Ø§ÙĦ":6291,"ĠØ²ÙĬØ±":6292,"ĠØ²Ø§ÙĨÙĪ":6293,"ÙĩØ§ÛĮØ´":6294,"ĠØ¯Ø§ÙĨÙĨØ¯":6295,"ĠÚ©ÙĨÙģØ±Ø§ÙĨØ³":6296,"ĠÚ©Ø§Ø±Ú¯Ø±Ø§ÙĨ":6297,"ĠÙħÙĨÙĪ":6298,"ĠÙħØŃÙĪ":6299,"ĠØ§ÙĦØ§ÙĨ":6300,"ĠØ¨ÛĮØ§Ùħ":6301,"ĠØ¨ÛĮÙĨØ¯":6302,"ĠÙģØ±Ø§Ø±":6303,"Ø¯ÛĮØ¯Ùĩ":6304,"ĠØ¯ÛĮØ§Ø¨Øª":6305,"ĠÙħØ¬ÛĮØ¯":6306,"ĠÙħÙĤØ¯Ø§Ø±ÛĮ":6307,"ĠÙħÙĤÙĪÙĦÙĩ":6308,"Ø§Ú©ØªØ±":6309,"ĠÙĨØ¸Ø±ÛĮÙĩ":6310,"ĠÙħÙĩÙħØ§ÙĨ":6311,"ĠØ¯Ø§ÙĨØ´ÙħÙĨØ¯Ø§ÙĨ":6312,"Â».":6313,"ĠØ§Ø¹Ø¯Ø§Ø¯":6314,"ÙĬÙĨÙĬ":6315,"ĠØ§Ø¨ÙĪØ§ÙĦ":6316,"ĠØ§Ø¯Ø¨ÛĮ":6317,"ĠÙħØ§ÙĩÙĩ":6318,"ĠØ¨Ø§ÙĦÛĮÙħ":6319,"ĠØ¨Ø§ÙĦØº":6320,"ÙģÛĮÙĤ":6321,"ĠØ±ÛĮØ³Ú©":6322,"ĠÙ¾Ø±Ø®":6323,"ĠÙĪØ±ÚĺÙĨ":6324,"ĠØªØºÙĬÙĬØ±":6325,"ĠÙĨÙĪØŃÙĩ":6326,"Ø§ØºØª":6327,"ĠØ²ÙħÛĮÙĨÛĮ":6328,"ĠØ®Ø§ÙĨÙĪÙħ":6329,"ĠÙħÙĪØ¶ÙĪØ¹ÛĮ":6330,"ĠÚ©ÙĪÚĨÙĩ":6331,"ĠPro":6332,"ĠØ¸Ø±ÙĪÙģ":6333,"ĠÙģØ±Ø¯ÙĪØ³ÛĮ":6334,"ĠØ§Ø«Ø±Ø§Øª":6335,"ĠÚĺØ¦":6336,"ate":6337,"ĠØªØ¬Ø±Ø¨ÛĮØ§Øª":6338,"ĠÙ¾Ø°ÙĬØ±":6339,"ĠØ³ÙģØ§ÙĦ":6340,"ĠÙħÙĨØ·ÙĤÛĮ":6341,"ĠØ§Ú©Ø¨Ø±ÛĮ":6342,"Ø·ÙĪØ±Ùĩ":6343,"Ø¨Ø¹Ø¯":6344,"ĠØ®ÙĪØ±Ø¯Ùĩ":6345,"ĠØ¨Ø®Ø§Ø·Ø±":6346,"ĠØªØ§Ø¨Ø¹":6347,"ĠØ·Ø±ÙģØ¯Ø§Ø±Ø§ÙĨ":6348,"ĠÙ¾ÙĪØ´Ùĩ":6349,"ÙħØ¹Ø±ÙģÛĮ":6350,"ÙĦØ§ÙĤØ§Øª":6351,"Ġpdf":6352,"ĠØ¢Ø´Ú©Ø§Ø±":6353,"ĠÙħØ¹ÙĨØ§ÙĬÙĬ":6354,"ĠÚ©Ø´Ø§ÙĪØ±Ø²Ø§ÙĨ":6355,"ĠÛ±Û³Û¹Ûµ":6356,"Û³Û°":6357,"ĠÙĪØ³ÛĮØ¹ÛĮ":6358,"ĠØ³Ø¹Ø§Ø¯Øª":6359,"ĠÙĦØ±Ø³ØªØ§ÙĨÛĮ":6360,"ĠÙģØ§ÙĨØªØ²ÛĮ":6361,"ĠØ³Ø±Ø§Ø³Ø±ÛĮ":6362,"ĠÛĮØ§ÙģØªÙĨ":6363,"old":6364,"ĠØ³Ú©ØªÙĩ":6365,"ĠÙħØ§ÙħØ§ÙĨ":6366,"our":6367,"ĠØ¹ØµØ§Ø±Ùĩ":6368,"ĠØŃÙĪØ§Ø¯":6369,"ĠØŃÙĪØ¶":6370,"ĠØ§Ø³ÙħØ§Ø¹ÛĮ":6371,"ĠØ³ÙĤÙĪØ·":6372,"ÙĥÙĨÙĨØ¯":6373,"ĠØ¨Ø±ÙĪÛĮØ¯":6374,"ĠÙĤÙĩØ±ÙħØ§ÙĨÛĮ":6375,"ÙĨÙħØ§ÛĮÙĨØ¯Ùĩ":6376,"ĠØ¨Ø±ÙĤØ±Ø§Ø±ÛĮ":6377,"ĠØ¯Ø±ÙĪØ§Ø²Ùĩ":6378,"ĠØ¨Ø§Ø²Ø±Ú¯Ø§ÙĨ":6379,"ĠÙħØ±ÙĪØ±Ú¯Ø±":6380,"ĠØ¨Ø²ÙĨÛĮØ¯":6381,"ĠØ®Ø§ØªÙħÛĮ":6382,"ĠØ§ÙģØ³Ø§ÙĨÙĩ":6383,"ĠØªØµØ§Ø¯ÙģÛĮ":6384,"ĠØªÙĤÙĪÛĮÙħ":6385,"elegram":6386,"ĠÙģØ³Ø§Ø¯":6387,"ĠØªÙĦÚ¯Ø±Ø§ÙħÛĮ":6388,"ĠØ¹ÙĨØ§ÙĪÛĮÙĨ":6389,"ĠØ§ØµÙĨØ§Ùģ":6390,"ĠØ±Ø§Ø¬Ø¹":6391,"ĠÙħØ¬Ø§ÙĦØ³":6392,"ĠÙħÙĤØ§Ø¯ÛĮØ±":6393,"06":6394,"32":6395,"40":6396,"94":6397,"AC":6398,"ĠÛĮØ¯":6399,"Ġde":6400,"Ø§ÙĪÙĨØª":6401,"ÙĪÛĮØ¯":6402,"ÙĪØ§ØŃ":6403,"ÙĦØ§ÛĮØª":6404,"ĠØ¨Ø§Ø³ØªØ§ÙĨ":6405,"ĠØ¨Ø²ÙĨØ¯":6406,"ĠÙħØ§Ø±":6407,"ĠÙħÙĦØ§ÙĤØ§Øª":6408,"Ú¯ÙĪÙĨÛĮ":6409,"Ø¨Ø§ÛĮÛĮ":6410,"ĠØ±Ø§Ø²ÛĮ":6411,"ĠÙĨØ¨Ø±Ø¯":6412,"ĠÙĨÚ©ÙĨÙĨØ¯":6413,"ĠØ¯Ø±ÙĪÙĨÛĮ":6414,"ĠØ³ÛĮØ±":6415,"ĠØ³Ø§Ø¹":6416,"ĠØ¢Øª":6417,"ĠØ¢ØªÛĮ":6418,"ĠØ¢Ù¾Ø¯ÛĮØª":6419,"ĠÙ¾Ø§ÙĦ":6420,"ĠØ®Ø§ÙĨØ¯":6421,"ĠÙħÛĮÙĩÙĨ":6422,"ĠÙħÛĮÚ©ÙĨÛĮØ¯":6423,"ĠØ§Ø³Ø·ÙĪØ±Ùĩ":6424,"ÛĮØ¯Ø±ÛĮ":6425,"ĠÙģÙĪØ¯":6426,"ĠÙģØ±ÛĮØ¯":6427,"ĠØ¹Ø²Ø§Ø¯":6428,"Ø§ØªÛĮÙĨ":6429,"ØŃØ¯":6430,"ĠØ§Ø³ØªÛĮ":6431,"ĠÚ¯Ø´ØªÙĩ":6432,"ĠØ¬Ø¨Ø±Ø§ÙĨ":6433,"ĠØ¬Ø¨ÙĩÙĩ":6434,"Ø§Ø³Ø®":6435,"Ù¾Øª":6436,"Ù¾Ø²":6437,"ĠØ¢ÙĨØªÙĨ":6438,"ØªØ±Ùĩ":6439,"Ø´ÙĨØ§Ø®ØªÛĮ":6440,"ĠÙĦÛĮØ³":6441,"ĠÚ©ÙĨÙĩ":6442,"ÙħÛĮÙĤ":6443,"ĠÚ©Ø§Ø±Ø§ÛĮÛĮ":6444,"ĠÚ©Ø±Ø¯ÛĮØ¯":6445,"ĠØ§Ø±Ø¯ÙĪ":6446,"ĠØªÙĪØª":6447,"ĠØ§ÙĦÙħÙĦ":6448,"ĠØ§ÙĦØ¨Ø±Ø²":6449,"ØºØ§ÙĦ":6450,"Ø§Ø®Ø°":6451,"ĠÙħØ¹Ø±Ùģ":6452,"ĠÙħØªÙģ":6453,"ĠÙħØªØ´Ú©ÙĦ":6454,"ĠØ±ÙĪØ¨Ø§Øª":6455,"ĠØªØŃÙĦÛĮÙĦÛĮ":6456,"ĠØªØŃÙĤÙĬÙĤ":6457,"ĠØ³ÙĪØ§Ø±ÛĮ":6458,"ĠØªØ¹Ø§ÙĪÙĨ":6459,"ĠØ±Ø³ÙĪÙħ":6460,"ĠØ§Ø¹Ùħ":6461,"ĠØ§Ø¨ÙĨ":6462,"Ø¯Ø§Ø±ÙĨØ¯Ùĩ":6463,"ĠØ¹ÙĨØµØ±":6464,"ĠØ¨Ø§Ø±Ùħ":6465,"Ù¾ÛĮÙĪØªØ±":6466,"ars":6467,"ary":6468,"ĠØªÙĤØ¯ÛĮÙħ":6469,"ĠØªÙĪÙĦÛĮØ¯Ø§Øª":6470,"ĠÙĨØ¯Ø§Ø±Ùĩ":6471,"Ø³Ø§ÙĦÙĩ":6472,"ĠØ®Ø·Ø§":6473,"ĠØ®Ø·ÛĮ":6474,"ĠØ¬ÙĨØ§Ø¨":6475,"ĠØ¬ÙĪØ§ÙħØ¹":6476,"ĠØŃÙħØ§ÛĮØªÛĮ":6477,"ĠØ®ØµÙĪØµØ§":6478,"ĠÙ¾Ø±Ø³Ø´ÙĨØ§ÙħÙĩ":6479,"ĠØ¯ÙĪÙħÛĮÙĨ":6480,"ĠÚĨÙĩØ§Ø±Ø´ÙĨØ¨Ùĩ":6481,"ĠÙħÙģØµÙĦÛĮ":6482,"ĠØ¨ÙĪØ§Ø³":6483,"ĠÙħØ¨ÙĨÛĮ":6484,"ool":6485,"Ø´ÙĨØ§Ø³Ø§ÙĨ":6486,"ĠØ´ÙĩØ±ÛĮÙĩ":6487,"ĠØ®Ø§Ø·Ø±Ø§Øª":6488,"ÙħØ¹Ø§ÙĪÙĨØª":6489,"ĠÙ¾Ø§Ø±Ø§Ùħ":6490,"0936":6491,"Ø³Ø§Ø²Ø¯":6492,"ĠÚ¯Ø±Ø¯Ø´Ú¯Ø±Ø§ÙĨ":6493,"ĠÙĪØ¶Ø¹":6494,"Ù¾Ø±Ø¯Ø§Ø²ÙĨØ¯":6495,"ĠÙĪÙĦØ§Ø¯Øª":6496,"ĠØ¢Ø³ÙħØ§ÙĨÛĮ":6497,"ĠØ§Ø¨Ø²Ø§Ø±ÙĩØ§ÛĮ":6498,"ĠØ§Ø³Ù¾Ø±Øª":6499,"ĠØ¢ÙĪØ±ÙĨØ¯":6500,"ĠØ¨ÙĨÛĮØ§ÙĨ":6501,"ĠØ¸Ø§ÙĩØ±Ø§":6502,"ĠØ²ÙĪØ¯ØªØ±":6503,"Ú©Ø§ÙĦØ§":6504,"ĠØ¯ÙħØ§ÛĮ":6505,"ÙħÙĤØ§ÙĦÙĩ":6506,"ĠÙħÙĩØ¯Ùī":6507,"ĠØ§Ø®ØªÙĦØ§ÙĦØ§Øª":6508,"ĠÚĨÙĨØ§ÙĨÚĨÙĩ":6509,"ĠØ³Ø±Ù¾Ø±Ø³Øª":6510,"ĠØ¨Ø±Ú¯Ø²ÛĮØ¯Ùĩ":6511,"ĠÚ©Ø§Ø±Ø¢ÙģØ±ÛĮÙĨÛĮ":6512,"ĠØ¨ÙĪØ´ÙĩØ±":6513,"ĠÙ¾Ø§ÛĮÛĮØ²":6514,"ÙĨØ¨Ø´ØªÙĩ":6515,"ĠØ§Ø³Ø§ØªÛĮØ¯":6516,"ĠØªØ´ÙĪÛĮÙĤ":6517,"ĠØªØ§Ø²Ú¯ÛĮ":6518,"ĠÙħØŃØªÙĪÛĮ":6519,"ĠÙĦÛĮØ²Ø±ÛĮ":6520,"ĠÙ¾ÙĨÙĩØ§ÙĨ":6521,"ĠØ§ÙħÙĪØ§Ø¬":6522,"ĠØ§Ø«Ø§Ø«ÛĮÙĩ":6523,"ĠØ²ÛĮÙħÙĨØ³":6524,"Ø§ÙĤØªØµØ§Ø¯":6525,"ĠÙħÙĪØ§ÙĨØ¹":6526,"ĠØ³Ù¾ØªØ§ÙħØ¨Ø±":6527,"ĠÙĩÙĪØ§Ø¯Ø§Ø±Ø§ÙĨ":6528,"ĠØ§ÙĪØ±Ø¬ÛĮÙĨØ§ÙĦ":6529,")-":6530,"++":6531,"PU":6532,"cy":6533,"io":6534,"ian":6535,"za":6536,"¿½":6537,"Ð»":6538,"ÛĮØ§Ø¨Ø¯":6539,"Ø±Ø²":6540,"Ø¯ÙĬØ¯":6541,"ÙħÙĨÛĮ":6542,"ĠØ¨Ú¯ÙĪÛĮ":6543,"ĠØ¨Ø¯ÙĩÙĨØ¯":6544,"ĠØ¯ØºØ¯":6545,"Ø³Ú©ÙĪ":6546,"ĠÙĪÙĥ":6547,"Ø´Ú©Ø±":6548,"Ø´ÛĮØ¯ÛĮ":6549,"ĠÚ©Ø§Øª":6550,"Ú¯Ùī":6551,"ĠØªØª":6552,"Ø²ÛĮØ¯":6553,"ĠØ±Ø§Ùħ":6554,"ĠÙĩØ²":6555,"ĠØ¯Ø±ÙĬ":6556,"ĠØ¯Ø±Ø§Ø²":6557,"ĠØ³ÙĨÛĮ":6558,"ĠØ¢ÙĨØ¯":6559,"Ø§ÙĦØ§ÙĨ":6560,"Ø§Ø¯Ø±ÛĮ":6561,"ĠÙ¾ÛĮÙħØ§ÙĨ":6562,"ĠÙħÛĮØ±Ø¯":6563,"ĠÙħÛĮØ´ÙĪÙĨØ¯":6564,"ĠØ§Ø³Ú©":6565,"ÙĪØ±ÙĪ":6566,"ÙĬØ³Øª":6567,"ĠÙģÙĪÙĨ":6568,"Ø§ÙĩØª":6569,"Ø§ÙĩØ§ÙĬ":6570,"ĠØ¹Ø²":6571,"ĠØ§Ø³ØªÙĪØ¯ÛĮ":6572,"ĠÚ¯ÙĪØ§Ø±":6573,"ĠØ¨Ø§Ú©ØªØ±ÛĮ":6574,"ĠÛĮØ²Ø¯ÛĮ":6575,"ĠØ§ÛĮÙĨÙĩØ§":6576,"Ø·Ø§Ùģ":6577,"Ø±ÙĪÙĨÙĩ":6578,"ĠØŃØ§ÙħØ¯":6579,"ĠÙĤØ¨ÙĪÙĦÛĮ":6580,"ĠØ²Ø¨":6581,"ĠØ²ÙĪØ¯ÛĮ":6582,"Ù¾Ø¯":6583,"ĠØ§ÙĨØŃ":6584,"Ø¯ÙĩÙĨØ¯Ùĩ":6585,"Ø³ÛĮØ³ØªÙħ":6586,"ØªØ±ÙĬÙĨ":6587,"ØªÛĮØ§Ø±ÛĮ":6588,"ĠØ·ÛĮÙģ":6589,"ĠÚ©Ø§Ø±Ú¯Ø±ÙĪÙĩ":6590,"ĠÚ©Ø±Ø¯Ø³ØªØ§ÙĨ":6591,"Ú¯Ø±ÙģØªÙĩ":6592,"ĠÙħØŃØµ":6593,"ĠÙĨÛĮÙĪØ²ÛĮ":6594,"ĠÙģØ±Ø³":6595,"ĠÙģØ±Ø§ØºØª":6596,"ĠÙħØ¹ÙĦ":6597,"ĠÙĨÙħØ§ÙĬ":6598,"ĠÙħØ¯ÙĨÛĮ":6599,"ĠÙħØ¯Ø§ÙģØ¹":6600,"ĠÙħØªØ¯":6601,"ĠÙħØªØµÙĦ":6602,"Ø¢ÙĤØ§ÛĮ":6603,"ĠØ³Ø±ÙĪØ¯":6604,"ĠØ®ÙĪØ§Ø±":6605,"ĠØ¯ÛĮÙĪØ§ÙĨ":6606,"ĠØ¯ÛĮØ±ÙĪØ²":6607,"Ġ27":6608,"ĠÚ¯Ø±Ø¨Ùĩ":6609,"ĠÚ¯Ø±ÙħØ§":6610,"Ø§Ø®ØªÙĨ":6611,"Ø²Ø´ÛĮ":6612,"ĠØ§Ø¹ØªÛĮ":6613,"ĠØ§Ø¯Ø¹":6614,"ĠÙħØ§ÙĩÛĮØª":6615,"ĠØ§Ø´Ø±ÙģÛĮ":6616,"ÙĨØ§ÙĪØ±ÛĮ":6617,"ĠØ´ÛĮØ¹Ùĩ":6618,"ĠØ±ÛĮØ§ÙĦ":6619,"Ú©Ø±Ø¯ÙĨØ¯":6620,"ĠØ§Ú¯Ø±ÚĨÙĩ":6621,"ĠØ´Ø¨Ø§ÙĨÙĩ":6622,"ĠØ¨Ø²Ø±Ú¯Ø§ÙĨ":6623,"ĠÙģØ¹Ø§ÙĦÛĮ":6624,"Ġ35":6625,"Ú¯ÛĮØ±ÛĮÙħ":6626,"ard":6627,"ĠØªÙĤØ¯Ùħ":6628,"ĠØ§ÙĨØªØ®Ø§Ø¨Ø§ØªÛĮ":6629,"ĠØ®Ø·Ø±ÙĨ":6630,"Ø¨ÙĪØ³ØªØ§ÙĨ":6631,"ĠØŃÙħØ§Ùħ":6632,"ĠØ³ÙĦØ·":6633,"ĠÛĮØ§Ø¯Ø¯Ø§Ø´Øª":6634,"ĠÙģØ¹Ø§ÙĦÛĮØªÙĩØ§ÛĮ":6635,"ĠÙĦÛĮØ²Ø±":6636,"ĠÙħÙĨØªØ¸Ø±":6637,"ĠÙħÙģØ§Ùĩ":6638,"ĠØŃÙĦÙĤÙĩ":6639,"ĠØ¬Ø²ÛĮØ±Ùĩ":6640,"2017":6641,"ĠØŃØ±Ø§Ø±Øª":6642,"ĠØªØ§Ø¨Ø´":6643,"ĠØ±ÙĩØ¨Ø±Ø§ÙĨ":6644,"ĠØ®Ø§ÙĨÙĪØ§Ø¯Ú¯ÛĮ":6645,"ĠØ§ÙĨÚ¯ÙĦÛĮØ³":6646,"Ø´ÙĨØ§Ø³ÙĬ":6647,"ĠRS":6648,"ĠØ¨ØŃØ±Ø§ÙĨ":6649,"ĠØ§Ø±Ø²Ø´ÙħÙĨØ¯":6650,"ĠÙģÙĪÙĦØ§Ø¯":6651,"ĠØ´Ø§ÙĩØ²Ø§Ø¯Ùĩ":6652,"ÙĩØ¯Ùģ":6653,"ĠØ·ÙĦØ¨Ø§ÙĨ":6654,"ÙģØ±ÙĪØ´Ú¯Ø§Ùĩ":6655,"ĠÙĪØŃØ¯Øª":6656,"Ġfor":6657,"ĠØ§ØªÙģØ§ÙĤØ§Øª":6658,"ĠØ¨Ø±Ø³Ø§ÙĨØ¯":6659,"ÙĨÙĪØ´ØªÙĩ":6660,"Ù¾Ø³ÙĪÙĦ":6661,"ĠÙ¾Ø¯Ø±Ø´":6662,"ĠÙĤÛĮÚĨÛĮ":6663,"Ù¾Ø±Ø¯Ø§Ø²Ø¯":6664,"ĠØ±Ø®Ø¯Ø§Ø¯":6665,"ĠÙĨØ¬Ø§Øª":6666,"ĠÙħÙĪÙĩØ§ÛĮØªØ§ÙĨ":6667,"ĠÙħØ¹ÛĮØ§Ø±ÙĩØ§ÛĮ":6668,"ĠØ±ØŃÛĮÙħ":6669,"ĠØ§ÙĨÚ¯Ø´ØªØ§ÙĨ":6670,"ĠØ¹Ø¨Ø¯Ø§ÙĦÙĦÙĩ":6671,"ĠØ§Ø³ØªØ±Ø§ØŃØª":6672,"Ø¢Ø¨Ø§Ø¯":6673,"ĠØªØ§Ø®ÛĮØ±ÛĮ":6674,"ĠØŃØ±Ú©Ø§Øª":6675,"ĠØŃØ±Ú©ØªÛĮ":6676,"ĠâĹ":6677,"ĠÙģÙĦØ³Ø·":6678,"Ù¾Ø§Ø±ÚĨÙĩ":6679,"ndro":6680,"ĠØ±ÙĪØ¨Ø±ÙĪ":6681,"ĠÙĩØ§Ø´ÙħÛĮ":6682,"ĠØ§Ø³ÙĨØ§Ø¯":6683,"ĠÙ¾ÙĩÙĦÙĪØ§ÙĨ":6684,"Ġhttp":6685,"ĠØ²Ø§ÛĮÙħØ§ÙĨ":6686,"ĠÙĨØ±Ø³ÛĮØ¯Ùĩ":6687,"ĠØµÙĩÛĮÙĪÙĨÛĮØ³ØªÛĮ":6688,"ĠØ§ÙĦÚ©ØªØ±ÙĪÙĨÙĬÚ©ÙĬ":6689,"ĠØ¯ØºØ¯ØºÙĩ":6690,"100":6691,"95":6692,"98":6693,"::":6694,"GO":6695,"fu":6696,"ik":6697,"se":6698,"âĿ¤":6699,"ï¿½":6700,"Ġ}":6701,"Ġ..":6702,"Ġ.....":6703,"Ø±ÙĤ":6704,"ĠÙ¡Ù":6705,"ÙĩØ²Ø§Ø±":6706,"ÙĩÙħÙĩ":6707,"ĠÙħÙħÙĦ":6708,"ĠÙħØ³ØªÙħ":6709,"ĠÙħÙĦØ§ØŃ":6710,"Ø§ÙĨØ§":6711,"Ø§ÙĨØ¯Ùĩ":6712,"Ø§ÛĮØ²":6713,"Ø³ÙĨÚ¯":6714,"Ø´Ø¹":6715,"ĠÚ©Ø§Ø®":6716,"Ø¨Ø§Ø±ÛĮ":6717,"ĠØ±Ø§Ø¦":6718,"ĠÙĨØ§Ú©":6719,"ĠÙĨØ§Ù¾":6720,"ĠØ³Ø§Ø¯Ø§Øª":6721,"ĠØ´ÙĦ":6722,"ĠØ´ÙĨÛĮ":6723,"ĠØ¢Ø±Ùħ":6724,"ĠÙ¾ÙĨØ¯":6725,"ĠÙ¾Ø§Ø±Ùĩ":6726,"ĠÙ¾ÙĩÙĨ":6727,"ĠÙħÛĮÙĨ":6728,"ĠÙħÛĮØªÙĪØ§ÙĨØ¯":6729,"ĠØ§ÛĮÙħØ§ÙĨ":6730,"Ø®Ø·":6731,"ĠÙģØ³Øª":6732,"ĠÙģØ¬Ø±":6733,"ĠØ¨Ø±Ø´":6734,"Ø§ÙĩØ±":6735,"Ø§ÙĩØ§ÛĮÛĮ":6736,"ĠØ¹Ø§Ø¯ÙĦ":6737,"ØŃÙĦÙĪØ§ÛĮ":6738,"ĠØ§Ø³ØªØ¯":6739,"ĠØ¬ÙĪÙĨ":6740,"ĠÛĮÙĪØ´Ø§Ø±Úĺ":6741,"ĠØŃØª":6742,"ĠØŃØµ":6743,"ĠÙĤÙĪÙĦ":6744,"Ù¾Ú©":6745,"Ù¾Ø§ÛĮÙĩ":6746,"ÛĮÙħØ´Ø§ØºÙĦ":6747,"Ø¯ÙĩÛĮØ¯":6748,"ÙĨÚ¯Ø±ÛĮ":6749,"ÙĨÚ¯ØªÙĨ":6750,"Ø³ÛĮÙĦ":6751,"ĠÙĦÙĤ":6752,"ĠÙĦØ§Ø±Ø³ØªØ§ÙĨ":6753,"ĠØ§ÙħØ±ÛĮ":6754,"ĠØµØ¯Ùħ":6755,"Ú©ÛĮÚ©":6756,"ÙħÛĮØ§ÙĨÙĩ":6757,"ĠÙħÙĪØ§Ùģ":6758,"ĠÙħØŃÚ©":6759,"ĠÙħØŃØ¶":6760,"ĠÛĮÚ©Ùħ":6761,"ĠÛĮÚ©Ø´ÙĨØ¨Ùĩ":6762,"ĠØ®ÙĪØ¯Ø¯Ø§Ø±ÛĮ":6763,"Ú¯ÛĮÙĦ":6764,"ĠØ¨Ø§Ø²ÙĨÙĪÛĮØ³ÛĮ":6765,"ĠØªÙĪÙħØ§ÙĨÛĮ":6766,"Ø§ØŃØ§ÙģØ¸":6767,"ĠÙģØ±ÙĤ":6768,"Ø¨ÛĮÚ©":6769,"ĠÙĨÙħØ§Ø¦ÛĮØ¯":6770,"ĠÙ¾ÛĮØ§Ù¾ÛĮ":6771,"ĠÙħØ´Ø§ØºÙĦ":6772,"ĠØªØ±Ø§Ø²":6773,"ĠØªØ±ÙħÛĮÙħ":6774,"ĠØ¯Ø³ØªÚ¯ÛĮØ±":6775,"ĠØ³Ø±Ø´Ø§Ø±":6776,"Ú©ØªØ§Ù¾":6777,"ĠÙħØ¬Ø¯":6778,"Ø¦ÛĮØ¯":6779,"ĠÙħØ³ÙĪ":6780,"Ø§ÙĤØª":6781,"Ø§Ú©Ùħ":6782,"Ġ28":6783,"ĠÚ¯Ø±Ø§ÙģÛĮÚ©":6784,"ĠÙħÙĩØ±Ø¯Ø§Ø¯":6785,"ÙĥØ±":6786,"Ø§ØµØ¯":6787,"ÙħÙĨØª":6788,"ĠØ³ÙĪÙ¾":6789,"ÙĬÙĨØ´":6790,"ĠØ§Ø¨Ø±ÙĪ":6791,"ĠÙĨØ§ÙħÛĮØ¯Ùĩ":6792,"ĠÙĨØ§ÙħØ²Ø¯":6793,"Ú©Ø§ÙĨØ³":6794,"ĠÚ©ÙĦÙĨØ²":6795,"ĠØ¹ÙĦÙĦ":6796,"ĠÙĨØ´Ø±ÛĮÙĩ":6797,"ÙĪØ³Ø§Ø²ÛĮ":6798,"Ø§ÙĪØ±Ø§ÙĨ":6799,"Ø§ÙĪØ±ÙĬ":6800,"ĠÙ¾Ø³ÙĨØ¯":6801,"ĠÙ¾Ø³Ø±Ø§ÙĨ":6802,"ĠÙ¾Ø³Ø±Ø§ÙĨÙĩ":6803,"ĠØ´ÛĮØ·Ø§ÙĨ":6804,"ĠÛ±Û¹":6805,"Ø®ÙĪØ§Ø¨ÛĮ":6806,"ĠÙ¾Ø±Ø·Ø±Ùģ":6807,"anon":6808,"Ġ34":6809,"Ġ300":6810,"ĠAc":6811,"ĠAPS":6812,"ĠØ§Ø³ØªØ§ÙĨØ¨ÙĪÙĦ":6813,"ÙĢÙĢÙĢ":6814,"ĠØ¬ÙĨØ§ÛĮØª":6815,"ĠØ¸Ø±ÛĮÙģ":6816,"ĠMehr":6817,"Ø¯ÙĪØ§Ø²Ø¯ÙĩÙħÛĮÙĨ":6818,"ĠÚ¯Ø±ÙģØªÙĨØ¯":6819,"ĠÙħÙĦØ§ÛĮÙħ":6820,"ĠØªÛĮØ²Ø±":6821,"ĠØ¨Ø§Ø²Ø§Ø±ÙĩØ§ÛĮ":6822,"ĠÙĪØ§Úĺ":6823,"ĠØ¨ÙĪÚ©":6824,"ĠÙĨØµÛĮØ±":6825,"ĠØ´Ú©Ø³ØªÙĩ":6826,"ĠØ®ÙĪØ¯Ø±ÙĪÙĩØ§ÛĮ":6827,"ĠØªØ®Ø±ÛĮØ¨":6828,"ĠØµØ¯ÙĪØ±":6829,"ĠØŃØ±Ø§Ùħ":6830,"Ø³Ø±Ú¯Ø±ÙħÛĮ":6831,"Ġmp":6832,"ĠØ³ÛĮÙĨÙħØ§ÛĮ":6833,"Ġ70":6834,"ĠØ´ÙĩØ±ÛĮØ§Ø±":6835,"ĠHD":6836,"ĠØ§ÙĬØ¬Ø§Ø¯":6837,"ĠÙ¾ÚĺÙĪÙĩØ´Ú¯Ø±Ø§ÙĨ":6838,"ĠÙħÙĪØ³ÙĪÛĮ":6839,"ĠÙ¾Ø§Ú©Ø³":6840,"ĠØ¨ÙĨØ¯Ø±Ø¹Ø¨Ø§Ø³":6841,"ĠÙĨÙģØªÛĮ":6842,"Ø§ÙħÙ¾ÙĪ":6843,"ĠØ®Ø§ÙħÙĪØ´":6844,"Ġ128":6845,"ĠØ±ÙĪØŃÛĮÙĩ":6846,"Ġdownload":6847,"ĠØ¯Ø³ØªÙĪØ±Ø§ÙĦØ¹ÙħÙĦ":6848,"ĠØ±Ø³ÛĮØ¯Ú¯ÛĮ":6849,"ĠØ¬Ø°Ø§Ø¨ÛĮØª":6850,"ĠØ§Ø®ÛĮØ±Ø§":6851,"ĠØ¯Ø§ÙĨØ³ØªÙĨ":6852,"ĠØªÙĨØ¸ÛĮÙħØ§Øª":6853,"ĠÛ¹Û·":6854,"ĠØ¨Ø´ÙĪÛĮ":6855,"ĠØ¹ØµØ¨":6856,"ĠØ¹ØµØ¨ÛĮ":6857,"ĠÙĦØ§ØºØ±":6858,"ĠÙ¾Ø±Ø¯Ø§Ø²ÙĨØ¯Ùĩ":6859,"Ø¯Ú©ØªØ±":6860,"ĠØ®Ø¯Ø§ØŃØ§ÙģØ¸":6861,"ĠØµÙĨØ¯ÙĦÛĮ":6862,"ĠÙĩÙĨØ±ÙħÙĨØ¯":6863,"ĠÛĮØ§Ø±Ø§ÙĨÙĩ":6864,"ĠÙħØ§ÙĨØ¯Ú¯Ø§Ø±":6865,"ĠÙĨØ§Ø²Ú©":6866,"ĠØ¹Ø¨Ø¯Ø§ÙĦ":6867,"ĠÚ©Ø§Ø´Ø§ÙĨ":6868,"ĠØªØ²Ø±ÛĮÙĤ":6869,"Ø§ÙģØ²Ø§ÛĮØ´":6870,"ĠØªØ±Ø¯ÙħÛĮÙĦ":6871,"ĠØ³Ø¨Ø²ÛĮØ¬Ø§Øª":6872,"ÚĨØ±Ø§Øº":6873,"ĠØ§Ø®ØªØ±Ø§Ø¹":6874,"ontent":6875,"ĠÚĨØ§ÙĤÛĮ":6876,"ĠÙĨØ§ØªÙĪØ§ÙĨÛĮ":6877,"ĠÚĺØ§ÙĨØ±":6878,"ĠÙ¾Ø§Ø³Ø®Ú¯ÙĪÛĮØ§ÙĨ":6879,"ĠØ¯Ø±ÙħÙĪØ±Ø¯":6880,"ĠÙħÚ¯Ø§Ù¾ÛĮÚ©Ø³ÙĦ":6881,"ĠÚ©ÙĨÚ¯Ø±Ùĩ":6882,"ĠÙĨØ§Ø´ÙĨØ§Ø®ØªÙĩ":6883,"ĠØ¬ÙĨØ¬Ø§ÙĦÛĮ":6884,"ĠÙ¾Ø±Ø®Ø§Ø´":6885,"ĠØŃÙĪØ§Ø¯Ø«":6886,"ĠØ§Ø¹ØªÛĮØ§Ø¯":6887,"ĠÙħÙĪØ§ÙģÙĤØª":6888,".)":6889,"ies":6890,"ly":6891,"ss":6892,"Ø§Ú¯":6893,"Ø§ÙĪÙħ":6894,"Ø±Ø§ÙĦ":6895,"Ø±Ø§ÙĤ":6896,"ÙĪØ§ÛĮ":6897,"ÙħØ±Ùĩ":6898,"Ø§Ø¢":6899,"Ú©Ø±Ø§ÙĨ":6900,"ĠØ¨ÙĪÙĦ":6901,"ĠØ¨Ø°":6902,"ĠØ¨ÙĨØ¯Ùĩ":6903,"ĠØ¨Ú¯Ø°":6904,"ĠØ¨Ø®ØµÙĪØµ":6905,"ĠØ¨Ø®ÙĪØ§ÙĩÛĮØ¯":6906,"ĠØ¨Ú¯Ø°Ø§Ø±Ø¯":6907,"ĠÙħÙ¾":6908,"ĠÙħØ§ÛĮÙĦ":6909,"Ø§ÛĮØ±Ø§ÙĨ":6910,"ĠØ¯ÙĪØ´":6911,"ĠÙĪÙĨ":6912,"ĠÙĪØ¯Ø±":6913,"ĠÚ©Ø¨":6914,"ĠÚ©Ø±Ú©":6915,"Ú¯Ø§Ùħ":6916,"Ø¨ÙĪØ³Øª":6917,"Ø¨Ø³ØªÚ¯ÛĮ":6918,"ĠØªØ¨ÛĮ":6919,"ĠØªØ·Ø¨ÛĮ":6920,"ÙģØµÙĦ":6921,"ÙģÙĪÙĦÛĮ":6922,"ĠØ¯Ø±ØŃØ§ÙĦÛĮ":6923,"ĠØ³Ø§Ø³":6924,"ĠØ³Ø¯ÛĮÙħ":6925,"ĠØ´Ø§":6926,"ĠØ´Ú©Ø±":6927,"ĠØ´Ø§ÙĨØ³":6928,"ĠØ¢ÛĮÙĨÙĩ":6929,"âĢĮØĮ":6930,"Ø§ÙĦØ§":6931,"ĠØ¨ÙĩØ±ÙĪØ²":6932,"Ø§Ø¯Ú©ÙĦÙĨ":6933,"Ø±ÛĮÙĨÚ¯":6934,"ĠÙ¾Ú©":6935,"ĠØ®ÙĪÙĨÙĩ":6936,"ĠØ®Ø´Ùħ":6937,"ĠØ§Ø²Ø§ÛĮ":6938,"ĠØ§Ø³Ø§ÙħÛĮ":6939,"Ø®Ø¨":6940,"ÚĨØ§ÙĦ":6941,"ĠÚ¯ÙĪØ¯":6942,"ĠÚ¯ÙĬ":6943,"ĠÚ¯ÙĦÙĩ":6944,"ĠÛĮØ¨ÙĪØ³Øª":6945,"ĠØ§ÛĮÙĨÚ©Ø§Ø±":6946,"ĠÙĤÙĦÛĮ":6947,"ĠØ²Ø±Ø¯":6948,"Ù¾ØªÛĮ":6949,"ĠØ§ÙĨÙģ":6950,"ĠØ§ÙĨØµ":6951,"ĠÙĩÙħÙĪÙĨ":6952,"ĠÙĩÙħØ¨Ø³ØªÚ¯ÛĮ":6953,"ĠØ¢ÙĨÙĥÙĩ":6954,"ĠØ¢ÙĨØªØ§ÙĦÛĮØ§":6955,"ĠÙĦÙħØ³ÛĮ":6956,"ĠÚ©ÙĨÙĪÙĨÛĮ":6957,"Ú©ÛĮØª":6958,"ĠÙĨÛĮÙĪÛĮ":6959,"ĠÛĮÚ©ÙĨÙĪ":6960,"ĠØ¢ÙħØ§Ø±ÛĮ":6961,"ĠØ§Ø±Ø¬":6962,"ĠÙĪÛĮØ²Ø§ÛĮ":6963,"ĠØ§ÙĦØ³":6964,"ĠØ§ÙĦØ¥":6965,"Ø§Ø®ÙĪØ§ÙĨ":6966,"Ø§Ø®Ø±Ùĩ":6967,"ĠÙħØ¹ÙĬØ§Ø±":6968,"Ø«Ùħ":6969,"ĠÙ¾ÛĮÚ¯Ø±Ø¯":6970,"ĠÙħØ´Ú©ÛĮ":6971,"Ø§ÙģÙĦ":6972,"ĠØªØ±ÙĪØ±":6973,"ĠØ³Ø±ÙĪØ±":6974,"ÙĦÙħØ§Øª":6975,"ÙĦÙħÛĮÙĨ":6976,"ĠØºÙĦØ§Ùħ":6977,"ĠØºÙĬØ±":6978,"ĠØºØ±ÛĮØ¨":6979,"Ø¯Ø±ÙħØ§ÙĨÛĮ":6980,"ÙĪØ¹ÙĦÛĮ":6981,"Ú©Ø³Ø¨":6982,"ĠÙħÙĤØ§ØµØ¯":6983,"Ø¦Ùĩ":6984,"ĠØ¨Ø§Ø²ÛĮØ§ÙģØª":6985,"ĠØ³ÛĮÙĦ":6986,"Ø§ÙĦÛĮØ§":6987,"Ø§ÙĦÛĮØ²":6988,"ÙħÙĨØ§ÙĨ":6989,"ÙħÙĨØ¸":6990,"ĠØ¨Ø¯ÙĦÛĮÙĦ":6991,"Ø§ÙĬØ¬":6992,"Ø§ÙĬØ·":6993,"ĠØ³ÙĪØ§Ø±":6994,"ĠØ§Ø¬Ø²Ø§ÛĮ":6995,"ĠÙĨÙĤØ§Ø´":6996,"Ø¨Ø§ÙĨÙĬ":6997,"ĠØ§ÙĨØªÙĩØ§":6998,"ĠÙĨØ§ÙħØ´":6999,"ĠØ§ÙĪØ§Ø®Ø±":7000,"ĠØ§Ø´Ø¹Ùĩ":7001,"ĠÚ¯ÙģØªÙĨ":7002,"ĠØ¨Ø§ÙĦÙħ":7003,"ĠØ¨Ø§ÙĦÛĮÙĨÛĮ":7004,"ĠØªÙĦØ®":7005,"ÙģØ±ÙĩÙĨÚ¯":7006,"Ø®ÛĮÙĦÛĮ":7007,"ĠØ¨Ø¹Ø¶":7008,"ĠØªÙĨØ§Ø³Ø¨":7009,"ĠÚ¯Ø±Ø¯ÙĨØ¯":7010,"ĠØ§ÙģØ²ÙĪÙĨÙĩ":7011,"ĠØ§ÙģØ²Ø§ÙĬØ´":7012,"ĠØ§ØŃÚ©Ø§Ùħ":7013,"ĠÙ¾Ø±Ø´":7014,"ĠØªØ¬Ø¯ÛĮØ¯":7015,"ĠØªØ¬Ø²ÛĮÙĩ":7016,"ĠØ´ÙĨØ§Ø®ØªÛĮ":7017,"ĠØ°ÛĮÙĦ":7018,"ØªØµØ§ÙĪÛĮØ±":7019,"ÙĨÙħØ§ÛĮÛĮ":7020,"ĠÙĩÙħÚĨÙĨÙĬÙĨ":7021,"ĠAM":7022,"ĠÚ©ÙĪÙ¾":7023,"ĠÛ²Ûµ":7024,"ĠÛ²Û¸":7025,"ĠÙħØ®Ø±Ø¨":7026,"ĠÙĩÙħØ±Ø§ÙĩÛĮ":7027,"ĠØ®Ø¨Ø±ÙĩØ§ÛĮ":7028,"ĠØ³Ù¾ÛĮØ¯Ùĩ":7029,"ĠÙĤØ·Ø§Ø±":7030,"alt":7031,"ency":7032,"ĠØ§Ø«Ø¨Ø§Øª":7033,"ĠØ¨ÙĨØ¯Ø±ÛĮ":7034,"ĠØ§Ø³Ø§Ø³Ø§":7035,"ĠØªÙģØ§ÙĩÙħ":7036,"ĠØªØ®ÙĦÙģ":7037,"ĠØ´ÙĪÙĩØ±":7038,"ØªÙĨÙĩØ§":7039,"ĠØ®ÙĪØ§ÙĨÛĮ":7040,"ĠØ¨Ø®ØªÛĮØ§Ø±ÛĮ":7041,"ÙĪÙĦÙĪÚĺÛĮÚ©":7042,"ĠØ´ÙĩØ±ÛĮØ§Ø±ÛĮ":7043,"ĠØ±ÙĪØ´ÙĨÙģ":7044,"ĠÚĨØ±Ø§Ú©Ùĩ":7045,"ĠØ´ÛĮØ±Ø§Ø²ÛĮ":7046,"ĠØ®Ø±Ø§Ø¨":7047,"ĠÙĨÙħÙĪØ¯ÙĨ":7048,"ÙĦÛĮØºØ§Øª":7049,"ĠÙģØ±Ø§Ú¯ÛĮØ±":7050,"ĠÙĨÙĬØ§Ø²":7051,"ish":7052,"ĠÙĦØ·Ùģ":7053,"ĠØ¨Ø§Ø¯Ø§Ùħ":7054,"Ø²ÙĨÙĨØ¯":7055,"ĠØ´Ø§Ø±Ù¾":7056,"ĠØ§Ø¸ÙĩØ§Ø±Ø§Øª":7057,"ĠØ¨Ø¯ÙĩÛĮ":7058,"ĠÛ¶Û°":7059,"ÙĨØ´Ø³Øª":7060,"Ġwww":7061,"ĠØ¢ÙģØ±ÛĮÙĤ":7062,"ĠÙħÙħÙĨÙĪØ¹Ùĩ":7063,"ïºİ":7064,"ĠÙĤØ²Ø§ÙĤ":7065,"ĠNews":7066,"ĠÙħÛĮØ±Ø²Ø§":7067,"ĠØ¯Ø§ÙĪØ·ÙĦØ¨":7068,"ĠØ¨Ú©Ø§Ø±Ú¯ÛĮØ±ÛĮ":7069,"ÙĬØ²ÙĬ":7070,"Ø·Ø¨ÙĤ":7071,"ĠØªØ±ÙĪØ±ÛĮØ³Øª":7072,"ĠØ¨ÛĮØ¯Ø§Ø±":7073,"ĠÙģÙĦØ³ÙģÙĩ":7074,"ĠØ§ÙĦÙĩÙĬ":7075,"ĠØ¯Ø±Ø®Ø´Ø§ÙĨ":7076,"ĠØ§Ø®ØªØ±Ø§Ø¹Ø§Øª":7077,"ĠØ±Ø¦Ø§ÙĦ":7078,"ĠØ§ÙĨØ¹Ø·Ø§Ùģ":7079,"ĠØ§Ø¨Ø±Ø§Ø²":7080,"ĠÙħÙĤØ§ÙĪÙħØªÛĮ":7081,"ĠØ¨Ø§Ø·Ø±ÛĮ":7082,"ĠÙħØ¤Ø³Ø³Ùĩ":7083,"ĠÙĪØ¢ÙĦÙĩ":7084,"ĠØ§ÙĦØ¯ÙĪØ±ÙĬ":7085,"ĠÙĪØ§Ø´ÙĨÚ¯ØªÙĨ":7086,"ĠÙħÙĨØ§Ø¸Ø±Ùĩ":7087,"ĠØ¹ÙħØ¯ØªØ§":7088,"ĠØ¯Ø³ØªÙħØ²Ø¯":7089,"ĠÙĤØ´ÙĨÚ¯":7090,"ĠØ´ÛĮØ¹ÛĮØ§ÙĨ":7091,"ĠØ¨ÛĮØ§ÙħÙĪØ²":7092,"ÙĪØ§ØŃØ¯":7093,"ĠØ¹Ø²Ø§Ø¯Ø§Ø±ÛĮ":7094,"ĠØ±ÙĪØ¨Ø§ØªÛĮÚ©":7095,"ĠÙĨÛĮÙĪØ²ÛĮÙĦÙĨØ¯":7096,"ĠØ®Ø·Ø±ÙĨØ§Ú©":7097,"ĠâĹı":7098,"ĠØ±Ø§Ø¦ÙģÛĮ":7099,"ĠØ§Ø³ØªØ¯ÙĦØ§ÙĦ":7100,"ĠÙ¾Ø±Ø·Ø±ÙģØ¯Ø§Ø±":7101,"21":7102,"AR":7103,"DF":7104,"Download":7105,"IP":7106,"bot":7107,"ci":7108,"co":7109,"ek":7110,"ead":7111,"ham":7112,"ml":7113,"pa":7114,"ric":7115,"ver":7116,"wp":7117,"Ñı":7118,"Ġ&":7119,"Ø§ÚĨ":7120,"Ø§ÙĪÙĦÛĮÙĨ":7121,"Ø±ÙĬÙħ":7122,"ÙĨÙĦ":7123,"ÙĨØ§Ø³Ø¨":7124,"ÙĩØ§Ø¯":7125,"ÙĪÚ¯ÙĪ":7126,"ØªØ§Ø±ÛĮØ®":7127,"Ú©Ø§ØªÙĪØ±":7128,"ĠÙħØ¯ÛĮ":7129,"ĠÙħÙĢ":7130,"ĠÙħØ§Ø±Ú©Øª":7131,"Ø³Ø§Ø¹Øª":7132,"ĠÙĪØ±ÛĮ":7133,"ĠÙĪØµ":7134,"Ø´Ø§ÛĮØ¯":7135,"ĠÚ©Ø§Ø¨ÙĦ":7136,"ĠÚ©ÙĪØ±Ùĩ":7137,"ĠÚ©Ø±Ø§ÙģØª":7138,"ĠØªÙĦØ§":7139,"ĠØªØ§Ø±ÙĬ":7140,"ĠØ±ÙĩØ§":7141,"ĠÙĨÚ¯":7142,"ĠÙĨØ®ÙĪØ§ÙĩÛĮØ¯":7143,"ĠÙĨØ§ÙĨÙĪ":7144,"ĠÙĩÚ©":7145,"ĠÙĩØ§ÙĦ":7146,"Ø§ÙħØ§Ø¯":7147,"ĠØ¯Ø±Ø§ÛĮÙĨ":7148,"ĠØ¯Ø±Ø¯ÙĨ":7149,"ĠØ³Ø³":7150,"ĠØ³Ø§ÙħÛĮ":7151,"ĠØ´Ø§ÛĮØ¹":7152,"ĠØ¢Ú¯":7153,"Ø¹ÙĦÛĮÙĩ":7154,"ÙĪØ¯ÙĨ":7155,"ĠØ®ÙĪÙĨÛĮ":7156,"ĠØ§ÛĮÙĦØ§Ùħ":7157,"ÙĬØ·":7158,"Ø®ÛĮØ±":7159,"ĠØ¨Ø±Ú¯Ø±Ø¯":7160,"ØŃØªÛĮ":7161,"ĠØ¬ÙĨØª":7162,"Ø§Ø¨ØªÛĮ":7163,"ĠØ±Ø§ÙĬ":7164,"ĠÙĤØ§Ø¹Ø¯Ùĩ":7165,"Ù¾ÚĺÙĪÙĩ":7166,"ĠØ¯Ø§ÙĨÙħ":7167,"ÙĪÛĮÚĺÙĩ":7168,"ĠÙĩÙħØ´Ùĩ":7169,"ÙħØ§ÙĨØ¯Ùĩ":7170,"ØªØ±Ø¬ÙħÙĩ":7171,"ĠØ¨Ø±Ø§ÛĮØªØ§ÙĨ":7172,"ĠÙĦÙĩ":7173,"ĠÙĦÙĨÚ¯":7174,"ĠÙĦØ§Ø¨ÛĮ":7175,"ĠÙĦØ«Ùĩ":7176,"ĠØµØ¨Ø±":7177,"ĠÚ©ÙĨÙĬØ¯":7178,"ĠÚ©Ø§Ø±ÙĪØ§ÙĨ":7179,"ĠÚ©Ø§Ø±Ø§Ú©ØªØ±":7180,"ĠÙĨÛĮÚ©Ø§ÙĨ":7181,"ĠØªÙĪÙħÙĪØ±":7182,"ĠÙħØ±ÙĥØ²":7183,"Ø¨ÛĮÙĨØ¯":7184,"ĠÙħØ¹Ø§ØµØ±":7185,"ĠÙħØªÙĪÙĦØ¯":7186,"ĠØªØ±Ø§ÙģÛĮÚ©":7187,"Ø¢ÛĮØª":7188,"ĠØ³Ø±Øª":7189,"ĠØ¯ÛĮØ²ÙĦ":7190,"Ú©ØªÙĪØ±":7191,"ĠØºØ¯ÛĮØ±":7192,"ĠÚ©Ø´ÛĮØ¯":7193,"ĠØ³Ø§Ø²Ú¯Ø§Ø±":7194,"ĠØ´Ø±Ø§ÙĬØ·":7195,"ĠÚ¯ÙĦÙ¾Ø§ÛĮ":7196,"ĠØ§ØµØºØ±":7197,"ĠØªØ¹ÙĦÙĤ":7198,"ĠØªÙħØ§Ø´":7199,"ĠØ§Ø¨ÙĪ":7200,"ĠØ§Ø¨Ø±ÛĮ":7201,"ĠØ§Ø¨Ø²Ø§Ø±ÛĮ":7202,"ĠÙĨØ§ÙħØ²Ø¯ÛĮ":7203,"ĠÙĨØ§ÙħØŃØ¯ÙĪØ¯":7204,"ĠÙħÙĪØ±Ø¯ÙĨØ¸Ø±":7205,"ĠØªÙĦÙĤÛĮ":7206,"ĠØ´ÙĩØ±Ø§ÙĨ":7207,"Ø§ÙħÛĮÚ©ÛĮ":7208,"ĠÙģÛĮÙĦÙħØ¨Ø±Ø¯Ø§Ø±ÛĮ":7209,"Ø¹ÛĮØªÛĮ":7210,"Ø®ÙĪØ¨ÛĮ":7211,"Ø®ÙĪØ§ÙĩÛĮ":7212,"ØªØ¨ÙĦÛĮØºØ§Øª":7213,"ĠØ§ØªÙĩØ§Ùħ":7214,"ĠÙĨÙĪØ§Ø±":7215,"ĠØªØ´Ø±ÛĮØŃ":7216,"ĠÙħØ®ØªØµØ±":7217,"ĠØªÙĤØ§Ø·Ø¹":7218,"ĠSh":7219,"ĠØ³Ø¨Ø²Ùĩ":7220,"ĠAb":7221,"Ú¯Ø°Ø´Øª":7222,"ĠØ¸ÙĩØ±":7223,"ĠÙĪÙĤÙģÙĩ":7224,"ĠÙ¾Ø§Ø³Ø®ÙĨØ§ÙħÙĩ":7225,"ĠMark":7226,"ĠÙĨÙĪØ´ÙĩØ±":7227,"ĠCPU":7228,"Û±Û´":7229,"ĠÙĩÙħØ§ÙĨØ·ÙĪØ±":7230,"ĠÚ©ÛĮØ³Ùĩ":7231,"ĠÚ©Ø§ÙĦØ§ÙĩØ§":7232,"ĠITI":7233,"ĠØ¹ÙĦØ§ÙĤ":7234,"ĠØ¨Ø±Ú¯Ø´Øª":7235,"ĠØ§ÙģØªØ¯":7236,"ĠØ¢Ø³ÛĮØ§Ø¨":7237,"ĠØ¨Ø®ÙĪØ±":7238,"ĠØªØ§Ø¨ÙĨØ§Ú©":7239,"ĠØ±ÙĩÙĨ":7240,"ĠÙĨÙģØ¹":7241,"ÙħØ³Ø¦":7242,"ĠØ´Ø¹Ø¨":7243,"ĠÚ¯Ø³ØªØ±":7244,"Ġ600":7245,"ith":7246,"Ġpro":7247,"ĠÙĨØ¯Ø§Ø±ÛĮØ¯":7248,"ĠÛ±Û³Û¹Û³":7249,"ĠØ±ÙģØªØ§Ø±ÙĩØ§ÛĮ":7250,"iss":7251,"ĠØ±Ø²ÙħÛĮ":7252,"Ġ1392":7253,"Ġ1393":7254,"ĠØ±Ø§Ø³ØªØ§":7255,"edu":7256,"ĠØ±ÙĪØŃÛĮ":7257,"charge":7258,"ĠÙ¾ÙĨØ§Ùĩ":7259,"ill":7260,"ĠØ´ÙĩØ±ÙĪÙĨØ¯ÛĮ":7261,"ĠØ§ØªÙĪÙħØ§Ø³ÛĮÙĪÙĨ":7262,"ĠØ¯Ø§ÙĨØ³ØªÙĨÛĮ":7263,"Ú©Ø§ÙħÙ¾ÛĮÙĪØªØ±":7264,"ĠÙĨØ§Ø±Ø§ØŃØª":7265,"ĠØŃÙħÙĦØ§Øª":7266,"ĠØ§Ø±ÙĪÙ¾Ø§ÛĮÛĮ":7267,"ĠØ¯ÛĮÙĨØ§ÙħÛĮÚ©ÛĮ":7268,"ĠÙħÙĪØªÙĪØ±ÙĩØ§ÛĮ":7269,"ĠÛ¹Ûµ":7270,"ĠÙĥÙĨÙĨØ¯":7271,"ĠØ³ÙĪØ®ØªÚ¯ÛĮ":7272,"ĠØ¹ÙħÙĪÙħØ§":7273,"Ù¾Ø²Ø´Ú©ÛĮ":7274,"ĠÙĥØ±Ø¯ÙĨ":7275,"upload":7276,"ĠØ²ÙħØ³ØªØ§ÙĨ":7277,"ĠiOS":7278,"Ú©Ø´ÙĨØ±ÛĮ":7279,"ĠØŃØ§Ú©ÙħÛĮØª":7280,"ĠØ§ÙĨØ³Ø§Ø¨":7281,"ĠÙħÙĩØ¯ÙĪÛĮØª":7282,"ĠÛĮÙĪÙĨØ³Ú©ÙĪ":7283,"ĠØ¢ÙĦÙĪØ¯Ùĩ":7284,"Ø§ÙĦÙĪÚ¯":7285,"ÙģØ¹Ø§ÙĦ":7286,"ĠÚĨÛĮØªÚ¯Ø±":7287,"ĠÙĩÙĪØ§Ù¾ÛĮÙħ":7288,"ĠÙĩÙĪØ§Ù¾ÛĮÙħØ§":7289,"ĠÙ¾ÙĦØ§Ø³ØªÛĮÚ©":7290,"ĠØ§Ø³Ø±Ø§Ø¦ÛĮ":7291,"ĠØ¯ÙħÙĪÚ©Ø±Ø§Ø³ÛĮ":7292,"ĠØ¨Ú¯ÙĪÛĮÙħ":7293,"ĠØ§Ø¬ØªÙħØ§Ø¹ÙĬ":7294,"ĠØ§Ø´ÛĮØ§Ø¡":7295,"ØªÙĪÙĦÛĮØ¯":7296,"ĠÙĩØ§Ø±ÙĪØ³Øª":7297,"ĠØ¨ÙĬÙħØ§Ø±ÙĬ":7298,"ĠAgency":7299,"ĠØ®Ø§ÙĪØ±ÙħÛĮØ§ÙĨÙĩ":7300,"ĠÚ©ÙĦÛĮÙĨÛĮÚ©":7301,"ĠÚ¯ÙĪØ³ÙģÙĨØ¯":7302,"ĠØ®Ø§ÙĨØ¯Ø§ÙĨ":7303,"ĠØ¹Ø²Øª":7304,"fuel":7305,"ĠÙħÙħÙĦÚ©Øª":7306,"ĠÙ¾Ø§Ú©Ø³Ø§Ø²ÛĮ":7307,"ĠØ¨Ø´ÙĪÛĮÛĮØ¯":7308,"altfuel":7309,"ĠØ¯Ø±Ø¯ÙĨØ§Ú©":7310,"118":7311,"NG":7312,"content":7313,"eed":7314,"hat":7315,"mm":7316,"ud":7317,"Ùł":7318,"Ġï»":7319,"Ø§Ùĥ":7320,"ÛĮØµ":7321,"Ø¯ÙĪØ±":7322,"ÙĪØ§Ùħ":7323,"ÙĪÚ©Ø§Ø±":7324,"ÙĪØ§Ø¨Ø·":7325,"ÙħØ«":7326,"ÙħØ¯ÛĮØ±ÛĮØª":7327,"ÙĦØ§ÛĮÛĮ":7328,"ĠØ¨Ú¯":7329,"ĠØ¨Ø§Ø®":7330,"ĠØ¨Ø§Ø¨Øª":7331,"ĠØ¨Ù¾Ø±Ø³":7332,"ĠØ¨Ù¾ÙĪØ´":7333,"ĠØ¨Ø§Ø³ØªØ§ÙĨÛĮ":7334,"ĠØ¨Ø®ÙĪØ§ÙĩÛĮÙħ":7335,"ĠÙħÚ¯ÙĪ":7336,"ĠÙħØ§ÛĮØ¹":7337,"ĠÙħØ§ÙĨØ¯ÙĨ":7338,"ĠØ¯ÙĨØ¯":7339,"ĠØ¯Ùĥ":7340,"Ø³Ø§Ø±":7341,"Ø³ÙĨØ¬ÛĮ":7342,"ĠÙĪØ§Ø²":7343,"ĠÙĪØ·":7344,"ĠÚ©ÙĪØ±":7345,"ĠÚ©Ø±ÙĪ":7346,"Ø¨ÙĨÛĮ":7347,"Ø¨Ø§ÛĮØ¯":7348,"ÙģØ±Ø¯":7349,"ÙģØ¶ÙĦ":7350,"Ø²ÙħÛĮ":7351,"ĠØ±ÛĮÙĨÚ¯":7352,"ĠÙĩØ§Ùħ":7353,"ĠÙĩØ±ÛĮÚ©":7354,"Ø§ÙħÙĪØ±":7355,"ĠØ¯Ø±Ú¯ÛĮØ±ÛĮ":7356,"âĢĻ":7357,"ĠØ³ÙģØª":7358,"ĠØ³ÙĦØ§ØŃ":7359,"ĠØ´Ø±ÛĮ":7360,"ĠØ´Ø¬":7361,"ĠØ´Ø§ØªØ±":7362,"ĠØ¢ÙħÛĮØ²":7363,"ÙĨØ¯ÙĤ":7364,"Ø§Ø¯ÙĪ":7365,"Ø±ÛĮØ§Øª":7366,"ĠÙ¾ÛĮÙħ":7367,"ĠØ®Ø§Ø´ÙĤ":7368,"ĠÙħÛĮÚ¯Ùĩ":7369,"ĠØ§Ø³Ú©Ø±ÛĮ":7370,"ĠØ§ÛĮÙħÙĨ":7371,"ĠØ§ÛĮÙģØ§":7372,"ÙĬÙĦÙĬ":7373,"Ø®Ø§Ø¨ÛĮ":7374,"ĠÙģÙĦÙģ":7375,"ĠÙģÙĪØ±ÛĮÙĩ":7376,"ĠØ¨Ø±Ú¯Ùĩ":7377,"ĠØ¹Ø¬":7378,"ĠØ¹ÙħÛĮÙĤ":7379,"ØŃÙĦ":7380,"ÚĨÚ¯ÙĪÙĨÙĩ":7381,"ĠØ§Ø³ØªØŃ":7382,"ĠØ¬ÙĪØ±":7383,"Ø§Ø²ÙĨ":7384,"ĠÛĮÚ¯Ø§ÙĨÙĩ":7385,"ĠØ§ÛĮÙĨÚĨÛĮ":7386,"ĠÙĤÙĨØ¯":7387,"ĠÙĤÙĪØ§Ø¹":7388,"ÙĦÛĮÙģ":7389,"ÛĮØ±Ø§ÙĨ":7390,"ĠÚĨØ±ÙĪÚ©":7391,"ĠÙĩØ§ÛĮØªØ§ÙĨ":7392,"ĠØ§ÙĨØ§Ø±":7393,"ÙĪÙĦØ§ÙĨ":7394,"ĠÙĩÙħÚ¯ÛĮ":7395,"ÙĨÚ¯Ø§Ø±ÛĮ":7396,"ĠØ§ÙħØ±ÛĮÚ©Ø§":7397,"ĠØµÙĦÙī":7398,"ĠÙħÙĨÛĮÙħ":7399,"Ú¯Ø±Ø§":7400,"Ú¯Ø±Ø§Ùĩ":7401,"ĠÙħØŃØ±ÙĪÙħ":7402,"ĠÙħØŃÚ©Ùħ":7403,"ĠÙĪÛĮÙĦ":7404,"ĠØ¨Ø§Ø²Ú¯Ø±Ø¯":7405,"ĠØ§ÙĦØ£":7406,"ĠÙħØ±Ø§Ø¯":7407,"ĠÙħØ¹Øµ":7408,"ĠØªØ±Ø§ÙģÛĮÚ©ÛĮ":7409,"ĠØªØ±Ø¨ÛĮØªÛĮ":7410,"ĠØªØ±Ø§Ú©Ùħ":7411,"Ø¢Ø®":7412,"Ø¨ÙĩØªØ±ÛĮÙĨ":7413,"ĠÙħØ¬Ø²Ø§":7414,"ĠØ¯ÙĪØ®Øª":7415,"Ø§ÙĤØ¨Øª":7416,"ĠØ´Ø±ÙĥØª":7417,"ĠÚ¯Ø±Ùĩ":7418,"Ø§ÙĬÙĩ":7419,"ĠÙĩØ³ØªØ´":7420,"ĠØ³ÙĪØ¦ÛĮ":7421,"ĠØªØ¹Ø¨ÛĮØ±":7422,"ĠØªØ¹ÙĬÙĬÙĨ":7423,"ĠÙģÛĮØ´":7424,"Ø§ÙĨØ¯Ø§Ø²":7425,"ĠØ§Ø¬Ø¨Ø§Ø±":7426,"ÙĢÙĩ":7427,"ĠÙĨØ§ÙħÙĨØ§Ø³Ø¨":7428,"ĠØ§ÙĪØ¬":7429,"ĠØ§ÙĪØ³Øª":7430,"ĠâĢĿ":7431,"ĠÙĨØ´ÛĮÙĨ":7432,"ĠÙĨØ´Ø±ÛĮØ§Øª":7433,"ĠØ§Ø®Ø±":7434,"ĠØ§Ø´Ú©Ø§ÙĦ":7435,"ĠØ´ÙĩØ±Øª":7436,"Ú©Ø§Ø±Ø¨Ø±Ø¯":7437,"ĠØªÙĨÙģØ³":7438,"ĠØ¯Ø§Ø¯Ú¯Ø§Ùĩ":7439,"ĠØ±ÛĮØ²":7440,"Ø¯Ø§Ø±ÙĪ":7441,"ĠØ¢Ø¨Ø§Ø¯ÛĮ":7442,"Ø±Ø§ÙĩÙĨÙħØ§ÛĮ":7443,"ĠØ¨Ø²Ø±Ú¯Ø±Ø§Ùĩ":7444,"ĠÙĨÙĪØ§ÙħØ¨Ø±":7445,"ĠØ®Ø¯ÙħØ§ØªÛĮ":7446,"ĠÙĨÙĩØ§Ø¯ÙĩØ§ÛĮ":7447,"one":7448,"ĠØ¢Ø±Ø²":7449,"ĠÚ¯Ø±ÙĪÙĩÙĩØ§ÛĮ":7450,"ÙĬØ¯ÙĨ":7451,"ØªÙĪØ¶ÛĮØŃ":7452,"ĠØªÙĤÙĦ":7453,"ĠÙħØ´Ú©ÙĦØ§ØªÛĮ":7454,"ĠØªÙĪÙĦÛĮØ¯ÛĮ":7455,"int":7456,"ĠAn":7457,"ĠØ¯ÙĦØ®Ø±":7458,"ĠÛ²Û±":7459,"ĠØªÚ©Ø§ÙħÙĦ":7460,"ĠØ¯ÙĪØ±Ø¨ÛĮÙĨÛĮ":7461,"ĠØ¬ÙĪØ§ÙĩØ±Ø§Øª":7462,"ĠMP":7463,"ĠÙħÙħØ¨Ø±":7464,"ĠÚ¯Ø±ÙģØªÙħ":7465,"ĠÛ±Û³Û¹":7466,"ĠØ¬ÙĩØ§ÙĨØ¨Ø®Ø´":7467,"ÙĪÙĦÛĮØª":7468,"ĠØ¬ÙĨÚ¯ÛĮ":7469,"ĠØ¨ÙĨØ¯ÙĬ":7470,"ĠØ¢Ø®Ø±ÛĮ":7471,"Ø¢ÙĨÚĨÙĩ":7472,"ĠØªÙģØ±ÛĮØŃ":7473,"ĠØ§Ú©Ø±Ø§ÙĨ":7474,"ĠØ¢Ø³ÛĮØ§ÛĮÛĮ":7475,"ook":7476,"ĠÚ©Ø§Ø±Ø¨Ø±Ø¯ÙĩØ§ÛĮ":7477,"Ø§Ø¸Ùħ":7478,"ĠØ·Ø±ÙģÛĮÙĨ":7479,"ĠFor":7480,"ĠØ§Ø¶Ø§ÙģÛĮ":7481,"ĠÙ¾Ø°ÛĮØ±ÙģØª":7482,"ĠØ®ÙĪØ´Ùħ":7483,"ÙħØŃÙħ":7484,"ĠÙ¾ÚĺÙĪÙĩØ´ÙĬ":7485,"ĠØ¨Ø±ÛĮØª":7486,"ĠØ¢Ù¾Ø´ÙĨ":7487,"ĠØŃØ³ÛĮÙĨÛĮÙĩ":7488,"ĠÙĩÙģØªÚ¯ÛĮ":7489,"ĠØ§ØŃØ³Ø§Ø³Ø§Øª":7490,"ĠØ³ÙĪÙħÛĮÙĨ":7491,"ĠØ§Ø³Ù¾Ø§ÙĨÛĮØ§":7492,"ĠÙħØªÙĤØ§Ø¨ÙĦ":7493,"ĠÙ¾Ø§Ø±Ú©ÛĮÙĨÚ¯":7494,"Ú¯ÛĮÙĨØ§ÙħÙĩ":7495,"ĠØ¹Ø±Ø¨Ø¯Ùĩ":7496,"ĠØ§ÙĨØªØ´Ø§Ø±Ø§Øª":7497,"ĠØ¢ÙģØ±ÛĮÙĨ":7498,"Ø¨Ø§Ø²Ø§ÙĨ":7499,"ĠÚ¯ÙĪÛĮØ§":7500,"ĠUn":7501,"ĠÙĨÛĮØ§Ø²ÙħÙĨØ¯ÛĮ":7502,"ĠØªØ³ÙĩÛĮÙĦ":7503,"ĠÙ¾Ø§Ø¯Ø´Ø§ÙĩÛĮ":7504,"ĠÙĤØ¯ÙħØª":7505,"ĠÙĦØºÙĪ":7506,"ĠØ§ÙħÛĮØ¯ÙĪØ§Ø±ÛĮÙħ":7507,"ĠÙħØ§ÛĮÚ©":7508,"ĠØªØ¯Ø§Ø®ÙĦ":7509,"ull":7510,"ĠØªØ±ÙģÙĨØ¯ÙĩØ§ÛĮ":7511,"ĠØ¨ØªÙĪØ§ÙĨÛĮÙħ":7512,"Ø¬Ø¯ÛĮØ¯ØªØ±ÛĮÙĨ":7513,"Ø¯Ø§ÙĨØ´Ú¯Ø§Ùĩ":7514,"ĠØªØ±Ø´ØŃ":7515,"âĻ«âĻ«âĻ«âĻ«":7516,"ĠÙ¾ÙĦØ§Ø³ØªÛĮÚ©ÛĮ":7517,"ĠØ§Ø±Ø²Ø´ÛĮØ§Ø¨ÛĮ":7518,"ĠØ¬Ú©ÙĪØ²ÛĮ":7519,"ĠÙħØ§Ø¬Ø±Ø§ÛĮ":7520,"ĠØ§Ø¹ØªÙĤØ§Ø¯":7521,"ĠÙħØ±ØªØ¶ÛĮ":7522,"ĠØ¬Ø³ÙħÛĮ":7523,"ĠÙĩÙĦØ§ÙĦÛĮ":7524,"ĠØ§ÙĦØªÙĩØ§Ø¨":7525,"ĠØ¬Ø§Ø¨Ø¬Ø§ÛĮÛĮ":7526,"ĠØ³ÙĦÛĮÙĤÙĩ":7527,"ÙģÛĮØ§ÙĨÙī":7528,"ĠØ³ÙĩØ±Ø§Ø¨":7529,"ĠÚ¯Ø²ÛĮÙĨØ´":7530,"ĠÙģØ±ÛĮØ¯ÙĪÙĨ":7531,"ĠØ§ÙĦÙħÙĦÙĦ":7532,"ĠÙ¾Ø§Ø±Ø§ÙħØªØ±":7533,"ĠØªØªÙĦÙĪ":7534,"ĠÙħÛĮØ±Ø¯Ø§ÙħØ§Ø¯":7535,"ĠÙĤØ²Ø§ÙĤØ³ØªØ§ÙĨ":7536,"ĠØªÙĦØ§ÙĪØª":7537,"ĠØ¢Ú¯ÙĪØ³Øª":7538,"ĠÚ¯ÙĦÙ¾Ø§ÛĮÚ¯Ø§ÙĨ":7539,"uploads":7540,"ĠÙģÙĦÙģÙĦ":7541,"\"ØĮ":7542,"86":7543,"ER":7544,"MP":7545,"RT":7546,"ie":7547,"lan":7548,"ual":7549,"Ù©":7550,"Ù¬":7551,"ÛĮØ¹":7552,"Ø±ÙĩØ§":7553,"ÙĨÚĺØ§Ø¯":7554,"Ø¯Ø§Ø±Ø¯":7555,"Ø¯ÙĪØ¨":7556,"Ø¯Ø§Ø³ØªØ§ÙĨ":7557,"ÙĪØ§ÛĮÛĮ":7558,"ÙĦØ³":7559,"ÙĦÛĮÙĨ":7560,"ĠØ¨Ø§Ùĩ":7561,"ĠØ¨Ø§Øª":7562,"ĠØ¨ÙĦÛĮ":7563,"ĠØ¨Ø§ÙĨÙĩ":7564,"ĠØ¨Ø³Ø§Ø²":7565,"ĠØ¨Ú©ÙĨÛĮØ¯":7566,"ĠØ¨Ú©Ø´":7567,"ĠØ¨Ú¯ÛĮØ±ÛĮÙħ":7568,"ĠÙħØ±ÙĪ":7569,"ĠÙħÚ©Øª":7570,"ĠÙħØ§Ø¬":7571,"Ø§ÛĮØ¬Ø§Ø¯":7572,"ĠÙĪØ¬":7573,"Ø´ÙĪÛĮ":7574,"Ø´Ø§Ø¡":7575,"ĠÚ©Ø§Ø²":7576,"ĠÚ©ÙĦÙĪØ¨":7577,"ĠÚ©Ù¾Ø³ÙĪÙĦ":7578,"Ú¯Ø²Ø§Ø±Ø´":7579,"Ø¨Ø§Ø¹":7580,"ĠØªÙ¾":7581,"ĠØªØ±Ø§ÙĨ":7582,"ÙģØ±ÛĮÙħ":7583,"ĠØ±Ø¬":7584,"ĠÙĨØ±":7585,"ĠÙĨÚ©ÙĨ":7586,"ĠÙĨØ§Ø±Ø³":7587,"ĠÙĨÙĪÛĮØ²":7588,"ĠØ¯Ø±Ø´Øª":7589,"ĠØ³ÙĪØ±ÛĮ":7590,"ĠØ³Ø§ÙĤ":7591,"ĠØ´Ø¨Ùĩ":7592,"ĠØ´Ø§ÙħÙ¾ÙĪ":7593,"ĠØ¢Ø±ÛĮØ§":7594,"ÙĤØ§Ø¨ÙĦ":7595,"ÙĨØ¯Ú¯ÙĬ":7596,"âĢĮ.":7597,"Ø¹ÙĦØ§ÙĪÙĩ":7598,"Ø±ÛĮØ³":7599,"ØĮâĢĮ":7600,"ĠÙ¾ÙĪ":7601,"ĠØ®Ø²":7602,"ĠØ§Ø³Ú©Ø§Ø±":7603,"ĠØ§ÛĮØ«Ø§Ø±":7604,"ĠÙģØ¯Ø±":7605,"ĠÙģÙĤÛĮÙĩ":7606,"ĠØ¨Ø±Ø§ÙĨÚ¯ÛĮ":7607,"ĠØ¹ÛĮÙĨÛĮ":7608,"ĠØ¹Ø³ÙĦ":7609,"ĠØ¹Ø§ÙĦÙħ":7610,"ØŃØ§ÙĦØª":7611,"ÚĨÚ©":7612,"ĠÚ¯ÙĪÙĦ":7613,"Ø±Ø¯Ú¯ÛĮ":7614,"ØµØ¨":7615,"ĠÛĮØ§Ø¨ÛĮ":7616,"Ø§Ø³ÙħÛĮ":7617,"Ø±ÙĪÙĨÛĮ":7618,"ĠÙĤÙħÛĮ":7619,"ĠÙĤØ§ÙĦÛĮ":7620,"ĠÙĤØ³Ùħ":7621,"ĠÙĤØ§ØªÙĦ":7622,"Ù¾Ø§Ø³Ø®":7623,"ÛĮÙħÙĩ":7624,"ĠØ§ÙĨØ¯Ø±":7625,"ĠØ§ÙĨØ¨Ø§Ø±":7626,"Ø¶Ùħ":7627,"ĠØ¢ÙĨÚ¯Ø§Ùĩ":7628,"ĠÙĦÛĮÙħ":7629,"ĠØ§ÙħØ´Ø¨":7630,"ĠÚ©ÙĨÙĪÙĨ":7631,"ĠØ·ÙĬ":7632,"ĠÙħÙĨØ§ÙĤ":7633,"ĠÙħØŃØ§Ø³Ø¨":7634,"ĠØ§Ø±Ú¯Ø§ÙĨÛĮ":7635,"ĠØ¨ÛĮØ§":7636,"ĠØ¨ÛĮÙĪÚ¯Ø±Ø§ÙģÛĮ":7637,"ØºÛĮ":7638,"ÙĨÛĮØ§":7639,"ĠÙģØ±Ø§ØªØ±":7640,"ĠÙģØ±ÙĩØ§Ø¯":7641,"ĠÙħØ¹ÛĮÙĨ":7642,"ĠÙħØ¹Ø§ÛĮÙĨ":7643,"ĠÙħØªØ±ÙĪ":7644,"Ø¨Ø±Ø®ÛĮ":7645,"ĠØ³Ø±ÚĨ":7646,"ĠØ³Ø±Ø·Ø§ÙĨÛĮ":7647,"ĠØ±ÙĪØ³ØªØ§":7648,"ĠØ¯ÛĮÚ©Ø´ÙĨØ±ÛĮ":7649,"ĠØºÙĦ":7650,"ĠÚ©Ø´ÛĮØ¯ÙĨ":7651,"ĠØ¯ÙĪØ§Ùħ":7652,"ĠØ¯ÙĪØ³ØªÛĮ":7653,"ĠÙħØ³Ø§ØŃØª":7654,"ĠØ¢ÙħÙĪØ²Ø´Ú¯Ø§Ùĩ":7655,"Ġ1000":7656,"ĠÙĨØ¸Ø±Ø³":7657,"ĠÙĩØ±ÙħØ²":7658,"Ø§Ø¬Ø¯":7659,"ĠØ³ÛĮØ³Øª":7660,"ĠØ³ÛĮÙĦÛĮØ³":7661,"ĠØ§ØµÛĮÙĦ":7662,"Ø±Ø³Ø§ÙĨÙĩ":7663,"ĠØªÙĪØ§ÙĨÙħÙĨØ¯":7664,"ØªÙĪØ§ÙĨÛĮÙħ":7665,"ĠØ·Ø±ÙĬÙĤ":7666,"ÙĦÙĪÙĦÛĮ":7667,"Ø§ÙĨØ¯Ø§":7668,"ĠÙĨÙĤØµ":7669,"Ø§ÛĮÙĨÙĪ":7670,"ĠØ§ÙĨØªØ®Ø§Ø¨ÛĮ":7671,"ĠØ®Ø±ÛĮØ¯Ø§Ø±":7672,"ĠØ¶ÙĪØ§Ø¨Ø·":7673,"ĠØ§ÙĤØ´Ø§Ø±":7674,"ĠØ´ÙĩØ±ÙĩØ§":7675,"ÙħØªÙĨ":7676,"ĠØ¨Ø§ÙĦØ§Ø®Ø±Ùĩ":7677,"ĠØ³Ø§Ø²ÙħØ§ÙĨØ¯ÙĩÛĮ":7678,"ĠÙĨÙħÛĮØ´Ùĩ":7679,"Ø®ÙĪØ§Ø±":7680,"ĠØ¹Ø§Ø´ÙĤÛĮ":7681,"ÙĪØ³ØªÙĩ":7682,"ĠØ«Ø¨Ø§Øª":7683,"Ø§Ø¶Ø¹":7684,"ĠØ´Ø¨Ø§ÙĩØª":7685,"ĠÙħØµÙĪØ¨":7686,"ĠØŃØ¶ÙĪØ±ÛĮ":7687,"ĠÚĨÙĨØ¯Ø§ÙĨÛĮ":7688,"Ġ360":7689,"ĠÙĨÙħØ§ÛĮØ§ÙĨ":7690,"ĠØ°Ø±":7691,"ĠÙħØ®ØªØµ":7692,"ĠØªÙĤØ¯ÛĮØ±":7693,"ind":7694,"ĠAr":7695,"ĠÙħØ¯ÛĮØ±Ø¹Ø§ÙħÙĦ":7696,"ĠØ¬Ø§ÙħØ¯":7697,"ĠØ¸ÙĦÙħ":7698,"ĠÚ©ÙĦÛĮÙĪÛĮ":7699,"ĠØ¬ÙĪÚ©":7700,"ĠÚ©Ø§ÙĨÚ©Ø³":7701,"ĠØ®ÙĪØ§ÙĩØ§ÙĨ":7702,"ĠØ³ÙĦØ·Ø§ÙĨ":7703,"ĠØ§ÙĨÚ¯Ø§Ø±":7704,"ĠÙĩÙĪØ§ÙĬÙĬ":7705,"ata":7706,"ĠØ§ÙĤØ¯Ø§ÙħØ§ØªÛĮ":7707,"ÙĬÙħÙĬ":7708,"ĠØ³ÙģØ§ÙĦÛĮ":7709,"208":7710,"Ø§ÙĨØªØ®Ø§Ø¨":7711,"ĠØ´Ú©ÙĦÛĮ":7712,"ĠØ®ÙĪØ¯Ø±ÙĪÙĩØ§":7713,"ĠØ´ÙĪØ®ÛĮ":7714,"ĠØ¹Ú©Ø§Ø³":7715,"ĠØ¹Ú©Ø§Ø³Ø§ÙĨ":7716,"ĠÙħØ¨Ø§Ø¯":7717,"Ø³ÙĨØ³":7718,"Ø³Ø±Ø·Ø§ÙĨ":7719,"ĠØ®ÙĪØ±Ø´ÛĮØ¯ÛĮ":7720,"ĠØ¨Ø±Ø®ÙĦØ§Ùģ":7721,"ĠØªØ§Ø¨ÙĦÙĪ":7722,"ĠØªØ§Ø¨Ø³ØªØ§ÙĨÛĮ":7723,"age":7724,"ĠÙĨÙģØ±ÛĮ":7725,"ĠÙĨÙģØ±Ùĩ":7726,"ĠÙ¾ÙĪØ´Ø§Ú©":7727,"Ġ720":7728,"ĠÙħØ¨Ø§Ø±Ø²":7729,"ĠØªÙĪØ±Ø§ÙĨ":7730,"ĠØ´Ø¹Ø§Ø±":7731,"ĠÚ©ÙĪØªØ§ÙĩÛĮ":7732,"ÙĪÙ¾Ø§Ø±Ú©":7733,"Ø³Ø§Ø²Ø§ÙĨ":7734,"ĠÙĨÙħÙĪØ¯Ø§Ø±":7735,"ĠÙĩÙĨØ±ÙĩØ§ÛĮ":7736,"ĠØ¨Ø³ØªÙĨ":7737,"ĠØ¨Ø§ÛĮÚ¯Ø§ÙĨÛĮ":7738,"ĠÙĨØªØ§ÙĬØ¬":7739,"ĠØ·ÙĦØ¨ÛĮ":7740,"ĠØ¬Ø±Ø§ØŃ":7741,"ÙģØ±ÙĪØ´ÛĮ":7742,"ĠØ§ÙĤØªØµØ§Ø¯ÙĬ":7743,"ĠØ¸Ø±ÙģØ´ÙĪÛĮÛĮ":7744,"ĠØ®ÛĮØ§Ø¨Ø§ÙĨÛĮ":7745,"ĠÚ©Ø±Ø¨ÙĨØ§Øª":7746,"ĠØ§ÙĨØªØ¸Ø§ÙħÛĮ":7747,"ĠÙĨØ§Ø±Ø§ØŃØªÛĮ":7748,"obile":7749,"ĠØ²ÙĨØ¬ÛĮØ±":7750,"ĠÙĩÙĨØ¯Ø³Ùĩ":7751,"ĠØ²ÙĨØ¯Ú¯ÙĬ":7752,"ĠÙĪØ§Ø¨Ø³ØªÚ¯ÛĮ":7753,"ĠØ³ÛĮÙħØ§ÛĮ":7754,"ĠÚ©Ø§Ø±Ø´ÙĨØ§Ø³ÙĬ":7755,"ĠØ§Ø±ØªÙĤØ§ÛĮ":7756,"ĠÙħÙĪØ±Ø®":7757,"ĠÙ¾ÙĩÙĦÙĪ":7758,"ĠÙĪÙģØ³ÛĮ":7759,"ĠØ¨Ø±ÙĪÛĮÙħ":7760,"ĠÙĦØºØ§Øª":7761,"ĠÙĪÙĬÚĺ":7762,"ĠÚĨØ±Ø®Ùĩ":7763,"ĠØ§Ø³ØªØ±Ø§ÙĦÛĮØ§":7764,"ĠØ§ÙĨØ³Ø¬Ø§Ùħ":7765,"ĠVideo":7766,"ĠÙĩÙħØ³Ø§ÛĮÙĩ":7767,"Ð°Ð":7768,"ĠØ®Ø´ÙĪÙĨØª":7769,"ĠÙĦØ§ÛĮØ³ÙĨØ³":7770,"ĠÚĺØ§Ù¾ÙĨÛĮ":7771,"ĠØ³ÙĪØ²ÙĨÛĮ":7772,"ĠÙĤÙĩØ±ÙħØ§ÙĨØ§ÙĨ":7773,"Ø§ÙħÙĨÛĮØª":7774,"Ø¨Ø¨Ø¨Ø¨":7775,"ĠÙĪØ§Ø±ÛĮØ²":7776,"ĠÙħØ±Ø¨ÛĮØ§ÙĨ":7777,"ĠØ§Ø±Ø³Ø§ÙĦÛĮ":7778,"ĠØ¯Ø®ØªØ±ÛĮ":7779,"ĠØ³Ø¤Ø§ÙĦ":7780,"Ø¨ÙĨØ§Ø¨Ø±Ø§ÛĮÙĨ":7781,"ĠÚĺÙĨØªÛĮÚ©ÛĮ":7782,"ĠÙħØ·Ø¨ÙĪØ¹":7783,"ĠØªØ²Ø¦ÛĮÙĨØ§Øª":7784,"Ġrobot":7785,"ĠÚ©ÙĪØ¨ÛĮØ¯Ùĩ":7786,"ĠØŃÙĪØ¶ÚĨÙĩ":7787,"ĠÙħØªÙģØ§ÙĪØªÛĮ":7788,"ĠØ¨ÙĪØ§Ø³ÛĮØ±":7789,"ĠRSTS":7790,"ĠÙĨÛĮÙĪÛĮÙĪØ±Ú©":7791,"ĠÛĮÚ©ÙĨÙĪØ§Ø®Øª":7792,"ĠØªØ§Ø±ÙĬØ®":7793,"ĠØªÙħØ§Ø´Ø§ÛĮ":7794,"ĠITIL":7795,"ĠØ§Ø³Ú©Ø±ÛĮÙ¾Øª":7796,"ĠØ¯ÙĦØ®Ø±Ø§Ø´":7797,"85":7798,">>":7799,"AB":7800,"BS":7801,"ED":7802,"IC":7803,"IF":7804,"LO":7805,"TM":7806,"ff":7807,"png":7808,"uro":7809,"|--":7810,"Ġ'":7811,"Ġïº":7812,"Ø±Ø§ÛĮ":7813,"Ø±Ø§ØªÛĮ":7814,"ÙĪØ¬ÙĪØ¯":7815,"ĠØ¨ÙĨØ¬":7816,"ĠØ¨Ú¯ÛĮØ±":7817,"ĠØ¨ÙĦØ§Ú¯":7818,"ĠÙħÙģØª":7819,"ĠÙħØ±ÛĮÙħ":7820,"Ø§ÙĨÙĨØ¯":7821,"ĠØ¯Ø´Øª":7822,"ĠØ¯Ø²Ø¯":7823,"Ø³Ø®":7824,"ĠÙĪÙħ":7825,"ĠÙĪÙĨÙĪØ´":7826,"ĠÚ©ÙĪØ´":7827,"Ø§Ø±Ø¶":7828,"Ø¨Ú©":7829,"Ø¨Ø³":7830,"Ø¨Ø§Ø·":7831,"ĠØªÙĢ":7832,"ĠØªØ³ØªÛĮ":7833,"ĠØªØ³ÙĨ":7834,"ÙģØ§ÙĦ":7835,"ÙģØ§Øª":7836,"Ø²Ø¨Ø§ÙĨ":7837,"ĠÙĨØ§Ùĩ":7838,"ĠÙĨØ§Øµ":7839,"ĠÙĨÚ¯Ø§ÙĩÛĮ":7840,"ĠÙĩÙĢ":7841,"ĠÙĩÙĦØ§ÙĦ":7842,"ĠØ³ØŃØ±":7843,"ĠØ³ÙģÛĮØ§ÙĨÙī":7844,"ĠØ´Ø§Ø¯ÛĮ":7845,"ĠØ¢Ø¦":7846,"ĠØ¢ÚĺØ§ÙĨØ³":7847,"ÙĤØ¯Ø§ÙĨ":7848,"ĠØ®ÙģÙĨ":7849,"ĠÙħÛĮØ§ÙĨÙĩ":7850,"ĠØ§Ø³ÛĮØ¨":7851,"ĠØ§ÛĮÛĮ":7852,"ĠØ§ÛĮÙĪØ§ÙĨ":7853,"ÙĬÙĨØ¯":7854,"ÙĬØ§Ø¨ÙĬ":7855,"ĠÙģØªØŃ":7856,"ĠØ¹Ø§Ùħ":7857,"ĠØ¹Ø¸ÛĮÙħ":7858,"ĠØ¹Ø§Ø±Ùģ":7859,"ØŃÙĪÙħ":7860,"ØŃØ«":7861,"ĠÚ¯Ùĩ":7862,"ĠÚ¯ÙĦÛĮ":7863,"ĠØ¬Ø±ÛĮ":7864,"ĠØ¬ÙĪÙħ":7865,"ØµÙĬÙĦ":7866,"Ø§Ø¨Ø²Ø§Ø±":7867,"ĠØ§ÛĮÙĨØ¬":7868,"ĠÙĤØ§Ø³Ùħ":7869,"Ù¾Ø§Ø¯":7870,"Ø¯ÙĩÙħ":7871,"ÙĪÙĦØ§Øª":7872,"ÙĪÙĦØªÛĮ":7873,"Ø§Ø±ÛĮÙĪÙħ":7874,"ÙĪØ²ÙĪÙħ":7875,"ĠÙĦØ§Ø³ØªÛĮ":7876,"ĠØ§ÙħØª":7877,"ĠØ§ÙħÙ¾Ø±":7878,"Ø°Ø§Ø¨":7879,"Ø°ÙĩÙĨÛĮ":7880,"ĠØ·Ø§ÙĦ":7881,"ĠÚ©Ø§Ø±Ùĩ":7882,"ĠØ¯Ø§Ø±Ø§ÙĬ":7883,"ĠÙħØŃØ¨Øª":7884,"ĠÙħØŃØ±Ú©":7885,"ĠÙħØŃÙĬØ·":7886,"ĠÛĮÚ©Ù¾Ø§Ø±ÚĨÙĩ":7887,"ĠØ§Ø±Ùħ":7888,"ĠØ¨Ø§Ø²Ùħ":7889,"ĠØ¨Ø§Ø²ÙĨÚ¯Ø±ÛĮ":7890,"ĠØ§ÙĦÙ¾ØªÛĮ":7891,"ĠØ¨ÛĮØ±ÙĪÙĨÛĮ":7892,"ØºØ§Ùħ":7893,"ĠÙģØ±Ø§Øª":7894,"ĠÙģØ±Ø¹ÛĮ":7895,"ĠÙĨÙħØ§Ø¯":7896,"ĠÙĨÙħÙī":7897,"ĠÙħØ¯ÙĬ":7898,"ĠÙħØ¯Ø§ÙĪÙħ":7899,"ĠÙħØ´ÙĪØ±Øª":7900,"ĠØªØ§Ú©Ø³ÛĮ":7901,"ĠÙħØªØ£Ø³":7902,"Ø¨ÙĩÙħ":7903,"ĠÙħØ³Ø¯ÙĪØ¯":7904,"ĠØ³Ø§Ø²ÙĨØ¯":7905,"ĠØ´Ø±Ú©":7906,"ĠÙĥØ±ÙĬÙħ":7907,"ĠÚ¯Ø±ÚĨÙĩ":7908,"ÙĥØ±Ø¯":7909,"Ø§ÙĬØ±":7910,"ĠØ¬ÙħØ´ÛĮØ¯":7911,"ĠØ³ÙĪØ®ØªÙĩ":7912,"ĠØªØ¹Ø·ÛĮ":7913,"ĠÙħØ·ÙĦÙĤ":7914,"ĠØ§Ø¬ØªÙĨ":7915,"ĠÙħØ±Ø¯Ùĩ":7916,"Ú©ÙĦÛĮØ¯":7917,"ĠØ§Ø¨ÙĩØ§Ùħ":7918,"Ø¨Ø§ÙĨÚ©":7919,"ĠØ§Ø¯Ú©ÙĦÙĨ":7920,"ĠØ§ÙĪÙĦÛĮ":7921,"ĠØ¬ÙĩØ§Ø¯ÛĮ":7922,"ĠØªÙĩØ§Ø¬":7923,"ĠØªØµÙĪ":7924,"ĠØ§ÙĨØ¯Ø±ÙĪ":7925,"ĠØ¹ÙĦÙī":7926,"ĠØ§ÙĤØ§Ùħ":7927,"ĠØ´ÙĩØ±Ø§Ùħ":7928,"ÙħØªØ±ÛĮ":7929,"ÙħØ¯Øª":7930,"Ø¯Ø§ÙĪÙħ":7931,"Ø²Ø±Ú¯":7932,"ÚĨÙĩØ§Ø±":7933,"ĠØ§ØŃØª":7934,"ĠØ§ØŃØªÛĮ":7935,"ĠØ§ØŃÙħØ±":7936,"ĠÙ¾Ø±ÙĨØ¯Ú¯Ø§ÙĨ":7937,"ĠØŃØ³Ø§Ø¯Øª":7938,"ÙĪÙĤØª":7939,"Ø¨ÛĮÙĨÛĮØ¯":7940,"ĠØ§ØªÙĪØ¨":7941,"ĠØ§ØªÙħØ§Ùħ":7942,"ĠØªØ¬ÙĪÛĮØ²":7943,"ĠØ´ÙĨÛĮØ¯ÙĨ":7944,"ĠÙĨÛĮØ³ØªÛĮØ¯":7945,"Ġ31":7946,"ĠØ¢Ø±ÙħØ§ÙĨ":7947,"Ø¨Ø§ÙĦÙĨØ¯Ú¯ÛĮ":7948,"Ø§ÙĪÙĪØ³":7949,"ĠÙĥÙĩÙĨ":7950,"ĠØªØ§Ø±ÛĮÚ©":7951,"ĠØªØºÛĮÛĮØ±ÛĮ":7952,"ĠÙ¾ÚĺÙĪÙĩØ´Ú©Ø¯Ùĩ":7953,"ĠÙĦÛĮØªØ±":7954,"ĠØ³ÙĨÚ¯ÛĮ":7955,"ĠØ¯Ø±ÛĮØ§ÚĨÙĩ":7956,"ĠÙģÙĤØ±":7957,"att":7958,"ĠTe":7959,"ĠÙħÙĨØªÙĤØ¯Ø§ÙĨ":7960,"ĠÙħÚ©Ø±Ø§ÙĨ":7961,"2022":7962,"ĠÙħØ´Ø§ÙĪØ±Ø§ÙĨ":7963,"ĠØµØŃØª":7964,"ĠØµØ¯Ø§Ø¨":7965,"ĠÙħØ¨ØŃØ«":7966,"ÙĪÙĨØªÙĪØ³":7967,"ĠØŃØ±Ø§Ø±ØªÛĮ":7968,"Ø³ÙĨØ³ÙĪØ±":7969,"ĠÙ¾ÙĨØ¬ÙħÛĮÙĨ":7970,"ĠÙħÙĪØ¨Ø§ÛĮÙĦÛĮ":7971,"Ø¬Ø±Ø§ØŃÛĮ":7972,"ĠÙĩØ²Ø§Ø±Ø§ÙĨ":7973,"ÙħØ³ÙĦÙħÛĮÙĨ":7974,"ĠÙĨÚ©Ø§ØªÛĮ":7975,"ĠØ´Ø¹Ø¨Ùĩ":7976,"log":7977,"ĠØ§ÙģØ²ÙĪØ¯ÙĨ":7978,"ĠÙħØŃÙħØ¯ÛĮ":7979,"ĠØ§Ø³ØªØ§ÙĨØ¯Ø§Ø±ÛĮ":7980,"ĠNo":7981,"ĠÙħØºØ§Ø²Ùĩ":7982,"ĠÙĨÙĬØ±ÙĪ":7983,"ÙĩÛĮÚĨ":7984,"ĠØ¨Ø³ØªÙĨÛĮ":7985,"ĠØ¹Ø¶ÙĦØ§Øª":7986,"ĠØ±Ø²Ø±ÙĪ":7987,"ĠÚ©ÙĦÛĮØ¯ÙĩØ§ÛĮ":7988,"ĠÙĪØŃÙĬ":7989,"ĠØ±ÙĪØ¯Ø®Ø§ÙĨÙĩ":7990,"ÙĪØ·ÛĮ":7991,"ivers":7992,"ild":7993,"ĠÙĨÙĪÛĮØ³ÙĨØ¯Ú¯Ø§ÙĨ":7994,"ĠØ§ØªÙĪÙħØ§ØªÛĮÚ©":7995,"ĠÚ©Ø±Ø¨ÙĦØ§ÛĮÛĮ":7996,"oft":7997,"ĠØ®ÙĪØ§Ø³ØªØ§Ø±":7998,"ĠÙħØ¬Ø§Ø²Ø§Øª":7999,"http":8000,"ĠØ§ÙĬØ±Ø§ÙĨÙĬ":8001,"ĠÙħØ§ÙħÙĪØ±ÛĮØª":8002,"ĠØ¢Ø²ÙħØ§ÛĮØ´ÛĮ":8003,"ĠÙħØ³Ø¦ÙĪÙĦÛĮØªÛĮ":8004,"Ø§ÙĬØ´Ú¯Ø§Ùĩ":8005,"ĠØ§ÙĦÙħØ«ÙĦ":8006,"ĠØªÙħØ±ÛĮÙĨØ§Øª":8007,"ÙĨÚ©ØªÙĩ":8008,"ĠÙĨØ§Ø¨ÙĪØ¯":8009,"ĠÙĨØ¬Ùģ":8010,"ÙĨÙĤØ¯":8011,"Ø¨Ø®Ø´ÛĮ":8012,"ĠÙĥØ±Ø¯Ùħ":8013,"ĠÚ¯Ø±Ø§ÙĨØªØ±ÛĮÙĨ":8014,"ØªØºØ°ÛĮÙĩ":8015,"Ø±ÙĪØ§ÙĨØ´ÙĨØ§Ø³ÛĮ":8016,"ĠØ¬Ø¹ÙģØ±":8017,"www":8018,"ÐµÐ":8019,"Ø³ÙĨØ¬Ø§ÙĨ":8020,"ĠØ§Ø±ØªÙĤØ§":8021,"ĠØ¯Ø²ÙģÙĪÙĦÛĮ":8022,"ĠÙ¾Ø§ÙĬØ§ÙĨ":8023,"ĠØ±Ø¯ÛĮØ§Ø¨":8024,"Ø¬ÙĨØ§Ø¨":8025,"ĠØ¬Ø²ÙĪØ§Øª":8026,"ĠÙģÙĪØ§ÛĮØ¯":8027,"ĠØ±Ø¦ÙĬØ³":8028,"ĠØ³ÙĪÙĨØ±Ø§":8029,"ĠØ´Ø§ÛĮØ³ØªÙĩ":8030,"ĠÚĨØ§ÙĪØ´ÛĮ":8031,"ĠØªÙĤØ§Ø¶Ø§ÛĮ":8032,"ĠÙħÙĩØ§Ø¬Ø±Øª":8033,"ĠÙĨØ§Ú¯ÙĩØ§ÙĨ":8034,"ĠÙĨØ§Ú¯ÙĩØ§ÙĨÛĮ":8035,"ĠØ¹ÙĬÙĨÚ©":8036,"ĠØ¯ÙĨØ¯Ø§ÙĨÙ¾Ø²Ø´Ú©":8037,"ĠØ¯Ø³Ú©ØªØ§Ù¾":8038,"ĠÙĩÙĪØ±ÙħÙĪÙĨ":8039,"ĠÚ¯Ø°Ø±Ø§ÙĨØ¯ÙĨ":8040,"ÙħØ¹ÙħÙĪÙĦØ§":8041,"ĠÙ¾Ø§ØªØ§ÛĮØ§":8042,"ĠÙĩØ§ØªÚ¯Ø±Ø§Ùħ":8043,"ĠØ¹Ø§Ø·ÙģÛĮ":8044,"ĠÙĩÙħØ¯ÙĦÛĮ":8045,"ĠÙ¾Ø°ÙĬØ±Ø´":8046,"ĠÙĦÛĮØ³Ø§ÙĨØ³":8047,"ĠØ¯Ø±ÙĬØ§ÙģØª":8048,"ĠØµØ¯ÙħÙĩ":8049,"ĠØªØ¨ÛĮÛĮÙĨ":8050,"ĠØ§ÙħÙ¾Ø±Ø§Ø·":8051,"ĠØ§ÙĦÙ¾ØªÛĮÚ©Ø§ÙĦ":8052,"ĠØ§Ø¬ØªÙĨØ§Ø¨":8053,"2022208":8054,"34":8055,"35":8056,"56":8057,"653":8058,"can":8059,"lash":8060,"ous":8061,"rus":8062,"th":8063,"txt":8064,"Ġor":8065,"ÙĩÛĮÙĨ":8066,"Ø¯ÙĬ":8067,"Ø¯Ø§ÙĨØ¯":8068,"Ø¯Ø¨ÛĮØ±":8069,"ÙħØ±Ø¨":8070,"ÙħÛĮÙħÛĮ":8071,"Ú©ÙĨÛĮ":8072,"Ú©Ø§Ø±Øª":8073,"Ú©Ø¯Ø§Ùħ":8074,"Ú©Ø§ÙģÛĮ":8075,"ĠØ¨ÛĮØ±":8076,"ĠØ¨ÙħØ§ÙĨ":8077,"ĠØ¨Ø§ØŃ":8078,"ĠØ¨Ø§ÙĩÙħ":8079,"ĠØ¨Ú¯ÙĪÛĮØ¯":8080,"ĠÙħØ§ÙĨÛĮ":8081,"ĠÙħØ®Ø§Ø¨":8082,"ĠÙħØ£":8083,"ĠÙħÙĨØ¯Ø±":8084,"Ø§ÙĨØ´":8085,"Ø§ÙĨÚ¯":8086,"ĠØ¯ÙħØ§":8087,"Ø³Ø§Ø·":8088,"ĠÙĪØ§Ø²ÛĮ":8089,"ĠÙĪØµÙĦ":8090,"ĠÚ©Ø§ÙĪØ±":8091,"ĠÚ©Ø¨Ø¯":8092,"Ø§Ø±ÛĮØ¯":8093,"Ø¨Ø§Ùģ":8094,"Ø¨Ø§ÙĦÛĮ":8095,"ĠØªÚ©Ùĩ":8096,"ĠØªÚ©Ø§ÙĨ":8097,"ĠØªØ¯Ø§ÙĪÙħ":8098,"ÙģØ±Ùĩ":8099,"ĠØ±ÛĮØª":8100,"ĠÙĨÚ¯ÙĪ":8101,"ĠÙĨØ§Ø¸":8102,"ĠÙĨØ¯ÛĮØ¯Ùĩ":8103,"ĠÙĩÚ©Øª":8104,"ĠØ¯Ø±Ø§ÛĮ":8105,"ĠØ¯Ø±Ø§Ùħ":8106,"ĠØ´Ø¯ÛĮ":8107,"ĠØ´Ø±ÛĮÙģ":8108,"ĠØ´ÙĦÛĮÚ©":8109,"ĠØ¢Ø²Ø§Ø±":8110,"Ø§ÙĦØ¨Ø§":8111,"Ø±ÛĮØ±":8112,"ĠÙ¾Ø²ÛĮ":8113,"ĠÙ¾ÙĪØ³":8114,"ĠÙ¾ÙĪÙĦÛĮ":8115,"ĠØ®ÙĪÛĮ":8116,"Ø¬ÙĨØ¯":8117,"Ø¬Ø§Ø¨":8118,"Ø¬ÙĪØ´":8119,"Ø¬ÙĪÛĮØ§ÙĨ":8120,"Ø¬ÙĨØ³":8121,"ĠÙħÛĮØ¯ÙĩÙĨØ¯":8122,"ĠÙħÛĮÙĩÙħØ§ÙĨ":8123,"ĠÙħÛĮØ«Ùħ":8124,"ĠØ§Ø³Ø¨":8125,"ÙĪØ±Ø§ÙĦØ¹ÙħÙĦ":8126,"Ø®Ùħ":8127,"ĠÙģØ§ÙĦ":8128,"ĠÙģÙĨØ¯ÙĤ":8129,"ĠØ¨Ø±ÙĪÙĨØ¯":8130,"Ø§ÙĩÙĨÚ¯":8131,"Ø§ØªØ¨":8132,"ØŃÚ©Ùħ":8133,"ÚĨÛĮÙĨÛĮ":8134,"ĠØ§Ø³ØªÙĨ":8135,"ĠØ§Ø³ØªØ§Ø±":8136,"ĠÚ¯Ø²Ø§Ø±":8137,"ĠÚ¯Ø¬Øª":8138,"Ø±Ø¯Ø§Ø±ÛĮ":8139,"Ø§Ø²ÙĦ":8140,"ØµÙĪØ¯":8141,"ĠÛĮÙħÙĨ":8142,"Ø·ÛĮÙĦ":8143,"ĠÙĤØ±ÙĪÙĨ":8144,"ĠØ²Ø¨Ø§ÙĨÛĮ":8145,"Ù¾Ø´":8146,"Ù¾Ø²ÛĮ":8147,"Ù¾Ø±ÙĪÙģ":8148,"ĠÙĩØ§ÛĮØ´":8149,"ÙĪÙĦØ§ÛĮ":8150,"ÙģØªØ¯":8151,"ĠØ¢ÙĨÙĤØ¯Ø±":8152,"ĠØ¢ÙĨØ¬Ø§ÛĮÛĮ":8153,"ÙĨÚ¯ÙĪÛĮ":8154,"Ø³ÛĮÚĺÙĨ":8155,"ØªØ±Ø³":8156,"ĠÙĦÙĪØ¯":8157,"ĠÙĦØ§Ø²":8158,"ĠÙĦÙĤØ¨":8159,"ĠØµØ¯Ø±":8160,"ĠØµØ§ÙĦØŃ":8161,"ĠÙħÙĪØ§ÙģÙĤ":8162,"ĠÙħÙĨÙĪÛĮ":8163,"ĠØ®ÙĪØ¯ÙħØ§ÙĨ":8164,"ĠØªÙĪÙĩÛĮÙĨ":8165,"ĠØ§ÙĦØªØŃØµÛĮ":8166,"Ø§ÙĨÛĮØ§ÛĮÛĮ":8167,"ÙĪÙħÙĨ":8168,"ØºØ°":8169,"ĠÙģØ±Ø§Ø²":8170,"ĠÙħØ±ØŃÙĪÙħ":8171,"Ø¨ÛĮØ±ÛĮ":8172,"ĠØ´ÙħØ´ÛĮØ±":8173,"ĠØ³Ø±Ø´":8174,"ĠÙħØ³Ø§Ø¦":8175,"ĠØ¯ÙĩÙĦ":8176,"ĠÙĥÙĦÙħØ§Øª":8177,"ĠÚ¯Ø±Ø§Ùħ":8178,"ĠÚ¯Ø±ÙħÛĮ":8179,"ĠÙħÙĩÙħØ§ÙĨÛĮ":8180,"ĠØ¨Ø§Ø²ÛĮÚ¯Ø±ÛĮ":8181,"ĠÚ©ÙħØ¯ÛĮ":8182,"ĠÚ©ÙħØªØ±ÛĮ":8183,"Ø§ÙĦÛĮÙģ":8184,"ĠÚ¯ÙĦØ³ØªØ§ÙĨ":8185,"ĠØªÙĪØ§ÙĨÛĮÙħ":8186,"ĠØªÙĪØ§ÙĨÙħÙĨØ¯ÛĮ":8187,"ĠØ±Ø³ÙĪØ¨":8188,"ĠÙģÛĮØ¨Ø±":8189,"ĠÙħØ·ÙĩØ±":8190,"ÙĦÙĪØ§":8191,"ĠØ±ÙĪÛĮØ§":8192,"ĠØªÙħØ¯ÛĮØ¯":8193,"ĠØ§Ø¨ÛĮ":8194,"ĠÙģØ±ÙĪØ´ÙĨØ¯Ùĩ":8195,"ĠØ§ÙĪØ¨":8196,"ĠØ§ÙĪØ¨Ø§Ø´":8197,"ĠØ¹ÙĦØ§ÙħÙĩ":8198,"ÙĪØ¨Ø±ÛĮ":8199,"ĠÙħØ§ÙĩÙĪØ§Ø±Ùĩ":8200,"ĠØ¶ÙĦ":8201,"ĠÙ¾ÛĮØ´ÛĮÙĨ":8202,"ĠÙ¾ÛĮØ´Ø±ÙĪ":8203,"ĠØªÙĪØ³Ú©Ø§Øª":8204,"ĠÛ±Û·":8205,"ĠØŃØ³Ø§Ø¨ÛĮ":8206,"ÙĪØ³ØªÛĮ":8207,"ĠØ²ÛĮØ±Ø³Ø§Ø®Øª":8208,"ĠÙħØµØ±":8209,"ĠÙħØµØ±ÙģÛĮ":8210,"ĠÙħØµØ§ÙĦØŃ":8211,"ĠØªØ´Ú©ÙĦ":8212,"ĠÙĨÙħØ§ÛĮÛĮÙħ":8213,"ĠØ°ÙĪØ¨":8214,"ĠØ¯Ø§Ø´ØªÛĮÙħ":8215,"Ġ2019":8216,"ina":8217,"ine":8218,"ĠAd":8219,"ĠØ¯ÙĦÙĬÙĦ":8220,"ĠÙħØ³ØªØ¯Ø§Ùħ":8221,"ĠÙħØ³ØªÙĦØ²":8222,"ĠÙħØ¯ÛĮØ±Ùĩ":8223,"ĠØ¯ÛĮØ¯Ùħ":8224,"Ø¨ÙĪØªÛĮ":8225,"Ø£Øª":8226,"ĠÙ¾Ø§Ø³Ø®Ú¯ÙĪÛĮÛĮ":8227,"ĠÙĦØ¨ÙĨÛĮ":8228,"Ø§ÙĩÛĮØ§ÙĨ":8229,"ork":8230,"ĠÙĩÛĮÚĨÚ¯ÙĪÙĨÙĩ":8231,"ÙĪÙĦÛĮØ³":8232,"esh":8233,"ence":8234,"ĠØªØ±Ú©ÛĮØ¨Ø§Øª":8235,"ĠÙ¾Ø±Ø³ÛĮØ¯":8236,"Ġ42":8237,"ĠÙħÚ©Ø¹Ø¨":8238,"ĠØ³ÙģØ±Ùĩ":8239,"ĠÙħÛĮØ§ÙĨÚ¯ÛĮÙĨ":8240,"ĠØ´ÙĪØ±Ø§":8241,"ĠØ´ÙĪØ±Ùĩ":8242,"ĠØ¬ÙĪØ§ÙĨÛĮ":8243,"ĠÙģØ±ÙħÙĪÙĦ":8244,"ĠØªØ®ØµÛĮØµ":8245,"ĠØ±ÙĪØ§ÙĨÙĩ":8246,"Ġmobile":8247,"Ø´ÙĨÙĩØ§Ø¯":8248,"Ø±ÙĪØ³Ø§ÙģØª":8249,"ĠÙ¾Ø°ÛĮØ±Ø§ÛĮÛĮ":8250,"ĠØ³ÙģØ±ÙĨØ§ÙħÙĩ":8251,"Ø±ÛĮÙģØ§Øª":8252,"ĠØªØµÙĪÛĮØ±Ø¨Ø±Ø¯Ø§Ø±ÛĮ":8253,"ÙħØ±ØŃÙĦÙĩ":8254,"ĠÙħØ°Ú©ÙĪØ±":8255,"ÙĤØ±Ø§Ø±":8256,"ĠÙħØ®ØµÙĪØµØ§":8257,"ĠÚ©Ø´Ø§ÙĪØ±Ø²":8258,"ĠØ¨Ø±Ø®ÙĪØ±Ø¯Ø§Ø±ÛĮ":8259,"ĠÙĨØ§ÙĪØ¨Ø±ÛĮ":8260,"ĠØ±ÙģØªØ§Ø±ÙĩØ§":8261,"ĠØ¹ÙĪØ§ÙħÙĦÛĮ":8262,"ĠÙ¾ÛĮØ´ÙĨÙĩØ§Ø¯Ø§Øª":8263,"ĠØ§ÙĦØ¹ÙħÙĦ":8264,"ĠÙħØ²Ú¯Ø§":8265,"ĠÚĨØ±Ø®Ø´":8266,"ĠØ¨ÙĬÙħÙĩ":8267,"ĠØ´ÙĨØ§Ø³ÙĨØ§ÙħÙĩ":8268,"ĠØ¨Ø³Ù¾Ø§Ø±":8269,"omm":8270,"ĠÙĪÙĦØª":8271,"Ġ1395":8272,"Ø¹ÙģÙĪÙĨÛĮ":8273,"ĠØ§Ø¨Ø²Ø§Ø±ÙĩØ§":8274,"ÙħÙĪØ§Ø¯":8275,"ĠØ¨Ø§ÙģØªÙĨÛĮ":8276,"ĠÙ¾ÙĨØ¨Ùĩ":8277,"ĠÙħØ§Ø¯Ø±Ø´":8278,"ÙĪØ§Ú©ÙĨØ´":8279,"ÙĨØ´ÛĮÙĨ":8280,"ĠÙĬÙĥÙĬ":8281,"ĠÙħØ³Ø§ÙģØ±Ø§ÙĨ":8282,"ĠÛ±Û³Û¸Û¸":8283,"ĠØ§ØªØŃØ§Ø¯":8284,"ĠÙ¾Ø±Ø¯Ø§Ø²Ø¯":8285,"ĠØ¯Ø§ÙĨØ´Ø¬ÙĪÙĬØ§ÙĨ":8286,"ecial":8287,"ĠÙħØ§Ø¯Ø±ÛĮØ¯":8288,"ĠØ¯Ø¨ÛĮØ±Ø³ØªØ§ÙĨ":8289,"ĠØ¯Ø¨ÛĮØ±Ø®Ø§ÙĨÙĩ":8290,"ĠØ¯ÙģØªØ±ÚĨÙĩ":8291,"ĠÙĨØ¬ÙĪÙħ":8292,"ĠÙ¾Ø§Ú©Ø³ØªØ§ÙĨ":8293,"ĠØ³ÙĬØ§Ø³ÙĬ":8294,"ĠÙħØ°ÙĩØ¨":8295,"ĠØ²Ø®ÙħÛĮ":8296,"Ø³ÙĪØ§ÙĦØ§Øª":8297,"ĠÛĮÙĪÙĪÙĨØªÙĪØ³":8298,"ĠØ¹Ø¯Ø¯ÛĮ":8299,"ĠÙħØŃØ¨ÙĪØ¨ÛĮØª":8300,"ĠØ¯Ø¨Ø³ØªØ§ÙĨÛĮ":8301,"ĠÙħÙģÙĩÙĪÙħÛĮ":8302,"ĠØ§ÛĮØ³ØªÚ¯Ø§Ùĩ":8303,"ĠÚ©Ø§Ø´Ø§ÙĨÛĮ":8304,"ĠÙ¾Ø±ÙĪØªØ²":8305,"ult":8306,"ĠStr":8307,"ĠÙĪØ§Ø³Ùĩ":8308,"ĠÛ¹Û°":8309,"ĠÙ¾Ø§ÛĮØ¯Ø§Ø±ÛĮ":8310,"ĠØ§Ø³ØªØ±Ø§ØªÚĺÛĮÚ©":8311,"ĠÙĦÙĨØ¯ÙĨ":8312,"ĠØ±Ø¨Ø§ØªÛĮÚ©":8313,"Ø¨ÛĮÙħØ§Ø±ÛĮ":8314,"ĠØ±Ø§ÙĩÚ©Ø§Ø±ÙĩØ§ÛĮ":8315,"ĠÙħØ¹ØªÙĤØ¯ÙĨØ¯":8316,"Ø¢ÙħÙĪØ²Ø§ÙĨ":8317,"ĠÚ©Ø§Ø±Ø¢ÙģØ±ÛĮÙĨ":8318,"Ġkh":8319,"ĠÚĨÙĦÚ©":8320,"ĠÚĨÙĦÙĨØ¯Ø±":8321,"ĠÙĨØ¸Ø±ÛĮØ§Øª":8322,"ĠÙĥÙĪØ¯ÙĥØ§ÙĨ":8323,"ĠÙĨØ¨Ø§Ø´ÛĮØ¯":8324,"Ú©ÙĪØ¯Ú©Ø§ÙĨ":8325,"Ø§ÙĦÙħÙĦÚ©":8326,"ĠÚ©ÙĨØ³Ø±Øª":8327,"ĠÚ©ÙĦØ§Ø³ÛĮÚ©":8328,"ĠØªØ¨Ø§Ø±Ø´ÙĨØ§Ø³ÙĬ":8329,"ĠØ³Ø±Ø§ÙĨØ¬Ø§Ùħ":8330,"ĠØ¢Ø¯Ø§Ø¨":8331,"ĠØ¶Ø®Ø§ÙħØª":8332,"ĠØ§Ø±Ú©Ø³ØªØ±ÛĮ":8333,"ĠØ§Ø¨ÙĪØ§ÙĦÙģØ¶ÙĦ":8334,"ĠØ¢ØªÙĦÛĮÙĩ":8335,"ĠÙħÙģØ§ÙĩÛĮÙħ":8336,"ĠÙħÙĦØ§ØŃØ¸Ùĩ":8337,"ĠÙĦÙĤÙħÙĩ":8338,"ĠÙħØ¬Ø¯Ø¯Ø§":8339,"ĠØ±ÙĪØ´ÙĨÙģÚ©Ø±Ø§ÙĨ":8340,"ĠØ§Ø³Ø±Ø§Ø¦ÛĮÙĦ":8341,"ĠØ§ÙĨØ§Ø±ÙĪØ±":8342,"Ø¢Ø®Ø±ÛĮÙĨ":8343,"ĠÙħØ¹Ø§ÛĮÙĨÙĩ":8344,"Ġrobots":8345,"LOGO":8346,"ĠØ¨ÙĨØ¬Ú©ÙĪÙĦ":8347,"ĠØ§Ø±ÙħØºØ§ÙĨ":8348,"ĠÙĪØ§Ø²ÛĮÙĪØ§Ø±":8349,"ĠØªÙĪØ³Ú©Ø§ØªÚ©":8350,"ĠÙħØ³ØªÙĦØ²Ùħ":8351,"%)":8352,"08":8353,"28":8354,"46":8355,"AS":8356,"CO":8357,"ES":8358,"FT":8359,"ain":8360,"ces":8361,"ld":8362,"man":8363,"nu":8364,"og":8365,"ode":8366,"ph":8367,"pr":8368,"ure":8369,"Ä±":8370,"ÙĮ":8371,"Ġx":8372,"Ġ<#":8373,"Ø§ÙĪÙĦ":8374,"Ø§ÙĪØ²":8375,"Ø±Ø§Ùħ":8376,"ÙĪØ¦ÙĨ":8377,"ØªØ¨ÛĮ":8378,"Ú©ÛĮÙĨ":8379,"Ú©ÙĪÙĨ":8380,"ÙĦØ§Ø³":8381,"ĠØ¨Ø§ÙĨÛĮ":8382,"ĠØ¨Ø§ÛĮØª":8383,"ĠØ¨ÙĪØª":8384,"ĠØ¨Ø´Ùĩ":8385,"ĠØ¨Ø§Ø¨ÙĦ":8386,"ĠØ¨Ø®ÙĪØ§ÙĩØ¯":8387,"ĠØ¨Ø¨Ø±ÙĨØ¯":8388,"ĠÙħØ§Ø±Øª":8389,"Ø§ÛĮØ³":8390,"ĠØ¯ÙĦØ§":8391,"ĠØ¯Ø§Ø¦Ùħ":8392,"ĠØ¯Ø§ÙĪØ±ÛĮ":8393,"Ø³ÙĪØ²":8394,"Ø³ÙĪÙħ":8395,"ĠÙĪØ§Ø¶":8396,"ĠÙĪØ§ÙĨØª":8397,"ĠÚ©ÙħØ§ÙĨ":8398,"ĠÚ©ÛĮØª":8399,"ĠÚ©Ø¨ÙĪ":8400,"ĠÚ©Ø§Ø¸Ùħ":8401,"Ø§Ø±ÙĨ":8402,"Ú¯ÙĨØ¯":8403,"Ø¨ØªÛĮ":8404,"ĠØªÙĬ":8405,"ĠØªÛĮÚ©":8406,"ÙģØ§ÛĮ":8407,"ĠØ±Ø§Ø¯":8408,"ĠØ±Ø§Ø³":8409,"ĠØ±Ø¬Ø¨":8410,"ĠØ±Ø§ÛĮÙĨÙĪ":8411,"ĠÙĨØ®ÛĮ":8412,"ĠÙĨØ§ØµØ±":8413,"ĠÙĩØ±Ø¯":8414,"ĠÙĩÛĮØ±":8415,"ĠÙĩÙĬØ§Øª":8416,"ĠÙĩØ¶Ùħ":8417,"ĠØ³ÙĪÙĨØ§":8418,"ĠØ³ÙħÙĨØ§ÙĨ":8419,"ĠØ¢Ø±Ùĩ":8420,"ĠØ¢ÙĦÙĪ":8421,"ĠØ¢Ø±ÙĪÙħ":8422,"ĠØ¢Ø³Ùħ":8423,"ĠØ¨ÙĩØª":8424,"ĠØ¨ÙĩØ§ÙĨÙĩ":8425,"Ø§Ø¯Ø§Ø±Ùĩ":8426,"Ø±ÛĮØ²":8427,"ØĮ,":8428,"ĠÙ¾Ø´":8429,"ĠØ®ÙĦÛĮ":8430,"ĠØ®Ø§ÙĦÙĩ":8431,"ĠØ®Ø³ØªÚ¯ÛĮ":8432,"Ø¬ÙĨÚ¯":8433,"ĠÙħÛĮÙĨÛĮ":8434,"ĠÙħÛĮÚ©ÙĨÛĮÙħ":8435,"ĠÙħÛĮØ®ÙĪØ§ÙĩÛĮØ¯":8436,"ĠØ§Ø³Ø¯":8437,"ĠØ§ÛĮØ²ÙĪ":8438,"ÙĪØ±Ø¯ÛĮ":8439,"ÙĬØ´":8440,"ÛĮØ¯Ø§ÙĨ":8441,"Ø®Ø§Ø·":8442,"Ø®Ø¯Ø§":8443,"ĠÙģÙĪØ±ÛĮ":8444,"ĠØ¨Ø±ÙĪÙĨ":8445,"ĠØ¨Ø±Ø§Ø¨Ø±ÛĮ":8446,"Ø§ÙĩÙĪ":8447,"ØŃØ¬":8448,"ÚĨÙĪÙĨ":8449,"ÚĨÙĪØ¨":8450,"ÚĨØ±Ø§":8451,"ÚĨÛĮØ²":8452,"ĠØ§Ø³ØªØ§ÙĨÛĮ":8453,"ĠÚ¯Ù¾":8454,"ĠØ¬ÛĮÙħ":8455,"ĠÚ©ÙĩÙĨÙĩ":8456,"ØµØ±Ùĩ":8457,"ĠÛĮØ§Ùħ":8458,"ĠØŃÙĦØ¨":8459,"ĠØŃØ§ÙħÛĮ":8460,"ĠØŃØ±ÛĮÙģ":8461,"ĠØŃÛĮØ¯Ø±ÛĮ":8462,"ĠÙĤÙĨ":8463,"ĠÙĤØ§Ø±ÚĨ":8464,"Ù¾ÛĮØ±":8465,"Ù¾ÛĮÚ©":8466,"ĠÚĨÙħ":8467,"ĠÚĨØ±Ùħ":8468,"ĠÚĨÙĪØ¨ÛĮ":8469,"ÛĮÙħÙ¾":8470,"ĠØ¯Ø§ÙĨØ¯":8471,"ĠÙĩÙħÚ©Ø§Ø±":8472,"ĠÙĩÙħØ°ÙĩÙĨÛĮ":8473,"ĠØ¢ÙĨØ§ÙĦÛĮØ²":8474,"ĠÙĦØ§":8475,"ĠØ§ÙħÙ¾":8476,"ĠØµØ±":8477,"ÙħÛĮØ§ÙĨ":8478,"ĠÚ©Ø§Ø±Ø¢ÛĮ":8479,"ĠÚ©Ø§Ø±Ú¯Ø±Ø¯Ø§ÙĨ":8480,"Ú¯Ø±ÙĬ":8481,"ĠÙħØŃØ±":8482,"Ø¸Ø±ÙĪÙģ":8483,"ØªÙĩÛĮ":8484,"ÛĮØªØ§ÙĨ":8485,"ĠØ®ÙĪØ¯Ø¨Ø§ÙĦÙĨØ¯Ú¯ÛĮ":8486,"ĠØ¢ÙħØ±":8487,"ĠØ§ÙĦÛĮÙħÙ¾":8488,"Ø§ØŃÙħØ¯":8489,"ĠÙħØ¹Ø§Ùģ":8490,"ĠÙ¾ÛĮØ±ÛĮ":8491,"ĠÙħØ¯Ø¯":8492,"ĠÙħØ¯ÙĨØ¸Ø±":8493,"ĠÙħØ´Ùħ":8494,"Ø§ÙģÙĬ":8495,"Ø¨Ø±Ùĩ":8496,"ĠØªØ±Ø³ÙĨ":8497,"Ø¢ÙĬØ¯":8498,"Ø±ÙģØ³":8499,"ĠØºÛĮ":8500,"ĠØºÙĪ":8501,"ĠØºØ¯Ø¯":8502,"ĠØºØ§ÙĦØ¨Ø§":8503,"Ø¯Ø±ÙħØ§ÙĨ":8504,"ĠØ³Ø§ÙĦØ±ÙĪØ²":8505,"ĠÙħØ¬Ø§ÙĪØ±":8506,"ĠÙħØ¬ÙĦØ§Øª":8507,"ĠÙħÙĤØ§ÙĦ":8508,"Ø§Ú©Ø¯Ùĩ":8509,"ĠÙĨØ¸Ø§ÙģØª":8510,"ĠÙĥØ´ÙĪØ±":8511,"ĠØ¹ÙħÙĪØ¯ÛĮ":8512,"ĠØ¨Ø§Ø²ÛĮØ§Ø¨ÛĮ":8513,"Ø§Ø¬ØªÙħ":8514,"ĠÚ©ÙħØ§ÙĦ":8515,"ÙħÙĨØ³":8516,"ĠØªØ¹ÙħÛĮÙħ":8517,"ĠØªØ¹Ø¬Ø¨":8518,"ĠÙħØ·ÙĩØ±ÛĮ":8519,"ĠÙĨÙĤØ¶":8520,"ĠÙĨÙĤØ¯ÛĮ":8521,"ĠØ±ÙĪØ²Ú¯Ø§Ø±":8522,"ĠØ±ÙĪØ²ÙħØ±Ùĩ":8523,"ĠØ§ÙĪÙ¾Ú©":8524,"ĠÚ©ÙĦÙģØª":8525,"ĠØªÙĩÙĬÙĩ":8526,"ÙĨØ¬Ø§Ø±ÛĮ":8527,"ĠÙ¾Ø§ÛĮØ§ÙĨÛĮ":8528,"ÙĪÙĨØ¯ÛĮ":8529,"ĠØ¶Ø§ÛĮ":8530,"Ø±Ø¨ÙĬ":8531,"ĠÙ¾ÛĮØ´ÙĪØ§Ø²":8532,"ÙģØ±ÙĬÙĨØ´":8533,"ĠÚ¯Ø°Ø§Ø±Ø§ÙĨ":8534,"ĠØŃØ§ÙĦÙħ":8535,"ĠÚ¯Ø±Ø¯ÛĮ":8536,"ĠÚ¯Ø±Ø¯ÙĩÙħ":8537,"ĠØ¨ÛĮÙĨØ´":8538,"ĠØ±ÛĮØ´":8539,"ĠÙ¾Ø±Ø§Ú©":8540,"ĠØ¹ÙĨÚ©":8541,"ĠØ¨Ø§Ø±Ø¨ÛĮ":8542,"Ú©Ø±Ø¯Ùħ":8543,"Ø±Ø§ÙĤÛĮ":8544,"ĠØ«Ø±ÙĪ":8545,"ĠÙħÙĬØ¯Ø§ÙĨ":8546,"ĠØ´Ø¨Ø³ØªØ§ÙĨ":8547,"Ù¾ÛĮÙĪÙĨØ¯":8548,"Ġ39":8549,"ĠØ°ÛĮ":8550,"Ø´Ø¯ÙĨ":8551,"ĠØ¯Ø§Ø´ØªÛĮØ¯":8552,"ĠSM":8553,"ĠSch":8554,"Ġ2012":8555,"ĠÙģØ¹Ø§ÙĦÙĬØª":8556,"ĠÙ¾Ø±Ø¯Ø§Ø²ÙĨØ¯":8557,"ĠØ³ÙĩÙĪÙĦØª":8558,"ĠØºÛĮØ±ÙĤØ§Ø¨ÙĦ":8559,"ĠPC":8560,"ĠPDF":8561,"ĠØªÚ©Ø«ÛĮØ±":8562,"ĠÙħØ¹ÙħØ§Ø±ÙĬ":8563,"ĠÙģØ±Ø¯ÙĪØ³":8564,"ĠÙĬØ§Ø¯":8565,"ĠDual":8566,"ĠCat":8567,"ĠCanon":8568,"Û±Û¸":8569,"ĠØ§ÙĨÚ¯ÙĪØ±":8570,"ale":8571,"ory":8572,"ĠÛ±Û³Ûµ":8573,"adem":8574,"ĠØ¨Ø§ÙĨÚ©ÙĩØ§":8575,"ĠÙħØ´Ø®ØµÛĮ":8576,"ĠÚ©ÛĮØ´":8577,"Ø´Ø±ØŃ":8578,"iran":8579,"ĠTAB":8580,"ĠÙħÙĨØªÙĤØ¯":8581,"ĠØªÙģÚ©ÛĮÚ©":8582,"ĠÙħÙĨØ·ÙĤ":8583,"ĠØ´Ú©Ø§ÛĮØª":8584,"ĠØ´Ú©Ø§Ùģ":8585,"ĠØ§Ú©Ø±Ùħ":8586,"ĠØ§Ú©Ø³ÛĮÚĺÙĨ":8587,"ĠØ¹Ø´Ø±ÛĮÙĩ":8588,"ĠÙĪØ³Ø·ÛĮ":8589,"ĠÙĦÙĨØ²ÙĩØ§":8590,"ÙĪØªØ±Ø§Ù¾ÛĮ":8591,"oos":8592,"Ġ+++":8593,"ĠÙĨÙģØ®":8594,"ĠØ§ÙĦØ¨ÙĨÛĮÙĨ":8595,"ĠÙ¾ÙĪØ´ÛĮØ¯ÙĨ":8596,"ĠRoy":8597,"ĠØªÙĪØ±ÙĩØ§ÛĮ":8598,"ÙħØŃØµÙĪÙĦ":8599,"ÙħØŃÙĤÙĤ":8600,"ĠÙħØŃØ¯ÙĪØ¯ÛĮ":8601,"ĠÙĤØ±Ø¢ÙĨÙĬ":8602,"ĠØµÙĨØ¹ØªÙĬ":8603,"ĠØ³Ø±ÛĮØ¹ØªØ±":8604,"ĠÙħØ²Ø§ÛĮ":8605,"ĠEx":8606,"ĠÙħØªØ±Ø¬Ùħ":8607,"ĠØ¨Ø³Ø±Ùħ":8608,"ĠÙĦØ·ÙģØª":8609,"ĠÙ¾Ø²Ø´Ú©ÙĬ":8610,"ĠÙħØ§Ø²ÙĨØ¯Ø±Ø§ÙĨÛĮ":8611,"!!!!":8612,"Ú©ØªØ§Ø¨Ø®Ø§ÙĨÙĩ":8613,"ĠÙĪØŃÛĮØ¯":8614,"Ú¯ÙģØªØ§Ø±":8615,"Ú¯ÙģØªØ§ÙĪØ±Ø¯":8616,"ĠÙĨØ²Ø¯ÛĮÚ©ÛĮ":8617,"ĠØ¢Ø°Ø±Ø¨Ø§ÛĮØ¬Ø§ÙĨÛĮ":8618,"Ġdata":8619,"Ġ02":8620,"Ú¯ÙĬØ±Ø¯":8621,"ĠÙĨÙĩØ§ÛĮØªØ§":8622,"ÙĬØ³ÙĬ":8623,"ĠÙĤÛĮØµØ±":8624,"ĠÙħØ§ÙħÙĪØ±":8625,"ĠUcharge":8626,"ĠÛ±Û³Û¸Û·":8627,"ĠØµØ§Ø¯ÙĤÙĦÙĪ":8628,"ĠØªØ¶ÙħÛĮÙĨ":8629,"ĠÙħØ§Ø¯Ø±Ùħ":8630,"ĠÛ¸Û°":8631,"ĠØ¨Ø±Ø®ÙĪØ±Ø¯Ø§Ø±ÙĨØ¯":8632,"ĠØ²ÙĬÙħÙĨØ³":8633,"ĠØµØ§ØŃØ¨Ø§ÙĨ":8634,"ĠØªØ¯Ø¨ÛĮØ±":8635,"ĠÛ±Û¹Û¸":8636,"ØŃØ¶ÙĪØ±":8637,"Ø®ÙĪØ§ÙĨÙĨØ¯Ùĩ":8638,"ĠÛ³Ûµ":8639,"ĠÙĦØ§ÛĮØŃÙĩ":8640,"ĠØ±Ø¯ÛĮØ§Ø¨ÛĮ":8641,"ĠØ®Ø§ØªÙħÙĩ":8642,"ĠÚ©Ø¬Ø§Ø±ÙĪ":8643,"ĠÙħÛĮØ¯Ø§ÙĨÛĮ":8644,"ÙĪÚĨÙĩØ±":8645,"ĠØ³Ø§ÙħØ§ÙĨØ¯ÙĩÛĮ":8646,"ĠÙ¾ÙĩÙĦÙĪÛĮ":8647,"ĠØ¨ÙĩÙħÙĨÛĮ":8648,"ĠÚ©ÛĮÙĦÙĪÚ¯Ø±Ùħ":8649,"ĠÚ©ÙĪÙĦØ±":8650,"Ġreg":8651,"ĠØ¢ÙħÙĪØ®ØªÙĨ":8652,"ĠØ§ÙĨØ²Ø§ÙĦÛĮ":8653,"ĠÛĮØ§Ø¨ÙĨØ¯":8654,"ĠÙĩØ¬Ø±ÛĮ":8655,"ÙĬØ¹ÙĬ":8656,"ĠØ®Ø§ÙĦØµ":8657,"ĠÙħØ·ÙĦØ¹":8658,"ĠØ¬ØºØ±Ø§ÙģÛĮØ§ÛĮ":8659,"Ø§Ù¾ÙĦØ§Ø³ØªÛĮ":8660,"ĠØ§ÙĨØ¨ÙĪÙĩ":8661,"ĠÚ©Ø§ÙĦÛĮÙģØ±":8662,"Ø¨Ø³ÛĮØ§Ø±ÛĮ":8663,"ixel":8664,"Ø¨Ø®ØªØ§ÙĨÙĩ":8665,"ĠÚĺØ¦ÙĪÙ¾Ø§Ø±Ú©":8666,"ĠØ³Ø§Ø¹ØªÙĩ":8667,"ĠØ¨Ú¯ÙĪÛĮÛĮÙħ":8668,"ĠØ®ÙĪØ§Ø±Ø²ÙħÛĮ":8669,"ĠÙħØ³ØªÙħØ±":8670,"ĠÙħØŃÚ©ÙĪÙħ":8671,"ĠÙĪØ§ÚĺÚ¯Ø§ÙĨ":8672,"ĠÙĨØµÛĮØ±Ø§ÙĦÙħÙĦÚ©":8673,"ĠØ§ÙĨÙģØ¬Ø§Ø±":8674,"ĠÙĩÙħØ´ÙĩØ±ÛĮ":8675,"ĠÙĤÙĪØ§Ø¹Ø¯":8676,"ĠØ³ÙĪØ¦ÛĮÚĨ":8677,"ĠÚ©Ø§Ø²Ø±ÙĪÙĨ":8678,"ĠØ§Ø±Ú¯Ø§ÙĨÛĮÚ©":8679,"ĠÙĨØ¸Ø±Ø³ÙĨØ¬ÛĮ":8680,"ĠÙĩØ±ÙħØ²Ú¯Ø§ÙĨ":8681,"ĠØ°Ø±ÙĬÙĩ":8682,"ĠÙĪÙĬÚĺÚ¯ÙĬ":8683,"ĠØ¬ÙĪÙħÙĦØ§":8684,"ĠÙħØªØ£Ø³ÙģØ§ÙĨÙĩ":8685,"ĠØ§ÙĨØ¯Ø±ÙĪÛĮØ¯ÛĮ":8686,"ĠØ§ØªÙĪØ¨ÙĪØ³":8687,"ĠÚ¯Ø²Ø§Ø±Ø´ÛĮ":8688,"ĠÙĩÛĮØ±Ø§Ø¯":8689,"ĠÚ©Ø§Ø±Ø¢ÛĮÛĮ":8690,"ĠØªØ±Ø³ÙĨØ§Ú©":8691,")/":8692,"120":8693,"43":8694,"47":8695,"83":8696,"EB":8697,"EX":8698,"Qu":8699,"aw":8700,"ei":8701,"ean":8702,"mot":8703,"ne":8704,"rag":8705,"¸ı":8706,"Â©":8707,"ï¸ı":8708,"ĈĈ":8709,"Ġe":8710,"ÛĮØ§Ø±":8711,"Ø±Ø±":8712,"Ø±ÙĩØ§ÛĮ":8713,"ÙĨØŃ":8714,"ÙĨØ§Ø³":8715,"ÙĩÙħÛĮÙĨ":8716,"Ø¯ÙĪÙĨ":8717,"ÙĪÙĪ":8718,"ÙĪØ¬":8719,"ÙħØ§Ø³":8720,"ÙħÙĪØ³":8721,"Ú©Ø§ÙĨÛĮ":8722,"ÙĦÙĨ":8723,"ÙĦÚ©":8724,"ÙĦØ§Ø·":8725,"ĠØ¨Ø·":8726,"ĠØ¨Ø´ÙĨØ§Ø³":8727,"ĠØ¨ÙģØ±Ùħ":8728,"ĠØ¨Ù¾Ø±Ø¯Ø§Ø²ÙĨØ¯":8729,"ĠÙħÚ¯Ùĩ":8730,"ĠÙħØ§ÙģÛĮ":8731,"ĠÙħØ¨ÙĩÙħ":8732,"ĠØ¯ÙĪØ²ÛĮ":8733,"Ø³Ø§":8734,"Ø³Ø·":8735,"ĠÙĪØ®":8736,"ĠÙĪØ§ÛĮØ¯":8737,"ĠÚ©ÛĮØ±":8738,"ĠÚ©Ø§Ú©Øª":8739,"ĠÚ©Ø±ÙģØ³":8740,"Ú¯ÙĪÙĦ":8741,"Ø¨ÙĤ":8742,"Ø¨Ø§Ø³":8743,"ÙģØ§Ø±":8744,"Ø²Ø§Ø¨":8745,"ĠØ±Ø£":8746,"ĠØ±Ø§Ø¨Ùĩ":8747,"ĠØ±ØºÙħ":8748,"ĠÙĨÙĢ":8749,"ĠÙĨØ§Ø¢":8750,"Ø§ÙħØ§Ø±Øª":8751,"ĠØ¯Ø±Ø®ØµÙĪØµ":8752,"ĠØ¯Ø±ØŃØ§ÙĦ":8753,"ĠØ¯Ø±Ø§ÙħØ¯":8754,"ĠØ³Ø§Øª":8755,"ĠØ³Ú©Ø³":8756,"ĠØ³Ø§Ø¹Ø§Øª":8757,"ĠØ´ØªØ§Ø¨":8758,"ĠØ¢ÛĮÙĩ":8759,"ÙĤØ¨ÙĦ":8760,"Ø¹ÙĪØ¯ÛĮ":8761,"ĠØ¨ÙĩØ´ØªÛĮ":8762,"Ø§Ø¯Ø§ÙħÙĩ":8763,"ĠÙ¾Ø§Ù¾":8764,"Ø¬Ø¹":8765,"Ø¬Ø³Øª":8766,"ĠÙħÛĮÙĦÙĩ":8767,"ĠÙħÛĮØ±ÙĪØ¯":8768,"ĠØ§Ø³ÙħØ§ÙĨÛĮ":8769,"Ø®ÙĪØ±ÛĮ":8770,"Ø®ÙĪØ§ÙĨÛĮ":8771,"ĠÙģØ§":8772,"ĠÙģØ¯":8773,"ĠÙģÙĪÙĦÛĮ":8774,"ĠØ¨Ø±Ø§Ø´":8775,"ĠØ¹Ø§ÙĤØ¨Øª":8776,"ÚĨØ´Ùħ":8777,"ĠÚ¯Ø§Ø²ÛĮ":8778,"ĠØ¬Ø³Ùħ":8779,"ĠÛĮØ§Ø®ØªÙĩ":8780,"Ø·Ø§Ø±ÛĮ":8781,"ĠØŃØ±ÙĪÙģ":8782,"Ø§Ø´ØªÙħ":8783,"ĠØ§Ú¯Ø²":8784,"ĠÙĤÙĪØ±":8785,"ĠÙĤØ§Ø¦ÙĦ":8786,"ĠÙĤØ±ÛĮØ¨":8787,"Ù¾Ø§ÙĪØ±Ù¾ÙĪÛĮÙĨØª":8788,"ĠÚĨØ§ÙĨÙĩ":8789,"ĠØ§ÙĨÙĩØ§":8790,"ĠØ§ÙĨØ¨Ø§Ø´":8791,"ĠØ§ÙĨÙĦØ§ÛĮÙĨ":8792,"Ø¯ÙĩÛĮÙħ":8793,"ĠØ¯Ø§ÙĨØ³ØªÙĩ":8794,"Ø¶Ø±":8795,"ĠØ¢ÙĨÙĩØ§Ø³Øª":8796,"ĠØ¨Ø±Ø§ÛĮØ´Ø§ÙĨ":8797,"ĠÙĦØ§ÙĦ":8798,"ĠÙĦØ¨Ùĩ":8799,"ĠÙĦÙģØ¸":8800,"ĠØ§ÙħØ¯Ø§Ø¯":8801,"ÙħÛĮØ³":8802,"ĠØ·Ø±ÙģÛĮ":8803,"ĠÙħÙĪØ´":8804,"ĠÙħÙĪØ§Ø¯ÛĮ":8805,"Ø§Ø¹ÙĪÙĨ":8806,"ĠÙħÙĨÚ©Ø±":8807,"ĠÙħÙĨØªÙĩÛĮ":8808,"ĠÙħÙĨÙĪÚĨÙĩØ±":8809,"ĠÙĨÛĮØª":8810,"ĠÙĨÛĮÙĦ":8811,"ĠÛĮÚ©Ø¬Ø§":8812,"ĠØ®ÙĪØ¯Øª":8813,"ĠØ§Ø±Ø¶Ø§ÛĮÛĮ":8814,"ĠØ¨Ø§Ø²Ø¯Ø§Ø±ÙĨØ¯Ùĩ":8815,"ĠØ§ÙĦÚ©ÙĦ":8816,"ĠØ§ÙĦØ±ØŃ":8817,"ĠØ§ÙĦÙĩØ§Ùħ":8818,"ĠØ¨ÛĮØ§ÙĪØ±Ø¯":8819,"ÙĪÙħØªÛĮ":8820,"Ø§Ø®Ø¨Ø§Ø±":8821,"ĠÙģØ±Ø²Ø§Ø¯":8822,"ĠÙħØ±ØªØ¨Ùĩ":8823,"Ø¨ÛĮØ§":8824,"Ø¨ÛĮØ§ÙĨ":8825,"ĠØ´ÙħØ³":8826,"ĠÙĨÙħØ§":8827,"ÙĩÙĨÚ¯Ø§ÙħÛĮ":8828,"ĠÙħØªØ¹ÙĩØ¯":8829,"Ø¢Ù¾":8830,"Ø¢Ø¯Ø±Ø³":8831,"ĠØ±ÙĪØª":8832,"ĠØ±ÙĪØ¨Ùĩ":8833,"ĠØ±ÙĪØ§Ø¬":8834,"ĠØ¯ÛĮÙĪØ§Ø±Ùĩ":8835,"ĠØºØ±ÛĮ":8836,"ĠØºØ§ÙģÙĦ":8837,"ĠÙħØ¬ØªØ¨ÛĮ":8838,"Ø§Ø³ØªØ§ÙĨØ¯":8839,"ĠØ§ÛĮØ±Ø§ÙĨØ´ÙĩØ±":8840,"ĠÙħÙĤØµÙĪØ¯":8841,"Ø¦ÙĨØ§":8842,"ĠÙħØ³Ø§ÛĮÙĦ":8843,"ĠØ¯ÙĩØ§ÙĨÙĩ":8844,"ĠØ´Ø±Ø¹ÛĮ":8845,"ĠÙĥÙĪÚĨ":8846,"Ø§Ø³ÛĮØ§Ø¨":8847,"ĠØ¹ÙħÙĦØ§":8848,"ÙĥÙħ":8849,"ÙħÙĨÛĮÙĨ":8850,"ĠØªØ¹Ø§ÙĦÛĮ":8851,"ĠØªØ¹Ø¨ÛĮÙĩ":8852,"ĠØ§Ø¹ØªØµ":8853,"ĠØ§Ø¬Ø²":8854,"ĠØªÙħÙĪÙħ":8855,"ĠÙĨÙĤØ±Ùĩ":8856,"ÙĢØ¯":8857,"ÙĪØªØ§Ùĩ":8858,"ĠØ§ÙĪØ³ØªØ§":8859,"Ú©Ø§ÙĨØ§ÙĦ":8860,"ĠØ§ÙĨØ¯Ø§Ø®ØªÙĩ":8861,"ĠØ§Ø®ÙĦØ§ÙĦ":8862,"ĠØ§Ø´Ø¨Ø§Ø¹":8863,"ĠÙ¾Ø±ÙĪÛĮÙĨ":8864,"ĠÙ¾Ø±ÙĪØ³Ùĩ":8865,"ĠØ§ÙĤØª":8866,"ĠØ§ÙĤÙĦÛĮÙħ":8867,"ĠØ´ÙĩØ±Ø²Ø§Ø¯":8868,"ĠØªÙĨØ´":8869,"ĠØ¯Ø§Ø¯ÛĮÙħ":8870,"ĠØ¨ÛĮÙĨÛĮØ¯":8871,"ĠØ§ØŃØ³Ø§ÙĨ":8872,"ĠÙ¾Ø±ÙĪØ±":8873,"ĠÙ¾Ø±ØªØ±Ùĩ":8874,"ĠØ¹ÙĨØ§ÛĮØª":8875,"ĠØ§ÙħØ§Ú©ÙĨ":8876,"ani":8877,"Ù¾ÛĮÚĨ":8878,"Ù¾ÛĮÙĪØ³ØªÙĩ":8879,"ĠØªØ¬Ø§ÙĪØ²":8880,"ĠÙĩÛĮØ¬Ø§ÙĨÛĮ":8881,"ĠÙħØµØ·ÙģÛĮ":8882,"ĠØ¨ÙĨØ²":8883,"ĠØ§ÙģØ±Ø§Ø³ÛĮØ§Ø¨":8884,"Ġ36":8885,"ĠØ¹Ø±ÙĤ":8886,"ĠÚ©ÙĪÚ©ÛĮ":8887,"Ø³Ø§ÙĦØ§ÙĨ":8888,"ĠPass":8889,"ĠPixel":8890,"ĠØ®Ø¨Ø±ÙĨØ§ÙħÙĩ":8891,"ĠØ§ÙĩÙĪØ§Ø²":8892,"ĠDead":8893,"Ø´Ø§Ø±Úĺ":8894,"ĠØ¢ÛĮÙĨØ¯":8895,"Û±Û²":8896,"Û±Ûµ":8897,"ĠÙĤØ·Ø¨":8898,"ĠÙħÙĦÛĮØª":8899,"ĠÛ±Û³Û·":8900,"ĠØ·Ø¨ÙĬØ¹ÙĬ":8901,"ĠØ§ÙģØ²Ø§Ø±ÙĩØ§":8902,"ĠÙĦÛĮÚ©ÙĨ":8903,"Ġ500":8904,"ĠØ¯Ø®Ø§ÙĦØª":8905,"ĠBal":8906,"ĠÚĨÙĩØ§Ø±ÙħÛĮÙĨ":8907,"ĠTo":8908,"ĠØªÛĮÙ¾":8909,"ĠØ¬ÙĦÙĪÛĮÛĮ":8910,"ĠÙħØ·Ø§ÙĦØ¨ÛĮ":8911,"ĠÙĪØ§Ú¯Ø°Ø§Ø±":8912,"ĠØ¬Ø²Ø§ÛĮ":8913,"ĠØ¬Ø²ÙĪÙĩ":8914,"ĠÙħÙĩØ±Ø¨Ø§ÙĨ":8915,"ĠÙħÙĩØ±Ø²Ø§Ø¯":8916,"ĠIran":8917,"ĠØ´Ú©ÙĪÙĩ":8918,"ĠÙĤØ¯Ø±Ø¯":8919,"ĠØªØ®ÙĦÛĮÙĩ":8920,"ĠÙħØ¨ÙĦÙĩ":8921,"ĠØ¬Ø§ÙĨØ¨":8922,"ĠØ¬Ø§ÙĨØ¨Ùĩ":8923,"ĠÙĩØ¯ÙģÙħÙĨØ¯":8924,"Ø§Ø±Ø§ÙĨØªÛĮ":8925,"ÙĪÚ©Ø³ÛĮ":8926,"ĠØ®ÙĪØ±Ø§Ú©ÛĮ":8927,"ĠGam":8928,"ĠØªØ£Ø³ÛĮØ³":8929,"................":8930,"ĠØ¨ÙĩØªØ±ÙĬÙĨ":8931,"ages":8932,"ĠØ¢ÙĦÙħØ§ÙĨÛĮ":8933,"ĠÙ¾ÙĪØ´Ø§ÙĨ":8934,"ĠÙ¾Ø±Ø¯Ø§Ø®ØªÙĨ":8935,"Ù¾Ø±Ø´":8936,"ÙħØŃÙĦ":8937,"ĠÙ¾ÙĬØ´Ø±":8938,"ĠÙħØŃÙħÙĪÙĦÙĩ":8939,"ĠØŃÚ©ÙĪÙħØªÛĮ":8940,"ĠÙĨÙħØ§ÛĮØ´Ú¯Ø±":8941,"ĠØ±Ø§Ø¨Ø·":8942,"ĠØªØµÙħÛĮÙħØ§Øª":8943,"ĠÙĨØ§Ù¾ÛĮÙĪØ³ØªÙĩ":8944,"ĠÚ©ÙĪÚĨÚ©ØªØ±":8945,"ĠØ±ÙĤØµ":8946,"ĠÙħØ²Ø§ØŃ":8947,"ĠØ¶Ø¯Ø¹ÙģÙĪÙĨÛĮ":8948,"ĠØ¹Ø²ÛĮØ²ÙħØ§ÙĨ":8949,"Ù¾Ø±Ø¯Ø§Ø®Øª":8950,"ĠØ¹Ø¨Ø§Ø±ØªÛĮ":8951,"ĠÚ©Ø§ÙģÛĮØ³Øª":8952,"ĠØ¨ÙĦÙĪØ§Ø±":8953,"ĠÙ¾Ø³ØªÙĪÙĨ":8954,"ell":8955,"ĠØ¬Ø§ÙħØ¹ÛĢ":8956,"ÙħØ´Ø§ØºÙĦ":8957,"ĠÛ·Û°Û°":8958,"ĠØ¨Ø±ÙĨØ¯ÙĩØ§ÛĮ":8959,"ĠØµØ§Ø¯ÙĤÛĮ":8960,"ĠØªÙĪÙĦØ¯Øª":8961,"ĠØ§ÙĨØ¯ÛĮØ´ÛĮ":8962,"Ø¬ÙħÙĦÙĩ":8963,"ÙĨØ´Ø§ÙĨÛĮ":8964,"ĠÙģØ±ÙħØ§ÙĨØ¯ÙĩÛĮ":8965,"ĠØªØ¯Ø±ÛĮØ¬":8966,"ĠØ²ÙĨØ¯Ú¯":8967,"ĠØ¨Ø´Ø±ÛĮ":8968,"ĠÙĥØ§Ø±Ø¨Ø±Ø¯":8969,"ĠUS":8970,"ĠÛ±Û³Û¸Û¹":8971,"ĠØªÚ©Ø±Ø§Ø±ÛĮ":8972,"ØŃØ³Ø§Ø¨":8973,"ĠØ¬ÛĮØ¨":8974,"ĠØ¬ÛĮÚ¯Ø±":8975,"ĠØ§Ø³ÙħØ§Ø±Øª":8976,"ĠÙģØ±Ø²ÙĨØ¯ØªØ§ÙĨ":8977,"ĠÚ©Ø§Ø±Ø¯Ø§ÙĨÛĮ":8978,"ĠØ§ÙĪØ±Ø§ÙĤ":8979,"ĠØ¯Ø§ÙĪÙĪØ¯":8980,"Ġ2006":8981,"ĠØ¹Ø±ÙĪÙĤ":8982,"ĠØ±ÙĪØ³ØªØ§ÛĮÛĮ":8983,"ung":8984,"ĠÙĪÛĮØ¯Ø¦":8985,"ĠÙħØ§ÛĮÚ©ÙĦ":8986,"ĠØ§ÙĦÛĮØ§Ùģ":8987,"ĠØ¨ÙĨÛĮØ§Ø¯Ø§Ø²Ø¯ÙĪØ§Ø¬":8988,"ÙĩÙħØ§ÙĨØ·ÙĪØ±":8989,"ĠØªØ±Ø¯ÛĮØ¯":8990,"ĠØŃÙģØ§Ø¸ØªÛĮ":8991,"ĠØ¯Ø²ÙģÙĪÙĦ":8992,"ĠØªØ§Ø³ÛĮØ³Ø§Øª":8993,"ĠÙ¾Ø±ÙĩØ§Ùħ":8994,"ĠØ¢ÙĪØ§Ø²":8995,"ĠÙģØ±Ø³ØªØ§Ø¯":8996,"ĠÚĨØ´ÙħØ§ÙĨ":8997,"ĠÚĨØ´ÙħÙĩ":8998,"ĠÙħÙĨØµÙĪØ±":8999,"ĠØ±Ø¯ÛĮÙģ":9000,"ĠØ¨Ø§ÙħØ²Ùĩ":9001,"ĠÙħØ³ÛĮØ±ÛĮ":9002,"ĠÙ¾Ø§ÙĨØ²Ø¯Ùĩ":9003,"Ð¾Ð":9004,"Ø¨ÛĮÙħÙĩ":9005,"ĠSpecial":9006,"Ú©ÙģØ´":9007,"ĠÚ¯ÙĨØ¬ÙĪØ±":9008,"ĠØ³ÙĪÙĨÙĪÚ¯Ø±Ø§ÙģÛĮ":9009,"Ù¾Ø§ÛĮÚ¯Ø§Ùĩ":9010,"ĠØ§ÙĨØ¹Ú©":9011,"ĠØªØ¹ÙĩØ¯Ø§Øª":9012,"ĠØªÙĤØ§Ø¶Ø§":9013,"ction":9014,"ĠØ¢ÙħÙĪØ®ØªÙĩ":9015,"ĠØ¨Ù¾Ø±Ø¯Ø§Ø²Ø¯":9016,"ĠØ¨Ù¾Ø±Ø¯Ø§Ø²ÛĮØ¯":9017,"Ø§ÙħÛĮØ¯ÙĪØ§Ø±":9018,"ĠÙħØ´Ø±ÙĪØ·":9019,"ØªØŃÙĤÛĮÙĤØ§Øª":9020,"ĠØŃØ¯ÛĮØ«":9021,"ĠÙĥÙĪØ¯Ùĥ":9022,"ĠØ®Ø³Ø§Ø±Øª":9023,"ĠØ§ÙĦØ²Ø§ÙħÛĮ":9024,"ĠØ¢Ú©Ø§Ø¯ÙħÛĮÚ©":9025,"ĠÙĨØ§Ø¯Ø±Ø³Øª":9026,"ĠÙħÛĮØ®ÙĪØ§Ùħ":9027,"ĠØ¹Ø±ÙģØ§ÙĨ":9028,"ĠÙĩÙĬÚĨ":9029,"ĠØªÙĪØ±ÛĮØ³Øª":9030,"ĠØ´Ø§Ø¹Ø±":9031,"ĠØ±Ø§ÙĩØ¨Ø±Ø¯ÛĮ":9032,"ÚĨÙĨØ§ÙĨÚĨÙĩ":9033,"ĠÙħØµØ¯Ø§ÙĤ":9034,"ĠØ´ÙĪÛĮÙĨØ¯Ùĩ":9035,"ĠÙĦØ§Ø¨ÛĮØ§Ù¾ÙĦØ§Ø³ØªÛĮ":9036,"ĠÙħØ§ÛĮÚ©Ø±ÙĪØ³Ø§ÙģØª":9037,"ĠØ¨ÙĦÛĮØ·":9038,"ĠÙĤØ³ÙħØªÛĮ":9039,"ĠØ³ÛĮØ³ØªÙħÛĮ":9040,"ĠØªØ³ÙĨÛĮÙħ":9041,"ĠÙĨØ§ØµØ±Ø®":9042,"ĠÙħÙĨØ¯Ø±Ø¬":9043,"ĠÙĩÚ©ØªØ§Ø±":9044,"ĠÙħØ³Ø§Ø¦ÙĦÛĮ":9045,"ĠØ§ÙĪØ¨Ø§ÙħØ§":9046,"ĠÚ©Ø¨ÙĪØªØ±":9047,"Ø§Ø¬ØªÙħØ§Ø¹ÛĮ":9048,"Ġregal":9049,"ĠÚ©Ø§Ú©ØªÙĪØ³":9050,"ĠÙģÙĪÙĦÛĮÚ©ÙĪÙĦ":9051,"ĠØ§Ø¹ØªØµØ§ÙħÛĮ":9052,"ĠPassport":9053,".âĢı":9054,"29":9055,"96":9056,"AL":9057,"MA":9058,"du":9059,"ear":9060,"hk":9061,"kh":9062,"lu":9063,"ms":9064,"mad":9065,"na":9066,"peg":9067,"sy":9068,"yndro":9069,"Ġz":9070,"ĠØ§Ø¯ÛĮ":9071,"Ġar":9072,"ÛĮÛĮØ¯":9073,"ÛĮÛĮØ±":9074,"Ø±ÙĬÙĨ":9075,"ĠÙ¢":9076,"ÙĨØ§Ø¬":9077,"ÙĩØ§ÙĦ":9078,"Ø¯ÙĪØ±Ùĩ":9079,"ÙĪØ¨Ùĩ":9080,"ØªÙģ":9081,"ØªØ§ÛĮÛĮ":9082,"Ú©ÙĪÙĩ":9083,"ÙĦÛĮÙĨÚ©":9084,"ÙĦÛĮÙĨÚ¯":9085,"ĠÙħØ²Ø±":9086,"ĠÙħÙĨØ¯Ø§ÙĨ":9087,"Ø§ÛĮÙĨØ¯ÛĮ":9088,"ĠØ¯ÙĪØ±ÛĮ":9089,"ĠØ¯ÙĦÛĮÙĦÛĮ":9090,"ĠØ¯Ø§ÙĪØ±Ø§ÙĨ":9091,"Ø³Ø§Ø±ÛĮ":9092,"Ø³Ø§ÛĮÙĩ":9093,"Ø³Ø§Ø¨ÙĤÙĩ":9094,"Ø´Ø§Ø¨":9095,"ĠÚ©Ø§":9096,"ĠÚ©Ù¾":9097,"ĠÚ©Ø«":9098,"ĠÚ©Ø§Ù¾":9099,"ĠÚ©Ø§Ø´ÛĮ":9100,"ĠÚ©Ø¨ÛĮØ±":9101,"Ø§Ø±Ø²ÛĮ":9102,"Ø¨ÙĪÙħ":9103,"Ø¨ÙĪØ¯ÛĮ":9104,"ĠØªÙĨÛĮ":9105,"ĠØªØ§ÛĮÙħ":9106,"ÙģØ±ÛĮ":9107,"ĠÙĨØ³Ø¨":9108,"ĠØ¯Ø±Ø¢ÙĪØ±Ø¯":9109,"ĠØ³ÙĢ":9110,"ĠØ³ÙĨÛĮÙĨ":9111,"ĠØ³Ø§ØŃÙĦ":9112,"ĠØ³ÙĦÙĪÙĦÛĮ":9113,"ĠØ´ÙĪØ´":9114,"ĠØ¢Ø±Ø¯":9115,"ĠØ¢Ø³ØªØ§ÙĨ":9116,"ÙĤØ·":9117,"âĢĮ:":9118,"Ø¹ÛĮÙĨ":9119,"Ø§Ø¯Ùģ":9120,"ĠÙ¾Ø§Ø±ÛĮ":9121,"ĠÙ¾ÙĦØ§ÙĨ":9122,"ĠØ®ÛĮØ±Ùĩ":9123,"Ø¬Ú©":9124,"ĠÙħÛĮØª":9125,"ĠÙħÛĮØ±Ùħ":9126,"ĠÙħÛĮÚ¯ÛĮØ±Ø¯":9127,"ĠÙħÛĮØªÙĪÙĨ":9128,"ĠÙħÛĮÚ¯Ø±Ø¯Ø¯":9129,"ĠÙħÛĮÚ¯ÙĨ":9130,"ĠØ§Ø³Ú©ÙĨ":9131,"ĠØ§ÛĮÙĦÛĮ":9132,"ÛĮØ¯Ø±":9133,"Ø³ØªÙĨ":9134,"ĠÙģÛĮØª":9135,"ĠÙģØ§ÙħØ§Ø±Øª":9136,"ĠØ¨Ø±Ø¢ÙĪØ±Ø¯":9137,"ĠØ¹ÙĤÙĦ":9138,"ØŃØ§ÙĨ":9139,"ØŃÛĮØŃ":9140,"ĠÚ¯ÙħØ§ÙĨ":9141,"ĠÚ¯Ø§Ø±Ø§ÙĨØªÛĮ":9142,"ĠØ¬Øº":9143,"ĠØ¬Ø§ÙĦØ¨ÛĮ":9144,"ĠØ§ÛĮÙĨÙĩ":9145,"ĠØŃØ´":9146,"ĠØŃØ§Øª":9147,"ĠØŃØ§ÙģØ¸":9148,"ĠØŃÙĦÙĪØ§":9149,"ĠÙĤØ§Ø±":9150,"ĠÙĤÙģ":9151,"ĠÙĤØ§Ø¬":9152,"ĠÙĤØ²ÙĦ":9153,"ĠØ²Ø§Ø±":9154,"ĠØ§ÙĨØ´Ø§Ø¡":9155,"ÙģØªÚ¯ÛĮ":9156,"ĠØ¯Ø§ÙĨØ§Ú©Ø¯Ùĩ":9157,"ĠÙĩÙħÙĬÙĨ":9158,"Ø¶ÙĪØ¹":9159,"ØªØ±Ø§Ø³Øª":9160,"Ø±Ø§ÙĨÙĬ":9161,"ĠÙĦÙĨ":9162,"ĠÙĦÚ¯ÙĨ":9163,"ĠÙĦØ´Ú©Ø±":9164,"ĠØµØ¹ÙĪØ¯ÛĮ":9165,"Ú©ÛĮÙĪ":9166,"ĠØ·Ø§ÙĦØ¨":9167,"ĠØ·Ø¹Ùħ":9168,"ĠÙħÙĪØ¸":9169,"ĠÙħÙĪØ§Ø¶Ø¹":9170,"ĠÚ©Ø§Ø±ÙĩØ§ÛĮÛĮ":9171,"ĠÚ©Ø§Ø±Ø¢Ùħ":9172,"ĠÚ©Ø§Ø±ÙĪÙģ":9173,"Ø¸Ø§Øª":9174,"ĠÛĮÚ©Ø¨Ø§Ø±":9175,"ĠØ®ÙĪØ¯ØªÙĪÙĨ":9176,"ĠØ§Ø±Ú¯":9177,"ĠØ§Ø±Ø§Ø¯Ùĩ":9178,"ĠØ¨ÛĮØ§Ø¨":9179,"ĠØ¨ÛĮÚ¯Ø§ÙĨÙĩ":9180,"ĠØ¨Ø§Ø´ÛĮ":9181,"ĠÙħØ±Ø§Ø¯ÛĮ":9182,"ĠÙħØ±Ø§ØªØ¨":9183,"ĠÙħØ¹Ø§Ø±Ùģ":9184,"ĠÙħØ¯Ø§ÙĦ":9185,"ĠÙħØ¯Ø§ØŃ":9186,"ĠÙħØ´Øª":9187,"Ú©ÙĨØªØ±ÙĦ":9188,"ĠØ§ÙģØ´":9189,"ĠÙħØªØ®":9190,"Ø¢Ø²":9191,"ĠØ³Ø±Ø§ÛĮ":9192,"ĠØ±ÙĪÚ©Ø´":9193,"ĠØ±ÙĪÙħÛĮØ²ÛĮ":9194,"ĠØºÙĬ":9195,"ĠØºÙĨÛĮ":9196,"Ø¯Ø±ØµØ¯":9197,"ĠØ³Ø§ÙĦÚ¯Ø±Ø¯":9198,"ĠÙĤØ±Ø¶":9199,"ĠØ¯ÙĪÛĮØ¯":9200,"ĠØ¢ÙħÙĪØ²Ø´Ú©Ø¯Ùĩ":9201,"ĠÙĨØ¸Ø±Ùħ":9202,"ĠÂ©":9203,"ĠÙħÙĩÙĦØª":9204,"ĠÚ©ÙħÚ©ÛĮ":9205,"ĠØ³ÛĮÚ¯Ø§Ø±":9206,"ĠÚ¯ÙĦÙĪ":9207,"ĠÚ¯ÙĦÙĪÙĦÙĩ":9208,"ĠÚ¯ÙĦÚĨÛĮÙĨÛĮ":9209,"ĠØ¬ÙħØ§ÙĦ":9210,"ĠØ³ÙĪÙ¾Ø±":9211,"Ø±Ø³Ø§ÙĨ":9212,"ĠØªØ¹ÙĤÛĮØ¨":9213,"ĠØ±Ø³ÙħÛĮØª":9214,"ĠØ±Ø³Ø§ÙĨØ¯ÙĨ":9215,"ĠØ·Ø±ÙĤ":9216,"ĠØ±ÙĪÛĮØ§ÛĮ":9217,"ĠØªÙħØ±ÙĬÙĨ":9218,"ĠÙħØ±Ø¯ÛĮ":9219,"ĠÙĨÙĤØ´ÛĮ":9220,"ÙĢØª":9221,"ÙĢØ·ÙĦØ§ØŃ":9222,"ÙĪØªØ§":9223,"ĠØ§ÙĪØ§ÛĮÙĦ":9224,"ĠÙĨØ´ÙĪÙĨØ¯":9225,"ĠØ§ÙĤØ¯Ø§ÙħÛĮ":9226,"ĠØ¨Ø§ÙĦÚ¯Ø±Ø¯":9227,"ĠØ¨Ø§ÙĦØ§ØªØ±ÛĮ":9228,"ĠØ¨Ø¹Ø¶Ø§":9229,"ÙģÛĮØ³":9230,"ĠØŃØ§ÙĦØªÛĮ":9231,"ĠØ´ÛĮØ±ÛĮÙĨÚ¯":9232,"Ø®ÙĪØ§Ø³ØªÛĮ":9233,"ĠØ±ÛĮÚ¯":9234,"ĠØ§ØŃÙĪØ§ÙĦ":9235,"ĠÙ¾Ø±ÙĨØ¯Ùĩ":9236,"ĠØ¨Ø§Ø±Ø´":9237,"Ú©Ø±Ø¯Ùĩ":9238,"ĠØ§ØªÙĪÚ©":9239,"ance":9240,"ĠØ´Ø¨Ø§ÛĮ":9241,"ĠÙĩÛĮÙĪÙĦØ§":9242,"ĠÙĩÛĮØ£Øª":9243,"ĠÙĨØ³Ø¨ÛĮ":9244,"erlin":9245,"ĠÙĨÙĪØ§Ø²":9246,"Ø§ØºÙĩ":9247,"ĠØ°ÙĥØ±":9248,"ĠØ¢Ø±Ø²ÙĪ":9249,"ĠSer":9250,"Ø§ÙĪÙĬ":9251,"ĠÙĨØ¯Ø§Ø¯Ùĩ":9252,"ĠØŃØ¯Ø³":9253,"ĠAm":9254,"ĠØ¯ÙĦØª":9255,"ĠØ®ÛĮØ§Ø·ÛĮ":9256,"ĠÛ²Û¶":9257,"ĠØ§Ø³ØªØ§ÙĨØ¨ÙĪÙĦÛĮ":9258,"ĠÙħØ¯ÙĦÙĩØ§ÛĮ":9259,"ĠØ®Ø§Ø±ÙĤ":9260,"ĠØ³Ù¾Ø§Ø³":9261,"ĠMo":9262,"ĠMAR":9263,"ĠØŃÙħØ²Ùĩ":9264,"ĠDev":9265,"ĠDriv":9266,"ĠØ®ÙĪØ§ÙĩØ±":9267,"ĠÙĨÙĪØ´ÛĮØ¯ÙĨÛĮ":9268,"ĠCFT":9269,"ĠØ³ÙĦÙħØ§ÙĨ":9270,"Ú¯Ø±Ø¯Ø´":9271,"ĠÙĩØ¯Ø³Øª":9272,"ĠÚ©ÙĪØ¯Ú©Ø§ÙĨÙĩ":9273,"ens":9274,"ĠÚĨØ´ÙħØ§Øª":9275,"ĠØ§Ø¨ØªÚ©Ø§Ø±":9276,"Ġ55":9277,"ĠBu":9278,"ĠÚĺÙĦ":9279,"ĠÚĺÙĪØ±ÙĨ":9280,"ĠØ¢Ø®Ùĩ":9281,"ÙģÙĤØ·":9282,"ĠÙħÙģØ§Ø¯":9283,"ĠØ´Ú©Ø§ÛĮØ§Øª":9284,"ĠØ´ÙĪØ±Ø§ÙĬ":9285,"ĠÙħØŃØªÙĪØ§ÛĮÛĮ":9286,"Ø¬Ø§ÙĨØ¨Ùĩ":9287,"ĠÙĪØ³Ø¹Øª":9288,"ĠÙĨØ®Ø¨Ùĩ":9289,"ĠØ¬Ø°Ø§Ø¨ÛĮ":9290,"ĠØ®ÙĪØ§ÙĨØ¯":9291,"ĠØ®ÙĪØ§ÙĨØ¯ÙĨÛĮ":9292,"ĠØ¯Ø±ÛĮØ§ÙģØªÛĮ":9293,"ĠGro":9294,"ĠGIF":9295,"ĠØªØ£ÛĮÛĮØ¯":9296,"Ø¢ÙħØ¯Ùĩ":9297,"ĠÚ¯ÙĪØ§ÙĩÛĮ":9298,"ĠØ´Ú©ÙĦØ§Øª":9299,"ĠÙ¾ÙĪØ´ÛĮØ¯Ùĩ":9300,"Ø¹Ú©Ø³ÙĩØ§ÛĮ":9301,"ĠÙ¾ÙĬØ§Ùħ":9302,"ÙĦÙĬÙĦ":9303,"ĠÙĤØ¨Ø§Ø¯":9304,"ĠØŃÚ©ÛĮÙħ":9305,"ĠÙĨØ¨Ø§ÙĬØ¯":9306,"ĠØ®Ø±Ø§Ø¨ÛĮ":9307,"ĠÛ±Û³Û¹Û±":9308,"ĠÛ±Û³Û¹Û²":9309,"ĠØ®ÙĪØ§Ø¨ÛĮØ¯ÙĨ":9310,"ĠØ¨Ø³ØªØ±ÛĮ":9311,"ower":9312,"Ø§ÙģØªØ¯":9313,"Ġcs":9314,"Ú¯Ø°Ø§Ø±ÙĨØ¯":9315,"ĠÙħØ²Ø§Ø¬":9316,"Ø§Ø¦ÛĮØ§ÙĨ":9317,"ĠÙ¾ÙĦÛĮØ³ÛĮ":9318,"ĠØªÙĦÙģØ¸":9319,"Ġbts":9320,"ĠØ¨ÙĬØ´":9321,"ĠØ¢ÙĪØ±Ø¯ÙĨØ¯":9322,"ĠØ´ÙĨØ§Ø³ÙĬ":9323,"ĠØ¹ÙħÙĦÛĮØ§ØªÛĮ":9324,"ĠÙħÚ¯Ø§Ø¨":9325,"ĠØ¯ÙĤÛĮÙĤÛĮ":9326,"ĠØ¬Ø¯Ø§ÛĮÛĮ":9327,"ĠÙĪØŃÛĮ":9328,"ett":9329,"ĠØŃÛĮØ§Ø·":9330,"ĠØ¯Ø³ØªÙĪØ±Ø§Øª":9331,"ĠØ®ÙĪØ±Ø¯Ú¯ÛĮ":9332,"ĠØ¹ÙĤÛĮØ¯Ùĩ":9333,"ĠØµÙĪØ±ØªÛĮÚ©Ùĩ":9334,"ĠÛ·Û°":9335,"Ø´ÙĪÛĮØ¯":9336,"ĠØ§ÙĨØ¯ÛĮØ´Ú©Ø¯Ùĩ":9337,"ĠØ¢Ø±Ø§ÛĮØ´Ú¯Ø±":9338,"Ø³ÙĦØ·":9339,"ĠÙĨØ§Ø±Ú¯ÛĮÙĦ":9340,"Ø§Ø°ÙĦ":9341,"Ú©Ø±ÛĮÙħÛĮ":9342,"ĠÙĤÛĮØ§ÙħØª":9343,"ĠÙħÙĪÙĦÙģ":9344,"ĠÙħÙĤØ¯ÙħÙĩ":9345,"ĠÙħØ§ÙħÙĪØ±Ø§ÙĨ":9346,"ĠJAC":9347,"ĠÙĨØ¨ÙĪØ¯ÙĨ":9348,"ĠÙĨÙĪØ´ØªØ§Ø±":9349,"ĠØ®ÙĦØ§ÙĤÙĬØª":9350,"Ù¾Ø°ÛĮØ±ÛĮ":9351,"ĠØ¹Ø²ÛĮØ²Ùħ":9352,"Ø¨Ø¯ÙĪÙĨ":9353,"ĠØ±ÙĪÛĮØ¯Ø§Ø¯ÙĩØ§":9354,"ĠØ¨Ú¯Ø°Ø§Ø±ÙĨØ¯":9355,"ĠØªÚ©ÙĨÛĮÚ©ÙĩØ§ÛĮ":9356,"ave":9357,"ØªØºÛĮÛĮØ±":9358,"ĠØ¯ÙĬÚ¯Ø±ÙĬ":9359,"ign":9360,"ĠÙħØ°Ø§Ú©Ø±Ø§Øª":9361,"ĠÙħÙĨØŃÙĨÛĮ":9362,"ĠØ§Ø®ØªÙĦØ§ÙģØ§Øª":9363,"ĠØªØ§ÙĨÚ©":9364,"ĠØ¯Ø§Ø¦Ø±Ùĩ":9365,"ĠÛĮÙĪÙĨØ§ÙĨ":9366,"Ù¾ÙĪØ±ØªØ§ÙĦ":9367,"ĠØ§Ø³ÙĦØ§ÛĮÙħ":9368,"ĠÙħÙĨØµÙĪØ¨":9369,"ĠØªØ¦ÙĪØ±ÛĮ":9370,"ĠÙĨØ¯Ø§Ø´ØªÙĨØ¯":9371,"ĠØªÙĪØµÛĮÙģÛĮ":9372,"ĠSpeed":9373,"ĠØªÙģØ³ÙĬØ±":9374,"ĠØ§Ø³ÙĨÙ¾":9375,"Ø¹ÙĦØ§Ø¦Ùħ":9376,"ÙħØ¯ÛĮØ±Ú©ÙĦ":9377,"ĠØ¨Ø¯ÛĮÙĩÛĮ":9378,"ĠÚ¯ÛĮØªØ§Ø±":9379,"ĠØ§ÙĨØ²Ø§ÙĦ":9380,"ĠÚĺØ§ÙĨÙĪÛĮÙĩ":9381,"Ø³Ø§ÙħØ§ÙĨÙĩ":9382,"âĢ¦âĢ¦âĢ¦âĢ¦":9383,"ĠÙĨØ²ÙĪÙĦ":9384,"ĠÙĨØ²ÙĪÙĦÛĮ":9385,"ĠØ§Ø¹Ø·Ø§ÛĮ":9386,"ĠÙĨØ¹ÙħØª":9387,"ĠØ¯ÛĮÙ¾ÙĦÙħØ§Ø³ÛĮ":9388,"ĠØ¬Ø§Ø³ÙĪØ³ÛĮ":9389,"ĠÙħØ³ÙĦÙħØ§":9390,"ĠØ´ÙĥÙĦ":9391,"ĠØ´ÙĬÙĪÙĩ":9392,"ĠØ¢ÙĦÛĮØ§Úĺ":9393,"ĠÙĤØ¶ÛĮÙĩ":9394,"ĠØ§Ø¹Ø¶Ø§Ø¡":9395,"ĠØ§Ø¦ÙħÙĩ":9396,"ĠÙĨØ±ÛĮÙħØ§ÙĨÛĮ":9397,"ĠØªØºÙĬÙĬØ±Ø§Øª":9398,"ĠØªØŃÙĤÙĬÙĤØ§Øª":9399,"09362022208":9400,"ĠØ±Ø®Ø¯Ø§Ø¯ÙĩØ§ÛĮ":9401,"ĠÙ¾Ú©ÛĮÙĨÚ¯":9402,"ÙħÙĨØ¸ÙĪØ±":9403,"ĠØ¨Ø¹Ø¶ÙĬ":9404,"ĠÚ©ÙĪÙ¾ØªØ±":9405,"ØªÙĪØ¶ÛĮØŃØ§Øª":9406,"ÙħØŃÙħØ¯Ø±Ø¶Ø§":9407,"ĠØ¨Ø±ÛĮØªØ§ÙĨÛĮØ§":9408,"Ø¯ÙĪØ¨ÙĦÙĩ":9409,"ĠÙĤÙħÛĮØ´ÛĮ":9410,"ĠØ·Ø§ÙĦØ¨Ø§ÙĨ":9411,"ĠØ¯ÙĩÙĦØ±Ø§ÙĨ":9412,"ĠÙħØ§Ø±ØªÛĮÙĨ":9413,"ĠØ¶Ø§ÛĮØ¹Ø§Øª":9414,"ĠØ¹ÙĨÚ©Ø¨ÙĪØªÛĮ":9415,"ĠØ¨ÙģØ±ÙħØ§ÛĮÛĮØ¯":9416,"ĠÙĪÛĮØ¯Ø¦ÙĪÛĮÛĮ":9417,"yndrome":9418,"ĠÙħØ²Ø±Ø¹Ùĩ":9419,"ĠÚ©Ø§Ø±ÙĪÙģÙĨØ§ÙĪØ±ÛĮ":9420,"ĠMARC":9421,")ØĽ":9422,"200":9423,":âĢĮ":9424,"DL":9425,"OR":9426,"download":9427,"iew":9428,"lish":9429,"px":9430,"qu":9431,"sl":9432,"Ðº":9433,"Ù¢":9434,"ĠÛĮÙĨ":9435,"Ġan":9436,"Ġis":9437,"Ġ**":9438,"ĠÑģ":9439,"ÛĮØ§Ø¨":9440,"Ø±Ø³Øª":9441,"Ø±Úĺ":9442,"ÙĨØ§Ø¨":9443,"ÙĨÚ©Ø±Ø¯":9444,"Ø¯Ø¹":9445,"Ø¯ÙĦÙħ":9446,"ÙĪØ§Ø³ØªÙĩ":9447,"ÙħÙĬÙĨ":9448,"Ú©Ø§Ø±Ø¯":9449,"ĠØ¨Ø§Ø¯ÛĮ":9450,"ĠØ¨Ø¬Ø§ÛĮ":9451,"ĠÙħÚ©Ùĩ":9452,"ĠÙħÚĺÙĩ":9453,"ĠÙħØ§ÛĮÙĩ":9454,"ĠÙħØ§Ø±Ø³":9455,"ĠØ¯Ø§ÛĮÙĨ":9456,"ĠØ¯ÙĦØ¨":9457,"Ø³Ø§Ø¨":9458,"ĠÙĪØ¯":9459,"ĠÙĪÙĦÙĪ":9460,"ĠÚ©ÙĦÙĩ":9461,"Ø§Ø±ÙĨÚ¯":9462,"ĠØªÙĦÙĩ":9463,"ĠØªÚ©Ø³":9464,"ĠØªÛĮÙħÛĮ":9465,"ĠØªØ³Ú©":9466,"ÙģØ§ØµÙĦÙĩ":9467,"ĠØ±Ø¬Ø§ÛĮÛĮ":9468,"ĠÙĨÛĮÙĨ":9469,"ĠÙĨØ·":9470,"ĠÙĨØ§ÙĤ":9471,"ĠÙĨØµÛĮ":9472,"ĠÙĨØ§ÛĮØ¨":9473,"ĠÙĩÙĦÛĮ":9474,"ĠÙĩÙĪÛĮ":9475,"ĠØ³ØªÙħ":9476,"ĠØ´ØµØª":9477,"ĠØ¢ÙħÛĮ":9478,"Ø¹Ø±ÙģÛĮ":9479,"Ø¹ÙĦÙĪÙħ":9480,"ĠØ¨ÙĩØ§Ø±Ùĩ":9481,"ĠØ¨ÙĩØ¬Øª":9482,"ĠØ¨ÙĩØ¨ÙĪØ¯ÛĮ":9483,"Ø±ÛĮØ´":9484,"ĠÙ¾Ø±Ùģ":9485,"ĠÙ¾Ø§ÛĮØ´":9486,"ĠÙ¾Ø§Ø±Øª":9487,"ĠÙ¾ØªØ§ÙĨ":9488,"ĠÙ¾ÙħÙ¾":9489,"ĠØ®ÙĨØ¯":9490,"ĠØ®ÙĦÙĪ":9491,"Ø¬Ø²Ùĩ":9492,"ĠØ§Ø²Ø§Ø¯":9493,"ĠÙħÛĮÙĨØ§":9494,"ĠÙħÛĮØ´Ùħ":9495,"ĠØ§Ø³ÙĩØ§ÙĦ":9496,"ÙĪØ±Ùħ":9497,"ÙĬØŃ":9498,"ÙĬØµ":9499,"ÙĬÙĦÙĩ":9500,"ÙĬØ¬Ùĩ":9501,"Ø®Ø±Ùĩ":9502,"ĠÙģÙĩ":9503,"ĠØ¨Ø±ØªØ±ÛĮ":9504,"ĠØ¨Ø±Ø§ØŃØªÛĮ":9505,"ØŃØ§Ø¯":9506,"ØŃÙħØª":9507,"ĠÚ¯ÙĪÛĮÛĮ":9508,"ĠÚ¯Ø±Ø§ÙĨÛĮ":9509,"ĠØ¬ÙĪÙĦØ§ÛĮ":9510,"Ø§Ø¨ÛĮØ±":9511,"ĠØŃØ§Ú©ÛĮ":9512,"ĠÙĤÛĮØ¯":9513,"ĠÙĤØ§ÚĨ":9514,"ĠÙĤÙĪØ·ÛĮ":9515,"ĠØ²ÙĨØ§":9516,"Ù¾Ø§ÛĮÛĮ":9517,"Ù¾Ø§Ø±Ú©":9518,"Ù¾Ø§Ø±ÚĨ":9519,"ÙĩØ§ÛĮØ´Ø§ÙĨ":9520,"ÙĩØ§ÛĮØªØ§ÙĨ":9521,"ĠØ§ÙĨÚ©Ø§Ø±":9522,"ĠÙĩÙħØ¬ÙĨØ³":9523,"Ø¶Ø§Ø¡":9524,"ÙĪØ²Ø§Ø±Øª":9525,"ÙĨÚ¯Ø§Ùĩ":9526,"Ø³ÛĮØ³Ø§Øª":9527,"ĠØ¨Ø±Ø§ÛĮØ´":9528,"ĠÙĦØ¹":9529,"ĠÙĦØ§ÙħÛĮÙĨ":9530,"ĠØ§ÙħØ§Ø±Ø§Øª":9531,"ĠØµØ¯ÛĮ":9532,"ĠØµÙĪØª":9533,"ĠØµØ¯ÙĩØ§":9534,"ĠØµØ¹ÙĪØ¯":9535,"ĠÚ©ÙĨÛĮÙĨ":9536,"Ú©ÛĮÙĦØ§Øª":9537,"ĠØ·ÙĪÙĦÛĮ":9538,"ĠØ·Ø§Ø¹ÙĪÙĨ":9539,"ĠÙħÙĪØ§Ø²":9540,"ĠÚ©Ø§Ø±Ú¯Ø±":9541,"ĠÚ©Ø§Ø±Ú¯Ø±Ø¯":9542,"ĠÚ©Ø§Ø±Ø¢ÙħØ¯":9543,"ĠÚ©Ø§Ø±ÙģØ±Ùħ":9544,"ÚĺÙĪÙĦ":9545,"ĠØ¯Ø§Ø±Ø§ÛĮÛĮ":9546,"Ú¯Ø±Ø§ÛĮÛĮ":9547,"ĠØ§Ø±Ø§Ú©":9548,"ĠØ¨ÛĮÚ¯ÛĮ":9549,"ĠØ¨ÛĮØ¬Ø§Ø±":9550,"ÙĨÛĮØ§Ø²":9551,"ÙĨÛĮÙĪØ²":9552,"ĠÙģØ±Ø¢ÙĪØ±Ø¯Ùĩ":9553,"Ø¨ÛĮØ´":9554,"ĠÙħØ¹Ø¶":9555,"ĠÙħØ¹Ø¯ÙĨÛĮ":9556,"ĠÙħØ¹Ø¬Ø²Ùĩ":9557,"ĠØ´ÙħØ±Ø¯Ùĩ":9558,"ĠÙ¾ÛĮØ§Ø²":9559,"ĠÙħØ¯Ø¹ÛĮ":9560,"ĠÙħØ´Ùĩ":9561,"ĠÙħØ´Ø±ÙĤ":9562,"ÙĩÙĨÚ¯Ø§Ùħ":9563,"ĠÙħØªÙħØ§ÛĮ":9564,"ĠØ¯Ø³ØªØ§ÙĨ":9565,"ĠØ´Ø¯ÛĮÙħ":9566,"ĠØ´Ø¯Ú¯Ø§ÙĨ":9567,"Ø¢ÙĦØ§Øª":9568,"ĠØ³Ø±ÙħØ§":9569,"ĠØ±ÙĪØ³Ø§ÛĮ":9570,"Ø²ÛĮØ¨Ø§ÛĮÛĮ":9571,"ĠØºØ¨Ø§Ø±":9572,"ĠØºØ§ÙĦØ¨":9573,"ĠØºØ²Ùĩ":9574,"ĠØ§ÛĮØ±Ø§ÙĨØ³ÙĦ":9575,"ĠÙĤØ±Ø¨Ø§ÙĨ":9576,"ĠØ¢ÙĩÙĨÚ¯ÙĩØ§ÛĮ":9577,"ĠÙħØ³ÙĦØ·":9578,"ĠØ¯ÙĩÙĬØ¯":9579,"ĠØ¯ÙĩÙĤØ§ÙĨ":9580,"ĠØ´Ø±Ùħ":9581,"ĠØ¹ÙħÙĪ":9582,"ĠÚ¯Ø±Ø§":9583,"ĠÚ¯Ø±Ø§ÙģÛĮÚ©ÛĮ":9584,"ĠØ²ÛĮØ±ÛĮÙĨ":9585,"ĠØ²ÛĮØ³ØªÛĮ":9586,"ÙĥØ³":9587,"Ø§Ø¦Ø±":9588,"ĠØ§ØµÙĪÙĦÛĮ":9589,"ĠØ³ÙĪØ¦":9590,"ĠØ³ÙĪÚ¯ÙĨØ¯":9591,"ĠØªØ¹Ø·ÛĮÙĦ":9592,"ĠØ±Ø³Ø§ÙĦØª":9593,"ĠØ¢Ø²Ø§Ø¯Ú¯Ø§ÙĨ":9594,"ĠÙģÛĮØ³":9595,"Â»ØĽ":9596,"ĠØ±ÙĪÛĮØ§ÛĮÛĮ":9597,"ĠØªÙħØ¯ÙĨ":9598,"ÙĪØªÙĨ":9599,"ĠØ§ÙĨØªØ²":9600,"ĠÙĨØ§ÙħÛĮ":9601,"Ø¨Ø§Ø±Ø§ÙĨ":9602,"ĠØ§ÙĨØ¯Ú©ÛĮ":9603,"ĠØ§ÙĤÙĦØ§Ùħ":9604,"ĠØ´ÙĩØ±Ú©ÛĮ":9605,"ĠØ³Ø§Ø²ÙħØ§ÙĨÙĩØ§ÛĮÛĮ":9606,"Ø¯Ø§ÙĨÙĨØ¯":9607,"Ú©Ø§Ø±Ú¯Ø§Ùĩ":9608,"ĠØªÙĨØ¨ÛĮÙĩ":9609,"Ø®ÙĪØ§Ùħ":9610,"ĠØ¯Ø§Ø¯Ø³ØªØ§ÙĨ":9611,"ĠØ§ÙģØ²ÙĪÙĨ":9612,"ĠØ±ÛĮØ®ØªÙĩ":9613,"Ø¯Ø§Ø±ÙĬ":9614,"ĠÙħØµÙĦØŃ":9615,"ĠÙħØµÙĪØ¨Ùĩ":9616,"Ø´ÙħØ§Ø±":9617,"ĠØ´Ø±Ú©ØªÙĩØ§ÛĮ":9618,"Ø¨Ø±Ø¯Ø§Ø±":9619,"ĠØªØ´Ú©ÛĮÙĦØ§Øª":9620,"Ø±ÙĪØ²ÙĨØ§ÙħÙĩ":9621,"Ġ32":9622,"ony":9623,"ĠØ°Ùĩ":9624,"ĠÙħØ«Ø§ÙĨÙĩ":9625,"Ø§ÙĪÙĬØ±":9626,"ĠÙģØ¹Ø§ÙĦØ§ÙĨ":9627,"ĠØ·Ø±ØŃÛĮ":9628,"ĠØªÙĩØ±Ø§ÙĨÛĮ":9629,"ĠØŃØ¯ÙĪØ¯ÛĮ":9630,"ĠÚ©ÙĪØ¨ÛĮ":9631,"ĠØ®ÛĮØ§ÙĦ":9632,"ĠØ®ÛĮØ§ÙĨØª":9633,"ĠØ®Ø·Ùī":9634,"ĠØ®Ø·Ø±Ø§Øª":9635,"ĠÙħØ³ØªØŃÚ©Ùħ":9636,"ĠØªØ¨ØµØ±Ùĩ":9637,"ĠÙħØªÙĨÙĪØ¹ÛĮ":9638,"ĠÚ©Ø§ÙħÙ¾":9639,"ĠØªÚ©Ø³Øª":9640,"ĠØªÚ©ÙĨÛĮÚ©ÛĮ":9641,"ĠÚ©ÛĮÙģÛĮØªDownload":9642,"Ø¯ÙĨØ¨Ø§ÙĦ":9643,"ÙĳÙĲ":9644,"ĠØ³Ù¾Ùĩ":9645,"ĠMon":9646,"ĠØ±ÙģØªØ§Ø±ÛĮ":9647,"ĠÚ©Ø§ÙĨØªØ±":9648,"ĠDer":9649,"ĠØ®ÙĪØ§ÙĩÙħ":9650,"ĠØ¢ÛĮÙ¾Ø¯":9651,"ĠÙħÙħÙĥÙĨ":9652,"Ú¯Ø±Ø¯ÙĪÙĨ":9653,"ĠÚĨØ´ÙħÚ¯ÛĮØ±ÛĮ":9654,"ĠÙģÙĦÚ©":9655,"ĠØ§Ø«Ø±ÛĮ":9656,"ĠØ®Ø§ØµÛĮØª":9657,"ĠØ³Ø§ÛĮØ¨Ø±":9658,"atch":9659,"ĠÚĨÙĩØ§Ø±ÚĨÙĪØ¨":9660,"ĠTh":9661,"ĠTr":9662,"Ø¶Ø§ÛĮØªÛĮ":9663,"ĠÙħÙĨØªØ¸":9664,"ĠÙħÙĨØªØ®Ø¨":9665,"ĠØŃÙĦØ§ÙĦ":9666,"ĠØ³ÙģØ§Ø±Øª":9667,"ĠÙĨØµØ±ØªÛĮ":9668,"ĠIm":9669,"ĠÙĪØ§ØŃØ¯ÙĩØ§":9670,"ĠØªØ®ØªÙĩ":9671,"ĠØªØ®ÙħÛĮÙĨ":9672,"ĠÙĨØ®ÙĪØ¯":9673,"ĠØ¯ÙģØ§ØªØ±":9674,"ĠÚ©Ø±ÙħÛĮ":9675,"ĠØ³Ø§ÙħØ±Ø§":9676,"ĠØªØ£Ø³ÛĮØ³Ø§Øª":9677,"ĠØ§ÙĨØ³Ø§ÙĨÙĩØ§":9678,"Ø®ÙĪØ§ÙĩÙħ":9679,"Ø¢ÙħØ±ÛĮÚ©Ø§":9680,"ĠØ¯ÙĪØ³ØªØ§ÙĨÙĩ":9681,"ĠØ§ÙĨØªÙĤØ§Ùħ":9682,"Ù¾Ø±Ø³Øª":9683,"ĠØ®ÙĪØ´Ø¨Ø®ØªØ§ÙĨÙĩ":9684,"ÙħØŃÛĮØ·":9685,"ĠØ¨Ø±ÛĮØ¬":9686,"ĠÙħØ³ØªÙĤÛĮÙħØ§":9687,"ĠØªØ§Ø«ÙĬØ±":9688,"ĠNiss":9689,"ĠØ±ÙģØ§ÙĩÛĮ":9690,"ĠÙħØ¹ÙĨØ§ÛĮÛĮ":9691,"ĠÙħØ¹ÙĨØ§ÙĬ":9692,"ĠÛ±Û³Û¹Û´":9693,"ĠLED":9694,"ĠÙĨØŃÙĪ":9695,"ĠÙ¾ÙĦÚ©":9696,"ĠÛ³Û°Û°":9697,"ĠØŃØ§ÙĦÛĮÚ©Ùĩ":9698,"Ġhp":9699,"Ġby":9700,"ĠÙħØ§ÙĦÛĮØ§Øª":9701,"ĠØ¨Ø§Ø¯Ùħ":9702,"ĠØ§Ø³Ù¾Ø±ÛĮ":9703,"ĠÙĪØŃØ´Øª":9704,"ĠÙĪØŃØ´ÛĮ":9705,"ĠØªØ¨Ø±ÛĮØ²ÛĮ":9706,"ĠÙħØªØ®ØµØµÛĮÙĨ":9707,"ĠWeb":9708,"ĠWord":9709,"ĠØ¯Ø§Ø±ÙĪØ®Ø§ÙĨÙĩ":9710,"ĠØ§ÙħÛĮØ±Ø§ÙĦÙħ":9711,"ĠÙ¾ÛĮÚĨÛĮØ¯Ú¯ÛĮ":9712,"ĠØ§ÙĨØ¯ÛĮÚ©Ø§ØªÙĪØ±":9713,"ĠÙģØ±ÙħØ§ÙĨØ¯Ø§Ø±":9714,"ĠØ¨Ø¯Ø§ÙĨÛĮÙħ":9715,"ÙĤØ¯Ø±Øª":9716,"ĠØ³Ú©ÙĪÙĦ":9717,"ĠJav":9718,"ĠØ¬Ø§ÛĮÚ¯Ø²ÛĮÙĨÛĮ":9719,"ĠÛ±Û³Û¸Û´":9720,"ĠØªØ¶Ø§Ø¯":9721,"Ø§ÙĦÙħØ«ÙĦ":9722,"ÙĬÙĤÙĬ":9723,"ĠØ³ÙĬØ§ÙĤ":9724,"ĠØ³ÙĬØ³ØªÙħ":9725,"Ø¯Ø³ØªÙĪØ±Ø§ÙĦØ¹ÙħÙĦ":9726,"ĠØ¨Ø¨ÛĮÙĨÛĮÙħ":9727,"ĠØ§ÛĮØ±Ø¬":9728,"Ù¾Ø²Ø´Ú©":9729,"ĠÙħØ¶Ø±":9730,"ĠÙĪÙģØ§Øª":9731,"ĠØ±ØŃÙħØª":9732,"ĠÙĦØºØª":9733,"Ø§Ø¬Ø±Ø§ÛĮ":9734,"ĠØ¬ÙĪØ´Ú©Ø§Ø±ÛĮ":9735,"ĠÙĬÚ©ÙĬ":9736,"ĠØ¯Ø±Ø®ØªØ§ÙĨ":9737,"ÙħÛĮÙĦÛĮØ§Ø±Ø¯":9738,"ĠÙĨØ§Ø®ÙĪØ§Ø³ØªÙĩ":9739,"ĠØªØ³Ø®ÛĮØ±":9740,"ØªØ±Ø§Ú©Ùħ":9741,"rypt":9742,"ĠØ§Ø³ÙģÙĨØ¯ÛĮ":9743,"ĠØ§Ø³ÙģÙĨØ§Ø¬":9744,"ĠÚĨØ§ÙĦÙĪØ³":9745,"ĠÙĩÙħØ³Ø±Øª":9746,"Ø²ÛĮÙĨØ³":9747,"ĠÙħØ·ÙħØ¦ÙĨØ§":9748,"ÙĤØ¨Ø§Ø¯":9749,"ĠØ§ÙģØ·Ø§Ø±ÛĮ":9750,"ĠÙħØ¨Ø§ØŃØ«Ùĩ":9751,"ĠØ¯Ø±Ø®Ø´ÙĨØ¯Ùĩ":9752,"ĠØ·Ø±Ø§ØŃØ§ÙĨ":9753,"ĠÙĩÙħØ³Ø±Ø´":9754,"ahar":9755,"ĠÙĪØ§Ø±ÛĮØ³":9756,"Ø¹Ø§ÙĪÙĨØª":9757,"ĠÚĨØ³Ø¨ÛĮØ¯Ùĩ":9758,"ĠØ¯ÙħÙĪÚ©Ø±Ø§ØªÛĮÚ©":9759,"ÙĤØ§ÙĨÙĪÙĨÛĮ":9760,"ÙħØ·Ø§ÙĦØ¨":9761,"ÙĬÙģÙĬØª":9762,"Ø§Ø³ÙĬÙĪÙĨ":9763,"ÛĮÙĨÙĪÚ©Ø³":9764,"ĠØ²Ø§Ø¦Ø±Ø§ÙĨ":9765,"NAK":9766,"ĠØ¯Ø®ØªØ±ÙĪÙĨÙĩ":9767,"ĠÙħØ³ÙĦÙħØ§ÙĨØ§ÙĨ":9768,"ĠØ§Ø«Ø±Ø¨Ø®Ø´ÛĮ":9769,"ĠÙĨØªÙĪØ§ÙĨØ³Øª":9770,"ĠØ³Ø§Ú©ÙĨ":9771,"ĠØŃÙĥÙĪÙħØª":9772,"ĠÙ¾Ø§Ø¯Ø´Ø§ÙĩØ§ÙĨ":9773,"ÙħØµØ±Ùģ":9774,"ĠÛĮØ®ÚĨØ§ÙĦ":9775,"ĠÚ©ÙĪØ«Ø±Ø§Ø³ØªØ§ÙĨ":9776,"ĠØ¨ØºÙĦ":9777,"ĠÙĨØ§Ø¯ÛĮØ¯Ùĩ":9778,"ĠØ§Ø¹Ø¶Ø§ÙĬ":9779,"ĠReza":9780,"ĠØ§ÛĮØ¯Ø¦ÙĪÙĦÙĪÚĺÛĮÚ©":9781,"Ø±ÙĪØŃØ§ÙĨÛĮ":9782,"Ø§ØµØ·ÙĦØ§ØŃØ§Øª":9783,"ĠØ¯Ú¯Ø±Ú¯ÙĪÙĨÛĮ":9784,"ĠÙħØŃÙĪØ·Ùĩ":9785,"ĠØ¨Ø§Ø²Ø±Ú¯Ø§ÙĨØ§ÙĨ":9786,"ĠØ§Ø³ØªÙĪØ¯ÛĮÙĪÛĮ":9787,"ĠØ³ÙĦØ·ÙĨØª":9788,"ĠØ¢Ø±ÙħÛĮÙĨ":9789,"ĠØŃØªÙĬ":9790,"ĠAcadem":9791,"ĠÚ©Ø¨Ø§Ø¨ÛĮ":9792,"ĠØªØ·Ø¨ÛĮÙĤ":9793,"ĠØ³Ø§Ø³ÙĪØ±ÛĮ":9794,"ĠÙĪØµÛĮØª":9795,"Ù¾ÚĺÙĪÙĩØ´":9796,"ĠÙĪÛĮÙĦØ§ÙĩØ§ÛĮ":9797,"ĠÛ±Û³Û¹Û°":9798,"ĠÙģØ¯Ø±Ø§Ø³ÛĮÙĪÙĨ":9799,"ĠÙħÙĨØ§ÙĤØµÙĩ":9800,"ĠØ¢Ø¦ÙĬÙĨ":9801,"ĠØ¬Ø±ÛĮÙħÙĩ":9802,"ĠØ§Ø³ØªÙĨØ§Ø¯":9803,"ĠStrong":9804,"ĠTABNAK":9805,"ÙħØŃØµÙĪÙĦØ§Øª":9806,"Ú¯ÙģØªØ§Ø±Ø¯Ø±ÙħØ§ÙĨÛĮ":9807,"ĠÚ©Ø§ÙĦÛĮÙģØ±ÙĨÛĮØ§":9808,"ĠØ§ÙĤØªØ¯Ø§Ø±":9809,"ĠØ¬Ø²Ø§ÛĮØ±ÛĮ":9810,"ĠÙħØ²Ø§ØŃÙħ":9811,"Ø´Ø§Ø¨ÙĪØ±":9812,"ĠÙ¾Ø§Ø±ÛĮØ³":9813,"ĠØ¬ØºØ±Ø§Ùģ":9814,"ĠÙħØªØ®ÙĦÙģ":9815,"ĠGroup":9816,"Ù¾Ø§Ø±ÚĨÚ¯ÛĮ":9817,"ĠÙħØªÙħØ§ÛĮØ²":9818,"ĠNissin":9819,"),":9820,".\"":9821,"48":9822,"58":9823,"500":9824,"EL":9825,"RE":9826,"SI":9827,"The":9828,"ber":9829,"ck":9830,"fo":9831,"les":9832,"ny":9833,"per":9834,"sh":9835,"ve":9836,"Ù£":9837,"ãĢ":9838,"Ġ.................":9839,"Ø±Ø´ØªÙĩ":9840,"Ø±ØºÙħ":9841,"ÙĨÙĪØ³":9842,"ÙĪØ¸":9843,"ÙĪØ§Ø³Øª":9844,"ØªÛĮÙħ":9845,"ØªØ§Ø¬":9846,"ÙħØ§Ø±":9847,"ÙħØ®":9848,"Ú©Ø§Ø¨":9849,"Ú©Ø±Ùĩ":9850,"Ú©Ø¨Ø§Ø±":9851,"Ú©Ø´Ø¯":9852,"ĠØ¨Ø§Ø³":9853,"ĠØ¨Ø´ÙĪØ¯":9854,"ĠØ¨ÙĦØ§Ú©":9855,"ĠØ¨ÙħØ§ÙĨÙĨØ¯":9856,"ĠØ¨Ø®ÙĪØ§Ø¨":9857,"ĠØ¨ÙĪØ¹ÙĦÛĮ":9858,"ĠÙħÚĨ":9859,"Ø§ÛĮØ§ÙĨÙĩ":9860,"ĠØ¯Ø§":9861,"ĠØ¯ÙĤ":9862,"ĠØ¯ÙĨØ¯Ùĩ":9863,"ĠØ¯ÙĪÙĨÙĩ":9864,"Ø³Ùģ":9865,"Ø³ÙģØ±":9866,"Ø³Ø¨Ø§ÙĨÙĬ":9867,"ĠÙĪÙĩ":9868,"ĠÙĪØ´":9869,"ĠÙĪØ§Ø¯Ø§Ø±":9870,"Ø´ÙħÙĩ":9871,"ĠÚ©Ø§Ùģ":9872,"ĠÚ©Ø§Ø³Ùĩ":9873,"Ø§Ø±Ø¨":9874,"Ú¯ÙģØªÙĩ":9875,"Ú¯Ø§ÙĦØ±ÛĮ":9876,"Ø¨Ø±ÛĮØ¯":9877,"ĠØªØ¯Ø§Ø±":9878,"ĠØªØ§Ø¨ÙĦ":9879,"ÙģØ§ÙĦÙĪ":9880,"Ø²ÙħØ§ÙĨÛĮ":9881,"Ø²ÙĨØ§ÙĨ":9882,"Ø²ÙħÛĮÙĨÛĮ":9883,"ĠØ±Ù¾":9884,"ĠØ±ÙĪÙĦ":9885,"ĠØ±ÙĤÛĮØ¨":9886,"ĠÙĨÙĪÙĩ":9887,"ĠÙĨÚ¯ÛĮØ±Ø¯":9888,"ĠÙĨØ¨Ø§Ø´ÙĨØ¯":9889,"Ø§ÙħÛĮØ±":9890,"ĠØ³ÙĪØ²Ø´":9891,"ĠØ³Ø§ÙĨØ¯":9892,"ĠØ³Ø§ÙĨØª":9893,"ĠØ³Ú©Ø§ÙĨØ³":9894,"ĠØ´Ø±ÛĮÚ©":9895,"ĠØ¢ÙĬ":9896,"Ø¹ÙĤ":9897,"Ø¹Ø§ÙĦÛĮ":9898,"Ø¹ÛĮÙĨÚ©":9899,"Ø¹Ø§ÙħÙĦÛĮ":9900,"Ø§ÙĦØ§Ø³ÙĦØ§Ùħ":9901,"ĠØ¨ÙĩØ´Øª":9902,"Ø±ÛĮØ¹":9903,"Ø±ÛĮØ¯Ùĩ":9904,"Ø±ÛĮÛĮØ³":9905,"ĠÙ¾ÚĨ":9906,"ĠÙ¾Úĺ":9907,"ĠÙ¾Ø§ÙĨØ¯Ø§":9908,"ĠØ®Ø¬":9909,"ĠØ®Ø´Øª":9910,"ĠØ®Ø±Ø¯Ùĩ":9911,"ĠØ§Ø²ÙħÙĪÙĨ":9912,"ĠÙħÛĮØ´Ø¯":9913,"ĠÙħÛĮÚ¯ÛĮØ±":9914,"ĠÙħÛĮØ³Ø±":9915,"ĠØ§ÛĮÙĨØ¯":9916,"ĠÙģØµÙĦÛĮ":9917,"ĠØ¨Ø±Ø§Øª":9918,"ĠØ¨Ø±Ø§ÙĤ":9919,"ĠØ¨Ø±Ú¯Ø±ÙģØªÙĩ":9920,"Ø§ÙĩÙĬ":9921,"ĠØ¹Ø§Ø±":9922,"ĠØ¹Ø°Ø§Ø¨":9923,"ĠØ§Ø³ØªÙĪØ§Ø±":9924,"ĠÚ¯Ø§ÙĪ":9925,"ĠØ¬Ø§Ø¨Ùĩ":9926,"ĠØ¬Ø§Ø±ÙĬ":9927,"ĠØ¬Ø¹Ùģ":9928,"ĠØ¬ÙĪÛĮØ§ÙĨ":9929,"ĠÚ©ÙĩÙĨ":9930,"Ø§Ø¨Ø§Ø¯":9931,"ĠÛĮÛĮ":9932,"ĠÛĮØ§ÙĦØ§ÙĨ":9933,"ĠÛĮÙĪØ±ÙĪ":9934,"Ø±ÙĪØ§Ø¨Ø·":9935,"ĠØŃØ§Ø¦":9936,"ĠØŃÙĪØµ":9937,"ĠØŃÙĪÙĦÙĩ":9938,"Ø§Ø´ÙĪÛĮÛĮ":9939,"ĠØ§ÙĪØ±ÛĮ":9940,"ĠÙĤØ¨Ø±":9941,"ĠÙĤØ§ÛĮÙĤ":9942,"ĠÙĤØ§Ø¹Ø¯":9943,"ĠØ²ÙĪØ±":9944,"Ù¾ÙĨ":9945,"Ù¾ÙĨØ¯":9946,"Ù¾ÙĪÙĦ":9947,"ĠÚĨÙħÙ¾":9948,"ĠÚĨÙĨØ§Ø±":9949,"ĠÙĩØ§ÛĮØ´Ø§ÙĨ":9950,"Ø¯ÙĩØ§ÙĬ":9951,"ĠØ¯Ø§ÙĨÛĮØ¯":9952,"ÙĪÛĮÙĪ":9953,"Ø¶Øª":9954,"Ø¶ÙħÙĨ":9955,"ĠØ¢ÙĨÙĩØ§ÛĮÛĮ":9956,"ÙĪØ²Ø§ÙĨ":9957,"ØªØ±Ú©ÛĮ":9958,"ĠÙĦÙĪÙĦ":9959,"ĠÙĦØ§Ú©":9960,"ĠÙĦØ§ÙĦÙĩ":9961,"ĠØ§ÙħÛĮ":9962,"ĠØ§ÙħØ¶Ø§":9963,"ĠØµÙĦÙĪ":9964,"ĠØ·Ø±ÛĮ":9965,"ĠÚ©Ø§Ø±ÙħÙĨØ¯":9966,"ĠÚ©Ø§Ø±Ø³Ø§Ø²":9967,"Ġ((":9968,"ĠÙħÙĨÙģ":9969,"ĠÙħÙĨØ²":9970,"ĠÙħÙĨØ§Ø¯Ùī":9971,"Ø¸Ø±Ùģ":9972,"ĠÛĮÚ©Ù¾Ø§Ø±ÚĨÚ¯ÛĮ":9973,"ĠØ®ÙĪØ¯ØªØ±Ø§Ú©Ùħ":9974,"ĠØ¢ÙħÛĮÙĨÙĪ":9975,"ĠØ§Ø±Ú©Ø§ÙĨ":9976,"ĠØ§Ø±Ø¨Ø§Ø¨":9977,"ĠØ¨Ø§Ø²Ø±Ø³ÛĮ":9978,"ĠØ¨Ø§Ø²ÙĨØ´":9979,"ĠØ¨Ø§Ø²ÙĨÙħØ§ÛĮÛĮ":9980,"ĠØ§ÙĦÙĨ":9981,"ĠØ§ÙĦÙĦ":9982,"ĠØ¨ÛĮÙĩ":9983,"ĠØ¨ÛĮØ§ÙĪØ±ÛĮ":9984,"ÙĨÛĮÙĩ":9985,"ĠÙģØ±Ø§Ø®ÙĪØ§ÙĨ":9986,"Ø¨ÛĮØ´ØªØ±":9987,"ĠÙħØ¹Ø¨Ø±":9988,"ĠÙħØ¹Ø¶ÙĦ":9989,"ĠÙ¾ÛĮÚ©Ø±":9990,"ĠÙ¾ÛĮØ±ÙĪÛĮ":9991,"ĠÙħØ´Ø§ÙĩØ¯":9992,"ĠØªØ±Ø¨":9993,"ĠØªØ±Ø§Ú©ØªÙĪØ±":9994,"ĠØ¯Ø³ØªÚ¯ÛĮØ±ÛĮ":9995,"ĠØ¯Ø³ØªØ§ÙĪØ±Ø¯":9996,"Ø¢Ø´":9997,"Ø¢Ú¯Ø§Ùĩ":9998,"Ø¢ÙĦØ§":9999,"Ø¢ÛĮÛĮÙĨ":10000,"Ø¢ÙħÛĮØ²":10001,"ĠØ³Ø±Ø§ÙħÛĮÚ©":10002,"ĠØ±ÙĪÙħØ§ÙĨ":10003,"ĠØ®ÙĪÙĨØ¯":10004,"Ø²ÛĮÛĮ":10005,"Ø¨ÙĩØ¯Ø§Ø´Øª":10006,"ĠØ¯ÙĪØªØ§":10007,"ĠØ¯ÙĪÚ¯Ø§ÙĨÙĩ":10008,"ĠÙħÙĤØª":10009,"ĠÙħØ³Ø£":10010,"ĠØ³Ø§Ø²ÙĬ":10011,"ĠØ´Ø±ÙĪØ±":10012,"ĠØ´Ø±Ø¨Øª":10013,"ĠØªØŃÙħÛĮÙĦ":10014,"ĠÙĥØ§ÙĩØ´":10015,"ĠÙĩØ±Ú©ÛĮ":10016,"ĠÚ¯Ø±Ø´":10017,"Ø±ÛĮØ¯ÙĨ":10018,"ĠØ²ÛĮØ§Ø±Øª":10019,"ÙĥØ§Ø±":10020,"Ø§Ø¬ÙĪÛĮÛĮ":10021,"Ø§Ø¦Øª":10022,"ĠØ³ÛĮÙĪ":10023,"Ø§ÙĦÛĮØ³ØªÛĮ":10024,"Ø§ÙĦÛĮØ³Ùħ":10025,"ĠØ¨Ø¯Ø§ÙĨØ¯":10026,"ĠØ§ØµÙĪÙĦØ§":10027,"ĠÚ©ÙĨØ¯ÛĮ":10028,"ĠØªØ¹Ø¯ÛĮÙĦ":10029,"ÙĦÙĪÚ©":10030,"ĠØ§Ø¹ØªØ¨":10031,"Ø§ÙħÙĦØ§Øª":10032,"ÙĢÙĨ":10033,"ĠÙģØ±ÙĪØ´ÙĨØ¯Ú¯Ø§ÙĨ":10034,"ÙħÛĮÙĨØ§Ø±":10035,"ĠØ¹ÙĦÙĬ":10036,"ĠØ¹ÙĦÙĨÛĮ":10037,"ĠÙĨØ´Ø§Ø·":10038,"ĠØ¶Ø§ÙħÙĨ":10039,"ĠØ´ÙĩØ±Ú©Ø±Ø¯":10040,"ÙħØªØ®ØµØµ":10041,"ĠØ±Ø§ÙĩÙĩØ§ÛĮ":10042,"ÙħÙĩØ¯ÛĮ":10043,"ĠØŃØ§ÙĦÙĬ":10044,"ĠØªÙĨÙĩ":10045,"ĠØ¨ÛĮÙĨÙĨØ¯Ùĩ":10046,"ĠØ±ÛĮÙĪÙĨ":10047,"ÙĪÙĤØ¹":10048,"ĠØ§ØªÙħÛĮ":10049,"ĠØ¯ÛĮÚ¯Ø±Ùī":10050,"ĠÙħÙĬØ§ÙĨ":10051,"ĠÙħÙĬØ²Ø§ÙĨ":10052,"ĠÙĨØ³Ø®":10053,"era":10054,"ÛĮØ§ÙģØª":10055,"ĠØ¨Ø®Ø´Ø¯":10056,"ĠØ¨Ø®Ø´ÛĮØ¯ÙĨ":10057,"ĠÙĨÙĪØ§ÛĮ":10058,"Ġ37":10059,"ĠÙĨÙĩØ¬":10060,"ĠÙħÙĪØ¶Ø¹ÛĮ":10061,"ÙĨÙħØ§ÛĮÙĨØ¯":10062,"ĠÙģØ±ÙĩÙĨÚ¯ÙĬ":10063,"ĠØ¨Ø§ÙĨÙĪÛĮ":10064,"ĠØºØ°Ø§ÙĩØ§ÙĬ":10065,"ĠØªØ§Ø±ÛĮÚ©ÛĮ":10066,"ĠÛ²Û³":10067,"ĠÙħØ®Ø²ÙĨ":10068,"ĠØ²ÙĨÙĨØ¯":10069,"ĠÙħØ¯ÛĮØ±Ú©ÙĦ":10070,"ĠÚ©Ø§ÙħÙĨØª":10071,"ĠÙ¾ÙĪØ³ØªØ±":10072,"ĠØªÚ©Ø§ÙĦÛĮÙģ":10073,"ĠØªØºÛĮÛĮØ±Ø§ØªÛĮ":10074,"ĠØ¬ÙĨØ§ØŃ":10075,"ĠØ¨Ø¹Ø¯Ø§Ø²":10076,"ĠÙĨØ±ÙħØ§ÙĦ":10077,"ĠØ±ÙĨÚ¯Ø§Ø±ÙĨÚ¯":10078,"ĠØ±ÙģØªÙħ":10079,"ÙģØ§ÙĤÛĮ":10080,"ĠØŃÙħØ§Ø³ÛĮ":10081,"ĠDes":10082,"ĠØªÙħØ§ÙħÛĮØª":10083,"ĠÙ¾ÛĮØ§ÙħØ¯":10084,"ĠÚ¯Ø±ÙģØªØ§Ø±":10085,"aly":10086,"ĠÛ±Û³Û´":10087,"ĠÙĩÙĪØ§ÙĪÛĮ":10088,"ade":10089,"ader":10090,"eng":10091,"Ø§Ø«Ø±":10092,"ĠÙĦÛĮØ¨ÙĦ":10093,"ĠØ¨Ø§ÙĨÚ©Ø¯Ø§Ø±ÛĮ":10094,"ĠÙħÛĮÙĦÛĮÙĪÙĨÛĮ":10095,"ĠÙħØ´Ø®ØµÙĩ":10096,"ĠÚ©ÛĮØ³Øª":10097,"ĠØ³Ø§ÛĮÙ¾Ø§":10098,"ĠØ³ÙĨÚ¯ÛĮÙĨÛĮ":10099,"atew":10100,"ĠTelegram":10101,"ĠÙĪØ±Ø²Ø´Ú¯Ø§Ùĩ":10102,"ĠÙħØ·Ø§ÙĦØ¹":10103,"ĠÙħÚ©Ø§Øª":10104,"ĠØ·Ø¨ÛĮØ¨":10105,"ĠÙħÙģÛĮØ¯ÛĮ":10106,"ĠØ¯ÙĨÛĮØ²":10107,"ĠØ¨ÙĪÛĮØ±":10108,"Û²Û°Û°":10109,"ĠÙĨØµÙģ":10110,"ĠØ§ÙģØªØ§Ø¯ÙĨ":10111,"ĠØµØ¯Ø¯":10112,"ĠØ¬ÙĪØ§ÙĨÙĩ":10113,"let":10114,"ĠØŃØ¬ÛĮÙħ":10115,"ĠØŃØ¬ÙħÛĮ":10116,"ÙĩÙħØ³Ø§ÛĮÙĩ":10117,"ÛµÛ°":10118,"ood":10119,"ĠGatew":10120,"ĠØ¨Ø®ÙĪØ±Ø¯":10121,"ice":10122,"agh":10123,"ags":10124,"Ġ700":10125,"ĠÙ¾Ø±Ø¯Ø§Ø®ØªÙĨØ¯":10126,"rom":10127,"ĠÙ¾ÛĮØ¯Ø§ÛĮØ´":10128,"ĠØªÙĪØ±ÙĪ":10129,"ĠØªÙĪØ±Ùħ":10130,"ĠÙ¾Ø§Ø±ÙħÛĮØ³":10131,"ĠØ§ÙĬØ³ÙĨØ§":10132,"ÙħØŃØ§ÙĦ":10133,"0903":10134,"ĠØ¨Ø±ÛĮØ²ÛĮØ¯":10135,"ĠØ´Ø§ÙĩÛĮÙĨ":10136,"ĠÙħØªØ¹Ø§ÙĦ":10137,"ĠÙħÙĪØ³ÙĪÙħ":10138,"Ø¤ÙħÙĨÛĮÙĨ":10139,"Ġph":10140,"Ġphotos":10141,"ĠØ®Ø±Ø¬":10142,"ote":10143,"ĠØ¬ÙĦÙĪÚ¯ÙĬØ±ÙĬ":10144,"ĠØªØ§Ø«ÛĮØ±Ø§Øª":10145,"ĠÙĨÛĮÙħØ³Ø§ÙĦ":10146,"ĠÙĨÙģØªÚ©Ø´":10147,"ĠØ·ÙĦÙĪØ¹":10148,"ĠØ±ÙĤÙħÛĮ":10149,"Ù¾Ø±Ø¯Ø§Ø²ÛĮ":10150,"ĠEuro":10151,"ĠØ¨Ø³Ø²Ø§ÛĮÛĮ":10152,"ĠØ³Ø¹Ø¯ÛĮ":10153,"ome":10154,"ĠÛ´Û°Û°":10155,"ĠØ¶ÙħÙĨØ§":10156,"ĠØ¨Ø§Ø¯Ù¾Ø§":10157,"ĠØ´ÙĩÛĮØ¯Ø§ÙĨ":10158,"ĠØ¨Ø§Ø¨Ø§ÛĮÛĮ":10159,"ÙĨØ¸Ø§ÙħÛĮ":10160,"ĠÙħÙĪÙĤØ¹ÛĮØªÛĮ":10161,"ĠØ¹ÙĤØ§ÛĮØ¯":10162,"ĠØ§Ø³ØªØ§Ø¯Ø§ÙĨ":10163,"ĠØ§ÙħÛĮØ±Ø®Ø§ÙĨÛĮ":10164,"ĠÙ¾ÛĮÚĨØ±":10165,"ĠØ§Ù¾ØªÛĮ":10166,"ĠØ®Ø¨Ø±ÛĮØ¨Ø±ÚĨØ³Ø¨":10167,"ĠÚ©Ø±Ø¨ÙĨ":10168,"ĠÙħØ¨ØªØ¯ÛĮ":10169,"ĠØ¨Ø¨ÙĨØ¯":10170,"ĠÙĨØ§Ø±Ø¶Ø§ÛĮØªÛĮ":10171,"ĠØ´ÙĩØ±Ø¯Ø§Ø±ÙĬ":10172,"ĠØ³Ø±Ø¯Ø§Ø±":10173,"ĠØ®Ø§Ú©Ùħ":10174,"ĠØ§ÙĨÚ¯ÛĮØ²Ø´ÛĮ":10175,"ĠÙģÛĮØ²ÛĮÙĪÙĦÙĪÚĺÛĮ":10176,"ĠØ³Ú©ÙĪØª":10177,"ĠØ³Ú©ÙĪÙĨØª":10178,"ĠØ³ÙĪØ¯ÙħÙĨØ¯":10179,"ĠÙħØ§ÙĦØ²ÛĮ":10180,"ĠÛ±Û³Û¸Ûµ":10181,"ĠÛ±Û³Û¸Û¶":10182,"out":10183,"ĠÙĥÙĨÙĨØ¯Ùĩ":10184,"ĠÙĥÙĨÙĬØ¯":10185,"ĠØ³Ø§Ø®ØªØ§Ø±ÙĩØ§ÛĮ":10186,"ĠØ¯ÛĮÙĪÙĪÙĨÙĩ":10187,"ĠÙĨØ±ÙĪÚĺÛĮ":10188,"ĠÙħØ§Ø¯Ø±Ø¨":10189,"ĠØ§ÙĦÙħØ§Ø³":10190,"ĠØ²ÙĪØ¯Ø±Ø³":10191,"ÙĨØ³Ø®Ùĩ":10192,"ĠØ§ÛĮØ±Ø§Ø¯":10193,"ĠØ±ØŃÙħ":10194,"ĠØ±ÙĪØ³ØªØ§ÙĩØ§ÛĮ":10195,"ĠØ±ÙĪØ³ØªØ§ÙĩØ§":10196,"ĠÙĨÙĪØ²Ø§Ø¯Ø§ÙĨ":10197,"ĠÙ¾Ø¯ÛĮØ¯Ø§Ø±":10198,"ÙħÛĮÙĦÛĮÙĪÙĨ":10199,"ĠØªØ³ÙĦÛĮØª":10200,"ĠØ²Ø¯Ø§ÛĮÛĮ":10201,"ĠØ¬ÙĨØ³ÛĮØª":10202,"ĠØ³ÙĨØ¯Ø±Ùħ":10203,"ĠÛ±Û¹Û¹Û":10204,"ĠØªØ±ÙģÙĨØ¯ÙĩØ§":10205,"Ø®ÙĪØ§ÙĨØ¯":10206,"ĠØªØ±Ø¯Ø¯":10207,"ĠØ³ÙĪØ±ÙħÙĩ":10208,"ĠØ®Ø´Ú©ÛĮ":10209,"ÐµÐ½":10210,"ĠØ¢Ú¯Ø§ÙĩØ§ÙĨÙĩ":10211,"ØªÙħØ§ÙħÛĮØª":10212,"ĠØ¯Ø²Ø¯Ø§ÙĨ":10213,"ĠØµÙģØ±Ø§":10214,"ĠØ±Ø³Ø§ÙĨØ¯Ùĩ":10215,"ĠÙħÙĨØµÙĪØ±ÛĮ":10216,"ĠÙ¾ØªØ§Ø³":10217,"ĠÙħÙħÙĨÙĪØ¹ÛĮØª":10218,"ĠÙħØ³ÛĮØŃ":10219,"Ø¹Ø¶ÙĪÛĮØª":10220,"ĠØ´Ú©ÙĨØ¬Ùĩ":10221,"ĠØ±ÙĪÛĮÚ©Ø±Ø¯ÙĩØ§ÛĮ":10222,"ĠÚ©ÙĦØ§ÙĨØªØ±ÛĮ":10223,"Ġrx":10224,"ĠØ·Ø±Ø§ØŃÙĬ":10225,"Ø¢Ø±Ø§ÛĮØ´":10226,"ĠØªØµØ§Ø¯Ùģ":10227,"''''":10228,"))))":10229,"ĠÙħÛĮØªÙĪØ§ÙĨÛĮÙħ":10230,"ĠØ§Ø³ØªØ§ÙĨØ¯Ø§Ø±Ø¯ÙĩØ§":10231,"ĠØ¢ÙĩÙĥÙĬ":10232,"ÙħØ¬Ø§Ø²":10233,"ĠÙĨØ§ØªÙĪØ§ÙĨ":10234,"ĠÙģÙĦØ²Ø§Øª":10235,"2406":10236,"ĠÙħØ§Ø¬Ø±Ø§Ø¬ÙĪÛĮÛĮ":10237,"ĠØµÙĦØ§ØŃÛĮØª":10238,"ĠØ§Ø´ÛĮØ§ÛĮ":10239,"ĠÙĤÙħØ±ÛĮ":10240,"ĠØ§Ø¹Ø·Ø§":10241,"ĠØ¹ÙĬÙĨÙĥ":10242,"ĠØ§ÙĪØ²Ø¬Ø§ÙĨ":10243,"ĠØ¯ÙĨØ¯Ø§ÙĨÙ¾Ø²Ø´Ú©ÛĮ":10244,"ĠÙħØ±Ø§ÙĤØ¨ØªÛĮ":10245,"ĠØ¯Ø³Ø§ÙħØ¨Ø±":10246,"ĠÚ©ÙĨØ³ÙĪÙĦ":10247,"ĠÙģØ§Ú©ØªÙĪØ±ÙĩØ§ÛĮ":10248,"Ú©Ø¯Ø®":10249,"ĠÙĨØ§Ø´Ø±":10250,"ĠØ¬ØºØ±Ø§ÙģÛĮØ§ÛĮÛĮ":10251,"ĠØ¨Ø§Ø±ÛĮÚ©":10252,"ĠØ§Ú©ØªØ´":10253,"ĠÙ¾Ø±Ø³Ù¾ÙĪÙĦÛĮØ³":10254,"452406":10255,"ĠØ¨Ø±ÙĨØ²Ùĩ":10256,"ĠØ¬Ø§ÙĬÚ¯Ø§Ùĩ":10257,"ĠØ¹Ø³Ú©Ø±ÛĮ":10258,"Ġups":10259,"ĠØ§Ø³ÙħØ§Ø¹ÛĮÙĦ":10260,"ĠØ§Ø³ÙħØ§Ø¹ÛĮÙĦÛĮ":10261,"ĠÙĩØ²ÙĬÙĨÙĩ":10262,"ï¿½.":10263,"ĠÙĨØ§Ù¾Ø°":10264,"ĠØŃØµÛĮØ±":10265,"ĠÙħØ³ÙĪØ§Ú©":10266,"ĠØ¨Ú¯Ø°Ø±Ø§ÙĨ":10267,"ĠØ§Ø±Ø¬Ø§Ø¹":10268,"ĠØ§ÙĦØ¥Ø³Ø¨Ø§ÙĨÙĬ":10269,"ĠÙħØ¹ÙĬØ§Ø±ÙĩØ§ÙĬ":10270,"hammad":10271,"ĠØ±ÙĩÙĨÙĪØ±Ø¯":10272,"ÙħØ³Ø¦ÙĪÙĦ":10273,"ĠØ¯ÙĥØªØ±":10274,"ĠÙĪØ·ÙĨ":10275,"ĠØ®Ø§Ø´ÙĤÚĨÛĮ":10276,"ĠØ¢Ø¨Ø§Ø¯ÛĮØ³":10277,"ĠForces":10278,"ĠÙħØ§Ø¬Ø±Ø§":10279,"ĠØªÙ¾Ùĩ":10280,"ĠÙĦÛĮÙħÙĪ":10281,"ĠØªØ¹Ø·ÛĮÙĦØ§Øª":10282,"ĠØ§ØŃØªÛĮØ§Ø¬":10283,"ĠØµØ¯Ø§Ø¨Ø±Ø¯Ø§Ø±ÛĮ":10284,"iversity":10285,"ĠÙĨØ§Ø¸Ø±":10286,"ĠÙĩØ±Ø¯ÙĪ":10287,"ĠØ¢ÙħØ±ÙĬÚ©":10288,"ĠÙħØ´ÙħÙĪÙĦ":10289,"ĠÙħÙĤØ§ÙĦØ§ØªÛĮ":10290,"ĠÚ¯Ø±Ø¯ÙĩÙħØ§ÛĮÛĮ":10291,"ĠSchool":10292,"ÙħØŃÙĤÙĤØ§ÙĨ":10293,"120452406":10294,"ÙĨØŃÙĪÙĩ":10295,"ĠØ³Ø§ØªÙĨ":10296,"ĠÙĤÙĪØ±ÙħÙĩ":10297,"ĠÙĦØ§ÙĦØ§ÛĮÛĮ":10298,"ĠØ§Ø¬Ø²Ø§Ø¡":10299,"ĠÙĨØ§ØµØ±Ø®Ø³Ø±ÙĪ":10300,"ĠÙħÙĪØ¸Ùģ":10301,"Ø¢Ø²ÙħÙĪÙĨ":10302,"ĠØªÙħØ±ÙĬÙĨØ§Øª":10303,"ĠØ§ØªÙĪÚ©Ø¯":10304,"ĠØªØ³Ú©ÛĮÙĨ":10305,"ĠÙ¾Ø±ÙģØ±ÙĪØ´":10306,"ĠÙ¾ØªØ§ÙĨØ³ÛĮÙĦ":10307,"ĠÙĤØ§ÚĨØ§ÙĤ":10308,"ĠÙĦØ§ÙħÛĮÙĨÛĮØª":10309,"ĠØ§ÙĨØªØ²Ø§Ø¹ÛĮ":10310,"ĠØ¨Ø§Ø¯ÙħØ¬Ø§ÙĨ":10311,"ĠAcademia":10312,"ĠØªØ§Ø¨ÙĦÙĪÛĮ":10313,"ĠØŃØ§Ø¦Ø²":10314,"ĠØŃÙĪØµÙĦÙĩ":10315,"ĠÚĨÙħÙ¾Ú©Ø³":10316,"ĠGateway":10317,"!/":10318,"04":10319,"51":10320,"519":10321,"AW":10322,"Al":10323,"RA":10324,"St":10325,"ail":10326,"bas":10327,"ee":10328,"ier":10329,"ke":10330,"lif":10331,"lite":10332,"Â±":10333,"Ñĥ":10334,"Ñĭ":10335,"âľ":10336,"Ġ<":10337,"Ġst":10338,"Ġhe":10339,"Ġim":10340,"ĩĲ":10341,"ÛĮØ§Ø±ÛĮ":10342,"ÛĮØ¹ÙĨÛĮ":10343,"Ø±Ø§Ø¨":10344,"Ø±Øº":10345,"Ø±Ø§ÙħØ´":10346,"ÙĨØ®":10347,"ÙĨÙģØ±":10348,"ÙĩØªÙĦ":10349,"Ø¯ÙĦÛĮÙĦ":10350,"Ø¯ÙģØªØ±":10351,"ÙĪØªÙĩ":10352,"ÙĪØ§Ø±Ø¯":10353,"ÙĪÙī":10354,"ÙĪÚ©Ø±":10355,"ØªØ²":10356,"ØªÙĪØ±ÛĮ":10357,"ØªÙĥ":10358,"ØªØ§Ù¾":10359,"ØªÙĦØ§Ùģ":10360,"ØªØ¬ÙĩÛĮØ²Ø§Øª":10361,"ØªØ®Ùħ":10362,"ÙħÙĪÙĨÛĮ":10363,"ÙħÙĬÙħ":10364,"ÙħØ«ÙĦ":10365,"Ú©ÙĪÚ©":10366,"ĠØ¨ÙĪØ³":10367,"ĠÙħØ§Ø²":10368,"ĠÙħÙħØª":10369,"ĠÙħÙĪÙĨÛĮ":10370,"ĠÙħÙĦØ§Ú©":10371,"Ø§ÙĨØ¬":10372,"Ø§ÙĨØ¬Ø§Ùħ":10373,"Ø§ÙĨØ´Ú©Ø¯Ùĩ":10374,"Ø§ÛĮÙĪÙĨ":10375,"Ø³Ø³":10376,"Ø³Ùī":10377,"Ø³Ø§Ø²Ùĩ":10378,"Ø³ÙħØ³":10379,"ĠÙĪÛĮÙĨ":10380,"ĠÙĪÙĬØ±":10381,"ĠÚ©Ø§Ø¯":10382,"ĠÚ©ÛĮÙĩ":10383,"Ú¯Ø§Ø±Ø§ÙĨ":10384,"Ø¨Ø§ÙĨÙĩ":10385,"Ø¨ÙĬØ±":10386,"ĠØªÙĪÛĮÛĮ":10387,"Ø²ÛĮÙħ":10388,"ĠØ±ÛĮÙĩ":10389,"ĠØ±Ø´Øª":10390,"ĠÙĨØ§Ø³":10391,"ĠÙĨÚ¯ÛĮÙĨ":10392,"ĠÙĨÚ©ÙĨÛĮÙħ":10393,"ĠÙĨØ¯ÙĩÛĮØ¯":10394,"ĠÙĨÙĪØ³Ø§Ø²ÛĮ":10395,"ĠÙĨØ§ÛĮØ³":10396,"Ø§ÙħØ¯Ùĩ":10397,"ĠØ¯Ø±Ø®ØªÛĮ":10398,"ĠØ¯Ø±Ø®ÙĪØ§Ø³ØªÛĮ":10399,"ĠØ³ÙĨØ¯ÛĮ":10400,"ĠØ³ÙĪÙĨÛĮ":10401,"ĠØ³ÙĪØ²ÛĮ":10402,"ĠØ´ØªØ±":10403,"ĠØ¢Ø±ÛĮ":10404,"ĠØ¢ÙĦÙĩ":10405,"ĠØ¢Ø±Ø§":10406,"ĠØ¢Ø±Øª":10407,"ĠØ¢Ø³Ø§ÙĨÛĮ":10408,"ĠØ¢ÙĪÛĮØ±":10409,"ĠØ¢Ú©ÙĨÙĩ":10410,"ĠØ¢ÙģØ±ÙĬÙĨØ´":10411,"ÙĨØ¯ÙĪ":10412,"Ø¹ÙĨÙĬ":10413,"Ø§ÙĦØ«":10414,"ĠÙ¾ÙĪØ¯":10415,"ĠÙ¾ÙĨÚ¯":10416,"ĠØ®Ø´ÙĨ":10417,"ĠØ®ÙĦØ§":10418,"ĠØ§Ø²Ø´":10419,"ĠÙħÛĮØ´":10420,"ĠÙħÛĮØ±ÛĮ":10421,"ĠØ§Ø³Ú©ÙĦ":10422,"ĠØ§Ø³ÙħØ´":10423,"ĠØ§ÛĮØªØ§ÙĦÛĮ":10424,"ÙĪØ±Ø²Ø´":10425,"ÙĬØ´Ùĩ":10426,"ÙĬØ§Ø±ÙĬ":10427,"ÛĮØ¯ÙĨØ¯":10428,"Ø³ØªÛĮÙĨ":10429,"Ø³ØªÙĪÙĨ":10430,"Ø®Ø¨Ø±":10431,"ĠÙģØ§ÙĨ":10432,"ĠÙģØ±ÛĮØ¨":10433,"ĠÙģÙĪØ±Ø§":10434,"ĠØ¨Ø±Ø§":10435,"ĠØ¨Ø±Ø§Ø¯":10436,"ĠØ¨Ø±ÙĪÛĮ":10437,"ĠØ¨Ø±Ø´Ùħ":10438,"ĠØ¨Ø±Ø³ÛĮÙħ":10439,"ĠØ¨Ø±Ø¢ÙĪØ±Ø¯Ùĩ":10440,"ĠØ¹Ø§ÙĦ":10441,"ĠØ¹ÙĦÙĪ":10442,"ĠØ¹Ø§ÛĮÙĤ":10443,"Ø§ØªØ³":10444,"Ø§ØªØ§Ø±":10445,"ØŃØ³ÙĨ":10446,"ØŃÙģØ¸":10447,"ÚĨÙĪÙħ":10448,"ĠØ§Ø³ØªØ§ÛĮÙĦ":10449,"ĠØ§Ø³ØªÚ©Ø¨Ø§Ø±":10450,"ĠÚ¯Ø§Ø±Ø¯":10451,"ĠØ¬Ø§Ø¯":10452,"ĠØ¬ÙĪØ±ÛĮ":10453,"ĠØ¬ÙĪÛĮÛĮ":10454,"ĠØ¬ÙĪÙĨÙħ":10455,"Ø§Ø²ÛĮØ¯":10456,"ĠØ¨Ø§Ú©":10457,"ĠÛĮØ§Ø±Ø§ÙĨ":10458,"ĠÛĮØ§Ø²Ø¯Ùĩ":10459,"ĠÛĮÙħÙĨÛĮ":10460,"ĠØ§ÛĮÙĨØ³Øª":10461,"Ø·Ùģ":10462,"Ø§Ø³Ø¯":10463,"ĠØŃØ¨ÛĮ":10464,"ĠØŃØ¨Ø§Ø¨":10465,"ĠØŃØ§ÙħÙĦÙĩ":10466,"ĠØŃØ¨Ø³":10467,"Ø§Ø´ÛĮØª":10468,"ĠØ§Úĺ":10469,"ĠØ§Ù¾Ø¯ÛĮØª":10470,"ĠÙĤÙĬ":10471,"ĠÙĤØ§Ø±Ùĩ":10472,"Ù¾Ø§Ú©":10473,"ĠÚĨØ§Ø±Ùĩ":10474,"ĠÙĩØ§ÛĮÙĦØ§ÛĮØª":10475,"ĠØ§ÙĨØ¶":10476,"ÙĪÙĦÙĬØ³":10477,"ĠÙĩÙħÚ¯Ø§ÙĨÛĮ":10478,"Ø¶Ø¯":10479,"ÙĪØ²Ø§ÙĦ":10480,"ØªØ±Ø§ÙĨÙĩ":10481,"ĠÙĦØ³":10482,"ĠÙĦÛĮÙĨÙĪÚ©Ø³":10483,"ĠØ§ÙħÙĦØ§ØŃ":10484,"ĠØ§ÙħÙĪØ²Ø§ÙĨ":10485,"ĠØµØ¨Ø§":10486,"Ø°ÛĮ":10487,"ĠØ·ÙĪÙģ":10488,"ĠØ¯Ø§Ø±ÙĪØ³":10489,"ĠØ¯Ø§Ø±ÙĪØ³Ø§Ø²ÛĮ":10490,"ĠÙĨÛĮØ§":10491,"ĠÙĨÛĮÙĪ":10492,"ĠÙĨÛĮÚ©ÙĪ":10493,"ĠØ§Ø±Ú¯Ø§ÙĨ":10494,"ĠØ§Ø±Ú¯ÙĪÙĨ":10495,"ĠØ§Ø±Ø§Ø°ÙĦ":10496,"ÙĦØ§Ùĥ":10497,"ĠÙĪÛĮØ§":10498,"ĠØ¨Ø§Ø²Ø¯Ùĩ":10499,"ĠØªÙĪØ§ÙĦØª":10500,"ĠØ§ÙĦØ´":10501,"ĠØ§ÙĦØ¬":10502,"ĠØ§ÙĦØŃØ³ÛĮÙĨ":10503,"ĠØ¨ÛĮØ²ÛĮÙĨØ³":10504,"ØºØ§":10505,"ÙĨÛĮÙĪØ³":10506,"ĠÙħØ±Ø¬Ø§ÙĨ":10507,"Ø¨ÛĮÙĦÛĮ":10508,"ĠÙħØ¹Ø§ÙħÙĦØ§Øª":10509,"ĠØ´ÙħØ¹":10510,"ĠØ´ÙħØ§Ø¹ÛĮ":10511,"ĠÙ¾ÛĮØ±ÙĪ":10512,"ĠÙħØ¯Ø§Ùħ":10513,"ĠØ§ÙģØ´ÛĮÙĨ":10514,"ĠØ§ÙģÙĦØ§Ø·":10515,"Ø¨Ø±Øª":10516,"Ø¨Ø±Ùħ":10517,"ĠØ¯Ø³ØªÙħØ§ÙĦ":10518,"Ø¢ÙĦ":10519,"Ø¢Ø³ÛĮ":10520,"ĠØ³Ø±Ø§":10521,"ĠØ³Ø±Ú©ÙĪØ¨":10522,"ĠØ³Ø±Ú¯Ø°Ø´Øª":10523,"ĠØ±ÙĪØ¨ÛĮÚ©":10524,"Ø²ÛĮØ³Øª":10525,"ĠØ¯ÛĮØ³Ú©":10526,"ĠØ¯ÛĮÙĪØ§ÙĨÙĩ":10527,"Ú©ØªØ±ÙĪ":10528,"ĠØºÙĨ":10529,"ĠØºÙĪÙĦ":10530,"ĠØºÛĮØ±Ø¯":10531,"ĠØ³Ø§ÙĦÙĩØ§":10532,"Ú©Ø³ÙĪÙĨ":10533,"ĠÙħÙĤØ§ÙħÛĮ":10534,"ĠÙħÙĤØ§Ø·Ø¹":10535,"ĠÙħÙĤØªÙĪÙĦ":10536,"...)":10537,"Ø¦ÙĪÙĨ":10538,"Ø¦ÛĮÙĨÛĮ":10539,"ĠÙħØ³Ø§Ø¹Ø¯":10540,"ĠØ³Ø§Ø²ÙĪÚ©Ø§Ø±":10541,"ĠØ¯ÙĩÚ©Ø¯Ùĩ":10542,"ĠÙĥÙĪØªØ§Ùĩ":10543,"ØªÙħØ§Ø³":10544,"ĠÂŀ":10545,"ĠØ¨Ø§Ø²ÛĮÙĩØ§ÛĮ":10546,"ĠØ¯Ø§ÙĨØ´ÙĪØ±":10547,"ĠØ³ÛĮØ§":10548,"ĠØ³ÛĮÙģ":10549,"ĠØ³ÛĮÚ¯ÙĨ":10550,"ĠÚ¯ÙĦØ§Ø¨":10551,"ĠÚ¯ÙĦÙĩØ§ÛĮ":10552,"ÙħÙĨØ³ØªØ§ÙĨ":10553,"ĠØ¨Ø¯ØªØ±":10554,"ĠØ§ØµØ±Ø§Ø±":10555,"ĠØ§ØµÙĢØ·ÙĦØ§ØŃ":10556,"ĠØ³ÙĪØª":10557,"ĠØ³ÙĪØ§ÙĦÛĮ":10558,"Ø±Ø³ÙħÛĮ":10559,"ĠØªÙĪØ§ÙĨÙħ":10560,"ĠØªÙĪØ§ÙĨØ¨Ø®Ø´ÛĮ":10561,"ĠØªØ¹ÙĦÛĮÙħ":10562,"ĠØ±Ø³Ø§ÙĦÙĩ":10563,"ØªÙĪØ§ÙĨÙĩ":10564,"ĠØ§Ø¹ÙĦÛĮ":10565,"ĠØ§Ø¬ÙħØ§ÙĦ":10566,"ĠØªÙħØ¯ÙĬØ¯":10567,"ĠØ§Ø¨Ø§":10568,"ĠÙĨØ§ÙħÚ¯Ø°Ø§Ø±ÛĮ":10569,"ĠØ§Ø¯ØºØ§Ùħ":10570,"ĠØ¬ÙĩØ´":10571,"ĠØ¬ÙĩÙĨÙħ":10572,"ĠÚ©ÙĦØ§Ø¨":10573,"ĠÚ©ÙĦÙĪÙĨ":10574,"ĠØ¹ÙĦØ§ÛĮÙħ":10575,"ÛĮÚ©Ø§":10576,"ĠØ§Ø·ÙĦØ§ÙĤ":10577,"ĠÙ¾Ø±ÙĪÙ¾":10578,"ÙĨØ§Ù¾Ø°ÛĮØ±":10579,"ĠØ§ÙĤÙĪØ§Ùħ":10580,"ĠØ¨Ø§ÙĦÙĨØ¯Ú¯ÛĮ":10581,"ÙģØ±Ø¢ÛĮÙĨØ¯":10582,"ĠÚĨÙĩÙĦ":10583,"ØŁÂ»":10584,"ØŁØŁ":10585,"ÙħÙĩÙĨØ¯":10586,"ÙģÛĮÙĦ":10587,"ÙģÛĮØ¹ÛĮ":10588,"Ø´ØªÛĮÙĨ":10589,"ĠØ²ÙħØ§ÙĨØ¨ÙĨØ¯ÛĮ":10590,"ĠØ¯Ø§Ø¯Ø¯ÙĦÙħ":10591,"ĠØ¨ÛĮÙĨØ§ÛĮÛĮ":10592,"ĠØ±ÛĮØ´ØªØ±":10593,"ĠÙ¾Ø±ØªÙĪ":10594,"Ġ2000":10595,"Ø¨Ø±ÛĮÙħ":10596,"ĠØ¨Ø§Ø±Ø²":10597,"ĠØ¨Ø§Ø±Ú¯Ø°Ø§Ø±ÛĮ":10598,"ĠØ«Ø§ÙĨ":10599,"ĠØ«ÙĨØ§":10600,"ĠØ§ØªØµ":10601,"ĠØ§ØªÙģØ§ÙĤÛĮ":10602,"Ø§Ø¶Ùĩ":10603,"Ù¾ÛĮØ´ÙĨÙĩØ§Ø¯":10604,"ery":10605,"ÙĨØªØ§ÙĨ":10606,"ĠØ¨ÙĦØ¹":10607,"ĠÙģØ¹ÙĦØ§":10608,"ĠØ¨ÙĨÙģØ´":10609,"ĠÙĨÙĪÙĬØ³":10610,"ĠØªØ´Ø¯ÛĮØ¯":10611,"ĠÙĨÙĩÛĮ":10612,"ĠÙĨÙĩØ¶Øª":10613,"ons":10614,"ĠØ¨Ø²Ø±Ú¯Ø¯Ø§Ø´Øª":10615,"ĠØ¨Ø²Ø±Ú¯Ø³Ø§ÙĦØ§ÙĨ":10616,"ĠÚ¯Ø±ÙĪÙĩÙĩØ§":10617,"ÙĨÙħØ§":10618,"ĠSc":10619,"ĠØ®Ø§ÙĨÙĪØ§Ø±":10620,"ĠØ¯ÙĦØ§Ø±ÛĮ":10621,"ĠÚ©ÙĪØ§Ø¯":10622,"ĠØ®ÛĮØ±ÛĮÙĨ":10623,"ĠØ®Ø·Ø¨Ùĩ":10624,"ĠØ®Ø·Ø§ÙĩØ§ÛĮ":10625,"ĠÙħØ³ØªØ¬Ø§Ø¨":10626,"ĠØºÛĮØ±ÙĤØ§ÙĨÙĪÙĨÛĮ":10627,"ĠPH":10628,"ĠPr":10629,"ĠPhot":10630,"ĠPers":10631,"ĠØ¯Ø³ØªÚ¯Ø§ÙĩÙĩØ§ÛĮ":10632,"ĠØªÚ©ÙĦÛĮÙģ":10633,"Ú¯Ø°Ø±":10634,"Ú¯Ø°Ø§Ø±ÙĬ":10635,"ĠÙĪØ§ÙĤØ¹Ùĩ":10636,"ĠØ¬ÙĨØ¨":10637,"ĠØ¬ÙĨØ§ÛĮÛĮ":10638,"ĠÚĨÛĮØ°Ø±":10639,"ĠØ¸Ø±ÙģÛĮ":10640,"ĠØ³Ù¾Ø±ÛĮ":10641,"ĠÙĪØ§Ø±Ø¯Ø§ØªÛĮ":10642,"ĠMB":10643,"ĠMarc":10644,"ĠØ±ÙģØªÙĨØ¯":10645,"ĠÙĬØ§ÙģØª":10646,"ĠÙĬØ¹ÙĨÙĬ":10647,"ĠÚ©Ø§ÙĨØ¯ÛĮØ¯":10648,"ĠDIP":10649,"ĠØ®ÙĪØ§ÙĩÛĮ":10650,"ĠÙĨÙĪØ´ÛĮØ¯ÙĨ":10651,"ĠØ§ÙħÚ©Ø§ÙĨØ§ØªÛĮ":10652,"ĠÙĪÙĦÛĮØ¹ØµØ±":10653,"ĠÛĮØ§Ø¯Ø¢ÙĪØ±":10654,"ĠØ¬ÙĩØ§ÙĨÙĬ":10655,"ĠBi":10656,"ĠBab":10657,"ĠÚĺÙĪØ¦ÙĨ":10658,"ĠÙ¾Ø±Ø³Ø±":10659,"ĠÙ¾Ø±Ø³ÙĨÙĦ":10660,"ĠØ³Ø§ÛĮØ±ÛĮÙĨ":10661,"Ġ48":10662,"ĠÚĨÙĩØ§Ø±Ø¯Ùĩ":10663,"ĠÚĨÙĩØ§Ø±ÙħØŃØ§ÙĦ":10664,"irat":10665,"irect":10666,"ĠÙĪØ±Ø²Ø´Ú©Ø§Ø±Ø§ÙĨ":10667,"ĠÙħÙģØ³":10668,"ĠØŃÙĦÙĤ":10669,"ĠØ¯ÙĨÛĮØ§ÛĮÛĮ":10670,"2013":10671,"Ø§ÙĨØªÙĤ":10672,"ĠÙħÙĨØ·Ø¨ÙĤ":10673,"ĠØ¬ÙĪØ§ÙĨÙħØ±Ø¯":10674,"ĠÙħØŃØªÙĪØ§ÙĩØ§ÛĮ":10675,"ĠØ§Ø¬Ø±Ø§ÙĬ":10676,"ĠÙħÙĨØ¸ÙĪÙħÙĩ":10677,"ĠØ®ÙĪØ§ÙĨØ³Ø§Ø±":10678,"ÙĩÙħØ±Ø§Ùĩ":10679,"Ø¨Ø¹Ø¶ÛĮ":10680,"ÙħÛĮØ±Ùħ":10681,"ĠØ¨Ø®ÙĪÙĨ":10682,"Ø´ÙĪØ±Ø§":10683,"ĠØ±ÙĪØ§ÙĨØ´ÙĨØ§Ø³":10684,"ĠØ·Ø±ÙģØ¯Ø§Ø±":10685,"ace":10686,"ical":10687,"ĠFull":10688,"ĠØ¯ÙĪØ³ØªØª":10689,"ĠÙħØ³ØªÙĤÙĬÙħ":10690,"Ġ75":10691,"ÙħØ³Ø¬Ø¯":10692,"ĠRAW":10693,"ĠØ³Ø®ÙĨÚ¯ÙĪÛĮ":10694,"ĠÙħÙĪØ§Ø±Ø¯ÙĬ":10695,"ĠØ®ÙĪØ´ØŃØ§ÙĦ":10696,"ÙħØ±Ø§Ø³Ùħ":10697,"ÙħØŃØ³ÙĨ":10698,"ĠÙ¾ÙĬØ±ÙĪ":10699,"ĠÙ¾ÚĺÙĪÙĩØ´Ú¯Ø±":10700,"ĠÙ¾ÚĺÙĪÙĩØ´Ú¯Ø§Ùĩ":10701,"ĠÙĪØ²Ø§Ø±ØªØ®Ø§ÙĨÙĩ":10702,"ĠØŃÚ©ÙħØª":10703,"ĠØ±ÙģÙĦ":10704,"hed":10705,"ĠØ¨ØµØ±ÛĮ":10706,"ĠØ¯Ø§ÙħÙ¾Ø²Ø´Ú©ÛĮ":10707,"ÙĤØ±Ø¢ÙĨ":10708,"ĠÙĨÙħÙĪØ¯ÙĨØ¯":10709,"Ø§Ø³ÙħØ§Ø¹ÛĮ":10710,"ĠÙħÙĪØ²ÛĮÚ©Ø§ÙĦ":10711,"ĠÙĨØ§Ø§Ùħ":10712,"ĠÙĨØ§ÚĨØ§Ø±":10713,"ĠÙģØ±Ø§Ú¯ÛĮØ±ÛĮ":10714,"ĠÙģØ±Ø§Ú¯ÛĮØ±ÙĨØ¯Ùĩ":10715,"ĠØªØ§Ø«ÛĮØ±Ú¯Ø°Ø§Ø±":10716,"reat":10717,"ĠÙĨØªÙĬØ¬Ùĩ":10718,"ĠÙ¾ÙĦÙĨ":10719,"ĠÙģÙĪØªØ¨Ø§ÙĦÛĮ":10720,"ĠÚ©Ø±ÛĮØ³Øª":10721,"ĠØ¹Ø²ÛĮØ²ÛĮ":10722,"ĠEd":10723,"ings":10724,"ĠÙĦØ·ÛĮÙģÙĩ":10725,"ĠÙĪÛĮÚĺÚ¯ÛĮÙĩØ§ÛĮ":10726,"ĠÚ©ÙĦÛĮØ¯ÙĩØ§":10727,"ĠÙĦØ±Ø²Ø´":10728,"ĠØ±ÛĮØ§Ø¶ÛĮØ§Øª":10729,"ĠØ¨Ø§Ø¯Ú©Ø´":10730,"ĠØ¨ÙĦÙĪÙĨØ¯":10731,"ĠÙħÚ¯Ø§":10732,"ĠÙģÙĨÙĬ":10733,"Ġ129":10734,"Ú¯ÙģØªÙĨÛĮ":10735,"ĠØ§ÛĮØ¯ÛĢ":10736,"ĠØŃÛĮØ§ØªÛĮ":10737,"ĠØ§ØµÙĦØ§ØŃØ§Øª":10738,"ĠWEB":10739,"ĠØ¹ÙĤØ¯":10740,"Ø®ÙĪØ§Ø³ØªÙħ":10741,"ĠØ§Ù¾ÙĪÚ©Ø³ÛĮ":10742,"ĠØ¨Ø¯ÙĩÛĮÙħ":10743,"abar":10744,"ĠØ¹Ø±Ø¨ÙĬ":10745,"ÙĨØ´ÛĮÙĨÛĮ":10746,"off":10747,"ĠÙĨØ§Ø±ÙĨØ¬":10748,"ĠØ®ÙĪØ§Ø³ØªÙħ":10749,"obe":10750,"ĠØ³Ø±Ø¯Ø±":10751,"ĠØ²ÙĨØ¯Ø§ÙĨÛĮ":10752,"ĠÙĪÛĮØ¯ÛĮÙĪÛĮÛĮ":10753,"ĠÙħØ³Ø§ÙģØ±Øª":10754,"Ġwest":10755,"ĠØ¢ÙģØ±ÛĮÙĨÛĮ":10756,"Ø¨Ø§Ø²Ø§Ø±":10757,"Ø¨Ø§Ø²Ø§Ø±ÛĮ":10758,"ĠØ·Ø¨ÙĤØ§Øª":10759,"oun":10760,"ĠÙħÙħÙĨÙĪÙĨ":10761,"ĠÙģÛĮÙĦÙħÛĮ":10762,"ĠØªÚ©Ø±Ø§ØªÙĪ":10763,"ĠÙħØªØŃØ¯":10764,"Ø¢ÙĪØ±ÙĨØ¯":10765,"Ø¨Ø¯Ø§ÙĦÙĦÙĩ":10766,"ĠÙĨØ§Ø¨ÙĪØ¯ÛĮ":10767,"ĠÙĨØ¬ÙģÛĮ":10768,"emusic":10769,"ĠØ³ÙĬØ§Ø³Øª":10770,"ĠØ¢ÙħØ¯ÙĨØ¯":10771,"ĠÙĤÙĪÛĮØªØ±ÛĮÙĨ":10772,"Ġgal":10773,"ĠØ®Ø¯Ø§ÛĮ":10774,"ĠØ´Ø§Ø±ÚĺØ±":10775,"ĠØ¯ÛĮØ¬ÛĮØªØ§ÙĦÛĮ":10776,"ĠØ²ÙĬØ§Ø¯":10777,"ĠØ²ÙĬØ¨Ø§":10778,"ĠØ§Ø¨Ø±Ø§ÙĩÛĮÙħÛĮ":10779,"und":10780,"raf":10781,"rap":10782,"ĠÙĨØ§Ø²ÙĦ":10783,"ĠÙħÛĮØ²Ø¨Ø§ÙĨ":10784,"ĠÙħÛĮØ²Ø¨Ø§ÙĨÛĮ":10785,"âĻ¥":10786,"ĠÙģØ±Ø§ÙħØ±Ø²":10787,"Ġif":10788,"ĠÙĤØ±Ø§Ø±Ø¯Ø§Ø¯ÙĩØ§ÛĮ":10789,"ĠÚ©ØªØ¨ÛĮ":10790,"ĠØ¨Ø§ÙĪØ±ÙĨÚ©Ø±Ø¯":10791,"Ø´Ø¨Ú©Ùĩ":10792,"ĠÙħØ§ÙĩÛĮÚĨÙĩ":10793,"ĠÙħÙĩÙĨØ¯Ø³ÙĬ":10794,"ĠØ¢ÙĤØ§Ùī":10795,"ĠÙģØ¶Ø§ÙĩØ§ÛĮ":10796,"ĠÛ±ÛµÛ°":10797,"Ø§ÙģØ²ÙĪÙĨ":10798,"ÙĦØ·ÙģØ§":10799,"ĠØ¹ÙģÙĪÙĨÛĮ":10800,"ĠØ¨ÙĪÛĮÚĺÙĩ":10801,"ĠØ¹ÛĮÙĨÚ©ÛĮ":10802,"ĠØ¨Ø±ÙĩØ§ÙĨ":10803,"ĠØ¬ÙħØ¹ÛĮØªÛĮ":10804,"ĠØ°Ø®Ø§ÛĮØ±":10805,"ĠÛ±Û°Û°Û°":10806,"ĠÙ¾Ø§ÙĬÙĩ":10807,"ĠØ¢ÙģØªØ§Ø¨ÙĬ":10808,"Ø²ÙħÛĮÙĨÙĩ":10809,"ĠÚ©Ø¬Ø§Ø³Øª":10810,"ĠÙħØ±Ø§ÙĥØ²":10811,"ÙħØ±Ø¯Ùħ":10812,"ĠØ´Ú¯ÙģØªÛĮ":10813,"ĠÙģØ±ÛĮÙĪÙĨ":10814,"ĠØ³Ø±Ù¾Ø±Ø³ØªÛĮ":10815,"ĠÚ©ÛĮÙĦÙĪÙħØªØ±ÛĮ":10816,"ĠÙħØªØ±ÛĮØ§ÙĦ":10817,"ĠÙħÛĮÚ©Ø±ÙĪØ¨":10818,"ĠÚ¯ÛĮÙħØ±":10819,"ĠØªÙĪÙĤØ¹":10820,"ĠØ¨Ø®Ø§Ø±Ù¾Ø²":10821,"Ø§ÙĨÚ¯ÛĮØ²":10822,"ĠÙħØ¤Ø³Ø³Ø§Øª":10823,"ĠØ±ÙĬÙĬØ³":10824,"ĠØ¨ÙħØ¨":10825,"ĠÚ¯Ø´Ø³Ù¾":10826,"270903":10827,"ĠÚ©Ø§Ø¨ÛĮÙĨ":10828,"ĠÙ¾ÛĮÚ©Ø§Ù¾":10829,"ĠÙħÛĮØ§Ø¯ÛĮÙĨ":10830,"ĠØ§ÙĦÙĤØ§Ø¹Ø¯Ùĩ":10831,"Û±Û³Û¹Û":10832,"ĠØ´Ø§Ø¹Ø±Ø§ÙĨ":10833,"ĠÙ¾Ø±Ø³Ù¾ÙĪÙĦÙĬØ³":10834,"ĠØ¯ÛĮØªØ§Ø´ÛĮØª":10835,"ĠÙħÛĮØ±Ø³ÛĮÙħ":10836,"ĠØ§ÛĮØ¯Ø¦ÙĪÙĦÙĪÚĺÛĮ":10837,"Ġyou":10838,"ĠØ§Ø¦ØªÙĦØ§Ùģ":10839,"ĠØªØ±ÙĥÙĬØ¨":10840,"ĠÙ¾Ø±ØªØ§ÙĦ":10841,"ĠØ¯Ú¯Ø±Ú¯ÙĪÙĨ":10842,"ĠÚ©Ø§ÙħÛĮÙĪÙĨ":10843,"0936270903":10844,"ĠÙħØŃØªÙĪÛĮØ§Øª":10845,"Ø§ÙĤØªØµØ§Ø¯ÙĨÛĮÙĪØ²":10846,"ĠÚ©Ø§ØªØ§ÙĦÙĪÚ¯":10847,"ĠÙĩØ²Ø§Ø±Ùĩ":10848,"ĠØ§Ø³ØªÙĪØ¯ÛĮÙĪ":10849,"ĠØ§Ø¯Ø¹Ø§ÛĮ":10850,"ĠÙģÙĦØ³Ø·ÛĮÙĨÛĮ":10851,"ĠÙĨØ§Ú©Ø§Ùħ":10852,"ĠØ´ÙĦØºÙħ":10853,"ĠØ¹Ø¨Ø¯Ø§ÙĦØ±Ø¶Ø§":10854,"ĠÙ¾Ø±Ø®Ø§Ø´Ú¯Ø±ÛĮ":10855,"ĠÙĨÙĤØ§Ø´Ø§ÙĨ":10856,"ĠØªØ¬Ø¯ÛĮØ¯Ù¾Ø°ÛĮØ±":10857,"ĠØ¢ÙģØ±ÛĮÙĤØ§":10858,"ĠØ¨ÛĮØ§ÙħÙĪØ²ÛĮØ¯":10859,"ĠÙĨÚ¯Ø§Ø´ØªÙĩ":10860,"ĠÚ©Ø§Ø±Ø§Ú©ØªØ±ÙĩØ§ÛĮ":10861,"ÙģØ¹Ø§ÙĦÛĮØª":10862,"udio":10863,"ÙħØ«ÙĦØ§":10864,"Ø¨ÙĨÛĮØ§ÙĨ":10865,"ĠØ´Ø¬Ø§Ø¹Øª":10866,"ĠØ®ÙĪØ´ÙħØ²Ùĩ":10867,"ĠÙħÚ©ØªØ¨":10868,"ĠØ®Ø²Ø§ÙĨÙĩ":10869,"ĠØ³Ø±ÚĨØ´ÙħÙĩ":10870,"ĠØºÙĦØ¨Ùĩ":10871,"indow":10872,"ĠÙħØ¨Ø§Ø±Ø²Ø§Øª":10873,"ĠÙĨØ§ÙĩÙĨØ¬Ø§Ø±ÛĮ":10874,"ĠØ§ÛĮÙĨØ¬Ø§Ø³Øª":10875,"ÙħØ±Ø¨ÙĪØ·":10876,"ĠØ¨ÙħØ§ÙĨÛĮØ¯":10877,"ĠÙħØ®Ø§Ø¨Ø±Ø§ØªÛĮ":10878,"ĠÙħÛĮÙĩÙħØ§ÙĨØ§ÙĨ":10879,"ĠØ§ÙĦØªØŃØµÛĮÙĦØ§ÙĨ":10880,"ĠØ¶ÙĦØ¹":10881,"ĠÙĪØ§Ø¶ØŃ":10882,"ĠSMD":10883,"oosk":10884,"ĠØ±Ø£ÛĮ":10885,"Ø·Ø§Ø±ÛĮÙĩ":10886,"ĠÙĥÙĪÚĨÙĥ":10887,"ĠØ§ÙĨØ¹Ú©Ø§Ø³":10888,"Ø§ÙħÛĮØ¯ÙĪØ§Ø±Ùħ":10889,"Ø§Ø±Ø²ÛĮØ§Ø¨ÛĮ":10890,"ĠÙĤØ§Ø¬Ø§Ø±":10891,"ĠBuild":10892,"ĠÙĪÙĦÙĪÙĪ":10893,"ĠÙĩÙĪÛĮØ¬":10894,"ĠÙģÙĩÛĮÙħ":10895,"ĠÙħØ¹Ø¶ÙĦØ§Øª":10896,"ĠÙĤØ§Ø¹Ø¯Ú¯ÛĮ":10897,"ĠÙħØ³Ø£ÙĦÙĩ":10898,"ĠØ§Ø¹ØªØ¨Ø§Ø±ÛĮ":10899,"ĠEuropa":10900,"lifemusic":10901,"ØªÙĥÙĨÙĪ":10902,"ĠÙħÙĪÙĨÛĮØ®":10903,"Ø§ÙĨØ¬ÙħÙĨ":10904,"ĠÙĪÙĬØ±Ø§ÙĬØ´":10905,"ĠØ¢ÙĪÛĮØ±Ø§":10906,"ĠØ³ÛĮÚ¯ÙĨØ§ÙĦ":10907,"Ġwestlifemusic":10908,"09362709033":10909,"!ØŁ":10910,"'s":10911,"01":10912,"23":10913,"31":10914,"57":10915,"61":10916,"600":10917,"74":10918,"75":10919,"88":10920,"850":10921,"HD":10922,"MS":10923,"OA":10924,"PN":10925,"Tags":10926,"ef":10927,"fum":10928,"hs":10929,"hold":10930,"ky":10931,"mp":10932,"net":10933,"post":10934,"ron":10935,"rack":10936,"ta":10937,"ust":10938,"van":10939,"yr":10940,"£Ù©":10941,"ä¸":10942,"ĠØ§Ø±ÛĮ":10943,"Ġal":10944,"Ġel":10945,"Ġ!!!":10946,"Ø§ÙĤÛĮ":10947,"Ø§ÙĪØ±Øª":10948,"Ø§Ú©ÙĨÙĪÙĨ":10949,"Ø±Ø§ÙħÛĮ":10950,"ĠÙĲ":10951,"ÙĨÙĪØ¹":10952,"ÙĩØ²ÛĮÙĨÙĩ":10953,"Ø¯Ø§ÛĮÛĮ":10954,"ÙĪÚ¯Ø±Ø§Ùħ":10955,"ØªØ§ÛĮ":10956,"ØªØ¬":10957,"ØªÙĪØ³":10958,"ØªÙĪØµ":10959,"ÙħÙĬÙĦ":10960,"ÙħÙĤÛĮØ§Ø³":10961,"ÙħØ§Ø®Ø°":10962,"Ú©ÙħÛĮ":10963,"Ú©Ø§ÙħÙĦ":10964,"ÙĦØ§ÙĨÛĮ":10965,"ÙĦØ§ÙĨØ¯":10966,"ÙĦØ§Ø²Ùħ":10967,"ÙĦÙħØ§ÙĨÛĮ":10968,"ĠØ¨ÙħØ§ÙĦ":10969,"ĠØ¨Ú¯ÙĪÛĮÙĨØ¯":10970,"ĠØ¨Ø¨ÛĮÙĨØ¯":10971,"ĠÙħÚĺ":10972,"ĠÙħÙĥ":10973,"ĠÙħÚ©Ø±":10974,"Ø§ÙĨØ§Øª":10975,"ĠØ¯ÙĪØ¯":10976,"ĠØ¯ÙĪØ²":10977,"Ø³Ø±Ùħ":10978,"Ø³Ø¦ÙĪ":10979,"Ø³Ù¾Ø³":10980,"ĠÙĪØ²ÛĮ":10981,"ĠÙĪØ§ÛĮÙĨ":10982,"ĠÙĪÙħØ¹":10983,"Ø´Ú¯ÛĮ":10984,"Ø´Ø§Ø¨Ùĩ":10985,"Ø§Ø±Ú¯":10986,"Ø§Ø±ÙĨØ¯":10987,"Ø¨ÙĪØ±ÛĮ":10988,"Ø¨Ø®ØªÛĮ":10989,"Ø¨Ø²Ø±Ú¯":10990,"ĠØªØ«":10991,"ĠØªØ¬ÙĩÛĮØ²":10992,"ĠØªØ§Ø¦ÛĮØ¯":10993,"ĠØªØ³ÙĦØ·":10994,"ĠØ±Ø¦ÛĮ":10995,"ĠØ±Ø§Ø³ØªÛĮ":10996,"ĠØ±ÙĬØ²ÙĬ":10997,"ĠÙĨØ¯Ø±":10998,"ĠÙĨÙĥ":10999,"ĠÙĨØ§ÙĪ":11000,"ĠÙĨØ§ÙĩÙħ":11001,"ĠÙĩÙĨØ¬":11002,"ĠÙĩØ§Ø±Ùħ":11003,"ĠÙĩØ±ÛĮØ³":11004,"ĠØ¯Ø±Ø¨Ø±":11005,"ĠØ¯Ø±Ø¨Ø§Ø±":11006,"ĠØ¯Ø±ÙĪÛĮØ´":11007,"âĢľ":11008,"ĠØ³ØªÛĮ":11009,"ĠØ³ÙĬÙĨ":11010,"ĠØ³Ø§ÙģØª":11011,"ĠØ´ÙĬØ±":11012,"ĠØ´Ù¾Ø´":11013,"ĠØ¢ØªÙĪØ±":11014,"ĠØ¢ØŃØ§Ø¯":11015,"ÙĤØ§ÙĦØ¨":11016,"ÙĤÙģÙĦ":11017,"Ø¹ÙĪ":11018,"Ø¹Ø±Ùģ":11019,"Ø¹ÙħÙĦ":11020,"Ø§ÙĦØªÛĮ":11021,"Ø§ÙĦØ³ÙĦØ§Ùħ":11022,"Ø§ÙĦØªØŃØµÛĮ":11023,"Ø§Ø¯Ø§Ø±ÛĮ":11024,"ĠÙ¾Ø¯ÛĮ":11025,"ĠÙ¾Ø§Ø¦":11026,"ĠÙ¾Ø§ÙĨØ³":11027,"ĠÙ¾Ø§Ø²ÙĦ":11028,"ĠØ®Ø§ÙĨÛĮ":11029,"ĠØ®ØªÙħ":11030,"ĠØ®Ø±Ø¨":11031,"ĠØ®Ø²Ø±":11032,"Ø¬Ø§Ø²":11033,"Ø¬ÙĪÛĮÛĮ":11034,"Ø¬Ø§Ø¨Øª":11035,"ĠÙħÛĮØ§ÙĨÛĮ":11036,"ĠÙħÛĮÚ©Ø³":11037,"ĠÙħÛĮØªÙĪØ§ÙĨÙĨØ¯":11038,"ĠØ§Ø³ÛĮØ±":11039,"ĠØ§Ø³Ú©ÛĮ":11040,"ĠØ§ÛĮÙģÙĪÙĨ":11041,"ĠØ§ÛĮÙģØ§ÛĮ":11042,"ÛĮØ¯Ø³Øª":11043,"Ø®ÙĨØ¯":11044,"ĠÙģØªØ§ÙĦÛĮ":11045,"ĠÙģÛĮÙĨØ§ÙĦ":11046,"ĠØ¨Ø±Ø§Ùħ":11047,"ĠØ¹Ø§Ø¨":11048,"ĠØ¹Ø¸":11049,"ĠØ¹ÙĢ":11050,"ĠØ¹Ø°Ø±":11051,"ØŃØ¬Øª":11052,"ĠØ§Ø³ØªÙħ":11053,"ĠØ§Ø³ØªØ¬Ø§Ø¨Øª":11054,"ĠÚ¯Ø´ÙĪØ¯":11055,"ĠØ¬ÙĩØ±":11056,"ĠØ¬ÙĨÛĮÙĨ":11057,"ĠØ¬Ø²ÛĮÛĮ":11058,"ØµÛĮØ±":11059,"ØµØªÛĮ":11060,"ØµÙĬÙĦÙĬ":11061,"Ø§Ø¨ÙĨ":11062,"Ø±ÙĪÙ¾":11063,"Ø±ÙĪÚĺÙĨ":11064,"ĠØŃØ³ÛĮ":11065,"Ø§Ø´ÛĮÙĨ":11066,"ĠØ§Ùĥ":11067,"ĠÙĤÙĪØ³":11068,"ĠÙĤØ´Ø±":11069,"ĠÙĤØ§Ø·Ø¹":11070,"ĠÙĤØ§Ø³ÙħÛĮ":11071,"ĠØ²ÙĩØ±":11072,"ĠØ²ØŃÙħØª":11073,"ÙĪÙĨÛĮÚ©":11074,"Ù¾Ø³Øª":11075,"Ù¾Ø´Øª":11076,"Ù¾Ø±Ø®":11077,"ÙĩØ§ÛĮØª":11078,"ĠÚĨÙĪ":11079,"ĠÚĨØ§ÛĮÛĮ":11080,"ĠÚĨÙĨØ¯ÛĮ":11081,"ĠÙĩØ§ÛĮÙ¾Ø±":11082,"ÙĪÙĦÙī":11083,"ÙĪÙĦÛĢ":11084,"ÙĪÙĦØ©":11085,"ÙģØªÛĮ":11086,"ÙģØªÙĨ":11087,"ØªØ±Ú©":11088,"ĠÙĦØ§ÙĨÙĩ":11089,"ĠÙĦÚ©ÙĨ":11090,"ĠÙĦØ§ØªÛĮÙĨ":11091,"ĠØµØ¯Ø§Ùħ":11092,"ĠÙħÙĪØªØ§":11093,"ĠÙħÙĪØªÙĪØ±ÛĮ":11094,"ĠÚ©Ø§Ø±ÙĪ":11095,"ĠÚ©Ø§Ø±Ú¯ÛĮØ±ÛĮ":11096,"ĠÚ©Ø§Ø±Ú¯Ø²Ø§Ø±":11097,"Ø§Ø¹ØªÙħ":11098,"ĠÙħÙĨØ´":11099,"ĠÙħÙĨØ§Ø±Ùĩ":11100,"ĠÙħØŃØ§Ú©":11101,"ĠÙĨÛĮØ§ÛĮØ¯":11102,"ĠÙĨÛĮØ§ÙħØ¯Ùĩ":11103,"ÛĮØªÙĪØ±":11104,"ĠØ¢ÙħØ¯ÛĮØ¯":11105,"ĠØ¢ÙħÙ¾Ø±":11106,"ĠØ§Ø±Ø§ÛĮØ´Ú¯Ø§Ùĩ":11107,"ĠØ¨Ø§Ø²Ø¯Ø§Ø´Øª":11108,"ĠØªÙĪØ´":11109,"ĠØªÙĪÚ©ÛĮÙĪ":11110,"ĠØ§ÙĦÙĬ":11111,"ĠØ§ÙĦÙħØ§ÙĨ":11112,"ĠØ§ÙĦØªØŃ":11113,"ĠØ§ÙĦØŃØ³":11114,"ĠØ§ÙĦÚ©ÙĦÛĮ":11115,"ĠØ§ÙĦØ²Ø§Ùħ":11116,"ĠØ¨ÛĮØ§Ø¯":11117,"ĠØ¨ÛĮØ³ØªÙħ":11118,"ĠØ¨ÛĮÚ©Ø§Ø±ÛĮ":11119,"ĠØ¨ÛĮØ§ÛĮÙĨØ¯":11120,"ĠØ¨ÛĮÙģØªØ¯":11121,"ĠØ¨ÛĮØ§Ø¶Ùĩ":11122,"Ø§ÙĨÛĮÙĦ":11123,"ÙĪÙħÙĨÛĮÙĨ":11124,"Ø§ØŃÙĬ":11125,"ØºØ§ÙĨÛĮ":11126,"ØºØ¯ÛĮØ±":11127,"Ø§Ø®ÙĪØ±Ø¯":11128,"Ø§Ø®Ø·Ø§Ø±ÛĮÙĩ":11129,"ĠÙģØ±Ø¬":11130,"ĠÙģØ±ÙĩÛĮ":11131,"ĠÙģØ±Ø¢ÙĪØ±ÛĮ":11132,"ĠÙģØ±Ø§Ø±ÙĪ":11133,"ĠÙģØ±Ú©Ø§ÙĨØ³":11134,"ĠÙģØ±ØµØªÛĮ":11135,"ĠÙħØ±Øµ":11136,"ĠÙħØ±ØªÚ©":11137,"ĠÙħØ¹Ø§ÙĦ":11138,"ĠÙħØ¹ÛĮÙĨÛĮ":11139,"ĠÙħØ¹Ø§Ø¯ÙĨ":11140,"ĠÙ¾ÛĮØ§ÙħÛĮ":11141,"ĠÙħØ¯ÙĪÙĨ":11142,"ĠÙħØ´Ùĥ":11143,"ĠØ§ÙģÙĤÛĮ":11144,"Ø§ÙģÙĪÙĨ":11145,"ĠØªØ±Ø³ÛĮÙħ":11146,"ĠØ¯Ø³ØªÙĪØ±ÛĮ":11147,"ĠØ¯Ø³ØªØ®ÙĪØ´":11148,"Ø¢Ø´ÙĨ":11149,"Ø¢Ø²Ùħ":11150,"Ø¢ÙĬÙĨØ¯":11151,"ĠØ³Ø±ÙħÙĩ":11152,"ĠØ³Ø±Ú¯Ø±ÙĪÙĩ":11153,"ĠØ³Ø±ÙĬØ¹":11154,"ĠØ±ÙĪØ§ÛĮØ§Øª":11155,"ĠØ®ÙĪØ¨Ùĩ":11156,"Ú©ØªØ±ÛĮÙĨ":11157,"ĠØºØ¯Ùĩ":11158,"ĠØ³Ø§ÙĦÙħÙĨØ¯Ø§ÙĨ":11159,"ĠÙħØ¬ÙĨ":11160,"ĠÙħØ¬Ø§Ø±ÛĮ":11161,"ĠÙħØ¬Ø§ÙĪØ±Øª":11162,"Ø§Ø³ØªØ§Ø¯":11163,"ĠÙĤØ±Ø¹Ùĩ":11164,"Ú©Ø³ÙĦÛĮ":11165,"ĠÙħÙĤØµØ¯":11166,"ĠÙħÙĤÙĪØ§":11167,"ĠÙħÙĤÙĪÙĦÛĢ":11168,"Ø§ÛĮØ´ÛĮ":11169,"ĠÙħØ³Ø§Ø¬Ø¯":11170,"ĠÙħØ³Ø®Ø±Ùĩ":11171,"ĠØ¯ÙĩÙĦÛĮ":11172,"Ø§Ø±Ø¯Ú©":11173,"Ø§Ú©ÙĪ":11174,"ĠÙĥÙĦØ§Ùħ":11175,"ĠÙĥÙĬÙģÙĬØª":11176,"ĠÙĥØ³Ùī":11177,"Ġ29":11178,"ĠØ¹ÙħØ±Ø§ÙĨÛĮ":11179,"ĠÙħÙĩØ§Ø±":11180,"ÙĥØ´":11181,"ÙĥØ±ÙĪ":11182,"Ø¹ÙĩØ¯Ùĩ":11183,"ĠÚ¯ÙĦØ¯ÙĪÙĨ":11184,"Ø§ÙĬØ¹":11185,"ĠÙĩØ³ØªÙĨ":11186,"Ø±Ø³ÙĨØ¯":11187,"Ø±Ø³Ø§ÙĨØ¯":11188,"ĠØ±Ø³Ø§ÙĨÙĬ":11189,"Ø§ÙĨØ¯Ø±ÙĪÛĮØ¯":11190,"ÙĬÙĨØª":11191,"ĠØ§Ø¬ÙĦØ§Ø³":11192,"ĠÙĨÙĤØ¯ÛĮÙĨ":11193,"Ú©ÙĦØ§Ùĩ":11194,"Ú©ÙĦØ§Ø³":11195,"ĠØ§Ø¨ÙĪÙħ":11196,"Ø§ÛĮÙĨØ³":11197,"ĠØ§Ø¯Ø§":11198,"ĠØ§Ø¯Ø¹Ø§":11199,"ĠØ§ÙĪØ§Ø³":11200,"ĠÙħØ§ÙĪØ±":11201,"ĠÙħØ§ÚĺÙĪÙĦ":11202,"ĠØªØµØŃÛĮØŃ":11203,"ĠØªØµØ§ÙĪÙĬØ±":11204,"ĠØ§ÙĨØ¯Ø§Ø®ØªÙĨ":11205,"ĠÚ©Ø´ÙĪØ±ÙĩØ§ÛĮÛĮ":11206,"ÙĨØ¬Ø§ÙĨ":11207,"ĠØ§Ø´Ø±Ùģ":11208,"ĠØ§Ø´Ø±Ø§Ùģ":11209,"ÙĨØ§Ú©ÛĮ":11210,"ÙĨØ§ÙĪØ¨":11211,"ĠÚ¯ÙģØªÛĮÙħ":11212,"ĠÚ¯ÙģØªÚ¯ÙĪÛĮ":11213,"Ø±Ø¨ÛĮÙĨ":11214,"ĠÚ©ØªØ§Ø¨Ø±Ø§Ùĩ":11215,"ĠØ´ÙĩØ±Ø¨Ø§Ø²ÛĮ":11216,"ÙģØ±ÙħØ§ÙĨØ¯Ùĩ":11217,"Ø§ÙĪØ±Ø²ÛĮ":11218,"ĠØ³Ø§Ø²ÙħØ§ÙĨÙĬ":11219,"ĠÚ¯ÛĮÙĦ":11220,"ĠÚ¯Ø±Ø¯ÙĪ":11221,"Ø§ØªÛĮÙĪ":11222,"ĠØ±ÛĮÙĦ":11223,"ĠØ±ÛĮØ²Ùĩ":11224,"ĠØ§ØŃÛĮ":11225,"ĠØ§ØŃØ²Ø§Ø¨":11226,"ĠØ¹Ø§Ø´ÛĮ":11227,"Ø§Ø¶ÙĬ":11228,"ĠØ§ÙĪÙĦÙĬÙĨ":11229,"erv":11230,"ÙĨØªØ²":11231,"ĠØ´ÙĨÙĪØ§ÛĮÛĮ":11232,"ĠØ¨ÙĦØ§Ø¯":11233,"ĠØ¨Ø®Ø´ÛĮØ¯":11234,"ĠØ¨ÙĨÙī":11235,"ĠÙĨÙĪÚ©":11236,"ĠÙĨÙĪØ¢ÙĪØ±":11237,"ĠØªØ´Ùĥ":11238,"ÙĪÙĨÛĮØ³Ùħ":11239,"ĠÙĨÙĩÙģØªÙĩ":11240,"Ø´Ø¯Øª":11241,"Ø´Ø¯ÙĨØ¯":11242,"ĠØ¢Ø±Ø§ÙħÛĮ":11243,"ÙĬØ¯ÙĬ":11244,"ĠØªÙĤÙĪØ§":11245,"ĠÙĩÙħÚĨÛĮÙĨ":11246,"Ø±ÙĪÙħÙĨØ¯":11247,"ĠØªÙĪÙĦÛĮØ¯Ú©ÙĨÙĨØ¯Ú¯Ø§ÙĨ":11248,"ino":11249,"ĠØªÙĩØ±Ø§ÙĨØªØ´":11250,"ĠÙ¾Ø§Ø³Ø§Ø±Ú¯":11251,"ĠØ¹ÙħÙĦÙĬØ§Øª":11252,"ĠØŃÙĤØ§ÛĮÙĤ":11253,"Ø³Ø§ÙĦÙĨ":11254,"ĠØ®ÛĮØ²ÛĮ":11255,"ĠÛ²Û·":11256,"ĠÙ¾Ø±Ø¯Ø§Ø²Ùĩ":11257,"ĠØ®Ø·Ø§ÛĮ":11258,"ĠØºÛĮØ±Ø±Ø³ÙħÛĮ":11259,"ĠØ²ÙĨØ§Ø´ÙĪÛĮÛĮ":11260,"ĠPriv":11261,"ĠØ§ÙĬÙĨÙĥÙĩ":11262,"ĠÙħØŃØµÙĪÙĦØ§ØªÛĮ":11263,"Ú¯Ø°Ø±Ø¯":11264,"ĠÙħØ¹ÙħØ§Ø±Ø§ÙĨ":11265,"ĠØ¬ÙĪØ§ÛĮØ²":11266,"ĠCrus":11267,"ĠØ¢ÛĮØ§Øª":11268,"ĠØ³ÙĦÙģÛĮ":11269,"ĠØ§ÙĨÚ¯Ø´ØªØ±":11270,"Ú¯Ø±Ø¯ÛĮØ¯":11271,"ĠÚ¯Ø±ÙģØªÛĮÙħ":11272,"ĠÙĩÛĮÚĨÚ¯Ø§Ùĩ":11273,"ĠÛ±Û³Û¶":11274,"ĠØ®ØµÙĪØµÛĮØª":11275,"ĠØ·Ø¨Ø§Ø·":11276,"ĠÙĦÛĮÙĪØ§ÙĨ":11277,"ĠØ²ÛĮØ¨Ø¯":11278,"ĠÙĩÙħØ§ÙĨØ§":11279,"ĠØ¯Ø§Ø®ÙĦÙĬ":11280,"ĠBand":11281,"ĠØ±ÙħØ¶Ø§ÙĨÛĮ":11282,"ĠØ³Ø§ÛĮØªÛĮ":11283,"Ġ45":11284,"ĠØªÛĮØ±ÛĮ":11285,"ĠØªÛĮØ²Ùĩ":11286,"ĠÙħÚ©Ø§ÙĦÙħ":11287,"ĠÙĦÙĪØ¨ÛĮØ§":11288,"ĠÙ¾Ø°ÛĮØ±Ø¯":11289,"ĠØ³ÙģØ±ÛĮ":11290,"2019":11291,"Û²Û²":11292,"ĠÙħÙĩØ±ÙħØ§Ùĩ":11293,"ĠØ¹ÙħÙĦÚ©Ø±Ø¯ÛĮ":11294,"ĠØ¬Ø§ÙĨØ¨Ø§Ø²Ø§ÙĨ":11295,"ĠØ¹ÙĦÛĮÙĩÙħ":11296,"ĠÙģØ±ÙħÙĪØ¯Ùĩ":11297,"ĠÙĪØ³Ø§ÙĬÙĦ":11298,"ĠÙĪØ³ÙĬÙĦÙĩ":11299,"ĠØ¯ÙĩÙĨØ¯Ú¯Ø§ÙĨ":11300,"Ø¨Ø¹Ø¯ÛĮ":11301,"ĠGame":11302,"ÙĪÙĦÙĪÚĺ":11303,"ĠÙ¾ÙĨØ¬Ø´ÙĨØ¨Ùĩ":11304,"ØªØŃÙĦÛĮÙĦ":11305,"ĠÙĨÛĮØ±ÙĪÚ¯Ø§Ùĩ":11306,"agna":11307,"ĠÙħØ³ØªÙĤØ±":11308,"ĠØ§ÙĨØªÙĤØ§Ø¯ÛĮ":11309,"row":11310,"ĠØ´Ø¹ÙĦÙĩ":11311,"ĠÙ¾Ø§Ø±ÙĦÙħØ§ÙĨÛĮ":11312,"low":11313,"ĠØ®ÙĪØ´Ú¯ÙĦ":11314,"Ġth":11315,"ition":11316,"ĠØªØ§Ø«ÛĮØ±ÛĮ":11317,"ĠÙħÙĪØ³Ø³":11318,"Ø±ÙģØªÙħ":11319,"ĠNa":11320,"ĠØ´ÛĮØ±Ø®ÙĪØ§Ø±":11321,"ĠØ¯Ø§ÙħØ§Ø¯ÛĮ":11322,"ĠØ¬ÙĦÙĪØªØ±":11323,"ĠØ±Ø§ÙĩÙĨÙħØ§ÙĬ":11324,"ĠÙĨØ§Ø§ÙħÛĮØ¯":11325,"ĠÙĩÙĨØ±ÙĬ":11326,"Ø²ÙĨØ¯Ú¯ÛĮÙĨØ§ÙħÙĩ":11327,"ĠÙĤÙĦØ¹":11328,"ĠØ±ÙģØªØ§Ø±ÙĩØ§ÙĬ":11329,"ĠÚ©Ø±ÛĮØ³ÙħØ³":11330,"ÙģÙĦØ§Ø´":11331,"ĠØ¬Ø±Ø§ÛĮÙħ":11332,"ĠEn":11333,"ĠØ³ØªØ§ÛĮØ´":11334,"Ġbe":11335,"Ġboy":11336,"ĠØ±Ø²Ùħ":11337,"ĠØ±Ø²ÙħØ§ÛĮØ´":11338,"ĠØ´ÙĨØ§Ø³Ø§ÙĨ":11339,"ĠÙ¾Ø±Ø³Ø´ÙĩØ§ÛĮ":11340,"ĠØ¨Ø³ÙĬØ§Ø±ÙĬ":11341,"ĠØ³Ø¹ÛĮØ¯ÛĮ":11342,"ĠØ¯Ø¹Ø§ÛĮ":11343,"ĠØ¯Ø¹Ø§ÙĬ":11344,"omp":11345,"ĠÛ´Ûµ":11346,"ĠØ¢Ø³Ø§ÛĮØ´":11347,"ĠØ§Ø³Ù¾ÛĮØ¯":11348,"ĠØ§Ø³Ù¾ÙĪØ±Øª":11349,"Ġonline":11350,"ÙħÙĪØ¶ÙĪØ¹":11351,"ĠØ¯ÙĬØ¯Ø§Ø±":11352,"ĠØ¯ÙĬÚ¯Ø±Ø§ÙĨ":11353,"ĠØ¶Ø±Ø¨Ø§ÙĨ":11354,"ĠØŃÛĮÙĪØ§ÙĨÛĮ":11355,"ĠØ¨ÛĮØªÙĪØªÙĩ":11356,"ĠØ¨Ø±ÙĪØ²Ø±Ø³Ø§ÙĨÛĮ":11357,"ĠÙħØ®Ø§Ø·Ø¨ÛĮÙĨ":11358,"ĠØ§ØºØ§ÙĨÙĬ":11359,"Ø¨Ø§Ø²ÛĮÚ¯Ø±Ø§ÙĨ":11360,"ĠØ¯Ø§ÙĨØ³ØªÙĨØ¯":11361,"Ø³ÙĦØŃØ´ÙĪØ±":11362,"ĠØ§ÙĨØªØ¸Ø§Ø±Ø§Øª":11363,"ĠØ®ÙĪØ§Ø³ØªÙĨØ¯":11364,"ĠØªØŃØ±ÛĮÙħÙĩØ§ÛĮ":11365,"ĠØ¢ÙĪØ±ÛĮÙĦ":11366,"ĠÙĩÙĨØ¯Ø¨Ø§ÙĦ":11367,"ĠØ®Ø§Ú©Ø³ØªØ±ÛĮ":11368,"ĠØ²ÙĨØ¯Ú¯ÛĮÙĨØ§ÙħÙĩ":11369,"ĠÙģØ±ÙħÙĪØ¯ÙĨØ¯":11370,"olor":11371,"ĠÙĨÚ©Ø±Ø¯ÙĨ":11372,"ĠØ³Ú©Ø³ÛĮ":11373,"ĠÙħØ±Ú¯Ø¨Ø§Ø±":11374,"ĠÛĮØ²Ø¯Ø§ÙĨÛĮ":11375,"ĠØ¢ÙĬØ§ØªÙĬ":11376,"ĠJacobs":11377,"ĠÙħØ§ÙĦÚ©":11378,"ĠÙħØ§ÙĦÚ©ÛĮØª":11379,"Ø§ÛĮØ±ÙĨØ§":11380,"ĠØ¬Ø§ÙĪØ¯":11381,"ĠØ®ÙĦØ§ÙĤØ§ÙĨÙĩ":11382,"Ù¾Ø±Ø¯Ø§Ø²ÙĬ":11383,"Ġvide":11384,"ĠÙħÚ©Ø§ÙĨÛĮØ³Ùħ":11385,"ĠÙħØ§Ø¯Ø§Ùħ":11386,"ĠØ§Ø±ØªÙĪØ¯ÙĨ":11387,"ĠKar":11388,"ĠØ§ÛĮØ±Ø§Ø¯Ø§Øª":11389,"Ù¾Ø²Ø´Ú©Ø§ÙĨ":11390,"ÙĪØ³ÛĮÙĦÙĩ":11391,"ĠÛĮÙĪØ§Ø´":11392,"ĠÙĨØ¸Ø§ÙħÛĮØ§ÙĨ":11393,"ĠØ§ÙĪØ±ÚĺØ§ÙĨØ³":11394,"ĠØ²ÙĬØ³Øª":11395,"ĠØ²ÙĬØ±Ø§":11396,"ĠÛĮØ§Ø±ÛĮÙħ":11397,"ĠÚ¯ÙĪÙĨØ§Ú¯ÙĪÙĨÛĮ":11398,"ĠØ§ÛĮØ³ØªØ§Ø¯Ùĩ":11399,"ĠÙ¾Ø¯ÙĬØ¯Ùĩ":11400,"ĠÙħØ±Ø²ÙĩØ§ÛĮ":11401,"ĠÚ©Ø§Ø´ÛĮÙħØ§":11402,"ĠÚ¯Ø±ÛĮÙĦ":11403,"ĠÙģØ±Ø§ÙħÙĪØ´ÛĮ":11404,"ĠØ§Ø´ØªØ¨Ø§ÙĩØ§Øª":11405,"ĠÚ©ÙĦØ§ÙħÛĮ":11406,"ĠØªØ¯Ø§Ø¨ÛĮØ±":11407,"Ø¢Ø¨Ø§Ø¯ÛĮ":11408,"ĠYong":11409,"ĠÐ¿":11410,"ĠØ·Ø¨ÛĮØ¹ØªØ§":11411,"ĠØ§ÙĦÚ¯ÙĪÙĬ":11412,"ĠØ§Ø³ØªØ¹ÙĦØ§Ùħ":11413,"ĠØµØ¨ØŃØ§ÙĨÙĩ":11414,"ĠØ¯Ø§Ø¦ÙħØ§":11415,"ĠÚĺÙĨØ±Ø§ÙĦ":11416,"ĠØªØ§Ø¬Ú¯Ø±Ø¯ÙĪÙĨ":11417,"ĠØ´Ø³ØªØ´ÙĪÛĮ":11418,"Ø¯Ø§ÙĨØ´Ú¯Ø§ÙĩÛĮ":11419,"Ġinfo":11420,"ĠØ¢ÙĪØ§ØªØ§Ø±":11421,"ĠÛ²Û°Û±Û¸":11422,"ĠâĩĲ":11423,"ĠÙģØ±Ø³ØªÙĨØ¯Ùĩ":11424,"ĠÙħØ¬ÙĪØ²ÙĩØ§ÛĮ":11425,"ĠÚ©Ø§ØºØ°ÛĮ":11426,"ĠÙĤÛĮÙħÙĩ":11427,"ĠØ¨Ø§ÙħØ¯Ø§Ø¯":11428,"ØµØ¯ÛĮÙĤÛĮ":11429,"ĠÙ¾ÛĮÙĪÙĨØ¯ÛĮ":11430,"Ð¾ÑĢ":11431,"Ġnew":11432,"ĠÙģÙĪØ§ØµÙĦ":11433,"ĠØªÙĪÙĨÙĦ":11434,"Ú©ÙģÙ¾ÙĪØ´":11435,"ĠÚ¯ÙħØ±Ú©":11436,"ÑģÑĤ":11437,"ĠÚ©ÙĦØ§ÙĩØ¨Ø±Ø¯Ø§Ø±ÛĮ":11438,"ÙħØ·Ø§ÙĦ":11439,"ĠØ±Ø¨Ø§Ø·":11440,"ĠØ³ÙĪØ¡Ø§Ø³ØªÙģØ§Ø¯Ùĩ":11441,"ĠØ²Ø§Ø¦Ø¯":11442,"ĠØ¯Ø³Ø±ÙĩØ§ÛĮ":11443,"ĠÙħØ¯Ø§Ø±Ø¨Ø³ØªÙĩ":11444,"Ø³Ø±ÛĮØ§ÙĦ":11445,"ĠØ§Ø´Ø®Ø§ØµÛĮ":11446,"ĠØ§Ø°ÛĮØª":11447,"Ø²ÛĮØ±ÙĨÙĪÛĮØ³":11448,"ĠØ§ÙĦØªÙĩØ§Ø¨ÛĮ":11449,"ĠØ¨Ú©Ø´Ø¯":11450,"ĠØ§Ú©ØªØ¨Ø±":11451,"ĠØ¶Ø®ÛĮÙħ":11452,"ender":11453,"ĠÙĨØ±ÛĮÙħØ§ÙĨ":11454,"ĠØ³Ø§Ø±Ø§ÙģÙĪÙĨ":11455,"ĠØ¨Ø±Ø³Ø§ÙĨÛĮØ¯":11456,"ĠÙĥÙħÙĥ":11457,"ĠØ®ÙĪØ¯Ø±ÙĪÛĮÛĮ":11458,"ðŁĶ":11459,"ĠÚ¯ÙĪØ§Ø±Ø´ÛĮ":11460,"ĠØ²Ø¨Ø§ÙĨÙĩ":11461,"ĠØ§ÙĨØŃØµ":11462,"ĠÙħØŃØµÙĪØ±":11463,"ĠÙĨÙħØ§ÙĬÙĨØ¯":11464,"ĠØ³ÙĦØ·ÙĨØªÛĮ":11465,"ĠÙģÙĦØ³Ø·ÛĮÙĨ":11466,"ndroid":11467,"ĠØ§ÙĨØµØ§Ø±":11468,"ĠØ¢ÙģØ±ÛĮÙĤØ§ÛĮ":11469,"ĠÙĩÙĪØ§Ù¾ÛĮÙħØ§ÛĮÛĮ":11470,"ĠØ¯ÙĨØ¯Ø§ÙĨÛĮ":11471,"ĠÚ©Ø±ÙĪØ¨ÛĮ":11472,"ĠØ¹Ø¬ÙĦÙĩ":11473,"ĠØ¨Ø§Ø²Ú¯Ø±Ø¯Ø§ÙĨØ¯ÙĨ":11474,"ĠØ¢Ø±Ø²ÙĪÛĮ":11475,"ĠØªÙĤÙĦØ¨ÛĮ":11476,"ĠÙ¾Ø§Ø±Ø§ÙħØªØ±ÙĩØ§ÛĮ":11477,"ĠÙħØŃØ§Ø³Ø¨Ø§Øª":11478,"ĠArt":11479,"ĠÙħØ¨Ø§Ø¯ÙĦØ§Øª":11480,"ĠÙħØ·Ø¨ÙĪØ¹Ø§Øª":11481,"ĠØ§ÛĮÙĪØ§ÙĨÚ©":11482,"ĠÚ¯ÙĦÛĮØ±":11483,"ĠÙĦØ§Ø³ØªÛĮÚ©ÛĮ":11484,"ĠØ´Ø±Ú©ØªÛĮ":11485,"ĠØªØµÙĪÙĬØ¨":11486,"ĠØ§ÙĤØ§ÙħØªÛĮ":11487,"Ø¯ÙĬÚ¯Ø±":11488,"ĠØ¨ÛĮØ±Ø¬ÙĨØ¯":11489,"ĠÙħØ£Ùħ":11490,"ĠÙĦØ¨ÙĨÛĮØ§Øª":11491,"ĠØ¨Ø³Ù¾Ø§Ø±ÛĮØ¯":11492,"nuo":11493,"ĠÙ¾Ø´ØªÙĪØ§ÙĨÙĩ":11494,"ØŃØ¬Ø§Ø¨ÛĮ":11495,"ĠÙ¾Ø±Ø§Ú©ÙĨØ¯Ùĩ":11496,"ĠÙħØ²Ø§ÛĮØ¯Ùĩ":11497,"ĠØ¨Ø·Ø±ÛĮ":11498,"ÙģØ§Ø±Ø³ÛĮ":11499,"ĠØºØ±ÛĮØ¨Ùĩ":11500,"ĠBalim":11501,"ĠÙħÛĮØªÙĪÙĨÛĮØ¯":11502,"ĠØŃØ§ØªÙħ":11503,"ĠÙĤØ§Ø±ÚĨÛĮ":11504,"ĠÙĤÙģØ³Ùĩ":11505,"ĠÚ©Ø§Ø±Ø¢ÙħÙĪØ²ÛĮ":11506,"ĠØºÙĬØ¨Øª":11507,"ĠDriving":11508,"ĠÙħÚ¯Ø§Ø¨Ø§ÛĮØª":11509,"Ú©Ø§Ø±Ø¯Ø³ØªÛĮ":11510,"ĠÙĨØ·ÙģÙĩ":11511,"ĠÙħØµÙĦØŃØª":11512,"ĠMonst":11513,"rypto":11514,"ĠÙĩÙħØ³Ø±ØªÙĪÙĨ":11515,"ĠStronghold":11516,"ĠØ¹Ø§Ø±Ø¶Ùĩ":11517,"ĠØ§Ù¾ØªÛĮÚ©ÛĮ":11518,"ĠØ¯Ø§Ø±ÙĪØ³Ø§Ø²":11519,"ĠØ§ÙģÙĦØ§Ø·ÙĪÙĨ":11520,"ĠØºÛĮØ±Ø¯ÙĪÙĦØªÛĮ":11521,"Ø¨Ø§Ø²Ø§Ø±ÛĮØ§Ø¨ÛĮ":11522,"Ġgalet":11523,"ØªÙĪØµÛĮÙĩ":11524,"ĠÙĪÙħØ¹ÙĦÙħ":11525,"ĠÙĩØ§Ø±ÙħÙĪÙĨÛĮ":11526,"ĠØ¢ØªÙĪØ±ÙĪØ§Ø³Øª":11527,"ĠØ®Ø±Ø¨Ø²Ùĩ":11528,"ĠÙģØªØ§ÙĦÛĮÚ©":11529,"Ù¾Ø±Ø®Ø§Ø´":11530,"ĠÙħØŃØ§Ú©ÙħÙĩ":11531,"ĠØ§ÙĦØŃØ³ÙĨÙĩ":11532,"ĠÙħØ±ØªÚ©Ø¨":11533,"ĠÙĨÙĤØ¯ÛĮÙĨÚ¯ÛĮ":11534,"ĠØªÙĩØ±Ø§ÙĨØªØ´Ø±ÛĮÙģØ§Øª":11535,"ĠÙ¾Ø§Ø³Ø§Ø±Ú¯Ø§Ø¯":11536,"ĠÙħÚ©Ø§ÙĦÙħØ§Øª":11537,"ĠØ§Ø±ØªÙĪØ¯ÙĨØ³ÛĮ":11538,"ĠYongnuo":11539,")ÂŃÂŃ":11540,".(":11541,"38":11542,"44":11543,"70":11544,"=\"":11545,"ET":11546,"Go":11547,"IE":11548,"IN":11549,"RS":11550,"Si":11551,"TA":11552,"TL":11553,"aj":11554,"ban":11555,"bum":11556,"dol":11557,"fil":11558,"lor":11559,"land":11560,"telegram":11561,"ue":11562,"ux":11563,"yric":11564,"ÃĹ":11565,"ÑĮ":11566,"Ñĸ":11567,"Ù§":11568,"Ġ%":11569,"Ġ;":11570,"Ġ@":11571,"Ġlo":11572,"Ġit":11573,"Ġ0912":11574,"Ġall":11575,"Ø§ÚĨÙĩ":11576,"ÛĮÙĪ":11577,"ÛĮØ§Ø¨ÛĮ":11578,"ÛĮÛĮØ¹":11579,"Ø±Ø¨ÛĮ":11580,"Ø±Ø´Ø¯":11581,"Ø±Ø§ÙģÛĮ":11582,"ÙĨØ§ÙĦ":11583,"ÙĨØ§Ø¹":11584,"ÙĩÙģØª":11585,"Ø¯Ø®":11586,"ÙĪØ§Øª":11587,"ÙĪÚĺ":11588,"ÙĪØ§ÛĮØª":11589,"ÙĪØ§ÙĤ":11590,"ÙĪØ§ÙĤØ¹":11591,"Ú©Ø§Ùģ":11592,"Ú©Ø±Ø¨":11593,"Ú©ÙĪÙ¾":11594,"ĠØ¨ÚĨ":11595,"ĠØ¨Ø´ÙĨ":11596,"ĠØ¨Ø¯ÛĮØ¯":11597,"ĠØ¨Ø§ÛĮÙĨ":11598,"ĠØ¨ÙģÙĩ":11599,"ĠØ¨Ú¯Ùħ":11600,"ĠØ¨ÚĨØ±Ø®":11601,"ĠÙħØ§Øª":11602,"ĠÙħÙģØ±":11603,"ĠÙħØ¨Ø§ÙĦ":11604,"ĠÙħØ²Ø¯":11605,"ĠÙħØ§Ø¡":11606,"Ø§ÙĨÛĮØª":11607,"Ø§ÛĮØ±Ø§ÙĨÛĮ":11608,"ĠØ¯ÙĦÛĮ":11609,"ĠØ¯ÙĬØ¯":11610,"ĠØ¯Ø§ÛĮØ±":11611,"Ø³Ø±Ø¯":11612,"Ø³Ø§ÙĨÙĩ":11613,"Ø³ÙĦÙħ":11614,"Ø³Ø·ÙĦ":11615,"ĠÙĪØº":11616,"ĠÙĪØ¨Ùĩ":11617,"ĠÙĪØ§ÙĦÛĮ":11618,"ĠÙĪØ±Ø§":11619,"Ø´Ø§Ø®":11620,"ĠÚ©Ø¯ÛĮ":11621,"ĠÚ©Ø¯Ø±":11622,"ĠÚ©Ø§Ø³Øª":11623,"ĠÚ©Ø§Ú©":11624,"ĠÚ©ÙģÛĮ":11625,"ĠÚ©Ø¯ÙĪ":11626,"ĠÚ©Ø§Ø³ØªÙĩ":11627,"Ø§Ø±Ø§":11628,"Ø§Ø±ÛĮÙĨ":11629,"Ú¯Ø³Øª":11630,"Ú¯Ø´Øª":11631,"Ø¨Ø§Ø¯":11632,"Ø¨ÙĬÙĨ":11633,"ĠØªØ§Ùħ":11634,"ĠØªØ§Ø³":11635,"ÙģØ³ÛĮ":11636,"ÙģÙĪØ±Ø¯":11637,"ÙģØ´Ùĩ":11638,"ĠØ±ÛĮÙħ":11639,"ĠØ±Ø®Øª":11640,"ĠØ±ÛĮÙħÛĮ":11641,"ĠØ±ØµØ¯":11642,"ĠØ±ÙĨØ¯Ø±":11643,"ĠÙĨÙĪØª":11644,"ĠÙĨØªÙĪØ§ÙĨØ¯":11645,"ĠÙĨØ§Ø¦ÙĦ":11646,"ĠÙĨÚ¯Ø±Ø¯Ø¯":11647,"ĠÙĨØ®ÙĪØ§ÙĩÙĨØ¯":11648,"ĠÙĩÙĪØ§ÙĨ":11649,"Ø§ÙħØ¬Ø¯":11650,"ĠØ¯Ø±Ùĩ":11651,"ĠØ¯Ø±ÛĮÙĨ":11652,"ĠØ¯Ø±Øµ":11653,"ĠØ¯Ø±ÙĨÚ¯":11654,"ĠØ¯Ø±Ú¯Ø§Ùĩ":11655,"ĠØ¯Ø±Ø¢ÙħØ¯Ùĩ":11656,"ĠØ³Ø¬":11657,"ĠØ³Ø§Ø¨":11658,"ĠØ³Ø¯Ùĩ":11659,"ĠØ³ÙĦØ¨":11660,"ĠØ³ÛĮÙĨÚ©":11661,"ĠØ³Ø§Ø¹ÛĮ":11662,"ĠØ³Ø±Ø¯Ùĩ":11663,"ĠØ³Ø§ÙĬØ±":11664,"ĠØ´Ø§ÙĦ":11665,"ĠØ´ÙĪÙĨ":11666,"ĠØ´Ú©Ø§Ø±":11667,"ĠØ´ÙĪÙĤ":11668,"ĠØ´Ø§Ø¡":11669,"ĠØ´ÙĬØ±ÙĬ":11670,"ĠØ¢Ø«":11671,"ĠØ¢Ø±Ø³":11672,"ĠØ¢Ú©ÙĪ":11673,"ĠØ¢ÙĪØ§":11674,"ÙĤÙĪÙĩ":11675,"Ø¹Ø¯Ùħ":11676,"ĠØ¨ÙĩØ§":11677,"ĠÙ¾ÙĪÛĮ":11678,"ĠÙ¾ÙĦØ§Ú¯":11679,"ĠÙ¾Ø®ØªÙĩ":11680,"ĠØ®ÙĨ":11681,"ĠØ®ÛĮØ³":11682,"ĠØ®Ø§Ùĥ":11683,"Ø¬ÙĪØ§ÙĨÛĮ":11684,"ĠÙħÛĮÚ¯ÙĪÛĮØ¯":11685,"ĠÙħÛĮÙĨÙħØ§ÛĮØ¯":11686,"ĠÙħÛĮÙĥØ±ÙĪ":11687,"ĠØ§ÛĮØ³":11688,"ĠØ§ÛĮØ§ÙĦØª":11689,"ÙĪØ±Ø³":11690,"ÙĬÙĬØ¯":11691,"ÙĬØ§Ø¡":11692,"ÙĬÙĪØªØ±":11693,"ÛĮØ¯Ø§":11694,"Ø³ØªØ¯":11695,"Ø³ØªØ§Øª":11696,"Ø³ØªÙĦØ§":11697,"Ø®Ø·ÛĮ":11698,"Ø®Ø§ÙĨÙĪ":11699,"ĠÙģØªÙĪ":11700,"ĠÙģØµÙĪÙĦ":11701,"ĠÙģØ·Ø±":11702,"ĠÙģØ³ÙĨØ¬Ø§ÙĨ":11703,"ĠØ¨Ø±ØŃ":11704,"ĠØ¨Ø±Ø²ÛĮ":11705,"ĠØ¹Ø§ÙħÙĩ":11706,"ĠØ¹Ø§Ø²Ùħ":11707,"ĠØ¹Ø²Ùħ":11708,"ĠØ¹Ø§ÙĦÙĬ":11709,"Ø§ØªÙħÙĨØª":11710,"ØŃØ§Ø¬":11711,"ĠØ§Ø³ØªØ±ÛĮ":11712,"ĠØ§Ø³ØªØ§ØªÛĮÚ©":11713,"ĠØ§Ø³ØªÙĪØ§ÙĨÙĩ":11714,"ĠÚ¯Ø±ÛĮÙĨ":11715,"ĠØ¬Ø§ÙĨØ¯":11716,"ĠØ¬Ø§ÙħÛĮ":11717,"ĠØ¬Ø§Ø¯ÙĪ":11718,"ĠØ¬Ú©Ø³ÙĪÙĨ":11719,"ØµØ¯Ø§":11720,"Ø§Ø¨ÙĪÙĨ":11721,"Ø§Ø¨Ø¹ÛĮ":11722,"ĠÛĮØ§ÙĦ":11723,"ĠÛĮØ§Ø¦":11724,"ĠÛĮÙĪØ³":11725,"ĠØ§ÛĮÙĨØ·ÙĪØ±":11726,"ĠØ§ÛĮÙĨØ·ÙĪØ±ÛĮ":11727,"Ø·Ø¦Ùĩ":11728,"Ø§Ø³Ø±":11729,"Ø§Ø³Ø¨ÛĮ":11730,"Ø§Ø³Ø§Ø²ÛĮ":11731,"Ø±ÙĪÙĦ":11732,"Ø±ÙĪØ¦ÛĮØ¯":11733,"Ø§Ø´ÛĮØ±":11734,"ĠÙĤØ§Ùģ":11735,"ĠÙĤÙĪÙħÛĮ":11736,"ĠØ²Ø§Ø¯":11737,"ĠØ²ØŃÙħ":11738,"Ù¾Ø¯Ø±":11739,"Ù¾ÙĨØ¬":11740,"Ù¾Ø§ÛĮØ§ÙĨ":11741,"Ù¾ÙħÙ¾":11742,"Ù¾Ø±ÛĮÙĨØªØ±":11743,"ÛĮØ±Ø§":11744,"ĠÚĨÛĮÙĩ":11745,"ĠÚĨÙĨÙĬÙĨ":11746,"ĠØ¯Ø§ÙĨØ§":11747,"ÙĪÛĮÚĨ":11748,"ĠÙĩÙħÚ¯Ø§ÙĨ":11749,"ĠÙĩÙħØ±ÙĨÚ¯":11750,"ĠÙĩÙħÙĪØ±ÙĪ":11751,"ĠØ¨Ø±Ø§ÛĮÙĨ":11752,"ĠÙĦÚ©":11753,"ĠÙĦÛĮÙĨ":11754,"ĠÙĦÚ©Ùĩ":11755,"ĠÙĦØ§ÙĦÛĮ":11756,"ĠØ§ÙħØ±ÛĮÚ©":11757,"ĠØ§ÙħÛĮØ±ÛĮ":11758,"ĠØ§ÙħÙĥØ§ÙĨ":11759,"ĠØµÛĮ":11760,"ĠØµÛĮØ§Ø¯":11761,"ĠØµÙħÛĮÙħÛĮ":11762,"ĠÚ©ÙĨØªØ±Ø§Ø³Øª":11763,"Ø°Ùĩ":11764,"ĠØ·Ø¹":11765,"ĠØ·Ø§Ø³ÛĮ":11766,"ĠØ·ÙĨØ§Ø¨":11767,"ĠÙħÙĪØ§Ø²ÛĮ":11768,"ĠÙħÙĪØ³ØªÙĦØ§":11769,"ĠÚ©Ø§Ø±Ø§ÙĨ":11770,"ĠÚ©Ø§Ø±Ø´":11771,"ĠÚ©Ø§Ø±ÙĪÙĨ":11772,"ĠÚ©Ø§Ø±Ø¯Ø§ÙĨ":11773,"Ġ(Â«":11774,"ĠØ¯Ø§Ø±ÙĨ":11775,"ĠÙħÙĨØ³":11776,"ĠÙħÙĨØ¬":11777,"ĠÙħÙĨÚĨ":11778,"ĠÙħÙĨØ§Ø¨Ø¹ÛĮ":11779,"Ú¯Ø±Ø§ÛĮØ´":11780,"ĠÙħØŃÙĦØ§Øª":11781,"ĠÙħØŃØ§ÙģØ¸Ùĩ":11782,"ĠÙħØŃÙĪØ±ÛĮØª":11783,"ĠÙĨÛĮØ³ØªÙħ":11784,"ĠÛĮÚ©Ø³Ø±ÛĮ":11785,"ĠØ®ÙĪØ¯Ø±Ø§":11786,"ĠØ¢ÙħØ¯Ùħ":11787,"ĠØ¨Ø§Ø²ÙĨ":11788,"ĠØ¨Ø§Ø²Ùĩ":11789,"ĠØ¨Ø§Ø²ÙĪ":11790,"ĠØ¨Ø§Ø²ÙĨØ¯Ùĩ":11791,"ĠØ¨Ø§Ø²Ú©Ø±Ø¯ÙĨ":11792,"ĠØ¨Ø§Ø²Ø¯ÙĬØ¯":11793,"ĠØ¨Ø§Ø²Ù¾Ø±Ø¯Ø§Ø®Øª":11794,"ĠØªÙĪØ§Ùħ":11795,"ĠØ§ÙĦÚ©":11796,"ĠØ§ÙĦØ¨ÙĦ":11797,"ĠØ§ÙĦÙħØ¹":11798,"ĠØ¨ÛĮØ§Øª":11799,"ĠØ¨ÛĮØ¹Øª":11800,"Ø§ØŃØªÙħ":11801,"ØºÛĮØ¨":11802,"Ø§Ø®ØªÙħ":11803,"ĠÙģØ±Ø®":11804,"ĠÙģØ±Ø§Ø±ÛĮ":11805,"ĠÙħØ±Ø³":11806,"ĠÙħØ¹Ø§Ø´":11807,"ĠÙħØ¹Ø¯ÙĦ":11808,"ĠÙħØ¹Ø§ÛĮØ¨":11809,"ĠØ´ÙħØ§Ø±Ø´":11810,"ĠÙħØ¯ÛĮÙĨÙĩ":11811,"Ú©ÙĨØ§Ø±":11812,"ĠØªØ§ÙĪÙĨ":11813,"Ø§ÛĮØªØ§ÙĨ":11814,"ĠØ§ÙģÙĤ":11815,"ĠØ§ÙģØ´Ø§":11816,"ĠØ§ÙģØºØ§ÙĨÛĮ":11817,"ĠÙħØªÙĪ":11818,"ĠÙħØªÙħÙħ":11819,"ĠØ¯Ø³ØªØ§ÙĪØ±":11820,"ĠØ¯Ø³ØªØ¨ÙĨØ¯":11821,"ĠØ¨ÙĪØ¯ÛĮÙħ":11822,"ĠØ³Ø±ÙĪØ¯Ùĩ":11823,"ĠØ³Ø±Ø¨Ø§Ø²ÛĮ":11824,"ĠØ±ÙĪØ§ÙĦ":11825,"ĠØºØ§Ø±":11826,"ĠØºØ±ÙģÙĩ":11827,"Ø¯Ø±Ø¬":11828,"ĠØ³Ø§ÙĦØ§Ø±":11829,"ĠÚ©Ø´Ø¯":11830,"ĠÙħÙĤØ¯":11831,"ĠÙħØ³Ø§ÙĪÛĮ":11832,"Ø§ÙĤÙĦÛĮ":11833,"ĠØ³Ø§Ø²Ø§ÙĨ":11834,"ĠØ³Ø§Ø²ÙĨØ¯Ú¯Ø§ÙĨ":11835,"ĠØ³Ø§Ø²Ú¯Ø§Ø±ÛĮ":11836,"ĠØ´Ø±Ø¨":11837,"ĠØ´Ø±Ø§Ø±Ùĩ":11838,"Ø§Ú©Ø§ÙĨ":11839,"ĠØªØŃÙĤ":11840,"ĠØªØŃÙĤÛĮÙĤÛĮ":11841,"ĠØªØŃØ³ÛĮÙĨ":11842,"ĠØªØŃØµÙĬÙĦ":11843,"ĠØªØŃÙĦÙĬÙĦ":11844,"ĠÙĥÙĪ":11845,"ĠÙĥØ§Ùħ":11846,"Ø§Ø·Ùħ":11847,"Ġ250":11848,"ÙĪØ±ØªØ§ÙĨ":11849,"ÙĪØ±ØªØ±ÛĮÙĨ":11850,"ĠØ²ÛĮØ§ÙĨ":11851,"ÙĥØ§Ø±ÙĬ":11852,"Ø§Ø¬Ø§Ø±Ùĩ":11853,"ĠÚ©ÙħÛĮÙĨ":11854,"Û°Û³":11855,"Ø§Ø¦Ø¯":11856,"Ø§Ø¦ÙĬ":11857,"ĠØ³ÛĮÚ©ÙĦ":11858,"ĠÚ¯ÙĦÚ©Ø³ÛĮ":11859,"ĠØ¨Ø¯ÙĪ":11860,"ĠØ¨Ø¯ÙĦ":11861,"Ø§ÙĬØ§Øª":11862,"Ø±ÙħØ²":11863,"ĠÚ©ÙĨØ¯ÙĨ":11864,"ĠØªØ¹Ø±ÙģÙĩ":11865,"ĠÙģÛĮØ¶":11866,"ĠØ§Ø¬Ø§Ø¨Øª":11867,"ĠØ§Ø¬Ø¨Ø§Ø±ÛĮ":11868,"ĠØ§Ø¬ÙĨØ§Ø³":11869,"ĠØªÙħØ§ÛĮØ²":11870,"ÙĢØ§ÙĨ":11871,"ĠØ§Ø¨Ø§ØªÙħÙĨØª":11872,"Ø¨Ø§ÙĨØ§ÙĨ":11873,"Ø§ÛĮÙĨØ¬Ø§":11874,"ĠÙĨØ§ÙħÛĮØ¯":11875,"ĠÙĨØ§ÙħÙĨØ¸":11876,"ĠØ§Ø¯ÙħÛĮÙĨ":11877,"ĠÚ©ÙĦØ§ÙĦÙĩ":11878,"ĠØªÙĩØ´":11879,"ĠØªÙĩÙħØª":11880,"ĠÚ©Ø´ÙĪØ±ÙĩØ§ÙĬ":11881,"ĠÙħØ§ÙĩØ§ÙĨÙĩ":11882,"ĠÙ¾Ø§ÛĮØ¨ÙĨØ¯ÛĮ":11883,"ĠØ§Ø·ÙģØ§ÙĦ":11884,"ĠØ§Ø´Øª":11885,"ĠØ§Ø´ØºØ§ÙĦ":11886,"ĠØ¶ÛĮ":11887,"ĠÙ¾Ø±ÙĪÛĮØ²":11888,"ĠÙ¾Ø±ÙĪØ³ØªØ§Øª":11889,"ĠØ§ÙĤØ³Ø§Ø·":11890,"ĠÙ¾ÛĮØ´Ø§ÙĨÛĮ":11891,"ĠÙ¾ÛĮØ´Ú¯ÙĪÛĮÛĮ":11892,"ĠÙ¾ÛĮØ´Ú¯Ø§Ùħ":11893,"ĠØ¨Ø§ÙĦØ§Ø³Øª":11894,"ĠØ¨Ø§ÙĦÙĤÙĪÙĩ":11895,"ÙĦØ¨ÙĪØ±Ø¯":11896,"ĠÙ¾Ø³ÙĪØ±Ø¯":11897,"ĠÙ¾Ø³ÙĪÙĨØ¯":11898,"ĠÙ¾Ø³Ø±Ø´":11899,"Ø®ÛĮÙĦ":11900,"Ø®ÛĮØµÛĮ":11901,"Ø¯Ø§ÙĨØ§ÙĨ":11902,"ÙħÙĩÙħ":11903,"Ú©Ø§Ø±Ø´ÙĨØ§Ø³Ø§ÙĨ":11904,"ĠØ¨Ø¹Ø¯ÙĩØ§":11905,"ĠØ³Ø§Ø®ØªØ§Ø±ÛĮ":11906,"ĠÚ¯ÛĮØ¬":11907,"ĠØ´ÛĮÙĪØ¹":11908,"ĠØªÙĨÙģØ³ÛĮ":11909,"ĠÚ¯Ø±Ø¯Ø¢ÙĪØ±ÛĮ":11910,"ĠØ§Ø·ÙĦØ§Ø¹ÙĬÙĩ":11911,"ĠØ¨ÛĮÙĨÙĨØ¯Ú¯Ø§ÙĨ":11912,"ĠÙ¾Ø±ÙĪØ±Ø¯":11913,"Ø¯Ø§Ø±Ø§ÛĮ":11914,"ĠØ¹Ø§Ø´ÙĪØ±":11915,"ĠØ«Ø§ÙĦØ«":11916,"ĠÙħÙĬÙĪÙĩ":11917,"ĠÙħÙĬÙĦÙĬ":11918,"ĠÙĪØ±ÙĤ":11919,"Ù¾ÛĮØ§Ùħ":11920,"ĠÙĩÛĮÙĪÙĦ":11921,"ĠÙĩÛĮØ¨Ø±ÛĮØ¯":11922,"ĠÙħØµØ§Ø¯":11923,"ĠÙħØµÙĪÙĨ":11924,"ĠØ¨ÙĦÙĨØ¯ÛĮ":11925,"ĠÙģØ¹ÙĦ":11926,"ĠØ¨ÙĨØ§Ø¯Ø±":11927,"ĠØ¨ÙĨØ²ÛĮÙĨ":11928,"ĠÙĨÙĪØ¬ÙĪØ§ÙĨÛĮ":11929,"Ġ)ØĮ":11930,"ĠØªØ´Ú©":11931,"ĠØªØ´Ø§Ø¨Ùĩ":11932,"ĠØªØ´ÛĮÛĮØ¹":11933,"ĠØªØ´Ø®ÛĮØµÛĮ":11934,"ĠØ§ÙģØ±Ø§Ø·":11935,"Ġ33":11936,"Ġ3000":11937,"ĠÙĨÙĩØ§Ø¯ÙĩØ§":11938,"ĠØ°ÙĪÙĤ":11939,"ĠØ°ÙĬÙĦ":11940,"Ø´Ø¯Ú¯Ø§ÙĨ":11941,"ĠØ¨Ø²Ø±Ú¯ÙĪØ§Ø±":11942,"ĠØ¢Ø±ÙĨØ¬":11943,"arm":11944,"Ø¨Ø§ÙĦØ´ÛĮ":11945,"Ø¨ÙĦÙĨØ¯":11946,"ĠØ¯Ø§Ø´ØªÙĨÛĮ":11947,"ĠÙħØ®ØªØ§Ø±ÛĮ":11948,"ØªÙĪØ«":11949,"ĠSub":11950,"ĠÙħØ«Ø§Ø¨Ùĩ":11951,"ĠÙħØ«Ø¨ØªÛĮ":11952,"Ø¬ÛĮÙĦ":11953,"ÙĦÙģÙĩ":11954,"Ø´ÛĮÙĪÙĩ":11955,"ĠØ·Ø±ØŃÙĩØ§ÛĮ":11956,"ĠØ¹Ø±Ø¶ÛĮ":11957,"ĠAndroid":11958,"ĠØ¯ÙĦØ§ÙĦØª":11959,"ĠÚ©ÙĪÚ©":11960,"ĠÚ©ÙĪÛĮØ±":11961,"ĠÚ©ÙĪÙĦÛĮØª":11962,"ĠÙ¾Ø±Ø¯ÛĮØ³":11963,"ĠØ¯Ø±ÙħØ§ÙĨÙĩØ§ÛĮ":11964,"ĠPo":11965,"ĠPlan":11966,"ĠÚ©Ø§ÙħÙĦÛĮ":11967,"ĠØ§ÙĬÙĨÚ©Ùĩ":11968,"ĠØ¬Ø§ÙħØ¹ÛĮ":11969,"ĠØ®Ø¨Ø±Ùĩ":11970,"ĠØ®Ø¨Ø±ÙĩØ§":11971,"ĠØ³ÛĮØ³ØªÙħØ§ØªÛĮÚ©":11972,"Ø¯Ø§Ø¯ÙĨØ¯":11973,"ĠÙħØ¹ÙħØ§Ø±":11974,"ĠÙĨÙĪØ¹ÙĬ":11975,"ĠÙĨØ±ÙħÙĩ":11976,"ĠÙĪÙĤØ§ÛĮØ¹":11977,"ĠMil":11978,"ĠDr":11979,"ĠDel":11980,"ĠDec":11981,"ĠDOA":11982,"ĠCar":11983,"Û±Û¹Û":11984,"Ú¯Ø±Ø¯ÙĨØ¯":11985,"ali":11986,"Ú¯ÛĮØ±Ø§ÙĨÙĩ":11987,"Ø§Ø¹ØªØ¨Ø§Ø±":11988,"adeh":11989,"ĠÚ©Ø§ÙħÙĦØªØ±ÛĮÙĨ":11990,"ener":11991,"ĠØ¹ÙĦÛĮÙĩØ§":11992,"ĠØ¨Ø§ÙĨÚ©ÙĩØ§ÛĮ":11993,"ĠØ³Ø·ÙĦ":11994,"ĠÙħÛĮÙĦÛĮÙħØªØ±":11995,"ĠØ®Ø§ØµÙĬ":11996,"Ġ56":11997,"ĠBar":11998,"ĠØ³Ø§ÛĮØ¨Ø±ÛĮ":11999,"ĠØ³ÙĨÚ¯ÙĩØ§ÛĮ":12000,"ator":12001,"Ġ400":12002,"ĠØªÛĮÙĪØ±ÛĮ":12003,"ĠØªÛĮÚ©Ùĩ":12004,"ĠØ¬ÙĦØ§ÙĦ":12005,"ĠØ¢Ø®Ø±Øª":12006,"ĠØ¨ÛĮØ§ÙĨÚ¯Ø±":12007,"2015":12008,"ĠØªÙģØ§ÙĪØªÛĮ":12009,"ĠIT":12010,"ĠØ´Ú©Ø³ØªÚ¯ÛĮ":12011,"ØªÙĦØ§Ø´":12012,"ØªÙĦÚ¯Ø±Ø§Ùħ":12013,"ĠØ§Ú©Ø±ÛĮ":12014,"ĠØ¬Ø§ÙĨÙħ":12015,"ĠØ¬Ø§ÙĨÙĪØ±Ø§ÙĨ":12016,"ĠØ¹Ø´ÙĤÛĮ":12017,"ĠÙĨØ®ÙĪØ±ÛĮØ¯":12018,"ÙĤØ§ÛĮÙĤ":12019,"ĠØŃØ¬Ø§ÙħØª":12020,"ĠØ®ÙĪØ§ÙĨÙĨØ¯Ú¯Ø§ÙĨ":12021,"ĠÚ©Ø±Ø²ÛĮ":12022,"ooz":12023,"ĠØ¨Ø¯ÙĨØ´":12024,"ĠØªØ§Ø¨Ø³ØªØ§ÙĨÙĩ":12025,"ĠØ§ÙĨØ³Ø§ÙĨÙĬ":12026,"ĠFir":12027,"ĠFree":12028,"Ø¬Ø±Ø¨Ùĩ":12029,"ĠÚ¯ÙĪÙ¾Ø±ÙĪ":12030,"ĠØ¢ÙĦÙĪÙħÛĮÙĨ":12031,"ĠØ³ÙĨØ§Ø±ÛĮ":12032,"Ġ750":12033,"Ġsp":12034,"ĠÙħØ¯ØªÙī":12035,"ĠÙĤØ§Ø¨ÙĦÙħÙĩ":12036,"ĠØ´Ø¹Ø¨Ø§ÙĨ":12037,"ĠØ´Ø¹Ø§Ø±ÙĩØ§ÛĮ":12038,"ĠØ®ÙĪØ´ÛĮ":12039,"ĠØ§ÙĬØ¯Ùĩ":12040,"ĠÙĨÚ¯ÙĩØ¯Ø§Ø±ÙĨØ¯Ùĩ":12041,"ÙħØ±Ø§Ø±":12042,"ÙħØ±Ø¬Ø¹":12043,"ĠÚĨÚ©ÛĮØ¯Ùĩ":12044,"ĠÙ¾ÙĬØ¯Ø§":12045,"ĠÙ¾ÙĬØ§ÙħØ¨Ø±":12046,"ĠÚ©ÙģÙ¾ÙĪØ´":12047,"ĠØŃÙģØ±Ùĩ":12048,"ĠÙħØªØ¹Ø§Ø¯ÙĦ":12049,"ĠÙ¾Ø§Ø´Ø§ÛĮÛĮ":12050,"ĠØ²ÙħØ§ÙĨÛĮÚ©Ùĩ":12051,"ĠÛµÛ°Û°":12052,"Ġ89":12053,"ĠÙĨØ¨Ø¶":12054,"ĠØ¢Ø´ØªÛĮ":12055,"ĠÙģÙĪÙĤØ§ÙĨÛĮ":12056,"Ø³Ø§Ø²ÙĬ":12057,"osh":12058,"aye":12059,"ayat":12060,"ĠØ§ÙħÙĨÙĬØª":12061,"ĠØ¨Ø±Ø¯Ø§Ø±Ø¯":12062,"ĠØ¨Ø§ÛĮØ±ÙĨ":12063,"ĠØ±Ø¶Ø§ÛĮÛĮ":12064,"ĠØ¹Ø¶ÙĦØ§ÙĨÛĮ":12065,"ise":12066,"ĠÙĨÛĮÙħØ§Ø±":12067,"Ġcon":12068,"ĠÚ¯Ø±Ø¯Ø´Ú¯Ø±":12069,"ĠÙģÙĪØªØ³Ø§ÙĦ":12070,"ĠØ·ÙĦØ§ÛĮ":12071,
[...]
